68 6E 29 AE 29 25 18 41 32 B6 BC D7 3B 89 79 59 AC EE 70 26 13 7E 28 C9 B9 69 15 88 9B EB 1B 5B 78 10 9A 5A A3 8B 2F 37 08 18 98 18 3D 6A D2 D1 59 CA CE CF AF D3 C8 30 69 95 8E F8 D1 9E DE 78 3B 00 0A CB 26 D4 DC FB B7 97 1F 81 61 84 23 20 AF DC 18 B5 5E 8F AF A1 FF 1A AC 9D 2B AE BD 26 A1 6B B5 EA 27 68 59 CB F4 9F A2 36 B9 BF 1B 33 16 6C 67 3C E8 6C E5 DE F2 2D 41 39 AD 80 5F 79 58 BA 13 1C 2A 8E 2E AC 5E 0B 87 03 18 64 7D 56 C7 C8 4C 17 05 BE 8B 42 54 8F 73 9E 41 AA 20 09 2B 80 D5 21 13 F9 81 FF B4 61 04 F7 33 F0 74 63 43 F0 AF 79 51 C2 F1 C1 E7 CE 70 66 1F 59 8E D4 10 F9 D2 EA 1E B7 9F 40 1D D8 0D 3E F1 3B 87 F5 46 46 3C 75 DA 03 6A 4F AC D0 D8 87 E9 F6 99 8D 0C BC C8 D0 42 B2 10 E9 00 F2 00 6C AF 27 C2 FE CD 3A B3 58 21 EF 0C 64 62 3C 2A 85 2A 14 94 D9 