memory_initialization_radix=16;
memory_initialization_vector=
AF9D4B0C91CB1923B5604C7EF39A455954012FCAD1FD0CA04D5A5556ED94B2E58DDD1C934E05D4F9D8F9C93A9C49C3AC9EDD0830336F0E8B11A3F68F4942AB77DD51E5A5A8113F3E355CF38C944DE45AFC323D0E062E4C39CE6B8C75C0074ADACEABD67A6DB35AF574CD7936D7518E4A99F76186F790F9AA94DB4373AB8A838A26065D16C1352474866A372CAACE19DD6BFA7CB565159E22DB0EE7DDADE8B397BDFB0111522E7F6D9B165C75F012643D49A3E8DD85ED758104368DF0C75F0ACACED37E80D40C6D08ABAE273822E900E723C9B2CC8DF9241E4BDD0098268A53795870DDF7143DA11A3A48A82D5620421C3098C9A02B03137CB8D932FEE79B1822,
725E1A995958C6485D2C162F61F2020B6BA4BF4371E0A7B51A2C6CBB5CB3ED1A657C872C3C528ED52E094ECB46FFE9CD764EA79CFB997E90C498628689FCCE88071A682AA81D58B5D30CAE538D359C375AF01601C758E01E632AEF89F18B999E9A68F456BE8242DA85F45A384DBB3E569ADB1D1DAEA7206C9A9DD954B99C66A14A60D26F03CE8F1583ADE5988800478C92BD5C0B16051EAFF7B75BBC61DD2F39201405F3A40FE79CEABE84C6073E8AA5F046C76AF25366607C8CBB333D2771367BCC90512AD5355B1B437AA29FA6D7FCDC91D28D907BA7D226BC5ED894DE8688BDEC043D88939E2DB32B4D2F1F502E16D53DF9ABB0979C3D739B2BB89D4560E2,
FD339CAB7DED188F9CE3A2D7DFC3E9B0FFC78E2F024CCF6D16E348EB5F290F87AFE9C3D788214C4C8B42137D720EFE759E4F3670C88124F3CDC6507B5D171A0AB7DCD21CA800CAAE4443CBC295C5BD04F3D850DC92547F3A6505009307C5025BEC0D5D337387993F4DFBB21453703A21BFC3BFDA95433884D4BE3D1E89D82727D8395A51476063F2B0342AB200F6FC7C1216C90B9247A4F3F839AA58330309EA819A24394AC9A2F11C367FBC38B849D01C8EA7BFBDBA5545F6D702865ACD6E8967AE257D829088FB27A0AC2ADD868220714EA6A163174625888CD447EAE4A07615254E89182E4B6B5C56E3526B1ADA392CD0556BD63B51BFC0A4239AB660A5A7,
F8CD9F16E7A86F7992D370713F7EA0AD3DF1596EBAE07623F91489D600C22601171DAE980E7806AF3E2D320560434AD722360DE6EC730334C1D3CC9F4725EBB6C8FEBE06DE40691B8AEB1AEF406353D83812B1F57C00781269A6FD4F93B40978F275F1CE5367BE739C3B14F8788AF8D138D09DFC18E7638E2AE611D5F717C959ABC1B0113C568430DC231A50A0093493DBE1260A6A836DBB7E159BD8C53328568946D3F6071E3CDD28049C86A940A2084B453398CF8C5E2FA7AD8DEDA97DAF081C5BC86B186A5A2A13DBA1B23DC9EEC6B64AB9BB7030DEA98978D95514E9083ACE7581C70F3D12AB3DA01F7A43559676C060A7C04CBD47FE1411B5DC74779D40,
90DF360777A5646271687E7572FAC9D042D06A891A9C19F544D8AAE59CD622D51792D12D4B935E4056F36EDCE6A8F4FEAAF84924299DBEB41D05378B8831D14A1403A4AB158891C49EBDEA3EBE0DE321F2BD7E84856EAD21836B8A7B1C7D993E715BAA47B30603614C3E843F2B6D64B44D79FCB8569C48051B81EF3D6719675BDD0C6FE859C206AACB59063EB7553BF9C28FFD8646298CB9EE4A6754787C690893601B791F05B814788214050EC97944F53220EC43FA618BA90DA76CDD47635FA08724D6481232B994AAC649E8B6A347BCD05A7E6C7BAD237CE89A67887B4F6615CAE9FC2994955A808509E4F9615FF36CCD7399E8D21FFA653291178A2B144A,
02B8ACC647132CA09E10A4D65567723B74CF912DDD118BF6FFC7CA5A4D4C949EA270850895D03D7349B3AE44BD07ACC3F9D72AF85413CD0DD270AE1B6DDD8BD5042D3AB44A60601288DE01C93FFEB3569D25DB0F6FB27DEA4D83AB9B6A2924FC32946174C6CAC745C2994332FF13085594682648FF2A83BF4F11816FBB39B67BCB0B9D83504E51528545928F114AAB2506AC74024B6D9B589D2D23E6E96DAB182D3D90EB70BEF9B92B80DF2B1A815776064FBC186AD5B280E782382EF17A0AB23BF7A3152BB25BBC14A6FC0AB356E670ADFE3C11935B12F6E78C5FFBB38BD55534F63E3B8900B28B8AF54BDB73CA6B1BE62FBA2BDA8041FCF23F07CF5CAFF0F4,
7B8B460FE5FB69C03BE0F4E727A58F411F0232DA26DDBCFF4B255D6B5A6DFFD38D7B422A5DD10B99C1E85C13FAF5531021093B9C59355FF16BFD90E7878014B67C8C7937B7657960E25D722B63EC3BB55EC8D1BBC956E9E4D281ED74E24D715618CB8964199029B2D384D3DA0CDC17B17D7C1450F436BC2C88B2A3F8EE80F0D76EAFF0815ACE5DB6682C4EF1DA2DFB269046D6B30FA97CB06B87EB1B25DE66339A65603E3811AA082F23582E0E0CC71AE768333ADF7BD06FDD164B69B03C73F6C4185E4255A0907F249A2C93A38DDA047563655467B91C89534CAF99144E8EA5C64BDD7CDE874574F4072D6D3484717B819C62794EA4383FFA5EB1272A28E1B7,
7936BB2FD06F26C8E34B2255130D5E0FEC68B8027DE1448F1A0C9F22A2C34127A1F96107643E72E47D2AAD0999D47F38C075C7A65824267D20082811D872E4D67D567C7A18FF135827932C3DEC41755DB9E8292725820CED3745C4C5D3396CFFE0EA5AC9893568DAA9378B81449A594C5F8E52D573DE3080E125E9838F23CB229A05DAAC3FED1E092D8BDE06094E35C5E7445BACD51B912DB1048ED0E06A04705BF8E5E2BB69277945810EF1096D917AA987DD2DE708A3CF03967430881EB49AA93C9CCBA5A60E6914565F4A3EB9CFFC51CD9465EB10190D110FECDF6A1A22C63942145479C60309C0B872F22D9E2FD3A160C45E41404687A2D835656787522F,
3887BDA3E4C651AB263A756848B3DC4BC4EFF397A15366E2678643EF9F3450C24A1019713B77315E07A1DBB80AA062FAB03B0203161909989E658AA661EA5F6E48338BE8269603B16378F3E7D86BC16DF67019896072E933C549FFA53A6662FF2107F7E7BD6E1DCDDC8D3283BFDB6E42D7548732EBBC41DAA508F8B5EE97BFB4225E8CD1D1B26AB0FD439A237186CD2122869139BEC2F5C3AFE79E5F4FCE7DC09B3C1ABDB2FD059D94B91FC1C3EB164F9D2E884D8AE83590EFB3EB2A4A2FBD5F814CBEB8BE7FBA8AE807396120A6F8F3F039BC5BFC38844AEA12FDCAD8A906B24FB46F8B7E51A93827234BA42146DA2BB0DFEC8053B2F1BF75582B059205C75F,
A838F968EB74D117768BB8C4219905F67EF8615329E4E2203BA2D85E15CDC2A82CD32ABB46797DA6C96C215D5AA0FCECC65D00CAB844A2C85903A95322C77934352A7134F20A3705413BAEF00613CF8B00D6C5B9234BF1C61DF9737E4F16AFAD2466B1C7001F8861A53E6D3B401DEA941320DC9DC6DCD4EE4A31EB94902767106799B4FD86BB96DAC64335D07D896DD72262357BF2B25C6AFBED961C4B61F9CBDBE3ACEF24B76777AC56EB3593C7E9F5F769C3BA4F74BEAF0425A4667DD0BFFA74FFF5626B8480ADA3D6D90F5B4348051497DD2ED7D64039FC8BB028D76A4F4B19A55CB60E8B0F9EBB2B1E48E25545D6232FDF30B317E07B7B31299B451237D0,
3BB00721E6EF59088F7CAC4A10999008B9982544A83D1B908B244D4869569CF918B54445A40A8611EBE18E76B98C68E13BEB2B66A93F5FF4DE9B3148B020B84EB1E610ED35C217AB75F902C43515DF76EDF9366D5C67A2113F619CFA7FCA932147EF46C777BFFAB17CB1BB6C0AEB228A81CC62F8AEACBE56D518AF9BF3B046CECA019980F19E1DBB6F32CA133BB8AE618DE9BC057E74C747D4ADC2308AC18FC350D7882399D27D8CFD69B915288C348C193DEE6C17EF52FDDF79F8D2758138C427665C76A93703D52312017573FFAD89EE41B1362E22CED75DB1EB36810BF825C0314CEE5A2073F63C9CC113027EF5AB3CE37E9D12126A32B340CB96201FBE2D,
1F6F5D036713D11443344FD9282B02AAFA4F812EB61BDBCA7177BEF957EA8EA2C5D9CE2D9C8797DFCFD6E68228E677C4D7937410EFEA53EEC94141417BE9E64F76560BCCE7A037BFF99C65439CCB58F2AB3ABDC07C35C22164E66D638D5442FF6458FF8DEC7E0EC36B0CF483081903400746672398E147488904AFF25E35D62DB460AA095D4E3C8F50AD5B5454977588591CD11AA89487ECC9523A1CD6ECDE2BD2DC5AD9829E91B966D61D7576193E0F1671B812BFC14D755835641B11C22D8CD3140E5361204DF04825AE9E7F78E90825B8D74D55B9A352876C0450EF4CF4019F25FFBB558D496E54FA6481485269CBA68CE4976D1E4FA00985B77F0B414CA2,
9B1AECC820B2EC9655E85E664EBC820E805EA797A271CA83107FC790DB864046729D0C5E3C3318A6C0F895D65F3FE6D694A595A28FF0433CB81AE74E890B2A83B8F18B68C18FDF7E4CA7D171BA9AEBDB93094AD32A66CDBBCB8A1B8FA55C882678FDFDDF23D1D5E6985B624BA801776EFAFEA83831078E973E4EB764DCDB6B55A09269FD90A9A00ED323A30459DBAE3883D6771FD0F627C6A84805A40A4FCFB2B3B950C2F92C47BCDD45CF41B8889FAB271C1E5D3637BC1574B68AD0786BF8F73E05EE62C9BCA8804206E42200F4221C7F77C60AC5A7C1B7A96586D7E8B3DB5731C2F8750FA3AE9327387C5FBDA551DDDE462D3FA5278BAF61737325338566FD,
352E5ECDD358937AE9A21C8018E058E38103EA442C4A3DF71718323468F91A2A9F7F9E72859C6E7268851C8C199C61A7F61C78968EA2018977943286CA9693864B692B39D8CC09ED43256BE4BD33B53B87A8DF4C543BBA5EB5414AFBFB195F93864CF16AACB507C9B59C9E822DF5D327CE1CE095DD9891BBDD1BF45D76FE2FFFE38D96A4B416D773682CF01687D43EB8191D236AD42CF45E3C69C9FFF3D6622C6ADA5BC198B6649A2F24D9A6D8A5085C2E4987D891D82701884BE64CE8F663765C60529C55466C18E9F32ED7E66C94E576FF30FF153E43B119D2722DAEE10087DB3B6F80CBD2117451BD12356F065B8254E1C89705A7E309FA7CD50E1A47B99B,
61AC77D06DAFF4DEB672E40C77AAAF8570628937DCC77088C856D4E90B977DA10EC517AB6113811E012753FE811416E4CD8681C40352471B86BD53D62EF8F9619AA9CAB5703E981E4E1BDF291312D3CA9A67C126BF504F299D5DC5A5DE6A6C10528FD0FF2A6BEE32CA0611E9ACAF734EFDBA6E42FDBEBBB7A527463504B3FF5982F66CFAEB0A2F3AB66F7DFAE37AF156DC60411D77D81FEF1CB0666F7C1F1F694A041DC0E4CC863265208A3CF307AF8779F3860FCDC8E41FBA0E866C7AA79D48C2B1112A6436366FA207FF6EF8545CD8BEFF171BB6F459DDE168BF6536778A179E68F0FE1713A11A9F102C3AB7F22A1DDCFFD502B530C76F8DF4753B3F778A26,
611FFC088429BC5C5AF00DC73DE30E10048C04FEE8E49BA9E17F701304C289D58653B325DDEEE5977436C2B01E8C1B43793882677F4DC4691434E2AF48D76243187D103EDF73563460B3D7F16066767688EBB40A34DD4A93901DEB45F0ED00B2C2DA73FDD843B107E520ACDF555802431E11BBA0829A6531F91B36B01AADB5BAD50A21350C03682C11D304C3697BCE7E064444DBC164D0DBCCEDBE17F29D97E9D49BEEBD813D8B6BB4F285006A110BF59F52CE73038B4E5807D162BA113A8EF98711506292F4794CDE232933F87BBBB0C707B90A2D42FEC328A03115B1163036554102DB8FDF80555F76E7DC4293F475B884A48842FCB83B5406F9161FFF8E10,
9A1767C17F78DF8A93FE5F0A08B20A2DD40AFDCE89A37103FBCBBF329B3A5CB9FFE4656715F2AB69E8A229B22BCBBDD66F259B770A19D1315805A183D33C533C2721C7ACF90B5DC1A68E948CC2FC71713DAA089CD9629F06CB11B239E8397AC312ED16CD78733A4E3F38BE692D35E025B584EDFEA180E0E7062C337884AFA5373413702C5EE33DBA66709713A525C5D1AA913D9E059A98F4193DFA8D23F082165262A894876848BFE875195B60DAE6D98A814BEF75AAA4C294D27EFC68401D837BE901CEC17092A386B4D8C5FA907C871641E60638870C8D9CF420111E571A141DCBDD47743FF623FF4C979361104767CD6531C0E9866B7CED14F25EE6CDC6E5,
8C7574C84D5CD8611DA7E2959EA86FA59F22E9FCB5EA927790479D7B2FF8BAF361F0130C6111F8B7E20D43671CD704015C968265B70C27701D2A170DD80D036C0B8826CE375F6CF1FAF22091BC78AE053821541E98DFD50E1DEAD1E47CB39DA37E937B20747FD53C42256848D7CA4C8DE0514448C0210E54E626DC0E47A7C683A4BD8351B8ACC3F592326B4B5A27B4FFC454765A7616FB6D254A6D167A9D2F0E5C1090C9CE315195CBABAE6F5D3BA8D3A6DDBE717FF16729014D01E1496287FCF68B32EACFF061D84F12A696EDDE009B54188C71F230B8CBE799C4A1E126E07664EB1E08F968E154BE3CD8FBAF7CE2BDB567140353FB56CBFE35F1493473B7A2,
8DBB94371EEB24DBA720EB9296AC0B5FA50EF51D7D98CEC9700AC498EA278ABD8267BB65F0AE7E9470058FABBDD8D5B34387C4A1097D023FC0A28DAA971B292A99E8341610EE004A85AA5D5FF9DA75939EC26CCDC6664F0244CC01E190716BCA923F1516CF6EB6FD99B5AA925A06A98593F3452DBEB3C9BE5236951849D3049B50EBDB3907E6121641B49C65E51A81A80CA390A22A9CC457FCB1CABB15F814A29940A9848AA851D7EA81BBD29ECB9059CB069FAD597319ABB13B3F393C928E0D8E6139CF8C49724E0E66CC5998D16590C37C72FC6B49816F5AB049586112ED887ADC2FDC8EA3AD4385EFF05BBA4C40B92B4702FEB0DC238D5F93155EC058ADEA,
2130AB075D717CFDA3B34EEB3BA2EA160DC0CE246582FF5D18E6F62C457CC03026EC508E2953D2749EC4925761784DD4C1CC1D244B6CB7EDC70244517C3C912C147E4C0FEA3EE707880F03AAA0FD890221CA5C694C86FEDD5AA0300D606D7B8537A9203BD096CB12F2A7F7021AC5B5E372508FB98DE0C52A09A651DC45EA25F93FFBBF848165FA912BC08F4AEAD53690A1D186A697E86C1CDBC6BFC259AD0E1DAA3A3481F4DF02D5B1F4CE5E5A16FCFCD936407810F96E1162DF3BAC3584E622DB91AEAED2C0C21F945C96CC05F1243EDE8982AC6CA4F83FE67A968B82F6F317D6802F68EF2820F2F6BD07421156DCE981432554ECA28046022A2AB155B58F0F,
0676A4F7D0560CBD8641A4336DA8984061C30FAB80897FA39E033BC95F8A38B41B1CD093CCB4A90A860C5ADE2BE71D905414598E90201398CDD847FFD69DD9719BE46AC29153164556BB5C79946AB764F028C68FE5F15C9A6585B8DC953AA238A231BE041E1905D089EE50E18E819EEDF0E078AE027BE2F25DA2E56A434D153761623652AEEA9184EAC31C9200923049EB0D74778E826B1C1EB74BE3663F048CBF082850699A7747294C2107E26AD9842A53EDDB2006374F0D44C95769B0410C90338CB55348E9FBED6C1C3F75003429ACE8979A5D68DC061F6B4ECC1DB70D179A273A95BE8362EBD74A85617FC45BC7B3F66951AE739E7249EC78A370232057,
2BF0C6E912E3A21CE40AA702ED631B472C8FDDB5FDFFB8A60F49FD4CA84EF55BFD30CF1BDABAA8051D761B2F1E84B76DE46D41266C3423ED8E46D34478E54847F4BB08F71CCC039CFDD0DE352DD1C666A3BB0199DEDAB2608ECDC8267EEB8A9B3D8C9D95D483F550C59A1DBE227E318873D42FE5D12EDC3E238F5427FFE6735BDF6CEA424AF79DD4CFBB3320B3A9FA91B1DA4016C321424176286D307AA4FAE91D8E39B16736E1352D611E8F23A2846F9F9C0D6CDD91C380E3CBC52850B14DFF7D85DB7E96EFC246E97DFD254972193E5D3C1D1AB9BBABDD359FCDB013565B848FC89DDD6CE249FB7FA2621FDFAD04BD83B21EAAD9590771D8D385AFC4641940,
DE540AC5B801CCA79C0E14ECD4FD1760F452A69ADC6B5D1DE7591560B92DDCB1BB558263B565E8D2483B2A695B27378CCF594549F30176D4F0280F2B8DEE2AD43E16E261CA15E1E84F5ACA69CE95207B5ADEC5E30D4208840FE1DF9994A7D42155C63DA3E4777AD06EED8A06095678654BF03BF93B93AEBD4DF3C21873427E372A0EA098E15008B1D0EB183EA6FE2CB60115851E7F0A1BA793A95ADF57B8EB99B41ACE34C04F70FA47057BEA5A331A1F95CB2B59EAD66E574857F8B722710D457E983FE61641F79DBDBB258F7E9034B60E7809997C9758BCE091634875355D11F2ECB91F5BA9BDA7CA1479053AF3B4A6AA9AFDDFC71046BBDE51901E5CC083D9,
270EA51284F6E03991C2C94A375B17BCA25E39F1C3BB5FD052DFBB8000CC098D9974B31756B951BFECDC2AE9B034925952DAE89F5573C50901D15E5DC86672DB32450FD6A5B2E2749518DF24458E5EA1392643FEE19D894048BF46858A2B70E18FDA3D24A302163B0F0F00D15DB9E10FBA2609A644A40C852CE5736DF4137A3DF978F60E5396CC7F0BF8115F798B3AA39753CEF2BB57FBA7CF7C99292DC6B47911290B9DAABB15296B57E5FC22897F1E7F0D5D61F010F583090B9B7C1F0B41A76FF9092C639D9546B15DB55FB1252B19694EC436C3D24AD6A344730F9A14B98C4B99AEB7DFF5E477B4802B0574B37432962642689F9821C41956415A55AA51B2,
EF8B9734371D48BBD14AF73BB610DEC9267FA8858285E9B60A82FFD70098BA95FD4A52D018F56AA882E61C6B3D9635D2C45FE447685E4E6B79F2ADA989CA51682BDA7EA7FAF43E587503ED8017600F68C90EAE186C4A6826777E63BA90EFA3D14422424256D6BBDAD7FE65BDA6D935CC4BA3382B9AC1D5A2502CC045063D1C34E31BABA6D08E338FE181DAA1AE4E5DEE761D1EF5CA36F1E65E8336FBA26F3EEFB229C8C2A9A492CB773514AD2229A9B61430E758FD3F45C1420F861852AF76A3FB9E7DE0B15A7A586225AA0F50C708B13F56FBB3C9FBB059F9CF789E13DD528B634FB5C95B0174BC40E4B5B1B26B51B753BB2BAC19478B945927B0C3E77A95A3,
D8A85F50CED72112C836CD8E8180078E009E4A4BF68CC29F737F333D275713C3AF4F75BDC802B51E02DAAE5A2695E381723117FB4601FB9D25A5AC0C55ECBA64A5DE3DBCBA9D4C1A2942615945DDBC11A498684F96923FFB9DBFAE7789C6B91D21A4C6D3981AE59C9997A5A41472B9ED28E78A3B5F4AA9B99A180F2D1E5BD7B59FBD775D0116BD126D930C4039D4C36E8CE36784395AAEE0F657578A446C3FC219056979B6592C0D492CFF2B55B9999871004DDCE9370248563E5469517A49B3B07A11ADD981ABC6012C42E54F3E931704C5866E588A5CBB30403E772150ADE362E730A2B06DEBAD932ACA738901079CE472B20029E35696AD5F50832C951EE2,
DDCAD143332E9A3BE7273428F90B6000278D1C2B6A8DFDBF3AC1AEF73E55129C182F6410FB8CDD2C4B56F730DB3322295ACB838EB819ED0447D0540CF651B49828666CFA8405128A4BBBA96B80A1B62C4B360791F94E6C4B6A9BC21D4031CE13C2B8A06E58638B367AB4C535F39E02037710DB88E288FF4E064ED5910F18811DD07EDB6D6E0E1A324AD2875532FBE4664A4191D5DAE6FDC49254CD9648461C80216B729949ADEE2E8BC707CEC38A460F278AD4295FAF4E0C9DCF4B7530F3FA1DC73D79DFEBADCF258B644D2CFC4943C5AEE02E4EC768FFFBA9DC87D7720A14F7BE3133291FB27065379BFBCB99F0CA5091CDA8629330A476B5E2A6D18A8CB474,
2E473FCCAC6776075B1D97B4D72959BA8BA60AA17E26DB3155756E59BF98BC04F5B390E1C3B38A9F3E725B6FDCBCB96A9F56FDC70D6F4A4E4234314F7DC2F17B2187C2A2FD2F5AC6C980B6D1F6ECC2423C5AA1340B9054A610D8C86932C4AB1D289455217C51A1FCA3A105D70B241C0459CEC177744CCE633A96BC25D7E9F628502A9DF335325B2F46ED675186135B168DCB719854F92A9D08C75D4651558A4D3AE99916EE654630D37590DE692065149D7CCB258D89FD52786C81D02C39316389BACB4477AF4D92DF24A90B35E4368790DDDF26ED8CC9D252EBE0AD5D9483ABF4809E7FDE776657A68CF3A3FCF9DC9A5315FF601852C47D79B1631C0BBEA914,
F21C6B6787018A49BEEF9C0EECA051223CEF2EEC8873166DE378F1112466AFE2F57E444312B32897C12CA0D2E778C31CE8A6F031D7681DD31AC3C4A6C74E40DDA1548CD4B0AE29772ED5F711FBCEAE95229C4876210D269BB05D0E33514CE0462FA2CF92A9F4E6DF7FE40B0B0CBC8826B5C2A31A39DF8E752563B04BA1099AF1397FD1ACD6F2475CE9E4DE3E44CC3A6FFB2D7002A194FF0D26EC6A4149A6CFD607A92DF9214CCEF41901445A5B17FB2F83A5890852523367CFF631B4194E8BC028FFF67089867A12106BCCB4E7EF1E9D36EE0CEA5486ED2710199B2380672009036DA6F93E2A11D4D71C7EBA88B1A214314B17A495A75C10970916C9B29FDCA4,
87306F45FDD4C147BEEFDCF86DF6313B7C82E09EE23F5821CEACE9F24567CE7CA753168E216710DB46922D22B4783761CD36722CB9DA2F9B544F35B681E2F77384729291277B1FE5DDAF6766637BC0D3E37188F5A358E2D91CC31D07E87A0B1B070FA5C7654C29C8F3F9B2CBB819D94218BB13A753531AEF4DCD370E7C83C219828338378F3A42155FE7602466BAE8B140D11C49B0ADA3B32BB57B25C9F927A5053C250BDA95A063B81C725A4811074C1D1967C07F8185C6E513C7C24E165C59C2A002D45EFC79E29180D77870783AB04C8FD219DE0C784D95DD9A73157E6E1BBECDAB747210080B58640C983302268DAC7B664CD3BB1A2F8C6D7A2E40860665,
AF9B2A715CB03D9D410C5E138867FCDAD16BD5BCC4480AD92F877AF5AABCCEFE67937F0148A7E56B833A3257C1B0F993C5A3DF5CD4D1EE395C53D99190E653CE320FB1825073CE8BDC022434E7D96FE825D69ED51B2F4F8DE51DBA8EE717C7320579465EB1A22409400F5DBF9631878DAD00AB7E35B8FCFDCA1A2F37B5E5FDC0A60EF3BB394EC3F9252DBB634FD853CD417072A8200B19C1E266303371579D943AD754388418821A101B0C5B7987AF0CCE60BD021A689B388E830B01378BD6E3035CA984A182D70E61997A17E3E81692A56AEED8163CCCDA353EA9F346B20798E4C0D36F4AA98BE31072CD00608C07ED3D36B0271B2B9B74C0F0AE49A4FA98B8,
24D83F874C9360E7C93A2E5A35E9E933D6C6024F7AA390C222889BCB90AE24094C5BA7BC527C3F66403AB045FD22FD40276E26EFB4598B2D231E2D6FB6304D777FC3C44E7A9FAC2599CA3DE994228BDF85CE28BA558F752D22B97A4EA76706267429C9B2812C8C2956424CEA5A94CEF070B1F8C74DEC66850DCFF80B9419C452C7C618B38F8F596B5DE0FD2543CC3D566FE9BB5F0E1F3D511D53B2981CE4C3C0B8A71B290EAB93D097DADFF4E17668AC52F0F31573555448ECDD94D2636B818B30CFA90A545F16499A1D34241BB98290A66C96943AFD46E29DF7F22D48B4BB7634C23F1E678F20383A2A25A13E79DABA9550CD76D30EC9FBD03BFBE7B512244D,
25E30A21481394F70AE257A43963E6D4CEA4B0EE693771E6A6C480EDC0A3E774CF52BE50E7EB0A92303B5520DF73115DDE75B0171F14FEF4A7E1AB23527914C86C09FC8A15C38941BF6DE3708C65FEE49CA21BE03F60CCC3879BB4A23558400462D07723F14ECEA063D429A91C6F2CF008E9DF43379B972721B6CE1D82A44F2E5BAEDACD4BE2EC65424CC226B7B1985D1F2B92F46E3C4E7E33496D5C2C2ECF6EA3C7EA7F56B913B5540954D130A5D853B27DC9767FC83AF9D2BC42D51760B7C9023BFBFA0AF4088A10EB4B3459474FE7652FC32265FB8219724D0318DEFBC544DFAE99563046957988BED4C49E82DE4394B7CFF0128F7C4D1C348AE303DE85CA,
064DFCC9AD88C9595CEEE55DCFF591494810397B7872B7039F69A3DC76A9BB33152F42C89F4BC1865BCB3CD48E3A32393AB715C716487DAA0F9B293CA31217D975A157C570D38A33CCE51FFD6BDA047B04E24B23E450F6CB9329E3043ED6E02F9E8DEE37E5241513D3830B72E3C7F064F52B9264757FBD239FBDC7D82176A351768E8BF97213D45E6D5FD9B48FA0390463532F28998A66D1BCBA2A2D3A9710B50562F96156A418B6FC3DD99828A81E8FE9B85F82968BFF34025F859A8A78DDC15C4328282988C635D27DEBD9FB50D7284FA9F9D278F9F9714A87F576B9702ECDBF50508295B4C7EC33B060EF3769A80BECADAE899A3E266D3B517D93FDC926D8,
07BF8FF716F77660809621B0F198B1E112C496FCCBFFD1766A052EB84316A9117946759AD0F7891E18B199199F086648C5B80F15D3C00729E7AC05C908A08BDD1EF8319CF25544D5AC1FC9D997527ED0772CF40BB7DBAAD960CCE2F1E7AD301828A53F227E5CEA16561C3BB503DFB2D3204562B29775FEA073B7DB29077961DE0AD1B3A25C50B9F0A2F11F843B0B50C20024F890136233A7EBF853E22C5F9817C9B6882E987EF2A91465C1EA849A96C2B2ABAB987F888B58D62214F128B254085E4BCEC2A8F43BE164C71A793F7CAABB8210708FF1196C6189074954FCF3876A465E4E43694AED0CA764F401178BA2B7E01C78B3CDEFCDF4FDDA7C2AD51D2EB8,
7D84B47ABF644BBF0EE296537B72E1B1AC429607477642E39CB6C87B22A1447E93AF7E301B3BB4DC09E0A38AEB8B7CCC2012F2D914BCB9C866DE852B5AFB567444FF9D7E057B5485E988719949230D1386B503BD687DA1662507043927E6DBD6DAEB1BCC148864A3DD74DCB00CD5863FB924456F210A3A326DAE4877AB5A8435A79E40376A59945CDE456F3592B74131E996A831B9C66D414CA4E1E1ABE143DA9C4914A8B7394B6AF4E003AB7A44A46FD6D64433682D3A08BCE5808FAD65FFD4C91A4D6480FC1653329B8883212F228F63536D9707FF94DBBA8550E1BD40395FDB453645DAABF8867D483652CB93768AA4C5DF96739A611C91D6323F8BCFBDC0,
CACB48EFDD6C35AB7CF416D949C0FBC4B1BE716FC8445F6FFB0C07386C6E68BA9E4D8F9D3C053AB2F1DD3AB7E272A00C72F753E62F3DF796B20F16DDC0206185D0CEDD1030C1ABFAF70947DDEFFF519557D442147C34867D065EF7C65FDE3AC892CF7EA27599F29D30F83BAC424CC5E143454AEF95D2053F8345FC2446AB781881A667A426DEE27C15A38EC6634544AD368327EE76B29C2BC3C3D9D2A8EF9CDE660EEE1999B4D864D637ECF54963CC7A0089C9DBBC882849924B84FCCB060546FA13D27B8A33F58629262F0AF3E070761C4BB8FA80CB37C9E1BF01D772F4A0651D6DC959D2DB421C48C1F51D1A8047EE2D71B71D0AE2CFD886A8C8450D947913,
A635E045B048FE9ACE0CF382CF8BDEF449A9639495DED115BA41CA12AD01BAF3657B1CABBD3F9DBD08E204DDDF1071BBCDB1156586AABE700C31ACC74BD5AE656D0D95A2E74ACEA912DCB8BEE3AAC071FF022007FECE86595BB069111A85F67C573033DEE7A493ADEE45F883F5743429AE616D4A2239DDDFEA348777912CE638769883E855A6743660A1AF19ABA84AD04BF5B059F5E53F07138EF814A36E74FA9D5C0E27597E76C4983F5DDA2AEF4D2D2C50BE394DBB0456C9C3A5B8DB6F37FB36A7B77EFFE705E6206A1508DA269FB53ADDD96A678FF862BB6E19EA1319937520D051792AA82AB4F419B05293727D9FD1EF0FAA35F0C76AB2D9A4E3192ECFCB,
5036A909EED1DDAEF230F1F9A0B01187E4CFC9EBAB7453C2EC55B7A7B5ACFD0E9E500C26696184A3101BCE7C238ECA9077C7AEADBD03236E648885F92A9F91134F44EB5AD2EAB710016EC739B6E1769F39AE3178E1CC67200592CE08644B79BE54E6B561FAC46C708529975626EEBC234138D29175B4C3D2C3BD37FA2D95656A6A48C7E96DCFAA1BC6A1EC4BD6778149EE3009A91E82FBB0EF006BDE3741DB90C634A9D5ABDF236097825A7A822FAF85019738A7EB4A52336E02EFAD9648F7F224D9FD9123236AB9F61E79B8CF64D6F8FA2FA15B26A84E31162205911E3937B9713A4EC4AA38AB5EBFB05EE47EC12016A40D397D9CC05B00CD6B7B057BFEE88A,
ECC231B1B296BBF55DF4A7055168D04FBA59B3FD180FF43A0463CB241DE7EA8E1AB6803774E9CF326024431BA45F056BA07E057897D485C77E5A773F3ADAACF60AAD19BE135127F4A2E11A55AA4D300429639EB9AD6A90093C1773CEFBEA7B428F220622DE5665F78E89002C6FCE56DBE8CAF0323DBC36F3C3AC5CF49C0402F18C2F053B8D649C77716A0575051C80C677F65981B0A8DAB228C401840D5185BF6150E20DE714DE58BF4E2386FFABCF46E2C736A1AF3B0C677C0F58779DAA235244D91449BD38D71F9F48111750D3DEEABA67801978A27B79E2744E94A85239ABCAC13B4D6E53F5CC82B1AA7DFF8EED32D9D6E960F562B33527DB2D8C465E264A,
FE7F5B4C515A0964E8F447DF0AD7DFEFD696A24B5064DEFE6E318B34546ADDAF9C57D043A2294748A60693A13096BAA8AF8CAE4FA2BCD38C01EB1D59EBDC5F71813B3D5E74C4B1B35B7B82D17DF2150516CC42029618B935C6E2153F89EED386F87D973B034F920A77513A57B7A392D69E84791DA894CA312BCFD246D09566B7810A26450D4871BBF96C2E33C7EF196FDA76C585E0236A80B48494446C48DFF7D455F56049F03005A045906412B3EF9212AFC3FF8E3F8FC1952C27CB7E57C872EEAB94684A1FB4D7A035287B83746DE4155F6954135C5D9C0AB1A4D9A8AA78E16CA6E04E7D5B44B7CCAF15C955E04C6F3BFE7D86911CCFA2ECF878CEC4089429,
42E814E57EA46E92ACD352DF3127ADA44AA537B9EDFE306F84EF57E0FF65011ED52D8EB64E0847BD35A6C54BC5D406617AA7A3EA030830DC78158B631E094047ABDE22E40EB374176EB0C81D6CFC191F3A5CAC8033394E6C3B9C3CE3D7DD57721F879353178F68CAA5838D5B11745E1F8CB553FF049826FEA8BA36289B43284A50C81D172DDDB8468A78899DD231F70537E045EF4C8D051795387075E5D420B051104FD8F15C7D4E1133FFE042669A8C8FDDBB5B26FB8348981E6892B34C90E6868B8E1C1BEBE7CFBB808345AC6B54972CCE34D1409AEA9CFB7427ED2AF23F22F11931969025E0D69383763B5972261E4B16D85C6FEB1B93E104FEC5DE6D5130,
0819B6F47DD7C7F70C3E6F156E3981C4A8040A29BE3A11F9A2DBDF3149F437A8B5E08D28D9D90AEBB7EBEA140F3DAD3F3C42955B1074C921034DCC6B005BF1F680A9455BCE09A63B8C3A47B466A9AF4C63F9EF24FD17366094F02F7FE3D91694FC5996D23EF3DD784D7A6A201A7D9E2FC1778CC7A3BB009C64C4665F47B474C2C7B5ED561496D52023FBA5293E9D067A532E0260E758D21FA8D34BCDCB1C5326366D40729E7D183D2A3520EBEADB2B27593416B2A09F07BBEC09D31F27CBACBE4025DA2B5A7D1F4F1B09762B07A07A73908EBE8B1898322F1363975D75C45BB9C25F0CD474C146F92CE49D81AE2188AE8FCDFF814FCC4A17DCD7EDD20FB0F27F,
8DE7BA1A85D68183EC3EA78E0E45A1D98AB9C7B62BAA907A1DF9C824DE90B9AEF18B27B0EF7BD09C5D1894F836A4325614A3D808DFCE9493099AF511AA5004BDA1D6819C03EBF6A51721886EBA5A2C6515ADC9C4CB505C79CB71B7DAEFBA679367CBC877D2D23C2C89843D4D7A78391125F4A81D7A18F98AFEA45C6A4D5C7BDD66DF740E482AD51EDAE8322D48FD591C475087CA2849CE91DB0EF978112BC59807B9ED520BDFF1959F58FD5CAABA39C66D4B7ADEC7DABB98F253BE320877B761DEEF35AF78106AD1720F29243D1C294B8E35992935688CEAE70F85A86DA1AA7838432F2FC9FB0FE85F20E816DA86504C544B7F4586225EF1122F7EFED2C0CB72,
79F61955140AAC4CFF3DE6A77E27A68199EA3E48C424796C5259C4058CB1E2D3B4C2B8619FE82E388D2A007182593A510FD4D9CBCBBA8C89DA5D9FF3962E38AA720634737D988EE6E9F7CF1AD14F7487A99249A227A191D381D037F0E223E6E0FA4C55C7F5FDB2A59E3471D73C67E0E761B5288201FCB69FD28FC76ECA636D63B7129170ECAB887370977091884B3137A4754DE66219433D18D7538BA97748F7D205486C7CE60443D7094073B79AC16E25AAE4E583D251101E43684179A76B2EFF2D0AAA5BA5280B4F6878EB7735814945207B8B2D237BB7E3248AF443FB6946D5CC4BC34DE7A92280E28CA6AFD6C22EA412DE69EB603AFBC65466D76C9A48CF,
760C5FD264177CEF8D1B8C4C33041E3309787855D769745D5F79493848968F04C8DBB46CB30F47FF1ED431C70A772926805A7BA778D2BF77CC13AF5D43D7CAE00C38DDC68D28D49CCAA52DE4BA2973EB3FE61F0044391883966A6B72FB43DACEDADEABB5D9C9F9492EF8857C56286CDB1D56E6846630DFFCF1FE3EE346CE93B56DF290175E5A45F964B65828870E7F2DB8D70A236AB2C039FE54379030F3102E5831F0873E32BB6A096D1E43DA579CF91E10161EEF20A2DDED337CB1E17AF4FFBF365E6C8E95F21FC53FE9652E11360C1486095DAC754BEB9A8DB462AAE073C3FB02D23B0F0C81AC85009FFF98121327DFAC66A6D972EA70C4F7B16076231B7E,
74D7C3CB9D7FF5FC86C2F8C1934DDCB458E6D47D888FCB874684D758D5C7FD2786D717598F34DCAAA6F3CB89E9B47F19CC683233D4717C954D9634060A12BE0867D50A18DE879E6F4A0F5D831AF86B33FDD7CA813521C7C1B8BC757EDA392E1D23DD70A812C8C9D6AE4D055B110C54C4C8F464BCEC2FEA7A435226498A07E3D2C6DBC6785E5DEEB24BA574D48924377F8A374DBB163B8F0EB636E4EE475264C069597AA42E1195CF8CF37CDC5AC4632181D416B3356F4FB510B805C69EAD1CA02A0D6FA4043D03DDFEC8E546FC3E80837738966E432837B3EC4E51BA0C8E8327575A629B04C4F5F48D6E656890E6BD8068A5B95687FFD03E5F9E62A50816D438,
966C99C1AF9CD718067A66D6655AA31ABAF9F9076533D9C5BE93760D4991EAF06E852285EDCFBD8E0111BCE5C4ED62EB2F4B1A75068124A74EF0977C6144BA133686F4111EA1E641CDE30144F88DD59617BE91C6683C4B0BF1B06D9E9807994E2328C6CE52B4314430E7D96CD2B8ECCE0A2CFE4A241D8260A573C9510DBCB0CEB6B5334F905BCD1173A1381CEF1F7FFDE25FECFCA99C388D4D9C0E2CFADBAA0CC5F79DEF0DFC936D53FC4552707C60C8169028E5ED201904F56C1D34995620439666541FB010A596813C235EE78E75BA88FDEB67C1A23DBD1AE2173C8BF552706FA125EED86B4E59CBD2FC959DB59E1F37C6584DB3A6C5911587B6B447DF2375,
58A0874166EBFA40E7754184397C11CCF35F414E9878C091C64C2228D621D3FE4E25EC01D3C4F5F67ABB1F71C295CC069F3E974703C86653A1AFCED7F3CC199283B1BD7DAC1E3C2F57664E50B1D427348CA3E1DB12B6D47E1D601ADE3A65723ECDB2592C30D3D864C057CFF7FE26EA01F544F754454E8DB03FA7F9503CFD03E49CDA8626C3E209ECE4E7323C54EC0B81712C62BC4159963EDBDA8BC15DC6A57A6FC16A08A35046395C2C3F48C2938B2FC20310BFE7A6D4A6042B7F0FE221F03DBC9B9B32C3037E1EB6A7F342BA8400D8AAE8650FB5CFADAE0CDC36734C5551CDC99484CB8FAFFF2DFCFA407C48A49E2455F27ABA8C7DC862CFC1AEC491267D69,
405BE20EF6C9B690DB266B6AA5675945D7B4383520D4CBD519BB8DF00BD61713DFE8D4F369499CEAAFB97C38D43DC1A65BD9F1CE777BEC4E5B24064819CBA9BE78FDB6E0AD7E9BD6C3430C6868E8C70539D93EB12E31F461D2612347400E599281431B1821DEAD390C8D17F2AA6A24548067A018FAF3633FA02190C9D6D2FD2D974A12882C60695701A11F121F50C461AC80BA51918BA5AF7CB3FAAE2E72960441D26D2D0D291361F0250E432DCC87B9AB8C587BA100704147368DDBDB3650FC75DC8BBD67EAF6E97E73B0FAD6E32FD2901375EB2219B39AFBF605DAAE498BFD56BF6C68E196F2B74D159E200873840CFEF701857BEA4E72310484686485EB09,
5DE341A5A744647A5DEBD5FD0CC33D266011000AAF64DA741A8C2F4E888C813C5C6C38B24EDCFB9D4C7E13B5A5824BE42F93DB2560B18FFA2BD5920170436C623924E8130C6F1EEA5FBD51171822292F6875EA8EE7445475EEA7CE56C81FDA468B45AF312225A64AB603C77DC48D314DFD0482040AC815083DA51F87781C09BA37037C786421CCC02C5E025DDC844698A73F4C4294F52786623E7805F51C98F078B0AD648FF02806AE6D4809524DD855EF74BFC58545CB89ED119D1E3223F8EA9FFCE118F5486CCB1110777D4F7CD29DB836958E93B07CD4C7AF26C1FA50B3836AF59248F0499BB30C09538E3AE3D67320E17A8E9D9CBD5043140D940ADA6A24,
89669E09B9E8BBDB712B7CD4A001DAAABB4831867F9AA3EB3BD90B6AD626EE09B74E0CF7F60344A08B29BE8174FB62AF01AB14247AC7FADA916EE8BF3C4EDD1CC67A4BF6F0F97ACF7C8039453D2492FF32F7571759C478758A71A9A98CE6D4255FF9F72BBA0DCBC671CD06D69FD08CC1AD8CA671C81E175245EA3D67D4847735929CFCA2AFC263790F88965FA414E83511634DE22F856CED8D2A33C5483D8883799CCB112F118393549B5F22F2990AA8A1601A7492B2C26AD92657649900030E71B86ADF0F66991AB54F5D8DBC4C963268EC9B5D951E7C9D94869C832EDA32A8147E4858A2B21D08336A4F389FD39B12C2C7A94B59DE1E0DB72B4C4CB1031578,
60A0B655458C10A1B2EC54182C2D18160D8E7010047DEA667297673019638FD44F4D5B2EC90CA15F6C24F276B8791A0E7D1ED3247988C1B035010EC2942C52D942E573BF44C8324677C7AB9CC33DBFE5970C550F59AE71BEF30866B370FE14CC10C31F5A85B6D875C69EDCF02BC9C6FD1471923A96992BCFE7F6117D63530687D16251EEB206AFD1FB132D3E362D150859E0255A116BBA68B5E6CE73771F52CACEA92E6B3AD4E02191F3CDCF565DA37F2171A8C45AD2E12CD7061FAB5C38D5E29D139D1B73A5AE38DA76A6E2E39CA9DA86E847491C25E638260F3A01618281C95B335D99604A1D3E4F47DF0E999DBAA30998B2180B5F79560A5430BC2BD85162,
E2660893CAD8B1E00A36BE2F13D7A318538BC244B2272CF6D7A05F2F933BA767686131C9AA478D312D851254BA9DA279A9A15D54AA9DEE04ED14F3C55D8BD734F20E2CBB0365FA5B81320FE644398FCF6BA045EC1968B654289847A922520F36FB530A634BD02C623A4D8A443DA046E0CB3D3FF7F4F0BCAAC141D9CFDADEEEDAB533337B2721F47BE8BD73A7BE21495E61CD96F7AE51F87856EA5314C50C0A32850CAB138C513C3977346EB74F1FD78682720DDF7456B8AD558C49A8F5D3DB2B0A959FFFFF4DA0024E3F3157EB5EEBDA28CB145F0B27C1C23064C3BCE11C57F45812B0376DCBFD54A271214EB1DA9BFCE7657F6C224A0C6ACEF3FC2AC84BA2D9,
8A59DEF0D37A802A4D859D321B0A66EE18A372A4E5C6AC282B4F0DBDA9E6C7FB22516AA3C601D33861B8612D7028485BE2D63ACF01827BC34EE583E578BF766E23ED5953C743E754F7E4830310499E0771AE3B81BD461D98783C7BE8DC90E8E68E6E9C7E61907AB57177CF19B0FCAF8B98E2656FD9A09DDD0BC8FA04BCB80949036ED730E8D5E083542C893D25E8F05C396BF380B1819F52E87E4FEB91E67DB75177B81E2DA7CE31633A645418A60315BBA9D530BB8FB75F0078BEDB69A270873754A17350F5F276F3640D0EE34650A384679E1B7F78C19567A81194E7E80B6B6AA8BD4EB63C3F3C5D538F6FF35ADC13BD1DDAB97E6D51DB10118AEB1B6CC997,
428D4A5BCB30AD67709A1D4B1BA31A0BFBD7695FB4EBFAFEB5B50C0E72E1CB9E33C211CED847C020F52A58751C01D7AACBDE02713E032EEF1EC4EB52DABB285C464EE9D0D109DF1704F89ADA70F0037DF1E5399A11214C5466DF7BDBB30CEA731323F2A3717C82F6205ECAC6FB8EA8BC9A84F7B908C6AA750A283C3F35EB538BCF052D728C18AAED04B16C33637C995A6DC5DDA1ED9803EE552F8B51586E8F9E431BF00120D0B466EB011CE3B00548C13DAD8803B7E224211C18FD22705C49C5FCB5E18678F3050AE5E325844E9177A32E51D972C033DBA5B91D152F0E4CEF499E414D12B9D0E35A282A178C14B239DDE83E9D77D9A4D9D28160BE2E9725B82C,
E42A9D76A884A187EBDBBBC54988CAD3DD4F61FC6F147A856EA81E62E67EE0DF3FF0D070D4D007A8AF8C18F7B0D90684C40CF2FAC33BD92ADDA980945B0753639AB407B2BBD4A14A3334CCD8BDF430B3E8407E1D9FE6A76329B775365B9C7665538C8F41296DDF834A99A55EE1BE6FF4B9B50E5D7EBB5C40190A40C8BCC9BC6B83C253CCD255DDF191DA8DB45F9A2E59C96CCB71BFE603089DB27B27E3EDEC67A9DFE9E44296520CD258D1EC7314D9BC41C256591AC28718E4935A9DF64D84500CD82BD003A9F7EE4B09B6499B3AD886372DB27245923BC868BDCF773223B08628B297A0F150064AD27B1A1297FDBF500AB985678BF9706F99DECD3644F439AF,
5556C51B213866424A081E02F7409ADBA2CAD326AB374B06066AC2D8FB3E96F8964F8CDEC5DF578EE8161702E0295538082F85AF0B0A2A69453BB7AAE0ACDCCB3F93A672EA06DB6D947B5F3DE0ED900B98BDE11779B63D19CEAA94DC05A2A558E957A4768F94A91FB441468AD311A99E838FA993D2E1C576F4508B20A0149EAEE6E16A29BCBDBFA99EEC0FC0A0A940D36E4E2E957AE4B7DF7E2F7C0C9A5D318C6712145B3D76626E88F6959E5B51E73232E58D6E1A3BB09E4AFB811C98AD0A4A01E55ECFFFC2EA92C4FE870E945DF83C816614BBACAE4BD77B679A2CB0974CF99F5F99DE6277C17AAADD63C3B160AB7004E9DACE894AEB204FAEF59BBACB3EF9,
BB3B3C8F25BF700C20C237715415DA1CA7D62C4E8573F1D6EF01AC98CE89429C817630E39117F137C3F2AA11C15035B75AB021B77BDBCB6A83AF7BEC3A0CD7DADE4FEA6A5DFA773CCF85E0480EB87804D4D2C6A43453666AC7EA907C8559637907EDBC6F1C143047C18A04EDF5A7DEAA471EBAD0A8BBD8433FDD35F963EAC16E531C93CE80DFA029A06007D145EB07223A34CC94F42852D3FA175FCDE4B168FE7E8909F867C7CC455B30CDF16DF983C7E3E1D2BE38882474B568E3E38131E844495027DF2EB2977C570083789BF62F8CF66A8EEDCFB9075858169AC39C64B362DF6FB03DABCAEE37940687CD56E0C7D54394FE39A528A641FFAE73C6576751D8,
8B925A2977EA3305D1816C9962F1E732FF574CF448CE05EEDD5F7EC15C3EF1526E8B04861E24FC4026F67AFE25817C16D891A62AE849034F80F8E3160763DDCD80332B2EBE954B361A6923FFB99777071E4F90A6C23ABB7C1D23DA1014EF6BAD2CD49EA5E1F5C366332EF3D4EF3EB8FBE49C60C788E421AA4D1721C81B399A19298E162509090DD886662C6672D2FE350DE00D5580D364110A834B2A3EA39A3E2324F4E82631FEEB3BB00535CBD49C2DFA99D835AEA91C68A324B162F8BD9D396C662FC155EF773A0B8E9DCE92F4DCC44D301B0191180ED0CD0929E751DC0E6BC7D8A2D442B1A644023EBE17E594BD363179A90929072AAA20223672583FACEA,
952DCDBC452E33E322414923ACF1244E6C297F899C672424E166E5C99ADA96C40EAC5E4A2A0765DC4D6E49723C8223D94A9B5BB7CF403A4EE9FC9264794ADE2D8A24465B853CF0937F6371B38CC8A16D4B9152A75463E01AB780072006524992B201231BF9E7AB6DC520E341599D2BB276BB3EC885E71214EDA6DB84734C3F76EB4A78E5ADFCEC0901FE2DF1F53240A75C34029AC3E1BC976819B74C90CCE1F83FC783E8FE71089F0C838E7B6E7A1E0D927C8EC696C54A58398EE990EFFBA4E79392025B250D2B1790BAFCDAE4DCE62273443A13A48CDD94AF28416C1EF476E8C82928BC4BB1D269E2F1B849F3FF770ABB30E6ED1D0F1EC06A534F3A976FE53C,
FCC0E428AEFB37C8787138F5804D91E2E1031D9667CA179450B51CD03FC83603671753E483CC35B72AC0C0D8D77F3498B04E07EEB95267C34DB51B8F6448351CFB0875086A8570DD32BE3E90D0EF31ADA710D8739FD2A447BDA20DE1D355DF580254EA0B791DF26D76ACD300F5C5AA27CEA6214AD4C94F293B31E0CB854031CEE6F570CB7058FA76EC4F7990256C958BE652CD26D6D6C2899B1211AAAC85487983D482B4E889A609837BA3D0791C94583E62698E076F518D3E84F4D308DF7E32D31FFCDCC3EE3A40993E09D5DC2131165341BBA3AE7DA561F9208D05E051BFC555ADF37C3C18F0B5140AA92FB85DE6F9CA681AA78C2EF946660BA7738FACBEAE,
9AFEFA8804E1D93CFDC59EB05B840D34A9F719B16D7C273F58AC880BB297F47D9DD963D45D4071325B8D57D8642E413C2A5C1444EE99A9D9C57DC2DB80C7BC277208D0309DE897ABDC4DD38FF9078432B548E7C0814D6969E61FB3806FFA3188E8B1EF51E47079816170D0D4141038AD17C6A7A5E74C9A0C1A9B0C8BA6B586A978734EF6CBB135B3975C12C2B83DF0637618AD97000E692D7F17BA9347861F020CE90A5AB0DA5F764E2040A5C9C9202B9081840AED6A3B96591AAD1C7AC6FF44E82C7B75DAE6E093393B61ACF0F3EB5C4FB5E4AB2E5C75955CB39947A5BED5CAE1E0DE6AB69279FC699DF1AEEF8EEA2B995F396CDF60202C2C5E994C4DB65FA3,
7EF763529C99DD9182D56E7A96528ABA7EBA6BEFDE5AF27957BB2DD700EF050E174816650F6040F198299741DFD59E3FE047EA856C4076FEE2D36DA1C85B2BFA903B182CF2059BAD2D202CB764773C5E97D14E509A977D3FACD2B9942385C2BCF325DFD6754D2366D94685D0A911B9E24CE6D2D0FAF37EC29055A9717EC00E0D0ECBA8D3F39776E36221770A5A0072519097F5B660E6F7093FABFD621497937F7261055819692EE5FCE0187EBDF7FE5CE980C42DD9720C189D88EE7D1D5386F47FE6D22FF6ACE4123FED36ABDC19C43F15B3BCB5A5B9CA47DEDB3E547AF648EFCE1863A6BFACD3F1619AE7CF48DAC83FE9C79A4D70CCD9CF9CDF75555BB1F4F6,
2210EBA46C5F15CF9489969E391497A97D250FF86FC244017A57AA13D603DD68B6E5AA545527B01624F3B0EC7E05556DACB7114464337FD4114B94F979F019C66FB84A3AC8840D8048EA41BFFEEF17FF0D2E1E6694CC0B3FA568C962AE57273D8B4A9EAFCFBC205B56076001D39CF9AE163464D86F71DBA3D5E1400276D2CCEE299B70A3CC32CEB003ACFA4DBCF6D65E219027C6B0800273EFC45A14D6B363AB442380BC667917CD68D64FBD1CC5440CC2367CD6DCE34ABA68084E699BBA4054A1B63448D0E29C81A8E8BA3D12C6AA77DDCEEBAB007F522BDC7D483BC4249DF30CCBB870EB17668C0EF8A338DAE4A42E8A442B7ADC95D95FCBD7D68EE6E8A61C,
2D6738A7EFB37A133AF8238A248E3143D0222B3FB439BC9E6E0D66C5A441CA7AF83EB2D3F5F2B7D211EBD76D43CFB121A64C498BC06FED28FC90F565ACB4F37738E96620DB7000B8157E2229FEB879E0BFDB4794E08C28B38F7BEDD36A85163AFA7F611C7FF3E2379FB1384C63D37564F017402DE04FB178916900B7FD6B2192DBF9D201BD6530B62D86E947DE2363CDAEEA9E1DF0686792A1B1592B55CC04EB9FBCCAD394757CCA3F0B6C8C2366E52A1D97A0F5885FF93A6E2119BFB2D27EDA68BD2E100F7F58EE9708D28B45B4B5F8BB6E9FCC4B154D95D1FA5D9CC7C8BC3A714864209CE2E6EC1E2522E5CD82B7F4BCDFEE8D86E9EB911A38997E9D3E0802,
3DC72CE8038A55FBD246EC259B2A859B653293BC3958BD406ACEB5DD75AC059741C12DCB81DA9A62DCAD823AC8F05F37C09390D8C2888ACB07D6AA408D89C6E4665A7B630ED3AAEABAAD7085027E3F54EDE4432ABAA6698DA5DF0FF60FCB210334485A115F106C634AB3D670F5253629CDA56761B257B3321106645C94F182746E7A4711FCA086933875061024299CE7E24CC760123C935995961F01074E2E095564133B593DA863D42B272E2B433B195FCF7078B6629104953CC9138FF34667D4D08468E7F823782A1AEC048D49E9B8CB8A672CC06A4A954C7128DAEB83E7C4EACA134140F6DF27DD9EC5855B2234F61608D081CAF20695DD60DBC48EC7AEF4,
ACC12FCC5E112559336D13E0585D8B7392CCF0482522FC3C243EB5E1EDAB2C5F62D86981D8C5432B540AF0930092D08B6A754EE2940E693EA3975DC08D9DE06555FEFB103D930E388B51B2450623FB0EF8EEA0AAABF4B377D9408A3B11E0F17E7D7146225C17388D9A84E3C415FF39A0BEF5D561F7CD2CFD68637648DB36C18D39AD8632142C0C2FABDA5955F57E43D893900E64A9FDEB4DE0FD745BA3B2E700507E66A6099C112D38AB694F85C86A63546DB362E2DBFDA4B48A76B6759FCD329F0AD5F9100E97256C462354EE529A54C2B5E4A38B672F5786A09B4FCBBF0BDAAB86AEE07459C6E5E0028D9BE3C57D49CADCE93D4EFA4602C99011C63F3707FC,
0DDBC0D4E7CA3E1C81DCB440F66976296FDF36D7FF9577A880F71FD3C18972E3A7F02F6E3BC9064F0A26020B4B46F7330F2C4E61A3E51AF6FCCF6B8F018CD770E943FEB8801F69812F8E8105CA19C85E5A0C6EAC4BC343D5AE77CB702A546EE8DCF7ED56FFD31AC2403AC33E62B193A35ABF27DE4328017B4496EAEC2A6F72A030C816374555D785D5A8DFFE39B53BC691A8F185CD48C73C5B7D580A1A75A6ACF7189EA47B54CD35CEF6CBAE6769DD8B6BBA0AEE910657F8C50115F71CF175B338BD0D7048E697F38643FD7A1017F3A6E15F6C89A1CAB87479DE915E10B66855E97FF6CA645DD8F75FA0DCF40AFB23C4EE25AD1428CECE14432A916BBAE396A8,
F4379F026B05D74C51E82647A10253F539D42581898495F3CDE4CB06D18CFD1EAB3C9BA306F9A070E285A2C4F284261793ACA6FD8E1870486A7603B00D1647B27591AFF0F189167740B36EA073DC2A184470F09AA90F45BC3AFA7479469B546F9627186DCEACFC9C140B7A0C16148D99E98F486B3280C9904ABFDBD99B1004FC4AC0891B1FB750EC3D0E071CC8EEDAA208A14EB7ABB837FE47A331562DA4B043743FDB5893DD40D8FD2956B1286DA7708A2D425CF1FAFB7CAFE4FC3CC119CFC7DDA0539437FB0385C9407F9C91D3B8E1A1A6C78231363AF6FCB1C17586FF3C3FEDF4EAEEF591F811D9960072C2773D9D21727A6254EAA95DA522C60ABF9BDB0B,
A92947D98F8579AA3853040D031E8710B3EC0A7083102A883FCA583B9366FBD9301BD90F9E5574109712F2B3081629AD37135647DA820A9133D12B6911B6F7C0961B0E787D9C48993EC67B2E86DD17D137924687FE8068D0D158B34AA3673807CB8C6374216DD17350073E8F7236E2D9B1F681E32B6FB90DEF1BAED985C72678ACAFF9A3811BA62E499AF8444513C470216BE8BBBFE7C35F8AD95B4F5122AAFA6E7403DAE34BDB2D1E1C65842EB164BFF11BBCE5C5E1682F8E63F877D5DCD4F3AA73174D683665CF1E7EB79838154273128DF3C8482EC895DF341A1520EB0E18A0EB0EFF432BC9A4B6A983B83D80448A57F83F7E2232F9D37CE5C661959B8B6B,
F87794A98169DB22BEE623BB621621732EB27AFDE1ADCACD027AEE85427F05F065C6BF206870788F22FD41AA8F57C7854A9B3D17F02D25692609B9700E45172EA172C741E2257916CC5B042DCA8BEAE18CF841A6EF27172034F519682E7D13D30DCFFF3E61A372DDB6CBEFCBAC153AEEF9FFC610CAE7A01B77F1B9B41E07E9C03158AACE45655D96C20089B9C83657FA8A995AF0ADBAC4F2AB13CB649A80B6C66245A5C21D8DBA17FDF6EA4BB8F4E8F0D42E566F8D680253DACE605B7CBB539682C96F348FA63CD118790C98CDDF792486EE32D2361A19B7770B327499E944401E4EFBAEA4F212607A0D72AE063483A67C84032487B6A0F9197B1070C5F3FC0C,
03577921CF6A192849F6C89F5643987E188F34860A512167FA57D005F208C45E5CEF3BBF9F33E741EC68ADB9B7EB4995B8B9ACFC53D7CA9819C61241311EFE6CEB3F6EC71531C4D25253E1EB193C26FC38FC4409B0EA1323FD27923125336D6684B8BA9CB4D4ED78F4DCED4F1B2094F20C44D23C9DD207A821AA374D08777E1BF20F5B5B724BD65D5A0C153D76FAE70D738FE52676E668279381578612171D0378D3297316C09469C0F6D4754732B86FEF30D0164BF989D8ADB1F77E33D305DF338F6865373D38DC213FC3716819090BA43CCD579232D7586A9D817739A4C58F54B4B147565FF6ED12C9EBABED0C64DF9BD68107FEFF2E1DDE6C3BD7B2138794,
22B1084AE37606CE5A91E9C1835397DB4C905D026DF3D58063830D396CB3BD4900DF83D203717ABF47529BEDD903CC6815ACA172EA1A77733FCCE39F79E5E1AAD97D24D8D89FDB6054C6E2A02EF2D0D2A664FDE893F73EEEA095754ABF566C74019AAC2FC8D2596C679ADD27E35645BD6F7B18788B99B36CA15924BC645D73CA134ECC76DE0693EFA1324B28BE264BE37877252A2CA1093537FEEBFCD7714CFED82F0AAC93E6D624FAF899E7BC4C3D15776B0769533FDAE6D1C67B876FA441DDF307D3876C6871C23A9D0CCAFECC4632792B6BA61C70FF3CE16A4C7D3237F41507734F06838DD4C9DD348AEC59DEC732566BCCDA0C6114205ADCF7CEFB48EE07,
E34492EA8B9CEC7046D6D3ECE98CAEA0F1741D7AC5FE435A04401545B6AD1AA0E2A41E9A1F048E96AB9D133A8D7FDEF8907CA3136F15190C58577491F17A61F4DADA3E2527A8E6329CFF2F8A1FED40177C2503EB6E826221CE34D1318D28C613FF95309910FD41898D1837A73AE901221F27A9D637447B33116E273E7906D14D7C510A5F32ACB9B9B89CBC56937190833AA2AEEC0D552F17CDFD3FE3A9A23065432D1F9B75B4712E7FD00E57CBCC3B21205322A117CE8FEA8EEE074E5F578B5A630E8F29046359234D4F89934E3D36FCD138B8FC02FD2CFCE5A233C2A69C65A3CB9984C0C6149F7873AA89B003111AD76276178D881BB5CE7B9D9829529CDF28,
20ED06D529E4389219F0544D943C110F469F2E1855831A0A9177277B7D51C73321AFA2245D59C88FDE4900AE37FF381F0BD0B22D81B380A9F72F43C89E5222DE7252D0CCC13239D3F2EF6531F4955EE06F7ADFF63D5393C0DE9902A150344ECDA10113F5DE416932D86497C8E9166E49DF815B24C7976267566322CF93D64F341CEA10198D91348BB705EA746F80705AB7E6BF070D4A659D6E0940C4BEFC2E2B9260D7D8B77909CD0C1777421D6272FB6509D6A7E2E06E439B4B5E4F853DA1DFA9C2677D5DD27B2529D1B6921A84016B3DAD988E4B6000E150E1807E9C52A176A655DAA4513C4D074B20A42E8E8652C8675C2C196C930200AF4A19E2C7DDB35F,
9A9A0AD5171DA1C3C63B63A610F67AC9596E3ADFEA237E0E915F67562983D8A2192E4B909304942DB9E1802D5EBD9C5F495BFAB7039FFB18644CF0D491DAC63E202B568E62B84F01900869C9A54343055446633CB41721D64DAC8CF02695EF844E7D14074AE0D4D7F20E654124DFD074EE7745009C7B249635B99C0DC75047D5E5BD7C397AAA4A8A4A72F4C12C57698F450A2A80E11C21D6857C96D3AB6195BBE32C532CCC3EB76FB9B736FEF60E41F48630E93D78DA0CFFF5131AB462028775FD391ADD2CD596E48A5054E1D5811655124ACF3656E3CE9AEBCDCC5D4EE926D20E14A286EC642410D51BEAC41E26B5BB43423EB5FB3D028EF3EA9A2247EC5540,
F7464AD142E69BAE728161D20B1867F7A8D361CAD60B2363DE0CB0F520FEFC3F2C27B4A932634AA53EFC36425AAD545FFD3F0E2DFD6F5CF3724403D7D73F176D25770E51C7880C0D5E3DBB6861A12335738E6987B547AFFCC7E2388E1CEAE39924F5FB478A1524BC89B855CA0E153D59009C1B6D282CB7B40A8395B1B641D544BCF15608CD7BD50BD69A21C5C018FE3871646A2341C9624CA972D67CBB7B86401429A47470BF4113416144F629FFB350EFC980A7F2005E297F6DB860F517D58E6436FB89607AFD11D0AD4701DF45C69D1AEF889EE3E9E06F01862BBBA150CB45038B69B422B07A1AD20E67E61EA48D361B3E5AB114D35A6E7ADE56E39F5B2A95,
6B696B49370CCAB2C3618787AD764C4A9744FBC79658BE7DE511855CD71CFC51B38A8308825FA62B660556879E240FF689DFD98CAF04654CC91BD47EE3A4C0A806027F8C0282AFBF8A882B081342C8E775264E44918AA9FC5C94A6451DF95087FC9C3B9568970C216B6E37E6B62DEA3EF5CB93A52F8B846460C5507C3C4E0E4DBAB948EAD8F4AE125929D7F2B5E8818CB2C5B06F81010B8FD7E2B3FD8C4F696854B019BA5066A6BBF630E8B486C7633A88100696E6D5B832FC233385FEA7B48B1C17B2224A78B06E575CEBFE66A3F8DC1F89A00FD341150B8AC18F3A37304D0B4F990C4CABED982E2DA8ECC6EA8C1CCF570D246210042CF2583284A540609C45,
3B1178815EFEF62F0F0B0CE10B8B06552CC40DB4AE2BDA8BE4C5304DBDFB0A931FA0A09751E78A5DC54DEA7B46D818C7A4C10FB542C2BDE3F1B9EB8696CB942D7F0998D919C43855D8D5CBD848E1864E40F4CBB5BF9EBBF0F1B1C57BCCFB535A37400534463BF453D931F44722032DB10F8CEC8E24BA5FD31484155CB3795340558ACB641671CC220A4B737D5FC98B611EE6C5496DDAAF718DD8E0250A0F19759CCB3AD543B06AF93D09191B276174A3E1D99D7BAE15A936AE0F6B4B8AB1BF570650E201A61BD69D6B7128E1E64135298E80F47D13185FAA7510DF870F16A94479D33946A6982F6616EAFCB3BB947DDE6B9676AC888537F4BA0C609860F2015E,
AD0CB7A3990DB2372E12265BCAA34F692376CAAA6158F600E6ADC50B51203323269906FB94AC90CEAFECD2BD0F15569132146919136B363C7C0632B413DCF53A8F7972DE601BD190B338F25BA7D376A9CD601FFA53112BA0D8E690D2A36CAE98BFA2A62E165A94B8AEE237629CCBAA5454C8873A60BE6BBBB86A12D18ABBF367EC2E1685D95F8C8E55569B571A06A1FA7EA03A6ED8523472737B85B469B0AA7EA42B3C317110EE3FE4946DA382652BD464BAB69138348CE9C08C82234F4A9388EB30CB7B7BC49CA95E7E27457A177E73BBD83F2BD3B9EABFE0D27260BE2A5F4D9C16DA6D3D1CF3BE84BFF943C65A707B960BD93A3DC0AE0B549CC242CD4679B6,
E34AF80EC3BCA74D3E17F9D4DF216E4FE4738B354A0EC3C896DD51B3B2CEEE1B0D8C53FC08A2F6926B282508A0F11C8F52CB3BC05288B86F26A0CD692B50B69CC584E3FCD44163450F73D84FF1E51FD93143CE0603938BEDC30D72951E808A3BA4BF0B891B2AE77C09F2F2FB248D5EF56BF5D6042E50790D6CC0C1A28B683B4A58E73428E82DDB39FCE16653D156AE7815BD3A3EB9ED0441FB4AE0A96841606B7E33C94754FF2679A081D76FED26EC476EA05085EC4A4B3A6E3464CD08BA1E030DD7F308854AE6B7154BC6625434B7204667E25F665FE5337A23A8A453D3FF775D187D139A6D12407E3B2675F0DF10B65640A794D509D182BFFAF1B33B6029AB,
393E8E5C38974FDAE2E885C80295B35C60E12B24907AE110D228CAE3CCE4C8364E8463D618097988060D13B794BD9A8671FE2C5959E906961DE99D1B04EE75745D3CCFE78A086631139872F7A19ED93046C1CC57F719ED1EC2E43D308BE15B58873CF0583E7C5175C2A8FE1F4937DC5327FA96BECDC6B2DF8A2B95D7368EF11ED551D8EEDDADC5D7E34534B28661E666ABEBAF770979545AE09E80B57D9B8687F049CF864B8387271525F5E4D7D46462E1B18CD67F109BCCEED4953B56D722B63C5640B9B1C3D8B3AD88682498866640B4017A609BB7D44E0C9DF1B381B269D048B4FC02F20CEEC19F0FB70136835686820477514F8E175F0336D4E5A93540A9,
FDB8B3A2EF436A5921C5DFB90A195A5A1D08D6634DF6AD9FB078B1EE265D436043808BC384FF838CB3A60F92AE9A198446EE1790DC4A47EEAA780C274857742834A32BB35620D42D100A0369B8F1A8170A26DB865329D14022512A44ACD6EE2EFCAB5CEA07438DBD621212F4288757F4804E4268214827085CFB93E5F85E87DD2114D0FD44FA33B74BDEB6CE8053C681F2408D49A2C91CADC39077B2109B074C378CD9A770783ECF3F306582844844A9AAEC5F007F6F46E5B6A61ADADCA0B742AAB0F40F58957BD12A97976C02D9B0B6F229EA731B0EE84A7F57431D627DDB0036F7B517F233ECAAC086CA95664433C216E3971216C7FE931EFBEC86EDF777A3,
78ACCB8DFAEDDA4C944CD7097FBA781B5A50C02D94B853CC9CC7DDEA320D736BB04E34767CBF34D8F9EC11D8FC24887283FBB9FAF9DDAD8D26ACFC87DDE1817F7E7560075415CB78B7781DB7ED3EF4E1B6FB55AC05CE4FB482CF7E44799665CACBA7A419525056CF6DA5AE27C8C8D00CE7DE75B3B49EDCB4DABB4B7E59F55C24D04607D34FAF4061D1C1EF143C5F368465A0379F77734385434A435796C1EAF04B884CFA3B4CFC03B873D0BD6309F87ACC8AFE6C09BED16C542A878B9BF9D9C79C45F214951A8D2272CF029A15222E3C279BDE362E7AFDEE9AC0B31D1C758FDE7EBF572FDFF5E12E85C46CF965F670F4DD3D86C1FFE78B70680F82719E21DA38,
A6301012E9DBF62F43B8605A75B08531FDE8EBD4622C2B209542A4B4F9D5FFBD62BA5504D1EF9684127850EF7DE55CA83422B1C8BB1684A3759608498EE53F06713C657DA406AA4DC394973FF49FB7B39B8EB2DB48411FC82F593A671649D97E6B0EF854A40FCB8D2AB65C8E45A0AFA754160141FED6CDFD814BE61CCB39178419F4441DB5965D53AFAC1E50E1B2EED3F043D9D44A463A5EFD84CE84138C8ED0844EDDCA91955B4F3E80A299E9E2EB5F8CA686BE599E6D2DB477EF2DE5F7D2A86E8D5C91CAC0149A094912E0F4F3967C23036868CFCDC9CDBFA923574DEC33EE05E7D36ACC4B5D0F7DAE06D798EB21724A078B4CEE7C6C106F490C5F42E75F34,
60E4D30A04BC4052FDD1F3EBC2EB686BD9AB53327FA381CFC2E2ACC3389452F8262782ED175EED8E826E04479DF0E4F1C243C021B2FCD4E986CC70A1B7E1EF7805BA0860194C659AEEC6F599205622896D1A77E172D123476A0F7139652629881F9DA5321E93CBC2128C50AFEEECA9ACC6FFA0D1A06A1542E88812CC2166BA5DF7E765BE002B95CD9921A3221910C5A66F6D2A247657F4E9F519CCCAB907CE572FC1D2F5AABFB74CD4B9BD4A0145F55787D454E9A5C160FFCDB82948FC0D934DDA3B54A4402CF80272CC2F487A0895271D201A704D5C5C189CE18200A8573F186EB6E7EB97837D048518C8D82F1C577B9C4C6B7EDF62FB196C18EC0C6ACE0CC3,
BED7FD94D67866488AC0DBE2A1E4B41D59C1EECBE95FF249C47D9052ACA841508EAEFB4ECAD856C8AE950B5E00EA6E2E4CBAE824CBB20AA6C19D104399381F5693B7D38FF863782A58B261A13F7BA6B0F03517ED688EF23AD136A66FF509B4DE700A202CC41ADA49F032F62B03EA1A73560AB1242D12975942BAB41B04CD092C8B355AD638F1D7134FA55D898CD5CF01EDB914A1AF71E561E73543F44C5DC7D04E938B3DD765EECA01ACF0C6A039D55CB6A5F42BFE79ED150097FBE6E69BE32F7749E25C00D3320C56DA167588A1178901331AD9B768B425FB25C41E6ED99DC437EACFE351B6A13AD3A9A5CD196467A2621AB40A192366ADE0008FE30153B102,
EF4F037140ABD8D3ABB940FDD2B4E4F2482552622DBFED43E15B9741DAAD341BDAC0E3462F98EA30C21F398D6FCC80E46FD6E6E20885462365EFAF9B964D89FC58C4BCAFAD930A62DDC3C8C356D8558E9E10E01975C3338B8C00453F6B1CD61F5A3E4FFE0F4A4D27CC8BF15BBF5C49DEB0690B2A768B63B11650A762A52452ACE2FE8D397DF67BA3D510BE89A242E1007049FC12C5CACDFC16954222FC68953CE8C9CFBA5BD503A2C5B171E2A9B3CD341030C6572EB7D2830EBE066B4A86B664959F96E9C1C099643DCF6F32BBA2020119932BB7F741D0A58D57E763CD00511882F44C387B61CAABFC89980E157DFB92F74BA62EF367343748BAA9DB4BBB4175,
67019DADF14A84AFC5DDFBDA11D63F569F13DA02B285BE74D518A2EF4A898A563C9B7DD5A8040D0FEC8518F7343DA6736CF968162310FEA24AC300BADC5384164D27F33717C14AED77D54831E913315BF7F695C993B573C32BFE7F21408679859AA19A412B3345978FB0100A72CB3974B7713FDFAE03433E83C773639C6FDC22695CAE45AFD8475620D0C5513A90F80A228B1859E7F93F6A2669C947A93ADFD502F514A21232380BFE8CDDA513F2567A45033EC0207F1E9A982010A7ECECBCA52724D5EAB3D374CFC4BC731C41C12620911A94811D30FBF965838239B3C8621AFC94392A7B1D41B15986268758F0F4854A885FB6C6F846A1800DFE64CA8F7774,
F6D08F4EC003910ED36CF822FF2EB834FDE11926AC7D1A6CA95221B71ABE5976E9A5ECC9F89CAE461951EADF927C44AC313165BB8B2DBF2DEDC10598CA67C063BDCA062158240980D9EFA7A6E9F81F366B5556196A1E6D33A406DD309DC67491A1281AEA1D301AF652BBFA0798F5380BCA9C4A1416D9F12898C61DC747AE1247344848625B2B2E257643E6B6AA2713968375C3DC240A84E72BA4F060B4DC604024CB59C387F0D6BCF542438A61771659D9B211180C6F144DF02B8AB74D04DD9E89AD5647E29BE19BAB549810B9446310E8D2FB8F69881FAF1F8A4EAB3A084EEE5134E81A3BC279999FCC735DE00B9C205DC0637ADB3935FE82A7950786240F1E,
E5EB77566F09FB6AD7092953C3F3957011A0DC8D05D0ED1B91312992D5FDAAA3991227D23906C3A42A1988AD42CC7A2AB52895C642B18B2DC5EEEF5CAF406779B38F5190919468608F016B3E4C40A66F16D85D602A86C7F326DDA98A1EEB5556C9E7093EA732854E9D1AB553A6E3BB8E19328461248C5BD6AF3343BFDF97F637BBC26F0304AE116A52C03F133AF3CBE66FC6474FB785C3B0CDA4B53091E9934246D4C05AEF5C11F0372C9EC30AA01ED5D6BFB268C86E2C2914CE2B6676A65358491759B7990F50C40A543E36F8274F5E6A2A3A2386BE49008337A3511FCDB75E5A624FA4AA9079DF653179D980449CD4AC9601CF5EA8A654A02CEE1011059CC7,
8146DAAFC422CE8513A25661504DDE5C5AFCAA309D29497713D40A1DBD97C12ABBD75FCB3F3AFCCF9DF603C7BA4390B8C2D392416570E733DAB183C3A598D17E6B272E2BECFCF0849AA727549090F11D30BD78C0A3FBE5085C2E26B1F6B2F9CC91D59FCBB53B3C6BA78B319011E85FF64187930FA1F74688C8E2AC9555486B690BBEDAAF4F67FD4171A4BE74086CCD1B159FF898790CFE75E3842EDB107AF06C1915A34C59A13DB60C75B9606F537F31C9F1B215E9349E0CF33060706423D948CED3B5678E9CF6EE6109360E7067F0824D1674AE345B603B247B280A654C9FA3569B08B98E89ACE3BF8EEDADC7196BB09FE9C2C9E8A599FC9C5887E0EE5EA100,
26DF4A971B0D3D2E7AA77211E445B3CB5D0EA9B8D6E7C92AA5933D1BA29DFB8D596B70529129E24F6580B6F9CE4E68CE6B1F41A2EDAE717BE2BB1CB68C2BAE54117D3E7F1D1CA24E671292F0CB341906D41784C95FDDE3C461E59FCE95C1401B6D6FA6941E8E38F2CC3556FE7E48071426B4A7A6100ED27D91F41955A0FB76E7A5B4236413014C3A59B033D312AA3AB049EEB26F9F39C1AD727AF582E07465ED230A35473DADED602A6B0A2CC9033A5156AEB92C841260A6649226B18178E9261C603F1D825D47E4356DE5F6A184D486D145BAF1755FF11B79E560D8DB41819CFD155FE4C4D38D7AF52C6824EE8317A8AE81835BC764805C87FACB89C923762B,
980A061EF9DE043DEB8C0C9E05F82CF03335AEDEC0CE967B01BFC63503D72F701CAB3095E9E9BCA087F1917472C5D445B6E1E7C78397A5F38E77FABD84908A799BEF017F21E9F0DBE4F2B147A5E43F8F4ECC9BAB2FB883AE70877A5FB1FB012BA6AB5D56129E4CAC8F3C0C9B84F21FA052A26914DFB01F1EE8A884B976051D9CFF1CEE478FA20253B15A96379186C3B6DFBA0568DADD6C6C6B3D795B3222119259C3A626A29764E5196CA91D6B3137E1D82DC202F9C6C20257F63634CFF3546F902293B13E068B93A078697AA2195C2E1CB1BE80768801434FEF7BA85BF9C18447BD18B2ED0A175A3F323B139C9049F5B61D18EFA707D6C1700BDE58551404DF,
43847C2E34A7886264DFBE5C47F8C6122572E0ADA1DFA97E9ECAD9617F915FB54864B07F87644FF3EFE255715DB8EA2169E12808562C6B254FA7F781DBA93D33548314D2023C84755EC580E1A29A461F98333D1E4C3429A944F489C2BAF707CBC5668EB6F67CF95FA25727F92FDF6E63D6A23384330C1E0A0C308F3C3D755113CC713DB56EA82300698BD51642396EE97DB7B6297ECFFB4274C59EA86135420C99CA37886DC2DA4BC7E839C857DF1E14309356FB05D03AD5C3EB06D9582142AFC5997714FE5B27DE7E12F3E66D479371053357B93C32D6DB4675F3B7DEFE7454B405AB9B7F275E23BA64F26109E0BECB5932F779AE5588747C24F719990CB0A8,
B631EB51FFFB54384F76D4C0DC9BD77B1BA2965864384125593EED3B4F49C718AD2ADE064AEAC1844CDCFBDB33B7ABD95CD9942955425AF45DEAFFEFCEC28849A3A0889BE44D7AAEE998AACD5906D7B2F395CCD594C14AE1752D9C84A2E840330F10CC48BE23C764778BC80347AEB0FC7E89B981EA737B30AE00887D97A9C753EC47A681826AE96152A845BF1B55AF6640AE7893E46F7C467ACF88FAAA4C76874595235C539A4E20BBE30412227B2FE82A28F3B191088B068762618E9281FDB59121201C67FDF0879B389CB8DAF49AB4DCA84B08D7D2DA19FB310166275877E4D3BE7D2DDE82C28D79B18863EF3CE3DFD431F1B101BD42EC25A3CB2796FE225E,
8BFEFF38863DF5A843E5C61167E12665554FD0CA9A89BD929BAB0DFB1EE90D9641E954B443523E575DC243A4A2FA38D7DEA7715BB6EA0FA02EC6516EA50E39D8B0768EFF3C5C5E49BD3CE5D2A2E8A91C8E7E3725E203E9E1985E1D7CF613A39A48F51396DE25932DF3DD5783E772A2CE96C18811F583F6B4889DB374A3D027DC2B60CA30D1B4BA57E517160784834FD1498950960F37480BD34055037497A0551F966CE1089AE7FE60D5966EA16377C294CC9795C6FC4C3B803841DF80DAB9719FA405989368793072F90ED302466105C7E7E7FCC8943744180EAB2B8C5590763957DE31B7262717C326888D078DE0B1289B1DE0D3B20808D0BD60E8659B08A5,
18C23415ACD282F06918B35FFD429852F0B522A52E691952950598B32A059F5593DA1E17CBA6F475C5E502D52E30140C26360592E79F1214A918888142BD761E141C39EE8686B9F02715C51EB7D1682237039F0E12CDABEBF0ACB81142390E2511BC2D8B044B3E10A92235AB377677337A4587582F8B615AA8776D44D4AB31714A4E7912F22DCD1DB0EF7180B73CD8D305A3A0F1ACFBD63F08258C1AD5600821F2EA477C8DB46ACDCE60A7C14FF050B5F787706167F1272D298B57C0464674951B310C237137DE365D0D76EC97C3337C70E114F075EF6A331E19F2199F4057B39C5A8F36E5521848964BE3A7CF756C797F44577B6B6328A43EE1AA96500D5C44,
6B240D5B2C4F75FDE73C5E57B854D37F299A3997CF7F8A93DC7DE409B12DC6A19B7A9121875BB08BD2A6CDDB748E8CF77DB812A2C18264EB9F5CB3E2A57B3A26785EBE71423BA0E5341C282F8815219B317BB9DB11F72169E3330E41449D0E29E86795932B2A362B5EC29FE8B6645C2A64F5C6F06CC6563E179955CFD82FCA9CE495D4E7873D9420EDA126F5191910B4A87D2420CF3C5BEC71C7BF6C68A750D06C4BE2D9FCCE3BDE5D86CEA26807983F5464AB5CEAE57369D0DBC35409072AEBD846331C6A2397C81A2269F274335DECB1D68651350003DDCC817D5FEBE3481312C647F1DBE78248AFB3991E16E06A7A3CDC84CE5175FD9C9F7CBEDF7863F506,
C556673E2EE821AAB0AB4C56C5FA7EAA38F124FCC388540B0488023A183AA62F2C8435B7329C534147BEF8C7E96201DD01E5237303F4BDE57C0247D862648266EEAFCFD99A5DA44AC920DC1482193964B4A55849DF68494E5C2567DED27A389CF6FF7A1975DBB01C20F78EDD9E25DD7B789F814D4797DFC790369F5741E50F684C775D14FEBEA86F917A5FE167478DDC434F56770F2D5DB1D917575EC1D9167BC8B68BEFA3041AAE900E327476558E450512A1324EF91F88927ADF56C6E68C3FF9B69E87174355296DAEF90D843CA23AE02B4F5DBE60CFB7AD27F0F9BA97B64FDB9E65C187DD9377E8940DC16926B150DC0716DDFCC13EEB6470027FBACFBA64,
E5B05F369EAE728E44BD1CA7A043F1BCFFB053632DCB3DA091A3C61FB7B48CE14B72E530239415A410ABC4B87403CCA1F09152CE63D57E74B349B6C9C89B4422EBF2F12A9D2D0AF71EAD0A76961B55EA93A6040DB92F54B481AECDCBF5115C093E0538C4EB8F4B7D38A3B438469C29B2342898599FFA83359872E735ADCE34963BE73280C04B5A343CD8863F925399F69C8D883573C6DFF915F3D0A42A1BCB380911E7BDD81A8E8133067EF996A51E60DC9038B4AC439702E88CAE940CB721F1A9FC5CD272C2E08099ABD09C55BD45EDD6C70B3D26219D7C413B27CC236F8531DD607F89D19260D01457642C06B3584FB7045E1FADA90B176519A395A9667840,
026E78A8A143F6E3F3CE4976CBAAEF829DEAB17084EE9338D2E3C2E3C691A8AB6C444F2FB16E8EE1456348454B8EC652B559EF97D9A33FD4F65B8FB96B089B5F2CEAE776B4B39D437F010B72FEC02EC3C7FF518D285ABB54840B4343DE53ABC12AF9C281E963F1D5C18DA83FBE3D1AF1434984DF8F10FD9F06B28EFD5232BFDB1ECEEBC6BAD461C8CE24B6978F1680CC7205B3C53083EFFB156E8E4BCBAA32292DDB2E4B97354AEAB5EC7C13A63A58E426A2C0C20768CDCDA43A1F1725A67090FC587473C1382B46C06A65F6843DF0A996DF268845ACDCA7C9C2299133BC3AB9C0AC74E531BE1EF73A26B03352F200C11B0FBB582241EDF733F75A59F7A7003C,
1EC37C2A39B24895B88C9818D366B6541EC80BC830E99DAFF5B6930C7B5C85348023B1598B4F6E9FEDE261C4BC59167E1A33B73225FC934079C1482FB8334795C8B0E98C60285FAFE3B9E8E977E15BFF80351DB75BFB74867BF8F8197E2B2A69C4386D1449B51F65EEEE0DFF6AE3B46ADACEADF949431DD4C3FBAE982E674014959884B1AAF28A00C7F3B2074007E9638ADEE1E2F0DD105B3E681F05FCE8A2A956563EB3FB5B3DA161464EF9F5DE36A1E9D6F45998BD1ADB5921D14DA27C9761EA4D8965764B6681BA187C6FEE49AEB389B2FCA47D2212B115ED469E7F6A564DE265CDFBA04E959796207F31A06DAD43B07BF73C2472772FFECC0E9892E7CDC8,
3EFAAE2A4714F81D6E7E2173FA3C19A1BC4B0A151D33DF17E0E7971FDC0F14F732D707DA313323B6EA237A7C739D07EE2DFFAA103285C2952A0D7855AE441DF080EB1704A69D936AD51CAA0D5627CCC18781BCBC75C38475B6C7F2175D8DDB37FCAA68868B883786C42507B37227336486A7DD8C5A6492B0CA0703BD8555B90F3CCBE9A07C2F2ECAFF7C9778BCF30F9805F1730BAED801A4EE47744E371D75499627C2D1158A1FEA41CC5FBFF0A1FC3C1D9ED8BFFD2B445F0CE279DF1EDFBFAB58E1FA2113FDC32A36F87A2B5FDD8B2B5B5AEF259D2A83AFBA5104EB4389240AB2112F50347A9C3B8198EF81A0AC634B4061E376FB8B4C1F0AD81CD01CBB57BF,
4A7576266260A44A70CFF4D9F05989F65F4DA20F135B98F260820D07098B1EFA7FB4CA34A49A9F682C2F68044885531F7AAA6A28394107429E38D55A8DB884390E8151C3F067393DB00D73B398B3004289237D3E023C75FB00F325B9BF8567D1502EB26B49E8886F3BC4E16F3B4DDD7360BDA45FA8017A0AF25DB033D88789DFF6717A8AA19F49A2D235335790DFABABF93C5A0B94E2D2E1E22C3E8121C93B40AA6786A06BC941F96C00A81BF6E490F46748ADE45ED2FA8A0239BE194CD4B9623F3C36930AC53558629DFA59A7C563D617F392C55EBA080753BA463AD5F2385CDC225DEAAC8129B4D2B4F962A89B6336B94FAA0392203C69CAF6C77B34D59A74,
C2E7E67CBCF38E2403261C19FCD90DD6401CDD237A8438BF50B7C441649344B581AA6E2B28292F2159A9E7AA74BCDB7A6D2E130C0B008C03A91CD5515B12781D3ED282776AB07869AF5B0BD8387A04B50AB121186E76854FF646519879800704A7E982433C4ADFBD92A99D062F58489902D3409ADA4BDB4DD6CAC72875C1BB9781F85F2AF7F702149D62DFFC09BA1F228EC98C30A198C882A2DAF3665FAB28CD16F77A6B1C1402F883E6901A878BE5DF4A00AF0D49D26F5A9BFA55496681A7149738F42E49EB4AA6BBB4CC597927C2246FCDB7D22D65F64BA9F3B757C2ADA09BAFBAE1F8B96F263D709833FA3820113E9300043C44741E6DE297BA2A2EA0B737,
2E501F1CFCE4DDD2369372DD6B773E62FDF534316AE7987F9A35CB4C152BE8D5D2332ED07794360A23E2C44D3831CD4EA627E4C85C93003B8DC73C24CE25E13F13D6D7539286422D1AC620AF1902D3182CAD1B52684CE8E593D4B7915CDA05D1B108F669F9FB31865F7B16C74C7A54497DC0C11501DD467E66621D3B1625054185898A70C06865F7988B9E0F24ACAB900DE892704061EFBB061F7B792CD763C7FC543CD82830099011125F11ADC60529FCC8EEF3F5ECADAD78CF862F895D85B96B1D12DF8BA2B93B1BB55ABC66321C50349CE914AC8789F6AB3A71E052805B4B7489FEA94620F1E67CECA693B8106CB42A4913DA0D5D4207AC7E97182DC6C5ED,
65D297D4BDA913FCECFCC27CF035663A4CC173D982E4E3E9D990D147A11C85C8DF6793FE77BAE5F7764C939E32F283AA3CD1560C08B7C4A633FEA322F944A3A0B40F2E505CC6DC9F84E53F425DC0F579CA9B0C6183748415C31A415C6E39FE2E82522E84217EA8CC189902D3BEBE8AB5F50CEE3282F898C189CE1D875EEA8A15BD39688E75CB2EE813485E932EC2E6CB8925EDE0FC353A539B04D3B282773FC62E186804A85327792A2F5CD54CAB9C69BA9A89D72B7E4820FE8951DD4A2DA06F3240BE1C815812CB944EA6546CB1FCD6FF88D07D2F33C3ADB1629DCDEFB3A285CF4F5DED6B7BBAD959827D0320E64631C6747B9E0A5CD156A78006AD747CCC95,
948BFA2F3CBE4B9DBA146158B92087CC205B8E7595B003B75F257CEA43BABB8E87271292426AE86C916C821D14A605A49B3D90D6B875F865653E1F30F2B9E8B63C94A9765B07A0C8D2E26458786093FC57E281C81966C5C1377CB41B26B093C461E736155B36295BC5471A500D0639717D419E731BC432A06E80CC43E4FCCF795779CA5900EE2BC624F9800416B659AD86602D3C5A7DB801B99E4E12D9A75279C16D1E17D3A0F5A1813B6E4CAD1F340CAA064E235ABDC337008A13297F1664B009314E500F5D55132D8B0FE569C2158AE4BF788BA26331492F6F43E2C4B7A9A18007311BD0F46F02266A9397806B7C1730C4156D4CB082E523475A81B8B6529C,
B913E3BA5A8398E70EED3D1223F658CF202E36584E4E6D614CCC2E76D1F70555ED39D02D2C369652C7E43D2C0FEA861141583EE27F0B9A7D0C50352725FE045C2887CC9314E694097FE7F7C08D3E566E3B3D5B35E5403886AD26CCA2E4CDE6C105B5717E46CB5DE28ED57FDC9936C6EF1BC283DAB36839F8064AC71E59D977CFE30FCEFC89C2C758E98A191885A5B5A09B78A24C312A981D6342EEF825F6EB6DE3663CDC47CE94F406AB448792F8571C5B27F0884CFA577B6B9059B4B1FDF4232B1900F193C71061DE4821C1A1511F3A5009816C54F38657EB0AA3707D49DB9C767CD70BEF53A3251074BFBE6820D61CCD54FD04A7CA07A151BE13E2C8BFD23D,
64443D05C6E8B225A6D7C5003F3C26C976268062EB2DC51614F76016C4FD0EA19BF6E47A4A1169949AEEFFCED40FC66E28D16A97545A36E3A5B768BE011BB90DC2DEC45AA33FE6DBC863C2A655B6B763BA1832A448334DAACBA0F80148334B6C7A158C7A3F5041D656CB0ACF1D428B8EC08CC14AC495CFC73871E863F28882247AD7B890D4AF44E128DB3BCD7D8E0EA4BE296E8C9EE51438210D79F0E6CE2DDD330000646736F58D44C19791568B6896CCB4F6149B61620307E0D1AA23574154A2F75BD76D5B11F53761423DA8FA0D50D42A0455FEA1ED23830ADF9133181FDE80E9E073A8AB9CC2D1995327E4513FB3DFB1891AC93DEE42FCDD23410F44DF6C,
9782B37D7F83F9349EA53A5DE72284295D98F4E569D00C4E5CF35FCA47D419ABF530FAEC920CDB43AF1109810CF68A0F0E2EE9280A91BE897EE284FA57990BAC062366D4FD98EB3A9EC417CA188D670C6A8D9D381FE59383403B3C20DD017096039AFBABE47495963DE7206C5B69CF78A1CE1DF352750FB456FD0B2B09694CA0547506161EC137E5406D54BAF7FDFD093E5CC279164760DC5F0CA3DFCD32DEBF1CDEE20DEA7E5EBBE2C73521B81AA552CA3C099B67BBE5FF3C056E80C0A8DA1A9750DFB8B05BCE74C201D820C515067470ADD31FE57DA147DC5F4E7978753AE8E46026A50E83B4929EDDFAA478ED890DB676DFAE555E05D0CA33D4B8AB0E2DBB,
42A1D050AFC9B59F0F835138150FECD29E239E1B836BAEB77D63062F45CA1BD75F7B36C3BB7ED003A722953B8FD8162917BD99776A30E28AD54FCCEB415030216D96D47531C87379231242528CC58119AE01C22A3E8336477D94A2ABC19970100A23B30C647CF6810968B1042A4A423A13BE450BE86A431A6D6A2347B70DE578577D553FB62AC72EB844F41C46E2A993E125494CC3DC473B4BB580737443495B112611590E88090251C0A856F2CAF4E31C223EECD5137049E167D0095D79A939C3E39BB6FB6E1C32E40016424EC8F5DFB1EEEAD37CBEEBF8EF7E29C4142A93F5D85DEF84E0BB64CF6A8B165D7C2BC09D8BD711369680268E929FCCB0B0DC02A1,
472ACFA4413855FE470B70F0387A7AAFF1C937EC79DA4991DBBE30D623E1E0A8EA7958789898DE3EB0F3AD8AAA307905E011E1B73D2EA92E54C53FA08F253B245F5F90E2F9FC91DFE8ECE57BD8F30F34D5211687B1DCE58FBE601CB31E93BD421684189AC2F46E4B4C2E24D2F6FD0FBAD13F0045DE8C88DCF23D9E153A20E087EA912E2E24F18FBA38911D6102CE52CF92116C11BC4B9A0CB183ED54CE9ACA9DD259C82DD4C94AB583B7E2F2801B61D746EC4C736CD14F009650E33111714EDF64CD8EEC64FFF4D6AEFCA9C92DC5B11B3E869D6FCA290CB70C6F9F4040CB9B4F849DFFA6A037C76FA5C1E4EE5B36E0D8A33A4CA0A6187A91DD6F9701DFCDD3A0,
15B4CCDF1D2C0AD4B39386E430AC13F5813ECB1E9F65E42E59D772AEC24386322461BCC5554FA554F3FBC00E75D50D1B297BEB4EDF844A3239826E31B3C9B8FB755B0B0EA80C1DDCED5B43B313FDAE620C6EAEAD3F8875C9E02076B4660D013D9B4B06ADC724BE7EC06A9309C70DE636530EDE8B837CCA403DDBC399D32405DDF79DE3B61BD438F421A22B78E574DA42E2C511FB4D43DDB9E5B816C3CD83E17D5C8AA8198333D3256E63B6751C59F3C35FA6E8B8654051B600D5ABBA02698C8F2E8E40EEE010E41A8CC11DF4745D3DAD6A9964CE2A9A70344E3E4C667C4A4DAA13049267F55315CE867F5BEC1ED60490EBD5C7EF58EBC119808C49DFC66EF7B4,
B8C2D3B65A07FCCD7F8E2F98CB18ACB1E37A7EB283859CCA8938CFB5AA3C19CCBF86361579B9584E1FD4B9DC9BDBF11F685BF38EEB739F3961004D8B3562B857A579FDDC038A661B1D32476E38ED54859EE99CD3387C40B25A1AC955DBF1FBF881882F9748A6D8F55A159C2ECC3B103C869527C8D5FC3DF9424B9BBFC54C17921CCCFBE09F162E799A456AF9ABA4DE63A31728ECFAA0BD4A37708A42AB5D65434E9B9ABF7B92996F8E89CE2A40AA2EB3400F686AEA62A32473AB6FBD01716379153A639076CA330E54484F5E8459A30B48D93E3512CB10D1B4A1A95F229D5A26321B85AC8EE86AFF442B96214968A7BBBBFC8CA310DD0DF5B30938CFE495B0DC,
9B0657B6E428D88BFA58593F869BA1540CCA7101EC5B206221419DE72A9030D5323DE7FC07C0695F9A803A0546BFC50224E15938514DB30B11F68FC74D370B881EE6D41B8759D981DBFD8D5A0DD3EE52C70044727B77342716E687A4C6FE23D4BF3B907117A1A6D2F841CA9AEF363DF69CDF259C5E918D223FFA07E344AC98E08998A0DEC966B0521D78FAA899EF05340ACCB166F2D456BB69CD8D2DE11DD5FBA1E68D3E24DA0B0A6788E4628367BCF5AF5C0C9EA892B755760DFE745FBC4E2FD783C7A1489D87BEF5B258EB5F9EBB711E1090060855CC740F591DB8763DCCCAB0EB10EDFF5688D568B047D1C0CC29A18086B21CC43F39F80E0057C0F355295B,
6B28C49E8E6224962E30195AC389BD0E3040272D6ABD6EF13DEB0B5F2A5F42725F25B6CD8AB12A682AA71D0E41255DE4DD3A1BAC0B136C47480CF3310B4B5A8021F66B22C111830B6A66C869CE82A5120184DC29068A31BDA13587F0E2BFCD1C24C05EB6C9E3964E0A5FDC362910B13DB46F8FAF1556AA15D71EBAE7066FA849AAA9775E57FF32848C86F564CF7F74420F555FBF67A326943339B936FAF2C040702749EB5FE428AAB61734C3506EE1292CF1001192B34EEEEABCACA946A3A6CB5F02D0B70A52CC1CE217639A498DF07C9F4A9A1EE1BF384C0D753CF5C55BB0AC89CF577D6E793868360EA6BE09038651077E7B321D2A366A1E1D6D835468B0E1,
96F07C1CC3B37905F153CEDCE4180A895FE4ECB5420603CD058AD4DA5E4F0D6966080B5C8F92034DECA88C876784473CAA478737161EBDD06002F133E4FD2AEE04BF82D22FB258BDD0E73E03030487FA2E322E0DC0E11E60FED1AEDCDA74B2CA8C16C97AE3187082B4B06A29DD64EE4FC380C0B3AC5710688E6FA3FE6D66D9516C23D3385BD2D284D70B6A3E0AA007615FF1FE5C591D900BC0B53BBB61FEE32393CC1025690DCFC3298A2C0D256C29FED42DCE59E813DCFE59D39B5EA0A75F654046D9A567673300F480A7FC75928763CCCDA25EDE2C35FE70BE7C8D5B2D543E63E7CBEE53513AA6D66FAD0CB61BCB720D49DD53BCB42AF0A201ADE67B6835E2,
01E10E7EC0F7C006BED0F8D8122DAC7BA551DF5FD980563C63AAFB1D720FD402B90E44E17F858A2F7383F8FED965CB76597F54E5455A1945388388C50871C4316F7F2265EFC63704280D6A28660746C54B8847AB9343C5C7877AD7E4C2235ED13540C1904D97927DD1CD268B62FB0BC00A197B0A3C47E802B89F3562E859DCF8CD2894B0ABBA6C87523B6B8B40362477731839799AA90C0DC1D732895A4E02798EB71D1EBF8E682D2FA9C602372DE3E2C111DDF2EAF4F3C6D06D328CA82D82802579A0DC634CFA55AB89ED6F94F3DBBA1BB162762E7753807430FFC1DFD5D6F452ACABE5F007ADA51FE286D71EBD9F26F5CC2FBADA919F9AB44EF55138981BA1,
5D2BD26E0FFB713D25CCB382D301C520834FE37AFFBFD416898851CB52C5FBE3359C41BF196D4979DB0CA092C9075F6347E6BA515FEC9A9146B7F73D99CB89664330E7F27F14810096866A7943A7721187266FE4B4B96344CD463F9428D06F9157A26E7F295144DD2412F3A936C8D37A2636A2FCC6996BEC5D58DCC6653FD302E49881C7180C74C4D501D7AFB49386FB43132FF25E162D82EC0CA491E38900593C0CC4C6FAFFB23C9E2801A6E6199A8D8A4F22DC1B2BB16DA497ABD0287E69E1A6EE960779ACAD013269EB5EFD5301CAD0ADD6DFE650ABCED8BCE9172F7A936EB71E80959D8CF246B07B4AE46C8D7A420DE9E6F65A2A8A078C755BFE5C8F3737,
89EB137251A5F5DF5BF4DED8C3FDF3B4315AFAC9547366C867AA7B795B0D7481A40F0B7F4F580BEAA46EB565403FFD2ADF12379AC8179FFDBF0AA6C33E3C9311DEB99DBC8449B989447F5EFE5E0738E4270B15D8E04416567E9E7A82DA16BAF5B28DD501D5FF8A3130B6049084B21833B2CA08E62758D5B18311935EA98A29A464B786F1DD4AC6383127E8624B22BA516B6C8BEA8BD825AB5230A929E72A8F91F00B5B74CF95A80B01525390D1DBF212743BA19D5963618E481F5FAD94693BB412AD745D4A94030A5B7364F4C1CA45173E8CB6681DAE619A2E73C5B2D763F64C6937A29068B16F53FF28771E512CACDEE7CD6F5835B4A929B40E64CF960AEE3E,
EAFC78A0E713D92E96AEAB23BC1FE5B9B721C67422D27C0013EC313590DEE915C31A524671E34135BB477F3F06EF4340A01A673032C4099EC4CB216C6874E93CB2E937983FE4AE2FEA0AC4DDDA47B5CA67E41DEA09306E814F7BAB8C14F1E91E6798A85D07A9F129B8B2947FDB4BB761E9FDF175D23CA44F5D99075EA287C9CBE4CD155E15BDBE89F1FEE2E0C420736DAC3F424EC4590D8E01254C3446708BCE0C3A5E832E2CA2D0F89BC9BE001A1D953B4117B8EF1251528C068B076266B933835E22AD141D1A4294A7468F16F213D5EFD4B0B8B0158019343C6FC9366F924D6147182CBA9354DD2EBFC8723F917E0CD5DB5F558900AEE94FCD05D679012510,
649F273F0032080D82456CFF7CADC9CF881A3723AC3C0C94C2846A30A82C35C79431B16344E8F507A53227437E79B20A650832898C5A9C040C8730A72DB9E6B4F275FA8B5E8EAEBB7D444B77418C0AE087B1248D50DEB2E3E403CF05C82D5D91293F94557B8D7FDBBC73CBB73E10B75F7EE52C7C109B55857CBFBCD8140F0E4D5115BB15E2FBCE5EBAF1A01FB141AD9D2FD4312D4C865E52C9036A7E3FE37A8C375296D0E2F72FADA1D42D9D44B2A1A2947BBA46E21EC0211BCA2D6F9E200AED081B9C9621D2932E2696B7A78FD943F18A83FA9C62D8A96805878D4C89A8CF008CDF398AC557F10AACA63A14317673A7E90C814B1F1CF6AA0AF3A5DA79EE0A84,
F3E0753C6121B214AAC32C2465B57C269CA977E05EE4747CF45CBD291A72FBC837A8A5FFFE27B2B85DA89AFA5AF2049FAA2457753F7818AF558BFDB40E33F4F0357D182C4B856C6A6CAAB3FDB600567F809EFD6C83E0D4CB72CA010E195BCA5551FA9CBA9BCC36B26AFBE3CCFF760E854D688B87519315E8BE8EA7331CC005894869F8DFC2ED936CFDD80326707C464ED767B48704E57A7D86056B4BF49B8777D5B3C824EA91435D77F27F53DD66606426C572E086196D2A6A39FDCD34C322627C9BBD3CAEFB2DDE7AC22142CCDDDAA902C4FC588209F86DCA86ECFF1D06E224B9ED951CC891432002EF08AFA0972059F4CA436DB2756921F0302A81D0EF924D,
2AA753B68FDD11CF84A5886DA4874135BA493228A524390C55834AB044573A501DE81BE13625556D7E8D8EB01ED00C4D742540C9A15A199B2E48F738BE933796416CF419512C946A3672F9D5EDC73D5FA0F07AC65B4E6C649FAEF0539CC170A0B00BC44966834980696594487E0B1A537580172A13D36723C85B14231BE14B5C10EC7E9D0775B2DA6B90D5C946315E76DA5B6EA3A334D341A9BBC3FD4A7601A41F6F61C9CD0C701ADAA9257976A82B585E5816DCFFDB4D68199AFA5F5B27FDF35DCA2964E3D044C08119C87728A6DDCC3204BB46A03658AA4EBBF36D34ABC30D6F14793C15BFD6108F9F6E3D8294953195A1D8F2E8C7DBA40FC5B7FDC571BBC3,
7B15793688C884478BA85525D2F16AF3EC649CA2D601CFD6E3D252F79969A7329336DC7941AFD8A5E40A5958C1C8B515974A82EC5795B51383AA1C74348119799B35B0FCEAE48BB16F08A09B1F894975FAA11BEC90E85275E1E09704E23E70C85716B617FDCE386DFAB3F8CF20545DF5A14DC14E74A2F1A9E49CBA32E68A57BA702B92B4A999FCDC17E1FF7D53BA1C53B548AE68F5D4381090FE16E9200DA569D22A5A9F5CE5D410372662AF9B452873D110AB3C602EC78CC241165213708E6168533CC9E6D0785BF504FC44F0460B49C194A87CDF936242F044F043052FD02436360D61F8B66B9F96DAF310183AFB0F63D0FE26AAF0472B70ACA496EB041DB8,
C660E380925525299F7D6E2A66E4A732D686601AFEAC05FEF83763D604BAECA97295585DBDA873A1DCC1F11AA8D7506A5254800F5D5B486C9C59B8066F33D4791586B5D5F0F191552CB4D07812A6A59B4F0FB8B9C02D9AA6D007FC3DB67D8F80AE73514F3155795F760346658B06B7882B918304491C97AD8E7507C7BD41F0CAD1B5DDFB891573F9718365C02AF9FABCCBF4E335F39B7ACD94F68F721F7801F46C252B5CF889E9B8DCA8661DBAA611F2912025DADE348DE79E68DFFC5CC1AE92013ECBE31DA14202B0D163063F523C96FFCBBF68E8FF098AB8738035E4F421EA2B41DF32AA2445CBC87683DE4B4C406A07F717008230F13FB22D688A62B42E91,
7553A3EF40CD432B5E969E413EC8F39BF01F96FE466A4CABE15908D03FB5B0294BF3628B076CF2EB2C8FC70748709F7050ECC2400A8439D2C31A62BFBC5340B47F936D96BFEA1EA2DEBECFAC1C9CDA23DA812E4FA5A2435FBCB86BF6E629823E9839829E986E0ADD7A09AD7F92B92B0B0DE73CCFCE6256002DD0B62147E622E16651026AB066B61625259031C7CC099C83E140185C8C0479AE3C7E2146D6F4EC0B407BF21397B77CE5953C7FDF8F30526D6C3E429D52209A234DE6C5AC9124B62FCF4942A37011E44387169E40C27981023E610128AB67DFFCCF89DBCFB30BEEAE1394C43341203E0EB5797418749BA154BA696A7DF27434ECF79540451CD557,
EA6922923F4A7F4E8C0822EF4E286094CAA6E722C1979709C2F7FEDE7226CE1F9559CF4962FE3E994D24D8D6CE884297518390CFE4046B46388B61803B64038BB933D5CFD771F0B715C5D85B4DAF584E38C5D2259158C237F0B4F3327564FF00C26EAB734F9D8F1CFC8FB4B64CD1F085DCB9F82E0A20D1FE3A4E874B3B981A6C0747F919336D5D5653A856ED7B816A65528BAE1113DEDB08F4BBFED2890DBA07BED01A311A1FED9837501BC4900116ECCC4D83F84C674B3CA62CFBC8DD4DA5FBD52D1347438ED78EFE7CE03B73294EA6E7BFF87B46E7F067BF866BF85B76E3DD1F553B74FE0CC2F4F36ADC9D4EEB7E03FF1364F5EA3C55B69719C9DEC1BAD399,
28FFF16D897679D8F7586DAFBCDE9FCF8069B1F6D96F07725EF68ABD8AD944779E9B65D8CA614D10DBFF0BF6724374F7D46071DA1E9A34CCFCE9E8B7991EF8C266D5C5FADE30C5FD7EF7B47D45ACF2F57B78D2EAD32D2171215CE787CCD9C4E0E6F481C56D6F383657698801168CE3B718357560A8B5CB6528FB11920D9CF800FC14BFF0AAAFB58F31C47ECAF8511C9695D59ECADAFA41C60211C51ABAF8A0419C216D742F13DB51AFC3C9FF39082306F5C230E6311D73F5C6191B9D7C6BE8E735DBA814902CF031753F457BABD4577F20FF353F4CE0C6F491B23EE2C596D0E768B4249FA45AA7FAD13E818619319FACF506FE4F2D6CE9121039714C42D93EE1,
70AC0A415DFEC6B8C26EA84CAB7C66480A5E064291EB138E645B17D32F1FB3D60A8A5396E66C5853DEFEEEA70716CE72BF3969230B739485CD0DC2524368BE9135551C4F893552042422E050F9F0C14E52BA1635213581C9BD02EE8773C08BE551AD50EA78702E155BEC9D0D9741D8791C9392E9C4BCE04F825DC45FC9DCFEA7EA422345E79A764C1078A91F3CCEF879489C4CCA5EDE8DB622E69DD5AF39AA3737A1FCE31F7A974296656A56CBE1FE6BA42030954FE549198F4C07E9B3B02BE55BF0D6C1FF5A473A5076F5572F8C31B344DFFAB219E5008F9FE9A8128B66A3C0940E8677F5D317A5DAE6996E5196731F0BD0F5C264EF9618363497CD527858E4,
A6C66824B65F81DC7CB226F427B9BE9306761ABD13B67673BF5E0BFA59E88B6E785CD76DB3144E8F2F223F3D1FD03053CB63629BA4E6B0B8CA199E13CB6C0F0F6B8843169689983AF0921502B4087733544E7C84A143C49023F8A35245295EEA9A85C6F91E302BDD91F88647594A4ABE98A1E22FA6452727CC2FE80F0AB9A6BCE846B6010EE5DB1FA1DF78E29F80354C38A658DB2FC95EDDCF1F6D5F98BD01B9B19A2DE43A0EE54E38708940338DAFE0A0272A0B796B58F22406F1DE83358A26497202475152E6218EE28B5FEB1A891ACCF4720CC21D71D7A6976D3E6BC652106E623C4E9E6108B18B4E0D9268094B3995FC34504176E6454189039244DE628A,
1C11AAFD7A12FCA70ED7BC585B14EA0738609FBEB1EA7C3AA9FB8A1EF7BDA1B58296CE267B6028738C2E8D05FB7F744BCD491E6A51374B634E31CF1437B090E6A51DDABCDE13051D8B8919359ED404B9C86D1484B0E29FB9E6C12C2FE43407E7556726DD657B3E200A3B99DA93F4C9EA7CD787039A70FE6D987080BADD1B27A4149E52063FA1C90198FD3406A943014857EF3935A590F47038405915447F9BABB1D67DBAC76184DC5CCFE1AD034244F4307F81BA835C83D7C7E940D22BBB3D16EC51AD3F33E291705D39AB17163BA9A1CA20EA179C38FD42FA10B547D3648B2F3EC7039DC46C91822076BC20A0E888D82E60F69C774D1CD99D7645B83EFA66A9,
B86092EC310C3B71B4D5E7E647A181C19BE535BDF30194880E257D80E50EB481AFB9F45EE531AD0E98DE2563284626587A7A36F471277A409A5EA0D67B4B747CF9D1DEF2F620B9CD9358B6B472147737E4825F03C474F9B96876BD054C67493D9BB6B766EF55232A6BA97A3BCF5AC48A24C0CA35CAB31F602232617BFC654BD206C16F81788E0871CDFEE77534A0ACFAF444BE5A6025A6B24A07A8561B3B98FB103C11D2CD894E5998859E3940E63DA93330F3FF414749529F487C2C0BEF799FEDCD18FE710D0DEE53490EAF6B4B5BF41509DFBC760EA6BAF68CC755BB2DF58D1BC98DA644CEC9BBEA90832ED2CBC95E936AF5A6A7D552ADF1EEC18CCACD6FA4,
27C00D07F4E9615DA0CD55F6E1A3ADE7EE11AA40805683AE9B9E6994C9732C76C6EFD71F45744F435DCEF8FC3D2A84649F39EB473342FB040829E63AFC2CD9CAAAF5F8D5ED9B0B0EDAFA8F66C3C96E0C54FE99AB4F5862C879FE6DE718579B3F20578746B2A6015983F42A7FCDD6910617CCE5B0A1967C56028BACAF4B0E70125BD6FA3133A91E23A2F4E5E6E24043666988CEFAA3725538C0895BCA6ABA6FBF07736CC9E93599BF1351E52AC4DCCB689B1C50A1AB029BA6782F9F71FA00D5104FCBBC8D40DFD8BFCD53368F8BF60872A33D24FEB83DA1178EF0DB04E0A8F5278BFD10204566214C6285F41885F1FCA5B86671D2F7624143D61D45A357FE10F4,
2E3BAFDA3D1DE85023243C35542EEECB5D1C9B870205DD3668F012280A87B62939B7EA1DB2E97612C3214D82434B5E0FB69001468B0AC3696D5B3989AF791246B5529C0798E7D403E15A745ED074CAD66D2CD104E82C21BB73EEDCA9EBB0A12A4C9234CBD4F30A0EB494900EBACC39BCD3BFBC4A5826D922D3536637A7E2B3D2AC9DD421CB7A38D870576D178DE351707B0EEE2323C8E5713B3ACDB8CEC87077A46166C080CC265ABFA4D4F342FBF7C7E8AEC2B5BE4EEB0DB333665728A7F3903FB9496583C4056AFDE71789B4604B4F5984E06AD92823A235F23792D1322553F832A4D9A5859238219F55DC8341D5E00F9E9639E2F38E1A2470B86132DA6F8E,
D651AA26B9D87591FAE2FE4B4D81C8FC4BC9A508BFC3C8A2BD7619D860FD2A1C1F0ECB13EBD6BBDBA05A4003167CC69DC087A1C8C1705354C201B3162A228605DB03CD82ECF815F12F31675447AE9F0982FD50C79897F19E017CAF24E761F6D2F3811FE09A24C3BA4987DF77C2B7F471A7913DDF3993A7C7098BF3A2F9CAD2DDE70885AB7E19B18F33D62916756393DFFEFAA311598E4DEB733C94C6564AC2DD29AF09B4DA57E4218DDBFC83ABD0550972BFA8606FCECC5D6903679E58DE708657B658DE0ED464B93C6D26C7035469A9515B438198A731BECCB71CF72EA23C4E90FB53C0F7D639B9589A8D58D298866520BA5AD6FDBE729299EEBD2036FB60F4,
EC777F029D76DB32332BC02CEB97A5661C3E95D87BFAE73A919AB902862C2BC1E35235DDCEFBF47113E054897C8F7CC6C15A52B1021A8B186DB4CF2C8476AE95E260437E9B64877E02AF888125767AD9B2F970C436EF4042CE976CA30558F0C01F5D6F79A9F73CB68BEAE4C0A96F83DB827D00461887604AE52F1BF27E849E24300380410756F2A6709800852CA38958C6AA28E807CDC445F4FE153D727F6E7D2BED0B66BCCDF150A017F51EEAFC58B4CADFFF1C0184F26D93CF1D4BC8404ECFF15CDFB4B0154FE28B3B1F8503373EFE4D2FB0F71D3FB4ECA73A4B38E8D9D7FED20EFB6DDAE4AB6CBAC16193B33E167D6B48460B4AFB55E80A8DC2E5A65499B3,
363F0F35FB2C49392330CE2D937130814683288805CF0FFF85ECF8E2B1A474AAE6ED62EA814123910022090031308BF078CB6DE98E9DFA1D3C802B326EDE8AAAEF96123C0CC7CBCBC49E8C879645C2A265C39E8D8A9AE1A72478ABDE7CDFF94F7FA3F1ADAA251F1D3FBB4BEA9EBB1F3C342A4404E502AF588496FAB7256726E275EEC5941B81F103A9D93B81752E644C49449F351B8442C77BC2329306000D1CC1CF09EAA2B8D27C82F560653B7BC816EDB3463A866FFBECC63E926F5360334BEC49A30E939B3B7DDF63B26CC103E3C75ACA33973A069545DC30821670BB156659A4A69D14762D0D0B20A2F6779C334EB2CCAE635EE26C5B589B3141533E9150,
CC699BD4472184AD418CFE34DADB3A7C228DE7317DD3E2021BF810843747D52DC8BF6207791F3DD8269A7AD0A56C71CB100B3706C9A117F227EDED30E445F9B5D8732E0BC82347E8AAD0018CEEEC504897953E7B294334EAAF11364207614E283507ACAB8C8FCEFFAB1E94D36B0C750302F0F777583DA173048AE89DB8A24F83BEE032347337BDDF347003D6C3DB07926BE3D2596316B5D2125C98CBC9780618E43E2C9AD0DF6305BA8E4B7A907374A0C6961647451ABFAC5A1744FA5F8FEA6347CC3DF35E68779037775A35405DCE3A7684C21DBCDF03BF463A565DADF58AF0B12F234E9DF2830978D038ACC63896A560BE7877A1A838EC7D69D0B007D46E70,
05BCE5A8C3B53569119C5F873F33A8BAEBA43FEA3EFF2EF838FAA56089B63E5621C49601E62CF1A2717FE73EBC08122BB09BBFBA17F3E41F7A6BD92D360DD2EF6C8379D4680EAABB4C32E14A03DA68C38D59BF525BEA41F3B9EECA0E764F3BF8E4EAAD07A5004871E7862F559ACB0735C25ADDCBF3DF6CE2868653B11F64423C0A8DE453E594CB40AA4157DB6B6C397A8D857E0DA79DC22DC999C0EA64596A4ABCF3773C83F1D7C89B15BD52D7E6B53CE6C932BD1B6F45D9187F554A1B79DB181B0DB6EDF60CD4B5EAB352F0C73471BCBB8377D42D718663CDA2D688D63764998E8A50B2EFB728C02E38C5F83E3546D252B9D45298EA9DA2E91976701CB8AA55,
135DB08BCF7068B4032087E41E7CEE4EF663A6A55E489268D1AF557E324CB698F50FB634A0F10D5D701997C59405FEA73F609805E9CF273EF719AD55DA6B62B52428B79A4D1E50FEBBC9ADB53D79EC81DFDD3EB37160995C2A5220BC2DEEDC701BD5F404633F9D4BEDE9453ACA8C536682758A23FE9F4FD96559088439DB9615898C0FF9F8924A28FB06D306A0D42A1431045C365063A58DD9C367C3DD1118B5748BE088F46CEAC853A0DDEC3A013871946D05774EB6F0C0831A435782FC834ABD1CDFD2EE48AC073FEC67580CDBA025D529BF7092993F38DBD19C2AF28557773080363ADC7BD54B0EF07094AA225BEDEBAD35A5A35FE5BA9E1A592E87D926C4,
02E11E5577813BE3C4DA8706545F45C886B4BAA90BC4C758680D454B61EF8040BCD9FF7E946085ABDAF316456189C235594CF734F5B9B37CF0323498B20233F88AA9BAA23289ACE780E25C4EE05DE3DF7DBD2953961F74870A4DA0C902586C19491B4FD384E5BC6DE20AE7EDA24C1199DA36EF1E2573434F1E44F0572010AE0CA0DEFCB41EC86674DE519578324FF29285980D37EDB86919BDAC4DC4E8D210F98D574BD7F6810F4FC1B6CEDD71B42E386996274DC214B1A6EB5435F3FD0497B56FEFA0A282917E43664CCAF3240D486C2110108662B27BA24FA3377805B98897550F0ED30F6431E1E25B1C388603AAF50A2E10017FEC1580D6CA8A1C22B2C3D9,
55E0BF0B96D34D07B55DEEC9AD1D6C8C842D3B5095CA169714994D2CC0AFA924229A9728B7E2D26623768D42DDCA7887B420C79771058821F6918BFCCF60A03013D23913D26A9E94B3556237DCFA87BC96E374D2051B9413B0BEBD6647F6D209255530564C5CE8F63C4F450279642598AA310BC5E486466245646785E2593A685A364D87A245E0CA8B4E5607E07F88EF2E06B860E76A72F9C60D2FCC8CDAA782282DEA9DDB1856590769907C2DECE20FC562AE405FC0D83942B9D7EAA5EE726F1AF61BCD3C69648093443055A7C5BE374337CA42B2460250346BB556FFD225B8759BA04E40B3C44D71FFC6E70E7120FDAB1C270C385F034AB1779B51E32070AD,
63F5D8CE4DF35FB266DE63339E5EF7ACBF32CC4BE45B45A0859AD09A443914DEA046BAB2A06C355568B51C699420FFD947B88D5AF19ED6614A2106318478951939A3DCEC5942A6582E0C69429B854EE9F44810E07B102D73DA6055A35761705236BE6007B1C181D81D9E758E0377EB7F00D1881853CDC8E0E12ADC4858D3B65E2E23CBBFDB87381B2CBF16D69D8241D56E94FD924468A9A2D5D579DB8CABD5A8ED52F3582313E4DDDF9903BB9429014D926A41A191BC26662F67F5A1572C1646BB643A48CA8F69ABE47603F75B2BD10BBE647D9CC13B0BB8AE6C4DD2F9D8E87F7C75A39B01919E593B0B6B0050EE5E3F2A748FB2AB1C0535A0D636AF512FA3D8,
A5493EBA058A3E22BAA0C237833D4AEB4CCBA28FC325019D7BDB6CED415E892827BD271925A272BE4346DEE9A084872F9AFE1C0E04D63ABA4360021AE00114BCF18795DA3702CF4394C5B635B1FC894ECF8B25E0B46EA3580C5F52F334DC058F32211055BA039515203A363A0E939DA22EA72FEC3B7FC4C2DEF189345C430997AEAB86F981F5E773526F5C61857FA669D1BC24DD28698B64FCE84CEAC870A94019D3EED96EF40EB0DD468A811A3172196BA5EC9906B19A6C76996C7926F008A08333B0ED25329B1DB808E14AD25D9DF91F310737D0F56BDC77334CD074BCE1F02BCF2B7FB527D853DEF37A9C3760F81D0C0D3D952DA11739A1AB5B4C33CE38BA,
67D748895943E9A4AF500381C3D496EECE9E62D063A051CAFD7C666687FB90C7C1BD50EE26DB358858BBDD2CED1F2D5C3CC6A9C8C6D54552BD398E3EB7171D69BF87EA1EE9E0FAA7AA7A601F45EA63ED1606B5C9B299B0E79010D0710CB30FCEF834404683EFF4DD6CA9279A78FD3FBCE2ED5E51E0222764B461812D97361CCD689B5F43C94005670B8C0AC93BB9DAD0295AE57EFF1C5618F0AB66E57966DF6C0C510A1BBB5F921CAD115DA313EE6CA5AFE7F08CDA408076926DAD73382B70F20BFC9917D31E75FCEFCA35A7DD06C311AB84E651F59420BAC6F104A0ED85AF5A59DD200B86605BD7E4E0E2A1D3A72BD6694CBAA7FB88285892A5800C3816705C,
4DE6364F6DA9754C5A01497BBF6B1E8CDA7E9C25DCD810F5413E3EC21D5AF3B7A04014C455702B3AEFFCCED87F64A32DA36AB09DEBF79117658153AA74C06839EAC2B8CAF3B9739D3C0E2CB79101850DC5394691CCAEB68E710C89120412CF797D18A086772F662200B5A18B8A1146464AA3EFADD4A06013ABE7CF9EB2BDCC2CE3D887A1153A09057BA2A7DEF579E78EC59FBB7C2E5BC085D424D9B6BF45A020ED292FF627483A8FB31E9E44934F7DFA6988F64914CA90A0CE3720352F9407CE483E6EB23146E6E32EED34C94BB95051F30F7301325D55821CD9392C6170E7E017CAE91B8F8ED8B5DCDC7DE92E822FC596641CF5A31C62EC2BE97E828A82106C,
8655FB05CEABB0AE18547CFEC0716F451F95539374A5F675EC9942C37DE861C226CC2BC8C5B00668CCBEE87F8B7C4D5929BDC1EF1D551745294EAA790EDE14F59F555FF8E16AB8637F7DF987BCF0AEB0F621980D09D4C062E4E984E325E5F9069CBA4E4A5236E9BF15FB9C79C8850C3F45FC36DD13DAEEF2BC96960F9C75FA604F15417F09A9C1E7C65BEF7C1E9F62DA0CE015BB1B364A110F478B4216BC36057475BDA43BA6A44C793113D595E8C5D5467DB166F20723EFF6CDDA87AC20BABC5AFF788362B3C62CF7164E49B29A8F9932A04B128CCFFE5437AF4C801A2FB69DAE6BC9F94C151033B5B9E8DFF932A837BBE95FD2F39B7CCCAB9906B8535746B8,
842DE91F1E4506668E2762337992F28F8DDFF4E9F896B26602BBA391F8A13C8D1F4A21B0FCA3FDFA03B5A7FD9C66534CDEDA002B80323C1F83A6AABC2B4D0CF371B3302251B643E3DCD4196438921480F259179C6E92E909C7A3766E48A46FF1366A3705A70DB0067CBBFB648F74C87733F22193BB3AB70A7C30426691B6EF4276540FBB98DBD5FF98CF836155BF9B0B3E78EC2CCBF704A799AB9BE3595D6254E1DC51189BE3E5DBD400769D0704739F7D184C9BE49785C301F4E2CE9913F574794D17F841194BE68A123C22F5FF5EEC6724D031B06CB37A4381AC05772A1A0F76DC1A2AF938C71C1007C38754B783676FCD7264419EA775174C612A67B92674,
CED8C4AFA5D708C56E2A9615B08CDA163D9C0A2687C975ED1B0390EB2292DE47D0CDDB3BC5BCBCB3D698ABC0AAB96E1F83F0AF49D5BC3F66F614B01F921712A80497C505B5B4801CE77C41290F93E3B04B15BAB9BD8A492609A511032A66C19565AAE23687B5AF00D693B815A7052B85A43FC5F3A5AF2178AC3FA33E5EA765D26AB7D3A1188308BDEFD335E32EFB37D079292F0FA7123732D211B2CCBFB14B71BE2355498DA3F8CB3D0B96D6239BD4FBF780B8D12BFAC54D5B5D101C4726FE95BED8DF38AA66073D8DBA6A4788F052825F8C080166B4DF5721C24906631CF71B873AED85C05240F885D694BE0AB02002AF75EB709F3037157E2E011E11E77095,
B25A55C4D1DB56E0F320A3CE3203ACA1D2F72462EDD9689D4A488103BB57318F53B0B69CBEDEE5CBFFCDA93064AC272BFBFD7F4A1AFE9009CF7B39180CFF0F7E9E81CF25AF004158D9669D843FA375B4280E88DD84A70F861E2C02E8E874DD0869923C5B0FBE53C23CCB2A2FBB87357D238CFC3BE184402C5146A3C87DAF310085DC1E4E9BE6C35B7670113DF5A626F96FFDD711DBB4B4645DAA2F73ACCC7F696CCD6433EDDDB04CD479E18C398733BB74B1D2B92564677D39FF421C9DDE887289B80D40137A1EA5DA031A7550B30500507404637B074703A280080B80738D01BC8018599A28193C59A704618D6EB7C58A4D7B9D43C988D4E7C12C46395BE2EF,
B32FEBBD697AE75DDF742F7A3A11092B1AC74DC9AB6A6D94F5566D1D388CED8EAD504D37B4D9ECE6CC3FF63B530A7527A7DDE874873B90B04D3491B9B310F72F20A93320A4B9673D84336BAB5FFECCA47210726DFAE6A373C84E7D0142D39E668FC4D9687B918454E89A7552770F68DEBDEC4F392E40BD8A0B4F130FE8EB627E303322CD4B66EED1D957ADAA72234BDC5ECD0C6AD377B2220C6AB4633E60367B38D1A81808FE8C8EFFAEC66CA088592197C3B7BF4FF8B331802003936D9483E0827C5B79230A4E7A0438653BD7982D5DD27488981622CC86556658A4E84A0BB0D872D22B3A3E28F5BA20D2F9FC58A3EAB506913A35C4A88E17C12D3A0812FABF,
2C9AE1F96023D0AEBC0B3A41CC1761BF6FB4264157774657DFDB23C4197109C49745303471345CCD4B889E50FF61C91DC2E8E18E9003C426DAB54226500B2BD28861B16E71456C2FDDC6052D79737C533F6354204CB690960A65C02A4045C5742C53BD5123123BFB67A6FD23075B42AA2837CDA21C8BB3BC8CED554FE9F2859286A2589148F7A6780783A3D527AFACA24FC7851F05B955D366C6639FE5CD24E2A241DFC4775E19ACC420D8615A3BE8A3BD843D088046EF7C461B978947F6277ADD7F8890CB97EFE145A279A2065F8B62B88B33DBBC875A73FD2E45CFFF805BEB41223A9D96A8BAB47A2D2D80733D7CB948D92653CE442659108506E50D52616E,
A9ACF6CFF083EE5E02D5622AD278D9C8D829C11FD12CE6BD877062043FF084F8C6FCA536013B1255201157E12E51FF3C46E559B2B8ECE077C6A569014937F5752B901E460016A46A75247765E538A371D796052C54B6E1D294D8B1AD65F8C186459B18A823256C6C12387D341A53F24EEA773030DC9D64E9652785E1B6BBA8A6B7EED72B8BB7440FEEF3204F31580940201DFECC399C29952A80629C34FE8FE70EB3590DD3A74315EE9617CCBE451093DA1BA02D66AE9645CA4807E365F6E71C46E982270727BAA1BB8161E1A7603D7FCA3EA67459020DC1364BC4ABEB45348DFCDEF787ACD8B615360AD81F746B7518AA8478EFCE9776249135F32C197C76B3,
B0D875297633E7B7DB19912EBCC564B22BE064EA77A652DD3A16FDF961729AAED77AD2AF4413E46B53EFE52B9B0046B4A7A65CE2E107EE55C365204C9322896B753CAC6384651F1EC4B73AD80CFB8704FA2427A97A562C1D08F8C9CC818B961A3F4FC36E99CAB04AC0CE060CF1E30C042617F9347769C2B31888078B4B5270A6FEC52F080E7A0821C540E520B2020F86E5A1A14F713A71E56C9D8F47369BE8D572AB52BE4745DFA71DA2C925F101FED7309E5724A779A6DBD345F0597ECE3E37CE48770EDE8D73079B5565E705D1CD9E1FFBD956F06B4C8B993F35E5D0CBA4660E796DDEEFF6FCBDA197C41B427BA5EEB14515DE5185697856AB831954E776B0,
8086E4945408F88388171B55E2D5988B10FBAF2110A4DF2CAB0F6EBFED29A2E68F320D075252C7409DE753BE33BE116C14E5C2679D8FDB776C92A41B853D4ACAD6ADCEF336706C86B07E57AAB9C0DE49E714D595BEC8D7C79B6F811EF78B1A2CDCA9D2F991C1CDF02F0584EA40F309AC4248D6F50FD9A0A4C365968489449AE6333A55DEEF48F7E83F5BE0F3303350EB4253CE394DC1862744D348A841FAFF2DB9F56F6C8A7E6EC94400B8257DBDFC838F510F06333888095F2BA7B3D3BE131714580096DEE118BDE79897BC10C2922AEB68BF7DE5E6378317FDFD5679EBE46D0CCFB25700EA9D14C144A249AF0F6AB0B0C7F0025696FA73AEB12BF852970AC7,
E5F34F611355C2D8FC0A8E50D84647644B85FC442E217215F311E2D6F63550FDF9AF8ECEBD319AC757FEC7928C6DCAF459074373D0B13D78A1866AE49A98D55C994FBAF1365C5076714BFD83A600502FF0830E4C96276B963F879E7B116FB99971043960F91B16EDA3AE6AF2668AABB82C3CB88D19D3215769BA794D80D91CB6761CFDF4F471E8AEF0C40E9DC8158A400160EA65DCE96AD4ED9AFDC39A4DC691FC64BD0731CA6488D6E771D88DD9C029958B8EBFD13EF74590B9839F422AB1D0009D9F653EC8C1385FB3195ACF9AF7FA9C738662050BB0D8D1C5C1C44162400AC03E438E36A96693F226BF889A3F5340DF9578CA7954172570DD56B11976297D,
A06389290C29386CB4425CA50818D4F847F412ACB3F58876919597E78B65B13B1A7AD42E1FE89CA07DF28CBC8F712DDCD540D86EB7BD67CD0F0868A28DFA11D3563A8517D5600958BF3192AB294AF9EA99A5338527BBADCB6F1940D9B9EF1DA85F072E704DF00D8BB54809A92DA076F85B77891A7874A2602B3B54332D5BA7F1A9B02A2C71E5924DAEE2E8FE79244F2D394D8767CB254F16D359EF92FB448AC3E2F56FCE1B6BBA90BA1878CE2364FEFF4AAEF2577213FC08C9EF6460BEC082E1AA6B89F089FF5A3027D20601774EADF4CC5E9EFE610C0C8D3B56DD75896043060F7C33DF8712D26D819352472F9F19B6AC88FACD062AA0424B8A34DEA1FE4DCC,
A1761C74ABA76179FDE495CA4C8D9F47D46FCA92F7D5FDB99756DD7D4ACBEE7BB6CCF41056C5652450C79C95D42D19E0322CE9151F651FCCC151B588119A65798BD8A33C9289B1680C4CD424FDBE16F65B1C62B24F26E69A991BA3FC6368C83EB558C0259BED01705FCAF44773D3E617D321A1D56A56CCEE33D50E98C894E2449173A70A509CA73F25981F45CE7E1E3AED462F25DB2C3D8CB3E411CF782C8A98B461C467612349D44C932081AC627D5E81452D78D0FDD8BDB2EB53507B87F557E216BAEF45171C1F841556EC8BDB0BEC6075366239A7F50FC04C5B858D0193DE974FFAD734D8EE210F25B125E54078A673B709DCE90107A023B4C0F982DF2C0D,
7E5FE20898CF3750FDAA2D8BC2CF2071F4E584EA39260EC91511C0A12B3248E87BA4E3C19E36CD6BFF499492F827C042BB221503BCD5026CA0129143A7475110BF97F13CF096B32A82D194A6036479669A68DE231195CC54622893370CD1DDC7A79D9400C3628359220045F82B99B73D659470CA70FFECFCDE21DCAFDBEF692441E7B3B2CAF32EB8A811BEDF4CF9D80F456481265CD00D8D62C92E389594C94BA8F65B3239C89FB59DEA2DD679E67DDAD7E49EBCCA7E168EC1AF21F2F16238882D0A2C02040BCE8CC0D8761009D62004E6AE394D0FFFE03B16970094DB638384D3B832A3D40D8112B73F6C9F93CFE21D9DC0ECA720C8135B2497EE3BB7508B09,
526CF9F7E3A2D5724A8B0E03741E5E4E8ACEE777556E3B90D183E18A6DC07C4F8747116CE8E9300C477546F515A329A4682747AA78C7B96BC29C8472D5A77CB63F529272A297F0725D585DA7CAFAF372D88BC503C23BE0FAD4A0B373555C55F934FB56DF41EFC84CFF37509B22D8A0CD53BF6BAFDBAD5FD4EC89A4058EB59F5BFB8522EC3DB16363EFC600B31E91F7D50019186CC51ED33EDE5307CF8B4B11EBAA3D6B7D2BF92AEFB2FFD940D03E8E63C7375544281DD44DD96BA7F7B5570BF6EA9A74EFE164BE5D2D95D49B2B65D4E329FC39224A04BAEBDF190B43A963996CE3DBA6CE5062C5BD79999A6E3C5161CB168FB36710FBF8F96A60474FCC3808BC,
5D7B97FB84618FE5F791AFB6FB48F6C39AC2ACCC2B6930EB1DBE6A0B4A3ADECB140603F6A938C80EE55042A9052CF8A0ABE0B164D7FEE79C2128B0A7D2B4152C9DB631A9015F93CDF2FFDB668FA12CE0999C7CF048B7C5A14E9FC5351ECDF65D5A3F52205096FC7121F88AA34926B18E64657D0F3870FB875FDED7515B9CED277FDB4AEFBF291B98FD5391B7D6FD79CE44F23735FA778B3B3E09E824E5512A13C477E9525F2EEB7F8E7304DBDD3794814A2948B2C0DC3DF7A035091AF7F574A84A01EEF7529A265B1968F88396ACF2F0B032D11DA121DA56183AF308F767F9F16DE3E3D91261D42AE4B7FE99DBB29D7A9CDC06F53A2792014567798BB53356F7,
753C034670F63FCAFFF57749D085EB27146DCB42FF157C18E6E65B669D7D64F0F851D74A6EA522DC8FACB912A23713F07C80B0A2E5A6730C442FBAA97E1592A1ABC15AD164BF79F0ECB8B70FD01FC3B5932FE80D44C6B1F73A321B6415D301F1DFA331B893402940052DC4C63F5A5CA508B648A46BC80A7391CFE75AD2615311FC596EC502EB3F2641191B19BA93C3148F68BE0CF27595526EBD646149B92EC529C64B4E56FF4EDAB7DBEA867F026B0B3CD14D153EA90D21DD2E00355F91C3DCD9DF9622B936439210ABA8BC974486C5AB6F8EF5A1F53ABD72463E308A828948CB31CA44D229001087D5588366D628CA2F783C450D0E6A5DAE71F7F32B94BF52,
610403047232F2DC0A25FA4C8AC1B46224B093AF2F3CBCC7C1763AFE5A6B4E3756DC1BFBAF27216E2B996AEF7B59B81ABB234678A5295F74B97F5D6A7C0B2632296822F07B9B8613C686D97A58D3F8FCE32F1870105C6D29C0A0C062C6AB6CF18651C16A0F035BB242D5DE604B1E97D72696F083ADF92EA3AC52B1D66F20AEAF857435C212447C28FC5B7A795A0B98F9D39E758C3161BEA0B91D8893D22C37DAFABA163D43C037742EF8ABC4EA2AA8122D3D3A17594ADEB2E3F0176B96962A15AB5DA764E451C57312941D36F0877F3BA59D33B587D083FE20E23471B463ECBF2BF1410BD44951D28CF5BB139ED1414569A51C4DF111C90A9C83847B09608823,
07E2FBF9AD51B47A277C2BCDF410B7FE76084FC74565B415C217722672791638759B6C0EA94210B52F90E6A281042635AC2B65BCEB01AB57610AC6C49C1A4A5955C56C8322B191F6D71B1584237BE3EA1C1F047F9F42C87E53E70A5803693A42B7CEEF2C1BE78CFE481EBE62FB44A22E1E79268261B6AC41E87327873C379FD41AA93BD4FC12C039D283388C46D5303C9575239E4178B8F05D51FD4397EBDF9DA13433B6553CC6AA21505CFEC39EEB520BCEE414A2679B8315D0738029FB2CC4524BFA077EB5E04D527C9E02DC9B4DBA41E3417C5C16D305072F6F877888BF39443400D155961C3FA425472C812AA59B2B8F066571A683658F043A204825B432,
B2A133C7B7796BE6FCEEB81DD6C991EE5927CAC86044F5B8599EAAE70BA2C0943ABCD50FCCA40E01C5ED3D9A5AF5FA426AB12D63DCBD8185E4A875CC9E7D6AF99B6D56AEFDC07CD48CFE999C2B3EEFE9027D9A6D34A9F9203CC87E42632A3ACC8CBD64EA8552EE81B8DB9C931D26E33D5AA9DEE5309BEA18DE839AD8935F167050677A781E586C2EFC7B3A99A2B5BCFE9176F0F3FBB3D545E5FC71ADB883A47214FBD51F7B502CC16054ADAC6949A1A9A1763F90BA26D82B34CB368FE72F0CD94AC74A88750B12E57DD55ED4CFBD26FD5120B797A8FAE5C824513D4CC2EA4B754416F060C927E1CB49CC3C9874EBED1036662F7880FB1B36C5273BB35DD4D9F3,
91E6F2B57C2FFEAF380DA8BA62737891853099D9DA032DC20DD2A4D45D1D514370370807C8B2181F6EFC1AD0E582360528B7EF19A16260A6DB93AEEDD9DD96D0DCEBE9930BDAEF496E504FF82021870D04925813FFFBF923FBCF7F18B43C3DE8142D706B3385AAC88B215F259D7F3CC6121892991A9569B5E5FF38BF46B2970D1BEEEBD05CB68AC69812206BCCD777A0D37D3FE921AB4C80F711039739DD641CA1CEAE2FD106D2CFCA2649CA830F5BAA4A736920E3ADB9CF2262C70E5581EC48C092130D4BE4F5EE56AC6236B81F75ED3B9155711C1B8F79F91569AAA68D314321392531E5651BF7256E529073AC95A224C2E597993DCC123A6ABBF88BDC81B0,
4B3C71F0E6D7634B7F41B51D1145DE4F4152543E7C351AA1D92AF5CDA03DB3DA3615621426E7A6822411B09F55A1EBBB9858E7E369BFCF652BB2598F849F315CC424C8C9318131AC83BEB0A44EB04E56B365A46FC23F9B323CED0B902B75F55C1142DEE68BD78E4B18F38665B717B18D8F878744F4A788931D19039248E969AF8F0E0EA431B98CBFDA80BFE43A21F4622B5E5EE53CADF7700ACC69DB2C3DED3C152E4D09610DA1ADC7572925EE048A38452196B7A94C1F2A21CBBCCE0B35E8578ED8291A64F2FC6AE0934031E7674B04BF7C97DA604521A01CD521C6FD3809111DD5C1DE99393D2578EA76DBD36BC4E010DB1FB4A87676A572D5AEDEE8C508EC,
33C8FD622113EF961D2629578DFA3CAFD427382F9F40D30FDCEA595789D51684DA6159A2A393494E8B660B390774DF99D145FA17A8F0D0821EBF11E0AFFB91942740A0B3E7ACA8DF134230A868C25CD63B283CAA75A473AB74CEA6A29226BE37BE1D241A151C671E9B2FEBBB188BF6C657AC61D704E3AD0EBD746B67BFCFBF1508C18928CADF6C65CA7738D058F910BEB1F6D575A384B3996026CAFAB0E0CD9F74F8D22D2299193829B44C61C0CDD331713CB5A1D67C2875CE215519D5960D512E9BE390EDF449B48D7429E472BB51D4947E1780F299D8BB9118903EA41157D9CF3765060BCC8F3A99A7C78750CF9211C815A202E4A9B1F19C5ED646023B2EB8,
A7DA0B678FB38CC188050222538740D063F62048504C6AC753AE91D71C0104A2E21670183C0AD5C52833CC7B6E5355A4E6BE043239C61BF7DD25682EB4DAC011538478DE42854C500245B5D89A22F77A4D35D475A791B0C530009FF2977A892CAE87EDDA2150EEF0C19720544797B2EE6FFB2CBE59A0788B676CEB42ED6F554A783E7D8AE110EAE75577BFA4AD2A617E9DD34AC604E98326A25967DB22DD55BB2898BD378085B63A5082418D60E8E4A03A4D4453BE917B0B939BB7750A94D03AC2734A3C6AB7F32B7E9A2D9B7F768C00AB0610BD72ECDD78DD4B01D10CE385F992A66BAEF23B13CEA9F97B2D77F00B482DA222ED57AD73A08B3383EA57DF1CAD,
54AFAA5BC4F58F46E27A1BE22A1B8A0DB6490DDF7F1542083F1B7514AB0A0BAF16BCA563A16848D3D1FD03CA39FB34899591B1FAEE94A601FFF965DAC38D0D30F54CEA6C362297629022E9D794D91126075CCDB4900D772B6EEA6C650908C3097A328221C739991C97181E15B03DEE5568F552F65E90DDACC2ECCFBC6BF0784AB6CCD7E53535420D32BCA53F5158ADE7E576BE9D151CDEF82D69955B152582EF1F4A864553E10AB4A37396517FFDAEC51BC55A697531F5F4AAF5841D79F09748EBCB5598D23460B50EE5FEDF480D82AF9E81B8916783D86A2135DAA8446D5D6AC81D250A00C0B7A395FD128996E738E731B562E93A37DB09911983B75C1E0437,
BA950DADB8B301CFB94B07A09F9842AF353448B619B5BBBDEA52DCAC77CFE6C67A5F698D5B85997759193F3A2C15412B5D163B6DC268C8CA4F79AC5B4B9249B18F7F6FD35F44C2B586617A5FD2BFDA0567262B83FDDAB19DC77110A455FBA647AAE9B29CCD76D509DE20ACE597A5297E660B078E0C05666F3ECF4D75CB2E807DCCC528B8DED3FA20618F03BAE693420901A373018B57926A8F69F3183C9E2F45D182E1E88D8F3669298A9241DED8D61F468948302AB1F5F260B52FDF0AD769FFB7891F397639481266154F7C8A5544BFBB3CB4A8866B145C85A54043AB9F84A0B06CF93B4007A626CB1933BB1D1417DFF12F31D9092DB22D11E727B022F5E6FE,
E39421727B43CE32733B6313DEC5F623CEB0061F8333AB739866CCD7508AD12CFB9D5EADC1907E73DFE5F224B229240873118BC5885A0EF620B6A6EF99CEEEF6DDE80BDC41BA1B1AC1ECB6C38CFEE98D629A2153411956C3B8E9876CA755F01D7E0268D3E405B65DDE29CDD0D525C2338D3DAE4DE16153061B546B71219EC3C66A65DF4CC75A3BF33B9DBE4F5545C0E46A50222602962B8376AAAFFCD10B5410323D26A09433E448FFE944FECB6981F722E8D7CBB5E20F462A0273781E105C66307B866D150B6F81376959F6B4F79A3738E811FB7FC32865B272AF9200355407BEF3E3A77CCD48C19B72ED89D05F81B81650B643BF3CF30A74E4EDFB48C87EAA,
74402F817DC6BE468479BE1543660B6C8BDC26C3E36C26EE91650DAA6A1FD2D9CEA9624C1D6A6ECC30EF8E9081338235F6FE9FDAAD954BE4DBE88FF453F79AE21E2168929A0468E4EEF3692EA144FF10938940B759DB7D270D23CCFBD4102D1E8CF3BA77C4B90C416A8F0F6593DBDD480A47C9EC4EE6BE3B8A49A6051A9E9ABA2F0D78FB88967FE8CC6CF48D0AEF971EAEFAD80B738D60F9BCAE5D2923B991326058E1A49C88F37AA21DBF04607F401E4DBEE6ABBF27778869779B72420B3E76F471E70F08A143D411D5035FCD6C82DBD768307283D77A4DE1A8011925D17E79996AF9FCB1DD8E6358F29FA09D27E2B2D9CC78935E6B99E2FAEE9BB140CB39C9,
020CA6511EFEC7E895D797EC189FADB8BA5D5F0B917E9750557272727012580CE1EBF9F601568D1C50C0C2A201EAF1EE03E8D83F84AFF8169891805C1F36DA26E25F7AB63F1B1C388813FAC52FB4ED401FDAA687023FB2E43EA2B39835477BA1776C6F3DC4DCAFF71D638AE31D60303217145D428A6C6F6778446ADC58A4C3C593ED49BEC7B6792CA95249C844F17B43619AD8F270A799BA6288333470EB159194C77BD04A09E39C0EFB773AFF346D9D499499E8C549276E614932ECFFB5CF82114B5B3F369A2B48AB3E215E1D269881490C472AFA4A5DA29007F4389AF9895044F5A19A3DBD6A90E0EAD56BFFADFA2AD555241C065B8FF15BF71593EBF589B0,
8F0B571E64D014606FAC0C40DAFDC3FC0FEEC1E23C411A423E9349D2D87B1D93022B767DC4F767D9279830855DBDEA243E36497624A6B91278D1C4678A4E869E00EDF6B53D57E990C47436FBF3EE0205612DC20193163051841EA156760C4E871ECA7808710B525BE0C7E68384D6BBF9BF1666C4D2D896EEA07268CE5A118093ADA80077D1A68E99DB906D47423EB306BADDA6C639146D53BB01B517A853C4627D9A879D631A1A4874CFB110FCC1409B0E4B4CB20D62FB9C18D9DAA8D84B12FDF2ADB5F6AF3F809FE902A181DDF850D85D56E6D5C3BC6006C752DF62CD3BD385F9EA68D29CA870F89515747C9A739FC71EB8EA507DF7CBFD2FF5A33B52A8C36D,
F244A60BD9A6D401B00D95B1353B5DDFD05EC623DCE25E6AA36EDBD9BC4F6EB822CD363B7D50DF6E0BDF3B92D02722FE50460A58237396C87860D5B7234A1BC5DCEA8D58F28E1A065748EDA133FE329D6285A697A5ED482B6BE9D426CEF0ECC5D0A3D4F2D2537D1A6A25B5B1750A9095E69CA3D168570655CFD146DAAF5A9B00E215EC183D6B2D5B13F7E2D4A992F03F9C54B4E46BCC2C01D253376959D1120ADD405C2F7C8987139155A3DC342C720C83AEF7DE14807FBFF98AA6DEAAE838079BBE6DEAD32E32C0532EC4193B42D54DD822F47D0B11877C12279A6CB15CD8BD3D947A1EEFF54F71FD3049A32FCAF12A9B55A96549236D7DCB199D985E44D429,
09581532E1D562CBF2012EBE3BCCA89ADDC3A5B1E2338C98675A2D39969874781AF36EF5547657B21CC2B5872E64F99909EB86D1A2CCF77F1A44D70869EDBBCB4B46624CE676EE3208D5C34029959A990634B25704FFF899B185DCDB5F05AC9C45CB71A2273DC1935E89147002B4C393227D934D148AFAA02A81A90A773B63D2DA14803D9B4C3B1DB9AFF7AB072CA82A8B30A170CEDCD5E1F59C273527D6B884D772104B062211965B963043601BBAC42BBF9E460EFD89E141F459C72205D1932288C3BA7570288DA450FED93B62499A534EDAD220F2C2E866BEB1E5C23D93A9C3494DB6B4D9D494539043BB3A185C383F38DCACC2A57A32613A8EDF10770B7A,
3EA48F697883D25B181FCE0CC7CAE04800B62F010C3BAB1FC839CE4564E3FF4D816FDA6257A6F7EB5C00FEC876936BEE77BAFDD608898D6CFE37969110E5F3FC0F9EFC13E74236C0AE1A3BC643D527B2D9D1AA29DE9C822522E2BB86F243A8965309EC1963229A31712041772837967034DC4BB93C5CE67E706CF6B51C8CF32B5E55E5612D195EF00C8F728B75371F9B18CA414CB2E6D91C3A5F7B4BBF4698283C8EA062CA1C3FF14E10096A804EE653247DD54C196F319ADDDDFD2BEE3D4D14473090EDDB2514A56A940763C1C522C00570E9D4C229B907ED2D0DD8611DC722EBA923867C01B5B663AD0A4639141D40DA290E81D142B5551C5B91A603727251,
EDFE0F9978ADCD89801D2400F3E619E70BA504DB51506D90FB46EF7785C57231D067B879AD27AF9C4B1FA0D45C0A27C7A8B509A614225C8ED14CCF505CB608AC7EC6CD9C87558C004BEBB9A979D30B4B1D17B9392D3E1161F76C3CC599DDCDC251F971CE68388A878433BD78C4560E3CC4E99EE32A7334DCA2A24A70CF854BE3DE29DBF5499AD34B86CA66DBC1F752298B4351B1A56CA44E7D1890C8E5E55408F992F541F58986488998ACD7E80B14984105991F3A43334F4BEFD3A721F271D0135E6DEB769869391A7AFEB8E6C2A128BFA818E0051BCD86C6A8AEB35EAE62399F0AE6AC89C91EFE7DF212A4E4DA0415CD2BEC7EEA5EB9537A4D506C1B992CDF,
262C3F1BA0AEC2848E52B23559E9C230D206BA484F86F604CDCAF0ECAA3CC8513654E8653324B57AFED47C67560A306330DB1394E4F9BB389AA9F1E9F0FAC0039C69AE9B78A12AA91237C2AF5C3936236FE635379C70925C2EC3898579BAFC64FB3DA3CACD4075C1A63F863E41E985CC5DA015A8EE0C2165AE8E4913032637EBD573211CBF415D7D432980846DCC510262AAE4B1DC6B92764538BEB9F40B702AD496ECE0BD25869302FA646C931389EA831F19C680C29FE952B3DE2B154107882C446F678B82859139D288DEE9969BC13A282FC8101FF06E569F43FD3529DABC32E441CDA373E40806DA0FB7C8A50D9C9EF2FEC144A4BCCD47562E76C4E5EFAD,
9C8E0D1B1DB5827E1E1A397D0BEF8CAA2362906D1D4F3B72E35D3F3E7368EA8289295F596958797865074B907A459308A9B35A5DD322445508A21AB2399ABDE9FBA0F7B458DF5033C80C1E12580FEF9079C96841C48B8698CD3712CAC29925D5F8D17A3CBB8AC78CEE2FF31B75C5684E7B6F7C62CD566B282ED990D61EFFBB31959337BD21AC8A650F2ECB97807DCFCFD3A05F3854CB89BAB5C8E841592877BCCAD050E36196D6B245A0DBE14D7D1E1048F914D44D21B2D0BC718F60678CA0C776E9B1897057205E55AE02EC3647E1A7EA590258769A90B0D2336DC01EBE05B38C71F9C6143149DA22173DF524B5182E086075B655443D89F42B728B6490A98C,
FBBC6B15FB25E95B19571C021D9FCB99AB4A2987979841FDF4F9682ABD6EB9F3DA408510E1583E2D6A98A77F7EB7DFD0AEB5338D974389A9560240DACE9BAF8AD05D1CA4096F948554FB663EB3497A614F41D0EBE637DE30863DA1146143329E8923CFC664C27C1922EEAC3A89087DFAFCB19729ACFBCD88120E85463C3F6E7A86C8F33A280AECEF9C257214E31D135B6B3DCB665B76959629EA07A546175EBF7F9C7DF49A8D578C2C8A0D4C84CC0E725234F998E0B2CF5E2DA49BC249EE447DF641DF07AB79D62BEFBC0BA0954D3F15719B4060CCF7A66DC8DA905985EE11CC42F6F1E992105EFBBA99C743E92DEDC640702AF990CA4C6B7C9682F7178D1E17,
EC6DC9A3D03C4CA3EAC93C3114EAA0B603EAE8651DB2F43E71C66CF64935F52BEB7FE3F348E804416E8BCDE2974CCB89BD55825CACC4F609677A6BC70E6E01332ADAE6AB376BE529F732C175C97EC8736494EBA0E918C705F8482C929AF895C1C4F3C7B92F0A95D5D0F02A813743B6A941EA6655F7CEAC3AD7956AB6E9C8C76F16015CED89EDCA5760F42C40DC627AA3269787B32943F8F9AD78173E36B6FF236896B36910021EF780AC23F4BB233FB20FFC3F943FD50A95C289A8860BD90FBA4FDE528757AB7801E84B316C045C50D637A3C90A4D171630BE5638EAE6A12841F897C9E19EA5953D532C2EC64BF0A4587B517D266A27352F1C431A9AF9373E25,
66E23D0A045AE2412AF4A9D224CB3CBD46910659AACF2B0EF0586BB3996D4CC1BD7DECB4E37E94BD1AFDE790458F48498942EA267B329A37C9D4521DB4F71AA231C7DAA6BE1A926351C85FA5C0934412F910740FF880E9A12C89683D5D2A223BE3B52BF6C4AA285A152EF2DBE6F07E15A3D8B6E8884276E3007838940BA8A75DBA8AE5B6BED0153E87FFB3D7F217B01CA10502A0E8252A7F36B107E2C7328692E5E727DC5D301B4E6D7132A77B709A8170CA10C2805FCB5EBA85302473A9BE121C07424501EB65210A478745AFD6FA83FBA291B067FF64A6EE8423DF05E7A6DAD2A53049747765309EDF54C9BBFC997463DF98885074DB440E1113D0CBA4E982,
1B19035A97AA75A72DF18D8CD624A8247A015DEC8D61A8FD43CBDCE3D00552ECF18C84A3AF72836EABE814F9FC9C3E0AC2F3AD4785EB0C85129903427880EFDB0F51D4B673B7DF4EEAFDC341625E4552CC38CC41ED94E8E4B5B67C4E930BD5B99A19BC060575FA4DF32E82A05EF7C201AA2ED75650B23BA859A7B770156E2BB016CE95FA1A02E0D8CC40B22E041341D9D8F19B552A0F39E1A39EFB649C767F9BD24C56FC203088778394E85AD224F79755F32F701091C2AFA86B224FF4EE631DE76D985F4FFF561A025E2F666F4B04216D4A35A82428B52388D1D0D4FA8ABD45B67B509F657FA0EA0E24D7CC480D09552CF34E3B88ADA5E9AE0C185CF8166678,
CB625F9F54C7BD7196A87AB1B6CDE9C3CCD299D830DF014A9FEF3C7D5062FEB2A6234731A4B161FDC493E389EB3D3E6AD1C25747A6ED27761D383F2440CCB95C77926C6EFEF7B860522AEACF0EB03C54FBD3BE08E86899B4104EC44A949F321961C312610AAA4AFD103CD5484B8522DF0E4A6FEB30444D2109E39D20959F4ADC99675BDE4B2BF22E99ABB2D52B5AB1145D390EAEFA170E0F0237D318D455CBAA81E3A5DC7CEB5E14B6608BE226C9A4011B9AD919A370A8548745D157B369B970E7FD6B03B35858537778E9B32EEEB3DEADBA8584EB63B5F4A639CE04A0C993923D615AD4C59BF4EF7C942C3123FDF1532AE8D3806ED8ACAB66DC8F2D9EF34F0C,
160D15E31CA4A2AB9B414B0C54FB20AD00FDC261FC355DB68960D457822B79A20D5CC629A631107175052F848DD427E3899A24499DC7613700AD0D82F761B6F67EF9D1B02C83885087E47D30D1B0EA3E627483A4E45FF7820896FC19A065BB94455387D7D6ADC5063B09FF4884DBB19E18930D2EBF367F3319E73C154A67C58869B0BBD6EB17BC62C298366259A742DE9967AE54151DC1810F11A7510CBC956F05B4C90C69EB9A17C1D0DDA3FA01F9D7667B06CB4D1E5A6102CEB2D4748513C7CF433EAB0D678ECBA7520865B538D7390B0CCE777FE4B26F3C7144E5D5D8D427A6E81C5358DFAB1F7C2E36030D1E3103C6FA90D0CBBD4C507F0C7E27AAAF7DB7,
017D370B8618282D969E744488A3A75BE9E7AC23C95D2C0B3051D19CFFE81152BECA7BE54AB23B66C0158BD9D81CC78B92105A4B222557D9C8DEFB3400D04E6FDD95E0D2A472FD712EDA7DAA54165526F5CA690FAEB04652CBB80A7F1039182E953F33AE66F82F71235D7D19FF9D8434A370F0C0EF7A0A74019542B443567393E80C70B795DEAF608263F19F7A771F8D3F0924033226257F1497AB6F0E8CCFCDE01BF9C6E5DF0E8BA05818E7DD89E29155853B825E174A8C52AD60201B64BA18B186034A387872006A1F3872BBEE92D16D0A25126923C6F6C1276A987EDAE0EB3D8AE243AAA32BD9B79E6E3C3AD45833FB0109F961B3983C021522475CCA7B58,
2E776995EB1EC958F260C631ECBFC15249229005A43E88EA3F0D2CAB8D749927A57C13B68E5DAF6A7302248A97557A1620715B5342950345867FDFF8A78AB6A56640293805EDD218A6F1ACA741043821B2B1148B7A354DC13014B766AB86B0946A49C2322285A7FC9674BEE72FAAAC7BF71777849EC26158CB17061374F9516073F326B3118768FC9BB2012D9BE84C7C80E561F21D914BB3F184618C9C8AEA7FB8C2C56B5073C5EA66AF59C3D89983BE2F267B3AF49139F29562A67C86E8C494D0F276D1E7A144B95A51E5783DE475D4C0CDE6B2F6D83100DC0649AEDB4DF2C6D777DBA5CB229CB562E42AB1A06762977FB02CC5815F94A6B3320B4A896ACBC5,
A41422E8DD71392040ED5FA8E83C168B0247C08892C5114DADEACC0605C67CA157304FBE6ED244544109A951E95DBC96241095CEBBD158CC97FF0B01957E9C8488C5ED7084A3A93C2F0B780CD4A71082BDF4890E0CC06708AF626443C5D374D76A523EB227E8FD0B72D63BA5BE4A4A57AE874BAAEAF472C00A84068B1181BFAAC53210185F9946D456F77EA072F2E1B071FA608B155A164758D99C9FA9E874B90884D54C2F9DEB75CC47F3247D68FF90D7A9ACFD351FA72BE209438B2F9625526BA1141DB459C215BF76A6C35745D4E91D3B6233A1BE2C6C0B05102E29DA7DD2260100149C021D5BC1ACE30A74C704BDD4A9FDFF31D59ED7504DADB0A5D0984E,
