memory_initialization_radix=16;
memory_initialization_vector=
CC3DFA543CDA7FEE61B06B9CDA660CDD8BD51FEF0E6C9CDAE7830E71E28EF95CF95D21E6DEB34DC24AFD36C0551CED58661152CC238DF42B0B46AEF62C18A46A3EA9154C8FAF7C682A3CE0CBF7D27810A56C70A5F0BD9C18BDE05FCCCECC6DD5DC6D8F07FA5A2B932AB061889EEECBD8169AD0038ACF993DACABB2B216A693BB,
83774CAD2FD7001A45B6808AF9A134FE6BCDDEBEA0A374B493647D64284777B3294E8B9294A93607D682DA41A7EA405C3C070722F81F3782DC80F67E3F7444BC4ACE46BE42043FEB51C7B8157C85962580D16074626DEC7C3C9158B8A5F15667ECE0CFAE7DD5E27047FA14C19CF0B3604FBFA55E9AF99523CEB052CADB4AE50C,
85D4A130F1BB90027BD43F09834163EAE103BA1C20AD8F3AC623E5DC463774E711F1A35A667E1A2295A939CF1C82FB25931AAFBD4B8B284E2BFBFD7ACDC490A00E7476F66165793F823F5E26259CC8CC4CFA4DCAA1E3C57E6B6296F1B1AAD31D0ECA87518D38FAD8B00D6DB48B17A361A5058B9846D2B2C357F9239DA422C1C3,
36729C32987E2F4EEBE7C18BE0D75FA2BAC446C144083FC023DF866E191A1E0C79CD666562382BD0D8BFFC5C23E4063F55194120E549F79C7EEAE8D43A201A6C33E228722F45A348A3B920A85B3606895361008F1F72DB80F2F3D223414727C89A70CF8B68C618C0F65C7950CECE5FA3271FD1816F5571B82CCF76C186ECDF23,
58C2D5A54C074FA2482A2C86CCD9F56593860428100FC61CE9F3689BCF853A48903F75E41B578046B69455E64EEFAE9DB947947586B68F6912476F986A2BC059D51A75281FEA985450B0AE44EAF78DEC49B371D42883F7F3E3016885E88BA13D5189A84A5E6311CF7119E873A970015C460F82AB5F494A3B80AA88DE01B4886D,
1F56EF21DCCCA28386A4E852886BA6AD48073C5CA33642C48A27459F979A4EAD2EAC8B1F5868751B79C28A304A65C835DB3515B730332740AC6A069F7A4417D31EE8605F6F431A4F181D8C5BF7D61DDE15F72C0591ABA7C973358CC86EAEAD6D7D9007CEB48ECAC53698A60B6174B132DDDC8F6D44FC95FCECAB47417FC22DD2,
6D249D9027A0CE83D88905D10BFA29C00C280C1979FD04DE57071F1CB8B82741764DEB59501417B604B02295CBE677504168919CE254B60509D452F8D178BF4FD06F9CF4FFE2E7F872D8D6C07A16B9A88F1E40600ABD8D750498DF83023CFD53A0257D149703E96FB79D9CFF4B7F48D2A7C84414A90689FCF1002A6C120B4CFD,
9A6C7778CB3BA69C68B72FC9D4F884AEFC12E5F7B2C29BF2803DAB3F34DE8FA4DBEF724872935D9E28ECD383EB91157BA1496BBA4293E4A9A22E65D56887DA7D86CC5B6168F594CF466EC40F02F01E6C4A09426DF3EBBB4E6B5A50A3FB001B3177A48F4984E97533FA62DBFF173AAC38DCE05DE4C148E9EA0A6E2A77C2788B26,
719C2EDF4ABA81117074C84C4E1ACAFE1A47F614F30D426B49108E267FF7EEB8E06E51CE76BC970F213D9D4AA942F0F10DF22E18D5CB817B51E0D766172E4663DB03EFFB16A50510BB5FC7EFD30A0C43F8CEACED2B1B84DEE8D7091105A518CAA270BC6256D58EA41F64F5558815907835FA32A6EA2C1BB9A4D57507092E5C02,
50712EA0579540CCD6D07CDB1A388A1928D4F4B2184A0A569EB7E99064EF5CCB2273A4334B9985D492929E3C0A876A1960E3ED4164FBA1C2574A12C6EB79663F2907E4C5FDB080720A056E7EEB8C39D5E2C7306CE348130E18077D401603DA7CC109055A1B2BAC28A6C921504FA555BCA7D58BE366D12C4B4F5654ADA68C8E3B,
3CA33441A2A4720B2E75E6D9AB5C7FD23C9ACF71DD440416494DAF55CB04E77D98E6B756B6D32910CDCC6B569D74EDD0BE29A42028667FE9C9432BE8748D70C4EFAA89140865F64640AB13C4162261BFC2567B73B5F1C62DF6F4542A2AECE3AD5DF102B10230C5F3FE2E40F2DF235E3BF7972750B38FC73CDED5ACEB4E7B6357,
AC3A08E420306617BB799CB5C302C5EBFE1628D62694CB00A9C10EB3B51DC08A8AC3AE526B97CB7A933ABCA2EB92BE5CB6EA1CBA20E027B10D352FCBF1A97B23B777313591F7F9B6E4CA94AF8532BA4C824E9437838D4BA5BDE858AC8322638E66A845BA8D03087C08079D0BA165A719D7B64615EC3DCF0CD93C8E9F846A654D,
4CC3E696FC5CCC241CAD31C7DAB8D534E02ED7778EE93B363D8960BAF527FC116439752B60604F471BC301928A22864976F452F251E7DE8CFE83FA9748CD36564C21997343D95F88657D571D894772FD6A92E515918AE4ED60010E9A7F60A2C86139198C1458BB5A875E0200738F8316CF48881E4ABDA7609DCE201D5A099B1F,
A9743B889A8AB021306ED4DC40F39B5D0A5A5A6ADF544B0AF05339A10B3BCE477CA5228500517D803F3BB05AB5B7FE1CE91A2060F8D8D87F0AFA519F99D707A8F5B83AC4EDFA055F9AD0AF9FB46BEE3A366C816ED1899DB627DA9A50C37A27F84683390DA4C023188BD91F33F34CF706AD525102632932879A860E29D98DCB4B,
52E3A68A02D30E9AC5BB211236870983E03B68DC1816A4FCB170233E50ED9518FE12DFFCA41CBD1B457FC72E22140D435E3903F8084FC169DB55BDB35D8CF3936DFF9301D1E4B0BF572F1BA6A356B3B1442CFD21E36470478470BFBF9A8728039C88C38188D2F8E4D6D47A69DD20116A3A52F2488962F36C776A0E044CCC974B,
C65D88A2D986CB9023CCB132781628033C2C314938D5D2A6AB4346B74C60A182F67C6445963F4939A394B8663C3FD9F489F4068A3B8E9D99E7CB9E39F8BB3350289363DF03C302A2204F9245B4864646B3CA6491180EDB4D8F90BF867FBB119B3B81DEB8BF38D1DEF0D2577DBFD8A8FEB0FB9889AECEC74862B867D093EEE82F,
DF38D139782381A3B2337709B533091DF05196D9094D042BD3CEC661C043B035DFAC553D06B983D6D7A0AE884D2CBA961B8654FF0C6EE50AB6C6EA14B9E431BD34FDAB23C41F0AE45572108CD5876BA76C0C7853862FA079575B81FE5C4FEB7D0F8487055BE1E8644FC1CA552C5BB53E03520E149100FB591528F578DE2A2AFA,
34A550E3D5F79A85E1561DD0DFDF6705434B22A30BA31CB354455AC56C981679F0291738F84147A41773FEA95FBEFA888C7C3A962DC7906CEFCC6A5837F2B363AF1796882F29D903E6AF67C0ED3CD2F639E793276A21A1ABFAADE4F021DB3073335DD2BF269C9973E31AF3D56E3C5C6F519D8E633165E5E71023E380C67EE8C7,
52690D7B45751F8630E76C1880E59569237024F169CF339CA702B8C8CEB9E331FDA00FDEC6B7DD0313F566C2B740338E7E30AF82D2B8B520DEF3017649A3F6B8DC6CB94860988EC73849CA21BDB8DAD37A4100C605CEEC451CA0F45538FE223A12FF4E9D50CDFCFCEAE8EB29892B3D1D4493797F12D61A4A7E39FAF9B8E7F1D4,
6BADD5A9F21115CA85C3DE045330ADDA9DD20A778CBF7B88E78F0FFEDEC628C1E9B19D76CE90B957DB517DD592EB74D912FA18826FC64E0448314C8A8FB6D7CDDD5E176A912E8736F8AE7E9DEA1A4DC42090FCDC9446302588E26F9F2EA97325005B04B345FAD8AC253C8B4D3CE322CBC76B6339083CBF055D9E3D2076B16240,
DB402FE64722006506E5A34E82DB66F4EF16693EE686B575F35E7B04FD40E1302C83DB0B9F35EDA1320D3BAC609119A87E388A90B0F2A703ABAD5E9F879B0B995E6EFEF10B0C715660301C8EA812C5CE4F0CAA7C7B9B401AA0213C6412BA74EACE287422E18A3290998F6C28A72000D236500AA28BA879C38DA908A4B84ED1DB,
7FC14EEB65CE7386344C76CADAD462B5BED6B1CFD335DD7D83E113397A19A0B5036B235CB1E7B71C13C862220FB996F41D9D1E23A4F02C8A8E68F4ADFAF9C82BE4482C2763912E1D9602B419556E12DA99CE482851E53600957072B5359C8EFBA83A1608250051FF40A09C205CDC13E20F661B4444E9BC6B1E7E65551842E64E,
24AC3D0710FF602D7F869A9FC0FF332A8494F9C2578404863231A40DEA716340386AF32C5AB6662BBEE499C87FA807726B1A21ABCCAFDF3461EA7B91A41F2CFB3DC755E58290FE1B7CA2776EA4C7D5D2AEFB9FFAD75475420C1B24C4BAA20C5EE0D0D5C3C0FF933A272AD80386B4F84CF566671D046C6F0A4C6DE8641DF77BAF,
1E359AD466DA5A2CCC45E9DE5B28180F200F42431CD62203B805F2D943BDD7F2A1271C0DD619151DBBCBD353B6D6601104527BB98D3D8BB9AF4D5C1A6BACF5244E4BA29590459DE4D12A6C503EB22D63E1735312EE8539A14661861A5D562205A1A14ADE80B850C2B30DE8079DE819E475AC0D3C89217BFB26BAEABB359A4AA5,
B3BD9F6A29C1DC79FEF8CE147B8A8A9B4874427B54FAA5DC3493F9DF6B08BEF5130E3948B215B4C80058E3C713090C2210B9F1AB1FC667528B1C0CD7A9451315995DF689B995DFE476146A3DDA864D84A5B3B0EFDD4D4173851164F663EB4CECB37BF9FAE18B9E1A09F0FC57E91F51E78B5B0BEE6AFE29B4911EB9E7D908F32F,
82D2EB6FD92F82B0150E6664E18FA7A309868ADD101BA74A4FDBD5FBCF9E045C1070CC44F05B8A80F4A351EC4BEBE1823C5F8740897FCDEEA9B7AA6B41C5AE5B90001ABF10B9D7374AA39C610527C78FB0279D823CAFFC317838A44E4031D1C309CBE5A94B69B97801A682A003CA4A3FED95AA51C194A65091B2FEEBF981A9B5,
DE8F30D888BDAA322C065CB5563C67B3F25AEA356B69F359CE224408F54B97E270FDF8E228003DAF451642BE1F6F5CF2603551C9FFB8CEC0A04EF76DA1354EE5A95D5BCE97ED9F38522C7499AC4148CE3A141E011E3F6772F3FBE24128788A561AD09A1B4230F31F3276D63BDCF841F6EBC6D566C2BC5A6B7E91E59358900C83,
240D513CDF86EBB80008EF809EA5E9F95D1DADE8BFC314B6FF95C49D4AD8695638978C68D71B48AAC72B85030DF050B6319E6EAE8112C7031EA5B565352F8558C43EEE7F11FD7D10485F5C6CE2B9275DFC4B0D005CAF2CAA0C2720DECFDFF66591E9AA33C1B0CEA20835DDE24075BCEE0AAF5C80544F2316C1B8A706862517BE,
0A446E346DBED3F156378ED83055D2DD89251170093BDF51756FF8CFB8AA7BD33284E00D5EB1D62660FD83A1D31658CCC88AEA259C3A8EEC0C43B53FC5760C92B59D65FBE5AA931FA20C29677494C0A8A5552310A59381BBD26B4E8495D659BED1675A0B0708A5E6379ACB5DEF7337A710225103239EBE877DC0532464DD0954,
89B9ED3AC598826095235335AED5D0DF2395AE50C6922F342789D050A2B55FFE2A57C3181F0E405AB8A728858791D305590CE772366F91C8ECF67356383BC72288E7CE5806EEB67A25374E3548AA8E23F15F6EB86D7F5EAF3FC1F20C5DF92DF1F27E9FD8D44B306C5ADB0A3FB0CE0FDFFC78618AC965E69DC79E576D68D17D49,
69FA3CCA7770677D420C37A9F1B2EC10AC7F65454B7B47C7268511BA17F62C95CF79F5788DB0981578766C1BEAD638D0265F5ED2D311F30FBB2796E976CB97DECDA73E7FE23B04FEF45BDE109D39DA2FF48BEC0EAA7322CBF943311A646CAE201C186B5CA1606D1A2AC4B297D1DF519501E8386D9142612DA34F048E827EB36E,
663EBA06D0E29E945FA8C3F31FE71E14897F62A3C9877F7A6FDB1016051A24264C6F4241037F504EA181F149EDA07F2F1170F3333F159CD8D226A3E418672381CA96D6F7A497C34FEC47DBCA6F6E6CCD94D211F853334097800403D58B6EFD2474F275796F9A2FD82930FC25B22171A812B35AD679D4346AAF8179AF010F8C52,
FCC3D2D2105D75035B2196A84EC655953B88D3929FEAEE052E8B6BE43832A4A002BBAAF94D5190DF04BC0983A5BC9011BBB1716C44901FE6F8C5CB1ADEF59C1F897BC885AFD6871D70B566615EDF267F7E1F41DD434120B71FE3FE46F495729E3783F4F31CCB09A67BCFE0BA65C8200B864F4C4BC4B89CA2CD12D8552F4577EF,
B40D946715DA0394C96A92373F175301D4F6B37D223925C6D571DDF59C27FEA58E07CBDF0F98A487617408359FF6AF177016C40743754ADAE412C3033B3BB2E1FA9C63A95CCA5854BED7AF34752827DCF3439ED94E5F381A11449F533D6244C8249566FA96A55D9054E74C803557AE5A50CEBB9AF43A2654E4AAA31833F0F819,
A8BC2752502E5E254F515BACA68E37D6BCFD9EE5A3C8BFC548662FA446B395B6ADA9687E9095B25FC83B531C70A88937CAD544D9D5D22E3524E691B2BE15DEDC14F5D22D1723E8D187ED137664B69283205F01A409D581C8AA35F242459BDBDFD53EAD582719EBAB8FFD425CACF917B08F580096D99DAD5F1211B91CF50B64FC,
2B7D4F57467B1F927B7221A11FDB99257FB08B2400E6ADB79EE13A721B45B2A5317C6C2480EBB7264265F035A65FFB2F840029805CFD308A05F6569A94E1CB45B33087ADC35FBC6B028053838CE2B819308FDBB3AB6BE8C8F5D29A824793B7C908C82E737D8C58AD88614B85D65F044348C3511E557E094A76CA4BC52A8DC972,
81854BF45F11EAA94A627693EFF7C7F0891FCE07E690112A6450E9B0E7FA62AEC16750A1F31F6D53315C6F2561EA22A236243704E8E60A0DCA2AB2DEC5A0E897C3ADEAEECE0D3864F1482DE222B0A5DCDF28C13B856A5FEB117A25093B3C83E1D87B5992EBB3382B43B6A33B5F7F0DE780234FAA7F31CA23442D98A6C18DCF3C,
C455B8ED1CF0D025CB226F5409001C1D8516F22A093D8099171C9115AD5FA5B20C98746FB6A260ABAD45E23AD91BA2EF1C05D6189F2042993623760479AE91902C5B5A844FB7E8BEE1ABEB8A04CB2047B1FF9F63592854D0B30ED0290AB8714DA66901C451ABA48667E22EBD05663D6E4A5A88C5510CCCCC227221AE44F0CABD,
4D7517C40D72516FCBEF3D780573EB2D520C04FDED8AF7886EFF1A3B8FAA44CEAE44DBCDF0C8B936D232F686A8A66A4D5C664EB43820CC432F70857E617A36B00B3435834235D8B73A4CF2DFB869B9A0E07C6CD8A446041C492763BD05E90960FB02F661A42A83205C72E9F390FEC1CB98EA169E6AA5FF58664FC6F54952DA52,
CC850494F01B3FE0BDE1803F5FCD37E75FD35A90EC802C6A90862F4E3A7AC64F07594E843F6348716F033B0A89BEA0286A15954ABACC96D34ED319FDD04AC4C99AD57D55AC922AC9D323CCCCCE66883D3A7C3EA8755356A68F7A6220E0891BAF017F96CC29F062AD545FDB22E682A0935309AAD1C6DA4A2F4EA5555EDF3177BB,
5C2AA0113689D2431124516418F97A4B3BF931E96D864B5F0478B4F69302C2B2FD09161AA56895F00B791DB381742813A6FD84F7293F174F1A59E8E231CC184C1708735924ED52984593D8559204FA786BF389615718363736B1D238DC92F2724C25CC0AFFEA7623FA744480B06A921E5D4402B9B7EFD14F20A304DA884F56D3,
3EB9F741347EBF5D8E25CA88BCC39D7F1FB45BC45BF1D6F7A91F3F6017185D0CE713D29B2A005876309ADCF33745B5388F0002735E073FB7E7CC3AE88BAA0378A3A1E6013C55531F77B902FB5FAC5B4826D3DEA1CD3B4DDE85BB845B152810638E487AA39CFA78DA21B3C251033754C2609F2118B1AABB96961C437682B0632A,
7FBB2F55F827DE8155DCB2524AC0DBF204350ECC6B554F3C8B3D11E6A5C4E9951D9724CD8356EF62ED09D73C834025CCAEF30EB69D0804E7E08DEDC3DB4AE294CA361F084AEF257676CC15D9F7729C7A8E9C8ACFE174FDE3BC2AAA4E54BBB20907683FF4FA9D114AE61960A502C29EC5D55916C0B0D416FAD11DDFDDF8225F92,
7CE240E2977BA298958CE0EB743E1F029571AD114EEF9D63D0F1E3097F6E727B797971824F32BFB0BFEE6F70B442092260AA44AB19E14AF24A2199CABB6ACAEF5BFC7ECECFBE563273FBF347F7F2835D7377A788D6A66523092BF8B75063A4487F43EBC2F6B10A8650FC8C2B928A5B13FCDAC221D1EB03320DB8099F2FBC4845,
229329187985FDA734CA8B8741508B579C3891433E6AAB138EC558EB9CC77DA38684124346985DB2C29D5E2DE67B60E4C77BDEC636C396B7E4C02C571BAC6FC1ABAE0B0858B7651804809D13145943E2EAF47F85E6A0E5F562B95E84DD94A69FC8ACDD58855339455FBCA23F3AF0B01F77408E0E851BBA3C26855F56FF145D90,
6032EAF79DAB5B81752D334104C416FEBA320EB4D288B859A64EF0E0A755F0069226BAC042B298FAF3DAC993CCBC9ABF649F824C02D47D09F1D8A4E32A36D4D4EED32BE1E68233556373D3BE7254868E35B7E28B754DC2161A4A5ECE13C928F19B738C0A70D0B0C921FCA320535F660E358B0B47840CB8A85134629D62973F32,
8C574AA64F275D0D6FD8833D82799F4DE25A04BDA05782D579FECE8B2E02E451D401CF49CB9CDD3146E7573F97BC9E295A8869099170DEB56164E009B709A1BD2E5FBCC433B73EA54C0135D0F0ABD75403A60811DE4DD701AB68E38E29ACC05C638769691A41445EFD4BB90DAD4E6BDE505681A81773BAAE6392F6377F1515E3,
CDA16119AD3F6E206478E0913988B4076FCA48FDE79AC3338C0C43A36C6AD65F459ED7E27FCB2F3285A41FAFFE27C608061D8E2B16CA809C6380D1C5B2D0BCB6793B5A51DE5E4623060AF9B5DCF230A0C292777D850062E5E38BC258DD11AC1398B9365A92530D927735B319BD36C809CFBB9504FF144369F3303E099E8795C6,
A201533D43DAE46FC0644BDB805DBB3AC05B39415B692E165BF6E7DF7C3B180AD02AD30B5C1D562AE541C7A91A8A6CA51B9BBAA8237965B27FE160D48D4DFC645B48FDACC8F3518BE156A0F2E7D8B5128AAE0CA6BD310A04F815D242A93863609781A19F74BFC813FB114C91D0BF469840E2E704653B08B867911DCE9253A319,
FA2207B847B7AC54FD07394AF71F391EC2934C8D15726708DB14A07F29ADF8D45060070FEC15C1B944F769A3D952416D6C39687F41349AE907B39717AC61E9809DDCF094D4864E96EE553B74003FA1F8E1D1D732CDA340343A7656ED6E294EF9ED184EEC475BC987D2795602A9A412FA25FF2751B31F615B59946E40305955A7,
FB744D6A326B7876A2FBC48A933D34617F1D2F64552D5357740E9D25B956617647B92FCCACB5AFA91279C00B2D2A656EEB0FF68B3238F50568AC34E52AE62890CA88351EFD86C31F61679F46A7F4E51F460933A4AB4C2EFAF5BF35F820C5938328B7FEA79BC6476E7E01510565490BA83B020FE7A86EE6B42821E4CA6B390D0F,
1FD63CCB5B6B716AC30C4585DB6F4FCC39728D76395ECBE7A482A9ABAA06F4C0A8CD671C542F7C1BDB62A999EBCE5DB2A0CDD74112B1D7CE0AC5329A9DDE44E6908BAB3994D8205352109145CCDCAC87A9C4DAB4D6E062B06CDA4C126D85D4964F0B5379C7B3F6CF4A94C98DB57C23BB9A166EC74BEA7B34AB23D2FD2325A41B,
024709E59233C820A48F0278E48AA4BB4F657EC38475C275E42243A5B9F6B1E179C2716C6AE7AC5E48F634BF5B120EC6AA033C7C740514DB688368B7AB9D7C10713D2DE85C81EE9B1AB224CFF7150354060BBA38D0379B62AACCA9FC5FB9B5342E58393C4D481E5732507103E6797BD281DF3DC639FBB0CE56898282452F7AC0,
263103282E66B61C52233EEF31B2487F3D4DAE696C446F40B8268621DA4C3146BE8A2B4FC4EFD67CDA12082C69CD028B64984429D5232ACD50A0EC30A0C1477DC31583A69A84BF977109C5C62CFB65F64C15511527AEA3F97BEE3C12122520A9AEFBAFA9C223493ECB2DA9B4D43F23F98342A74AF295F591F7DB8526EC34F558,
EFE055C6EEDB38B2244E87D3D752488949D2EB4950C1CFFA524F2DF649949F3625DAF139DFE0A2BF9BFBBB9C8589A7E6084FF21DED12A1C1A1005FBBF443A8378FA5797CE1EA2CB9B2927B5AF65A37D9446DB809FDDE26D4338699A1C445597BF4A7F4E992D25418E6EB29551CB2A3ABBAB02613D01ECDD98E5C3CFC2BF3EE31,
A9584B0E92C0A7D8DC60F1BF4CEEDE061225CEE2017B300CA2A1D0732C83E7CC7E5135254FE7EED4F9D909DE76D0FA9372F6F25D13E3E115E2DFF7E1BD4F8D8C6DF23BF4ABC5C0E90F21F619F10DF5ABA98D435F164270E2491BB49E4633BC74EE5D9F3519EF0218D96837EE4D1DC7DB33E02E0EACB1587B3DF7AF84252B8ABF,
B80E42E36A3CA3BF41AF1A6C525629DB723266E5A30170E47C1F018632390DAA5946A0A9CAB35649AEF0226F23881961FA7B14265C6FF5DDE683BFDEC165E4B7DE786E47CD51310F55D59AB2DDE4202F87F373ABA4205FF2133A03F047172497CDB2DCFE755D943167EC302961123513A84AD109482FCEA7DA0ECC102F6036D7,
A14504F5637AC2564303FE31DE3D4B0F64A8F4C00D134530A36CBB841F49D5E380BFD9C2A7F0044782D87BD9E208F26A93DCD943D1AF5E121C1C5143533397F70DF243AF75DDAF249D1677F39E1186730D1A688F0F0CB78D1C7CE102548838E98BA4029486E093653566A070539C670F0A2F9B23288F794338AC8FC1F22FD86B,
2957067AAACCA0C054086E0897D6DA6F9855269A9AECCDF37EAC2021A23784332940F113C4BAECC173A590869C934F110F0193698DD446DDCCE8C3A4378CB1463356A55463B554CE3F6AE3A85C1BC837760FE37080C6372D8C55E38C5786C301594B1B00F1031F90527005F26F25E1648FEB2F73F3C55F7EE6E8ADB2876F26E7,
AA2D99BB75A393B5080BE3D6350C06BA23B7C45159331B6E140D9346AA8044E62F1F33242FBFDF56152232FCEA9EECB24AA8B0D46FC853CDFE7FBD1F4A89432D6570D465357517FD54FBFD12F93FF5D397589E716295BAE63AD3FB44BCBF9F11FB5A31BB6C4A6BA1267A05D3249F8A02BD25BEC6845ADFD8AC31743D75F49CB1,
284AC5B86E62ABF9CF417A28E4093E192D56F53F95B72386B6F12D54C678853EFE6F058D44319EEFDE3CAAD911B0E43A1109A24C677F5E2065022095148E080E5BEA5FD7FCAB80825EFC12C744C5A2122CA170D767D1B62D77BF2DE4C80C27652EC023E91C5B251645C3E6219468D948B236248507A8702FCE1885EB81E0EA8F,
6DD1ADCDFDBB917B0D3C1F760BF3C479FC771D921ED9DDF483562156720330F06889DFBE3783C2F0C751C1E4D6E37E04488AEDE2C212231A0E8B035A7D39FCECD465B0F8F1D7CAF54A2DFF0B1D3455A72F67D8CEB7499FCB4F6FE82BC44871F0AD38E11F3645675FF10174A41DF440B2777CE6DCA215333F94F934BFAEB82D12,
EA47AE4510C7AB959698D4C5EC2976DC33BBBA66863CF3883CC3DF2B75EE02C5610E6508FF0DC302329A66503C83A1C4F4E1EEAC1F3891E2753DEE2957004D2F5EBA2D9F125619AD2DE0967B691958AC4B05F183D068CD2AF87A87763A6219801B1CEA88F61F9F36F1AA3F24EC8984EB4B0F34A3A8910BEEF80D9A48FFA710A5,
0E25F20B7040FDB1762AEE5C5E431C0F6DD5236A74884466C54BB245E2CF6E42528801E20BC8A62E39A28F0D3D8AE8D8805984B02DC34436658E79F6945EA8E7172F8E79A76C913415623AE6ED0C3E9C627B4B00D2D1AF546F9CD5426735930C5B72053EB9FE89F2E7083CFB12FD648C2094FCBF5F9D837240C273E30017BD27,
2DF35592B6B29BB528FED89CA2A19F0CFA4083D4B8E69D6BC00611A5EBDE329DCBF6035AA1FCBF7210CD0DDB6C0B7AB152D2725ADBF7B983ABDDFB7CB3F8612DC98056A2518977A684C31C47D8F9219963375024FFAD46A42D8922E87611548D0057E1BA52CB7E2C81993556F8A38E1D91F39BB02FD8F131C20148116D37078D,
2C3EFAD3D8CF1CA8205C67CC311AEA85A3B3E59CF52EF64D0482DADC597083115A66CB6F1EF2F500F78F82BF949A221A9AD4818937B8A966C166AA0A22657051D1B4C3D9D7060AB7F8B8481EE652DB9DC8D265B62EDDE31167ADD3CDC9EC9DBDE75BC463FCC914F4BDEA36E2EFA98F521ADAAFA88B658F235ECB6503ED1129CC,
5BFF29638752C17E28B15513A5A648EE6122CC3FC81C65378A1687FCD752E4E3C77FE07BBFDC7BCCC0D2B88F4411D43E0A69071C996F61A9F03CCD1382598A4527B040D416E822F7A14727F57CC0F5AAA44290FC74ED6ACBD49F4850DA12B6F6638C1572C277F3948E769474F5FC60D51D62BB7D2AF46CD0015D08ADAAA97125,
E72E2775E3F02FEC92FBFB569F75EB1AAE42D0264930C397F64DA43C844F4018F9B4D5DE3E9B580768CA5E4DB01577A3AAFAC1DDD5222F9616A4F187D572C3335545884F9CCEB1E52B6274D9AC29704AFFD6C7117BA089DE9C3C6E3B801CE8DC4352C5B883D9846E77B506AAD945442A16908EEBD5A85B2D122FB1A111348A3C,
7B3D9FD28AA43DA01295213E94BE5D9608B18C5B53D48D92D67E6BD55C1AB433BDF75C029ACDB18146C13B17ABB9242485E7977494607C52B5AE016FC9049FB65B3A18A31B8CE91B286847090DA6B3A84C415AB1AF53A21449A42A85C7CAA5A15987C0E9D785553281F0BD9746B56647648E9BB2E504CB9353EFB02FDC8EC423,
77F997DEE1AEAF9320D1768F370E2C79F7430E97100A858537C9CDE1AA9BFD454E051759CCC29D832D2E281CB0CEA246ED7E4053AE0C463C2EBDEC1CA878A47E89992F133324CEDED6E12159406ADF403CC86105CEF69816241E7253CDBEF6FBABCBFEC157E3D65E6BB409FD53FDF686F9DBD3F611587394E80927E3FCED70E8,
3F6CF8DE987951383E0E924D3274C96F04C44DAA1406D41FA9D3EC83FB73D4F598B1AC8C64240EDBD8D618E3C54974D674B0B2F6FE816477E78C7A75F2C9DF7EC8239FD312A8D0827B1B36C206970806D9684A262C0D7F19E365DB74DE2A69BB91C2F5A8455350CD1DD00A278F6EED3902D33A98410393F98F097742046DD689,
8C5CB7E9A370805B3A5F0C6920D6D6ACAF3DCECD5D855DB548D41B230C79D64425FE107687CFC37FBD28F066F5C7BB8963F4399BCC59F5F3252E99DBF9602AC05CBDB2757714785D989BDFBE27FAB05B5E134E242BA952A55A6366D112119998676FD32C0D0398C06ECECB89064BAAC0C46C03FEBF1C1471D0AC761627F48B47,
3721821A5258F2DE005C63670C21E46E16A3DE91CE34885D13ED30D465D45EA817A1A3C1EC07B36B3F07A2753CCEC6EECCDC1D849EDECDC21F80D6B33C382667BAB85EC0DCCB734A943489C2C8754EBF3B5265EEEF42F5212B501E13D998822CD08B9862E96E4B984345326EBDCDB7730EF76B2860B5B354F102D1E8E63BE019,
4833DEBBA94F6F59B02F8B6A9D0B1FC7E0E3DAC8C081F4870869FFCA8B70EFA70203DFBF8893BD2348E3815CE743938A58A1B80E59DC1198B9551D8C1BF74F19865DAD739785D80E2B63A7F588187B542BB3A6B507667886BCBB4CA047CAD7E7A2CE319C88FA8C08F9F08128B4508D9775C6A6B19A0619BA25200BA5903D76F4,
9E26E1160236B6F3827F882C380EC4BFC0B47DB033108A566DDCC4A47B7D7FBD0A6686D9CDD6C090AB74537C1E3BD8147C347D95C9942DAB18C18196086817C405F25CC070B382CF95DDCD7F0D7A4583DD13A918A3557A3DF96FCC6C39DA440D673C759306170DC2806A3958E02CFD79A993969E61617370EE027702BACFA6E2,
4A2B7EDBFB370A11B601C824CA543FB65ECFB693EFBBE57B3CE884D17A043F3F6C66B75B222BAE95D84DA689FFE900EFD223FE84C57F3583C0EF2792A104A95FE24664D4E801A3C60423949EF7BA081FDAE68FB948FAED4BF03B25CA26D050EB4E3134B364AA7B20A4950AA59EFD312E55C9995451FE5A67781EA0B55AA5FBC5,
260B4BA215F194247A94E0ACF16A43C5A92030EA5523730CCC8DD4DD71D2757338841B86323A42417803E91C909BE77B666FFCD87699E8173186D10CED279F6A6811EC82F9ADB7745BFCB835856A89A63B129D88B66658162C04D291570536F1B966A8B4115F17B252179D973507C083ADB05EE9ABCEE55085F12BAD14BA0E28,
48066BF597DE8081F850ECBA9EF8B807AE18954A3A8065D296469DBF380C897CAB9DC64C5A89C33E7DF207BE1129B9E5BC0C574AC706889A13C3C401532225C0028CA6243A669B37CF74C06DAA2AFF068DF97493B80E8DC92FE44A38C2F958C35A0DA0173ED97AF641859854E31EF9A67AEAF493E23FBDFA5E78961F2F926D50,
F51D74F347B4CEB11B2032233378A19A9CC9C233ACB7CB1B7CD6B32C2BEC1830AF46C4D6484028E7A625465B3C661999881287BAD8B60A4A5DAB579970C967357DD25849EABA33C2B4F248671C278CEE888EBD6989715C336E3867529FB6015E2ECD2B517433B3AE1FCA3FF9C4CCDF3F84FD9CFF84882711668CBCC764667289,
65F5C820EB9FF9051D1D218291B56CAFBF9023B29660FB31F5505C56260F00F8550C4D19C1668535C55A9B5B61F52155F0F1BBBD9CB7E6C12BA5E7FDFC702DF40881D140EAFB14E3473F5C927E1132013DF9A8625F1FD3198F438FCC0A361B63BEE6550BAA3E38243137422E028956880BB514E469BBFEF58138F9C813A56BCD,
AE8C2A99FBF154C715D3AF90FDA4A54DF75F8558334668183B3969295F0E3FC3AF9F31C80CFDD76AD83A2C58F1672F07DE6C03E4C2029868DB4BB21C24FE05D10FCF5C488B4304DAC5FA7DA9CFC5F7D1EC2870A0B5588AFBDBB11E595638F7B8B5150D477823BC810A29631442AE5990241E4D0C0B940A3129B48FB8D99B7AF8,
F9151BF017ABECCF189CE874B50E7576FC924156DC434A0328F8BAAEB800706FDEF64AFA3B04FECD3C6653A25E12827A793055E82F89B2A8FD8516E500919E7F054F1DF17278F50933C1E542A8B3DE0FBF938AF4765CC9D7B47EB5BF41E07563E0CEA644CAF8CCDAEFF628E6BF071B2D8F68A038B96DA2E8D7227CAFC82F5596,
C44E6C67EA8ADCA2EB399C4E070DE2BC47BA14BD1FB43339EB79108A4AB6FD4E369EC10DD72C7553FDFC9FA8A98E5430FDC5B812691D091ED2EFCFFE8170E0DE487462DBBA69503C1C3A1E24E92972B6313CE15592CB4CE6097FB9EFA912E67AA39E474B5769D4D197C71D0B3A26D3E4F9D3E6772B0403A09D4AC4B401934508,
C90974DBF41E45C38208BE31344F8B077E3136896C86CACC1456F2ACDAA98722036DC8D3A140C990C5148995A5AFA7FFB018429C864290D8029E1AB7A51F231E6F02F4A3A4E9F553F2442483743B44843F79EA02BC0EA9CEE0464D9E1086DA6EF318D5B0D8B844132548FA2BBA4F5A0E922D487A27E060A9DBD89996F1C561DE,
DFE515EFF69EBCB70E73AB5D0019B1AAB3579F3E020975D345BE66457AEC86E35F18B81C28FB97A51D959ECF2D71F405BA8D53EED6A90E132FFAFB67A4EDE55864A509263FB1923A1C7AC0A31FEC13EFE5BFA1E8C7DF9FD0B6B07B86F7307B4C5DF9C57D43CA7DFADC3AC96C6C4C1238CBAD68DC8C0FAFC20B65ACAE68EB47E5,
1499248C324B6A50C90757B4F35EDA3FE2985B7D41EA14D69A724BA95AD9D3B5477C74FB64669C4A235D6922ECBD38A696338F39FF33A952817A66B227930FC6A577275F423046B2A8EB6D21B86472576EE2D8F96C61FB29D4990240C46D390C565B505B2ACB4FB88A3C8367BC80E1E5423C91469E52C6E30CDA8C50C2A2CCA5,
126B2618A7BBD07E41FD81D418C50A148939666717FB410D51CD01B5E8C906A552DE9E6372341D12979D201CB65EF9A150101D89F84F4498C785CAC16E92EF8B765275DEF88064DE48412541B2B546328C577E2D2E1F0467A5B6971464089B74CD356B31E56BEF7073D9219E77E40C1F179013B3109E93E908585E5C6F5AC058,
BB054EB811EB4B6AFA9F8762F7FEB5D2A350829B296712787DEE6B5F726BFFAE988D0973EBE4CF61A3591D599DF9EE8ECDD338185DD5D36E1F8AC328E6E37426F81A12E49E017600F94779B76A4FA3B8B9FE48BE66F32A7C72D1E087B19749DDDDDB7AFCF2AF17D927456EB320126FC5CDEA0E4C36E5DDE916706F077458FC1E,
086900CA6E5382C8F45CEDC3E7C9C82DE442EB52AB42A837A32CD11935F4FDBFAA7B0B53821DC2FDD27FE5AD4FE0B6C25A7169ED45E046FE548463A9EED58B837BAB2723465A8FB5BBE84A2D718B000B1797344C2929F592060EB3AFB2B4CE2AFDAB171AEA359CFD07DD35F33F490BABEFBC1E575A23C052169C7B6442FD56F0,
F6D2D9FE837A36B734E992020BED100D94CC4201B206391FE67532C9E989C3A4C12C2068B109790B46D050F74D370D72F22CCBD99519BDC6CE6D20849E006408895A91BF5F55444292A9EE05C3309506C74D2E8EF3DDBE1BEDB52A2A57F463B692C02669B002C961A0401F3AF9C5681680BBB509CD9C9B151C23A3207D6E079E,
48CF7268382EF7528CC0F895D57EA7B378E30CE9D2239E54EABFCF054E755234F53BB92DE5C3DCB916D2ECC263DBA48769B212E99ABEFA7EEA0DFD5F49379A416DE5EB9097C127DC2734DAB7620DE2F646C1CCAE6B1BABBD1E01044BE14B48C080DD9C04B84B00EF2E33002CBD773375F994F7D718EED7A61B7BF696B313B6D1,
C33C83D9580B2EB58B8A0BEC70B8BBBA6EC313BF73CCC0154AC7DD8DE397F66B6A916029CB42514077675BC1AF8ED651EB245179EBAC0EE418B863013CC36A292AED36A5F51340508AF7A5A3945133CB25B99292BB1A2B8D3466AAA25B39AEB14C1BA3BD71CA5FD845A4A030432ED7E01EC85F634DE14103BA9508D495CDDDF9,
8E2C1A66BDC8F8540E7588F37B2526AE38731993C9906F2869003A4576C8BD9B9D64CC676147179BAAC35D3055CAC0188C6A1D7D0A647814EBB39CB152D0AFA65AF003FF9C3D13F5F99BC14E17F03F25BCC4750011D9D465728D826B0CFCE9C8BFE7C6E9D3D127F2680B08CF6C1C2E753E3C7144BF69EE4F09702034A10A5BED,
0C92B9A19C1B9C3446584EEC02499DC89D54180CFB6E9B270746F665E69A166B271FD3D0D8FD2E7373620EF6D8E31DB39240EE2488E29CAD24ACE800C8BDFAFF44DE943D624145C31E466EBED4F5FE442F886DFC2FED1489B36D4C2A786CBF0BBDBF906F133B0ADB6A1ED8CA073AA978222CFC1513232F63F6C4C0492FAF5686,
6B9A678E785DCEC5E063345B406FC540D4E13D76F358351D7F399F3A6E1420E50E78408FB74AFFFDCB91BD2D9FF2AB254C66AC728EB2936E67A2258C8EEA36EAA3AB0BF02CF46E0FBD72B9A4B41ADF178B26A7BD19B339C882E0F3745F74A4F024B5B49E32318E3DAF2BAC8D4399855BE271A0D47A3B0CDB42BE330CD32D2CEF,
2C4B1B8AD50A6A0551275BE73D5AE7AA419241D91787254616460B9C31BA7E2AB8FED44A169AF34D91BBA113AD91EA994CD9CE1D55998E5BD763149EADCD246AF2EE4291DC1AC36BD712F267E80FC07CB03169C978851EE0873ACB9FE904F4E2C92D570953A1AC0B505C47E7A3C1FC269D6AAEF5A7D27C0EC8BFC9D1EAA918C1,
BA6C3E7B00597252C5C7CE79B1664A9EF03A27FCCD43D997A0A34BC6A76639D8584C082AABA624A588DCBDEBCDCC48967308AD5718865987D24A3991A0B8D8E48C092CBF8A71E640322022F4DE209BC49A520BF17D38E897102FED621E50DA92EE85EFEF45FD817FDA1ED11182140EFBC97549239D9AF5B23E57A2813FA18639,
538813CD27A3F82CF77F4A416518B4566D6954B152BE8774C51E4AD0766C1A707BDBEA8B01959AC77F9CE128B41E859700602E8BA03EB0FB5E7EDAC470ADA761D861166F5B744807FB39C6A11DAD1AE192EB83ED01634CD64F740490D8FA76189B1455B545997C413098B96B788216DBB5C845BC0E505D3CA60C69E569AE9648,
B3A3561948DB72C5B28D879BCBDFA12091CDEDF19F17F4C20255E1057C34AE8D77D95E0296B31FE99DC8CABB1338759D5A311775618A19C920E022056EAF3564C2457FD82E23FE939292F3C908AE4145DBE835F8D3E3B33D47A06B27EFC0F247C68B1931E10B160FFDA9A880C67C7DB3B5D55B996D36B1CA3394714F074D62FA,
DD2D422F6DCCE4CE3259E303AE4069CA711BCDE37A8249194B0DF6AEC2BDAFEEE0A3AC691C045808262941ADB3529104477BEEBFD35B5F014201CD915CA03B5DBF90883BEF3710155951BD17C5B30832901B3F498C0C2E67650C240946282FA6F1088F94BD551F78205132A2E680EA4DADA98D39E7B2EA330B74E63AFCB02030,
0687771FD8BE21F0F2EA2711DEF548C7CA6E0AB3AA6D9E61A365BBED14B0CC5AE0E96D96C1E6388E8F1B248C7541DEE0E7EAC4059807668A4B94DD0984631880845798AA8B0AFC419AED5D6D09F31997EA854AE665AB5C5A0E57E154C36C99A7BF2701458CDD7FDD1D94C54C21FF19CFDAE86F074A890BBF0446DD224EA90FB2,
7F1ADC3785A213085EFB5F16CAA39A61E70D077DD9965DDDE817AC252751A9D0D46B8A0655C896C80CC6D9A7F253FCE06082B39233DC75B98AA80C6B5DFB1FC29F575716E99BF7154D3E9CC05EA3A53C0F9044E7DE4DA41A03BF55000F837840309FDA1BA2C553E15767255F05FC3CE31A97FD2467356A7BF920667723F235BF,
DD26206B0DB3FBD26B22C75104BD9F5DEFE03173626042AC9C69AB63EBE5814C931877B63938C2085375F7783D824248AFDFF9787A9806960B2CB46449019DF4AFD0DC05D956189A804CE96F5355C2427F3CE876E2EDEE773B7AED7F119C7036F351D94B6384C8C3B3B6FC902F06F4F233A4AD1D9BA793E63491680114276891,
2D33A4C79ECEAC3BEDC3DC5D92AFEFEF75B53CB6FCF5167CE2B61385416479ECDBA625EE731759249AA2B1F717660ACD57F567AD18F60434EE4AF0A11EA1C775765F319F09D4BB9CF3F48EDF3F0ACCB2667366CCFA5A4E6C6EC7E3E6D93AB6366854FF89DDF1C5C0A3B6E4EC57DCE33E56240EB844B1B5D701524633F394485E,
91397E21472AF36E8B14B48DD8DAAFB68C6B2DF84349D9D52BF7C36D851A7A69113E17CA48DD569CA6DD280C900555B198892081E68113620BFB94BD7F864422A8000CDEF7FDAC286E3C2B4323D2415014B65F283CF94AA0CF6E14BD8C5238EE91CAFA2CFCE3D2C0BC1F9604A34539E36F08074056FB3045DBA582343F6ADDEC,
9F745DC4F8DAF152E58752A9D2BC4DFC413DCA4AB47027F33D13DDA15785A90A59AD37D9BD5505CF1CFE08CE64C1D2612A014F4DA8185F8BF5883A39FEB2337C8A3CD738322CF4A5CF7CEBD02DB44A2E65F94F540C3B2779FDC5372B670884778E30FAC5CE3D2B8E1E33179C16CC9787BAE1EF8EB2D529825B9899D651393801,
AB8395449182CBFBA5A23956EB3A4EF4B30C5A0F1666A66A8FCBEA71052CC8146A7057BE417B863DF1645C98B1FEB3C69C3005A3F53C992861ED1CB8402F839C9D9EA10ABFA922D78044DF251FBB09B44A70F26C18FF37066D58DBBB9F38B7FA6A1216DA133D833A20391B738CD89DF1C2DFEF5F0BF6EA7487D23BE88C7D3A02,
1340B69B337DF9B273ABD58E07D6B5C44B8CE748FECA348208CEC6F76A6D05CE5A7C2EB0914478482EF0C16485096B5E762A7D866E15FEB8ED33BEC423637BA51F594D8E8C2CBE1FE4DB47ABCB14ECCB1FDC8762781C0867FDFD701C18C9989960D953C4ED848C83C5858E4AA6C59377BB7C16411A9707D25A0D178A8B088505,
1D0241739B5CCE1543CA467D4CBC075D4B681C32238661AFDCE0B402E3480CDA12E226195E5C1347DB5A90CC0C08F780B9F0B095D19AFC21D2237203F2B971D9C804285CCC05358D79AA6134BACA450894AD50F08AC17EBA9CD8FEE666EE8AC55CE97266AD8927CE75CD69EB035C2E6972B5BF2A875D2D5B6D1570DEFC7BE021,
BF3AA7289D69D9810D4307A9CA34A1A9EA518773154AEC244A4AFAEFC7A9305E7D97B2A41A874C394C678DB78F94F88235734E0D41EF3EB05676297B9D36FBF36BC6F2CB420EFC4705758CD616D2DDC37815C950E1C6D4EE2F97FB2D91F52165DDC8AB40C7A42BDCD36398276AF606FD4EBD9F22AF6B3DF29936E310B8650415,
A649C5445FD65B88743DEFC1BDF7695EAC120460C798C44E1B6F8D0D6ACF88958BD6991E528AE1F778A10BB8D9943E40DB0EB68BA4368935C17E1A08D230DCB139A4790CA1218B4E2E69C3311BA6456BC59E1D8957B142CE2B8B06FFB3027E35900AC320D8165B82C8EE648F43A2E07D3CBA9E51159AC1BA5939955E70174E9D,
E5A2F10D6A65070A7611D81292FE9CC27695D636CA0348EF8FAC1C193FDA2B97ABB748208AC33CDAC4BF3E362286C3914F99E85F7603577EED5A00CA57BA79C96F869759DC33D9AB33EE0F32C0FAB29E8053B2C0FEB2A577D6870C4AACD486BD6B0159EDA78027CC77FA39EF91AB9AC246FB21309916C961B70EA9A386C3D50B,
8C7C414FE900EC8FDB4448734F1778F1C141A4BD4705231A997F9AC3FF262E53EC091A256FC393787045FFCEE2A6FD2137E22A3E1BC27DED2B8D01ADE5A9B531EA1BDD570A0FEB14D039FB61D17530F034C93EACF09DF3315591983765E99A6475808B6445C053C46C2CB48EFB9C7182F3C0838E5883C5B92B809A6370E59491,
C59F9ACB0443BACAF6AF246D4DEB09A68730A99A482C06C0E96F7BA65DE91ADEF61C757A027E2273B34B3BF063C0D256087B29862946F37EBD6B84C646287D9182FB0EC2241E960D56590CD3D739C6162076E9F5F8A40B0EDB7E8E47C730C59BDB6C86ABBE03A50E73CA62B6D1FB1928AA76866CF083F9450A22518E648D4492,
479F820FB0DD302FB33304F3F6DA9F4B34B41D9810DD781E051146031FAF27E06FECAF02D4B82B9E158DD7487628C213BADFF82FFABA57175F13E0A34BA0043B0CFBAA3231E1D23D3479C331769694C781769321960FA04F2E078B3FFA7E50C8719F7552E6FC804E47326A0B89ADD9742988EEB00A5D8AD639E6EFB69F740985,
55CDF2BB0EFAD74D95C35BB14CDADC3473A39DCE969E12CE39334BA2D9C78E2DFBA762CCC52147BC5437336BD35A13AB8F865B9869290257CD915C1F7849AA3DCE1AB345621255853BE42E9A30DA39C7B885527A2B84D3384C82F692EBE7FF5068E64B9EFEAAD2C5AE4C2C3ABC3BE87E2CE39A36FE942F626053157262046B4A,
E9DC3BBFD3B5DDC3ABF732248A0603B8AA7FFB92E1DD32F6A0FF4545AB84C0F4DF6FB8FF16412F09EBF074435A460419D9CBD5568E5273C84C73D6039B16E0DE04F320F1D61ECFF3A41188663EE9BD0385387DB3BC7553A3D267B98261A0F75E56F1F72D7C1D7E00D703164F365DD222221933FBCEC5C95FEEC3BA27239FBE79,
33B33B3A4D1341BB6501A3F2C8C4204C43E7CF289D704D5080DC57D8EC673578966BBE764F9FC1BA99617F0C5ABF21BD5C4E2839E9217A2F80967EDBD2046D4CEABCCA6B252C563020054036C7B4591A1BBE93912AC439938EC1A89A03BE48123CAE3F6303D3C0B5DF6E9D93B04646BC36D0E11D7F95C31F5AF20CD9F75DD365,
157ABA21FFD75AF2AD4FFD890A4705EEEE3CDA0EE8685DDF051A9532FB35E47A03A00E4E5AB03E81652B63CAF94A35A8567D8EA83AD4217E089F86D4DF66B89EF5C4122A3946BA11CC8A85C0403D589ECE7139C20293E3C0B9BEF3211C930E3493D6F5660158F1B2B2842C4C1841044DDAC7E4835E3B37A767EF420519B85561,
94223FC7A7B1E7EF55C745CF8DE92DDF73D80A8AF561EDE749A34B817E3938D0F6033B160DD481DDD8DC8BC79DE33D4E0B2DB86C5EECF395EADBF6D071D2EF8F81186F356B0208CB09D834F17814A47A7ED98BB59169BEB7F9F029FAA4FBE0279E84D9D4DC64A952521E69E7445A46270732CCA294F5A96982ED31A5CFEE409D,
761C1D591007B585431D844F95D83B488C3416704473FB4BBE76B33E046C013C3F140F86CEBD2AD0BF972F6B855492C0A2B7EB89F07AF3749DD90A3326912A28B60CA3ADD12AE00ABBB703F12E18BBE458C3A3488F46967E6147135F58606E8004A9F7336FBC0B0F71CA22A131B3C03F8955FFD0E2177219481A363102E63DE7,
C6A72B882AB869C45B5EE38987749671383431DA6006EF38CD96F8923D6769E27A317145882D50799B575CBF6AC3C2B17C828753F8A56A879007B1C47DC05DC5130A9916FA63ABCB3AC6F79FAE77409A822BFD7F3ED5E17DADC57B051927A399212140B212AFF73B72C7BA47F91477CE18D808602F12CE0D1A7EEB332A6B5629,
D52E6BE9354186C24EF7C332AFFF3C22D83B85EE569B876B078C90C174966C94D26291AF96F1876C421FC0641E7B74BC411E7BB901AB701D54A106B148699806D082445F3A345E04D8E50B352F240260631DFE146383671819D67B8ACEFD4669A57847FF6A7078DD639798578D844B4DA365C5314B08D65F0909CE809F956AE5,
E77AD55A068A1AC303612F871A4F27FEFD00189186A813506D4D69232BAAD6B3D876357DAA4CA53AF0983A6FF90CDE70986F0090F7A0EF069A45876DD949943C72EFE13B9F10803CFCA5419E0758A4BA1B576024494213023486BF679815092435CDE85C8C555D1D77C6E73A3E6DCC80CEB075051F2E4519270838FBAD401290,
292CC0C5D3082C49E8D2A743B79854EFFEDD63B87ED085079D0A68A7A9AEB476702B957FD10986B8D31BCF86F6034AE63BF675587926A8A15D124E3B4204260A55ED6F283A007D3C489B5FC4CC086B1812C1D935C62DA744F096C124DE8DE7083421771501BC6126DE9E68946952D780668525914DC404C9D9AF020747056540,
F9932B609BF4157694511F7B17516F212E7826292DE56A91876C398D43D5557E51FBCD0B7F4598E3C980B50C88D70979D2A1D7EE1A05B7668FCD2C93A02D7AAB1C5B3BD92C224172FBDBB35F6DB9740DB46E5B79811BD2D081ABBB844B2EE0B0F4CE7E09304D150C15FD37E1F4C0BF8D9E244858A416AE41AA7850E3BAF5DE53,
51C91E62BE5F8698E65EFB1F050992032E067118290EF5DFEBD82D000F480AEEF095FEA1B0F82543A6388CDB984C0C0B6B73A7B5E7BB960B54037DD0F623D6855DDFDA501B9A44C41DBCDAB91AB77D04CC2E6B783445F125239233C97493B27AA9EDF8150C5A18E01C2C09DAE6AD4DFF416A7E066E6AE9C5566CEA2D98C59A11,
8E6EB150BB7BD8E60C3C6B66F4C5E1CCD776F3A9721E6DE8E675B65F186D01ACABFD0EFA486226C22E124568EC6240D6C5189A65D050D83DC51448B347974ACF16BEBDFF7DC99DEB77961C82DD99D91539FFCA542CE2430BE64CB0125A4A64FB47E0511B86F4543048B34ABDAF4EC90A30B61AD3B1D8BDB38D67693F643F31D5,
941D7FCD85D03EA62E9D315BD790FF950A49BB0D872713B5E309C946361A8F9E257D0C4E9440A061B602B290B08AD12CE50A8FC3B05EF93692E5594F805A12EF308F6DD2239049BC44165DD005CD35757B2696717F9E832217CB5987501A6EE3096229FC8BB55AB38DF3EFB83AF3924226C18F4F0358B7A5C174CABD6C903CDD,
ED2367015279837116107ACC23272AE6A9D94AE1F380CA3B74290AB8C8D195D471CE0C379B89533C7E2FA6C774A36754F6F9A42A22FF30DB08B86718DFBB29B5318707D411ED7744540A0E99D3535624DC6EA3BAAAED9ED6A2C75C4A2067D63DEEBD8299C4F3BD4DA132479EF4107F427D17727D3CA73323D9701E836B3AA3E9,
F3481E6ED955DAEF1F2298D9488F91621A06A1D94FC4D2886D32E17452AAA08A63E78B6252C77628F5E581E45ABFFFB1890A57FA3C800F287279B1A4AB08712497C0739FCED34B02FD18CBB0227B7A2CF168576B61B3C6B66F3881BFBB4CE74DCC2461E8E23C4146F16CEE691B5FA9AD39D3722D6D4CC6706DD866EA7090FB8B,
1EC6427BCDF080763DD91832D019B37DADB6166CE8CB7A32C03BC8C3CF0E1CA0E8E75173E08FC11442811679E42F9CE602EA3A07082E857241606CD4869C1695BEDB8C83CDBBE759AAA114D67A763DDE087BA3A408B4BE6A638F40AB2751CDFE5132694EFA768F62588C64F997C53CC5185FA36A8A2236C3321C47CEF5F35957,
08FF49C3CE54B17B2BB6123E84290EDE4FF860AD191756CDBD7E6668C976D7629C3763A2B37ECA2C22C6E4DDC6D2F1E04700FB0BCA00D2510F8CBFE23FCB87028C5B8B38D27CD5E1B7BA9F3406D14CD021D62AB6A01E4DD03BD578628CA6E7440ED5693284B2CF956230E7A4ADC14A62BE452E1412B5491216F3BF698E4D0356,
01E38DAEC0586FBF34AF68CD78B1C4A865D570FDA904C07304A426576021EEB5ED15FA489B076B69AA33131DBEC71F2E794846185BFEB2337D1A8557CD02BEE903740396930C2F8BD8B371FC4759511CC4680B6C754A246DBA62C422361C77CCF07BD2943617328178187E9A056CF8336C4E57843A287690451AEA7E33BFC8F2,
5BF033D0235C32A479DEC180AA9A3AB3CC8CA2B000A780DD8B39E0BEA01CF21EB721AE77B29D99087FCC70A7C153B56A3EE4BE107D6216014ECAC865AB2126548E9D78DFD1319A6B35B458133868ED61A03FD83B162476B63347B6A51F7A34D56AE5A5F4CE8E9688B04123D6F0198934BD25B15D76B8D2D9A010C11EDD68C41C,
E384C5AF87D26869551FE53F49753F8A8A47F49CF4602A996D9006DA3AC683514E94967498EBCD3D2C878962D9BB2F63A05A37DAF3AEE0C496A42229020122331AD618B33284D01569D34CCB77F631E8172A0700505809EB2469BAFDEDE91F9AB63BF7DFDA7B364B56EC9A167F06343F7C1C23206EE400E1CC809701F93E66AF,
260500027F744AD75FED1CC9EF8F0E9B4FEB24FE68187AF868A0D3D87730A0C5FCF7A32B7BAE5210EAC6843526132BCEA74D1D0FEF63F497989359C5B357E7846129EB5970F4D9F0294E5AC8F7D85ABBA569DDFBFB89F311409455E6BB3CD5FFE8220D1A0EC191BD26081ED2B7A6690F7DC2BF7B9003ACBB970B23F523B7C32A,
48838E5550FF15F4214D7DC059E3CC83C278B2F251457906134C650C4E94E4C7CADCB02C099BA1670D579DAB3FEA00260D7163907C4995D90A89238995439580A5319F3B5AC4021374AF800FB02C86F6BD1375B1D51511F40F9C548FF4AC6848C3F1BA6A3730E4C7EA8C389136C368E8864B3C44601AF275CDEB151819E26702,
A869E869157B2A47D818911F5018323B39FC5C59F697B8459A477D5CAFF06646E06227DB51C6B8990F48D1F1AA81EA9BB4D032AEBD68ED3464ADF5523724E53FA245B3AD5DDE754C28E91AF95298476E9AB2B91E902266E9E932559770BFCB7E84012D543228DB2D27B7134170BFF4CB1843080F87A2DEA3F260F6A899535ED0,
31F1D24122BCDABDB9E869B93F3650C66A6AEEF3D7E5DA434672D6A6174EAC35EC7FCC558CC83005130EDB2F2588E7A17346707EC3142CEDA5E5A9F04DD1B23228D29965140B8BEDA6CDF2DE3D6863F9D72E7EBFA9BDD84023D04D064EA3548AB20C74C0F97DDC8F5478AC260690ED978D97948F67F77C325750116CA501E054,
A6FE90D8F517519DE8A4FC9B861CAA0F5B8F71B16D16229134FF77DE22F78403A453E8C6F02463529812DE6B53F8C565CE4CD4BA11B441B120F0F1EE55EDBBA120E643A7FA550EAC4D3EBA12076D1FD5CACEF9614F15DFB327484506442140810DB01E152E86788233EEB0E9D781E8527D4EC1936527F3A1BA858EE0B0E44533,
CA28A9684E63538DA524B2FEAD2F5C01CED5A35C5C10CD8494D5EBE36FD3CCA9DB5791D7F56BC00241014D939ABA9A4D4BF372DFA20A45B93C8C1C7C29C355FFF747B0A12F6E36608A53AA90F97A63926702D2AF6948530F9C8C500D00CD6C9F321EA3791383CB99A7E0360208E56A250A556EFCA952022357B3C46EAC0B8DBA,
1219231F3AC223E45D300CDFE89843970C34723A72C11A74EEA7299515507497FD848EC202678F314D0F1E5ED3D96B6C40950496CB27E2CD7C5CAF1ECEB292909FB0B787BC353F6187F09A30CC1A13EA620726E353E3FC183D2C4EFEFB86F8E61ED282C46CE7B4BDFF307B5CAB9F9DF6DAB3D0A0BDBC6E860CAD87F594F17861,
52FCB886038FDAF35721AE7B0E76BF2CFEF8E678AB6E7404DDBCDDA26C4A9B3E89D05B465BAF8BEA33C09A7D9E6B6D2791FAF08B7ED7D1223A0B81419842FFA5328A3A74F5054CCCE92DDE0E61A63915BBA0E754266D2D73ACAF6462598F76AC138A75D09EBA7BAC88BF1BC0EDF05AED8DA4548963128CC80AC29929A9E5CB6E,
43DD4B05DC873FB24CC34D8BEACD2EC4554698B489D3FCE57BC463C3AE7C2DD1E45DD5C26045E96B220EFAA922E693734CF91A80005FC07E40CCD49E61B0D03E43E23FDF9A15124AFE1FF505D0FD13DE5CAF34901F2CB4E6F5A6BA6C567D59C8BB5B1085BED775BA2C099DE0C287AC9ABA7B6E741BBEC4BC969A0E60C66DC75A,
BEC2D2589890334645DF031C449DE7599A3809B809495F7483AB32759F4B264F0BE682797FC2F65F1C870710370CC255C8A1C4E6FCD94694779087C3BB999B0A65DAF6B74BFFD67999C481C0D8A28C552BADE71FFA61CC7D3AF756553CF9E691F57DFD2D09B742E83CF726148D016F9EA994941E6BDEB5FF55216EA1E3AA39D6,
5C28A82A78B2C52F022477D046CC18B42BC5A853A7B1C1A6D0D0565BEA76F078FEA7641AC7C4088CD6D3DBB1808B1E4E668AF42334A4A515E0352D2C86471E710D7DAA5FD681801EA4C413F594144F3F5440FF3C2072937B8410D08851965A9F36E717FC9F2AFF0B351F66053888E34623E17D03DF7897F9DE75732C9F8D55AA,
1E29896EFB8B3CBF81143D55E19FBD40077627B68814181CC662A65649EDE3A6C243BCF71ABD9840CF942D484D05053A92EA3943707AC092AB9FB3C4BD016EA7968EA7F79381F056F27AB75E288B1843BFC448A5937D26E3EF80E47596A45086EEDBBF800C8252241C6FAD57FFD187DCDECE284DFCF2E90B1E15D90DA358814C,
C5E81E8C9BED888349DAA69652FEB8D4DB605077DB8DDC2462A4336D456AC1EABB7DB9405D227BB4A32384CE365AAF9B6F17F77AD7442458C3B34FC03DE79EB04BB8185BD963E0903318E30F0A0764AAB84915D31B07A028AB4F444DB746D9DF5E0711B8C81816739BA7BFA57AEA5CFC7D02093E3618B1181940F7CA3BB58B93,
42ADF9ED9C80CE2EE880D2AE945A087FEEF98C3CADAB6E59A94A9DC5ED90459F2D5AB9C58D454454CD32619B0306C4BA6A0A465EC417D4A638FBF1AB1A64B2088EDEA5B2F10FF9C06DF67CD5F9D7BE20AC67DDAC333E4DEE1CB953E7EC68CF7F1EDA16BCE38EE511E2BDEC778F28EE9E408A6237BF69478562981DE3507575A9,
756BB85258F7B8DC0F33FFCCC3F0CE92F31FC5054222E9383EB6968D8950EBBE4D1621A31D524D5C5CCA6D3DA3230A768D17913B910BFFB33324CAF4CEDA4769A66AF6D9F9F5EC9F432108874D225A65A7E6ACFF1CDE280DEAFA9000CF345A465F5C62B6C1466BEE9DEF3B5A4C363B0C587BD2D9C802FCDAD737F8208F61F182,
5BD94BD8EBBD8192440F445E6AF3811C44E437A5BFB73CE9E056E8FD8353656415F40E07488993836BDCAACD273E86440DD1E05EF42409C0769C488F662A22EAA23F8CCEB5C031111C2A11A63D7A2D3173E7DEA6355751F0A558A51BED435F2B219C78DE08A20E641160BE9DD1E1C0840D341D7A5BDE9DF776CD864CD8D56CD6,
C83E121A258371A3AB04C06E0A36F31585AA772817C9E142A3AF48E8A8549A1D73631D305557CA1994E464C6827306A417ED32B4129ADDF09E356EBD01803E25CB82AC1037E987EF8A73D33F521F2BD6CF7CFFC3C27F62970488140F8722C27EF2D404670B21BE4BF9F248A65FE8641CC326C43062CD5FAE81F29D501132E2EE,
0F307E8C09300BA5C9D139F140D521B41BF666559A896A185C9040EC8D77B9BF64B731F740EDE0970F1A667EA813A12C3C212C1EFDC528AD65EC008C4ADB7B85C874A3DC462AB8FF15D38244A46691C7F0252F48F811428D10DA8C4C6F622D0216137DB8B12521007EFA434DDA050A23993F433D5C8AF17EBAE5126004E881D2,
BBFAE3A4DA7324C504F39E343C458A951BE3229C0421F52F0BE2F25435D9A9863D8D74D9194315BD3DE0AFC716E1E11F5C864A226F29FE999FEC7DEAE336BCC0850FB2B6A347735B62D67C4DCF541C056AC1E44942A1687E9EB3057C69C626BE2A33CE373DEB3C69D459AC7F172E329B3DCE2AFF0A48561DC437769276BE4BC7,
39D85F6687BB860182819331D819CDD5A81655FDDF5853DB7ECC51916ACF0322733F85F8F9CFC337FED666BEBFD0F59BA8DA5E1F3BEEFF648063782FE04A68FDA64535623369F3F5B3B5493C2CB2C98F64637D6CED7171DC4722D3A64739E8B62E0D1A119D7C1DDB7895C654118CF35504FB3E7C223A090E7D3CC2BDE1AF771F,
C0553621875DC726D3044E1F87B5B4F3D26A89E94406EBBED8FAB5FB1D4136B527D7203E7BD5F9CD5468C17CBBE96B5FBB43A705287B059DB78B6A934E71376E4A85FCE3BA7C33D084249F6C6359DA4F57A720FB6463B3F759E5E1F741A9638DD6A895E78B38EA7A9711B76FC19BDF2D79133185106FA8242BC6A069E6B808AF,
16B9C005B3B1DA222C9FA711B91CC6D94D83F04CC90618628734B59C7EAA0075C4267C983C4B79B4024EA5024DE3FC16D89CB9C661CC795BAFF7E6414A75F5C44A6EA04870832ED8018AF495D24A72D3DEAD98C50B8725CF04261C8A7AA8BC676118DBDBA515080C3DDF288D84904148A23C80F043E53A947CAF7FA3D3B5DB35,
F590E58C1985F07D23A1C036A0DD04E01E8DC694790952186FB0F32BE00A1CCEFE23751FC483610C0BDE4A79B92E4D542D7603E473337AC5EBC59CF5B9D894A9367738484C00E097A391D9D60019FBEF7CDD17B2D7FEB101F121DC3123599076B044E1B193FB1CDF8C46B1A0B1AB55694015FC62F14533126562843D1D4E8130,
0CD835FFAF0BC383A6643CE2C4268BA58D8459D351516ACA022F66415AF291C221C9C26BCB7D95A9C0CA5E11D29A8485C3B5E235AE2A5441DAC90712F6973ED30AD30D20DA526C7DC0A9AEDEF1E842095E50E6E0FC8242728E135ADA94F45ACF586DFB3B4BAD749C8AA6F4CF1086971BDF661611451D8411DFEBD8FE52544303,
AD8DDF3346029A1C7B826ED8CA8C8AA11A5FDBF9BFFB6069662A2043F4B6B0A0C2E20033673AA74A55DDC1D818DE10BC705AC4F54D08845F4D4AE2F2A54E91D2BF947FA5B915699DF18A583F174EF3B53D08F065BAC0609A8CD4C19B6F3EA917B988E55C44C03BF4C0BCBBA703DFCC86F9B02B5137FB2883242DB407B24D81A6,
97809D0D4E20350DC98A8B4BA36FCC27EAD49115C0B711BCFF835A5C5E5ED43CB67A16C3CE8611354E7FD18AB624A66B0DF312C8FE30701D180020DA603F93541E42F6F9BA8B8F8AEE3C85A95AD11D2EC139BB5835A455D48C8277FC95F1F26E596D6EAC23F5C1C3184FE423BCD6824F6D84B0276C66F5AEE4C24117A0A5615A,
A7AB594CBA4D146973796DD242121CFC82E2F53DD3D9E8E9BF3889A7AC48B1275485E1B3D8AB887EF16146AD67B81CBB8ABB9D1E9CC4FFB6774D1EBDDAD71D173760A73CC52C1D46B8D222077A83BC63CF148917348A82380CA22A2FA2540FC063CE72EB9D359DCC7FBD256E156C317F32F848BD15967E407F68C97873465058,
3F01B9EE0341C49D77C2432F4953FE1572A1FF9492F9A8FF82F01A616E034BBDF1754C6055F01A5C17596543EA54C10E6948A2F7928C08E011B8C020B88210F70D9C5153F127E18F44DF449353AC168F2159E4578D7743BE2108C8ED3A9F1F6E513A5FDA0EB36266449575111023E61EB68569BC2D7F2A2B3C0C156E7DF074A8,
E6ABFCCBD65CFFF7F8F243DE582965AF880B7FE7017888AC298F3E9BEFF8CD0C15BC1BB50059FC32A33435B6070F4BC54FD3B5FF9BA72E8C0FD5533953299C1E58AB3066B7CF64DB894E8EC4B42858D77FACA7347F7D3A49A9E2D1D6C71F609E572F20BB3A55F4C242108F4CB708446650EF6DC06A93ACD9A5793B6EB63BCFF8,
700F7E867C1695F05426960102FF6D18225E3372777587D79C81AB0CC28EEA07002E36B2E1D8A28BB4373741221CB21E79DA40B4D501536FC00B7534CE591ED2BEBB6E0E9A4135DBB37636998BF5EF21761A2BC07389C2826A440DED9C711D764F7EF3D6C7A9FB44309FFD082960096BA4D30590848BD285C2EAF19DB27E4974,
2E8857AEB70633542E1EEDAB9AD5504916F834C909F6862AA9BE88A6A1AD06F6B874DB55DE84DCA7288097A6D66973D090160BFAF9E39C63699B169304A6433FCCC63379BDE0ABA28C41B168BEB9CDC14CBD11F100912A002ECB28F644D5D3C2A6CA7A15F9FF43B5F62DE9D91AAC8959A9DAA1551748332B4E3CC6FE8A0FF435,
15CCC364667B8D80CEE7EFA8ED70F70BC64FBE0514CD85CF8E75075C1449527344EAF23BE4773EE2A0716549CBB097E23FFFAD2C5A8264E4BD9F3965DD1EF6D076DEB1482F4B3C777523C3D8F8E835CA14EE719A381E08FA2234756FA8B4580A038AD3410298AE62CA7A1BA4BA560E0ED7A0E1D59CB501453AE959F91276E3E6,
E913A7F6CE6FA88A7A4A29C2013FF953BE5501EA22BD56C67871F3A306CCF11A491A47BE2B50858A7D35FCEA0AC490E031E40C0327AB69AADC95D3A3021C74CA404A26DB4B65537988182522124AA96E4F5628F475510A8D99915DE2FEC54935CAC6DACDB48C5575B5BF1F0F92BAB2B4BE9E00D2CBF1209B70EBFB5F9D55F760,
3C2D183905B0BB6ACA826732965FFB2CEE55B86C86F22A6A4BF4BA5E30BD4D160C5B2413722312397BECC1E4DA9FD911B2663EB9EAB32068BEB08D93D649CF9A9ABBA832A076B6FCD5148A4008E1670FA9C9253EB523CAA11BB9C848567EA6A26C2EB60AE6A0D637B61DFD363586FC4BE78880A293CD5C801C6D0D229531E405,
2F91CED9E33BFB3123A7E97100A1E10A44B94673B0A56F4420DC2011721DAED3CA60037A5D605D82D991AC8CBAE8A2FF5B95C2A1C66080EE8C8DCC22AA9AE0E11781B1276AD6BA057FCA9B6213CD3445A1AE89D46ADE76605AB3C3552B1DF2D9C9CFB7F6A8F22A917FD379764E353928F5353109C09A0D9E2AB28ACD675D16E4,
4F8A020CED847CB8E3B7538817B5023388B11A008A9CF1EC1E9BEE87B0E10F597B177CCBD5108336D43BDE3173FA06EE53FBDE2BEDAC3459B780C895440C63619975D0FE2D745010EDA38938B3CB9525D25B24A0B951B15BC2A75883F4D1636C6FE0C889B22127F38A61B9934A8D8A77E21FC8DAC2A66DFADD2120D3B5960D3B,
D52C07A109DF81D504343A2D5D9704BC2457AA8AFA554BFBA62051CCEA8825F66609D3A853A3B2E33EDD35D9BC867594B201FB2C842E69B11E60125DE261386A9D724D29524092FF259A0FE4D3EE7F77E3777F0ADD43A802CE21A4CAE1BEEECDA43179C8E9560323FDB4A121A8E9CE8B6ED5364DFF31069139DE9673EB597F18,
8C8B0EAEDFA57CA0C85C5C022209E477B82D1F91CC89AF791ACA4B726A40D4AC0F56C3AA44D39154EEBCD86C7C76D66AC48617B26883B20E42C2E0380B0D3EDB44EA9CA6472CF379F4FA252AF36AAC7664D6A1B1096FEBE75CC545CB8A0F7A6DF3F2D09AC132988FAF4457FF8D23EA44FFA044A829C7977F5C4977BD6F2C6DEE,
DB230C7D36DFA05F2029490D394DCD95172D445F55018ACE6E4B41251FA5F451F397CA206FDEB2FDD0CAF247E625BB071FEC93EA2EA2149113AD2C0FC0FC3F3CF045ADAA5BA18FBADF6B909ED3688BF22F188CFD66A7FC5C780C5FD9B1462AE919E02EBECA9A4E1E08352BE05D5982F143F6FC4206A696E8624D8893BAA67572,
8CC9777E6B279D1FD1722C9931A07B312C1102E64899BA18166A63B85FE71DA85D8F151FF34C9A471D09B6E51EAF25482A73D4AE2C2C82A092B55DA7218744A50F408AAF06A39E407052C224F2B0CE85F40058C86075F60F82CC81575B06829C92392BF29A7A3D09AB3876BA225C801C4A44E21A327AB9B9BE31647913A7F984,
A3209D81A56BBF2510DF9E0F49197C53B533ECA87B05B80BD8962E968ACB4C5DE258C43119A36C6C920F901E5365F21927DBD187219C5146A8F95CFD84AAB221282FC282FFD82CD36252B3EB8541C8DA85DE8BAC769F848C179F31B356FDAC79E4E4026A7F1CCCD02D3821F18D6CB02B67372A33B935FF6381BDDE8385D93F43,
4312B040FF7F34FE794A7E5309E622599C985320FDD6B488DB9DC4BD47A790894844A90D81D8B0DFDC071722E2622BD04C24052DA2E294699F656C28AE925214F446938225EC6C61613DD581B8C9D38A0B3A2818B35D12448276EE765B35D718F40DC4A081E5C472C44E895D61E2887820D9AB4F0913DDE85ADFC0911F85F6D3,
BE505778B70D5A345AF13B4BB4356B54556041D79C0FAE523B5F4B494F1FF21556B5EF7B1966BB1C244A80655D24EB9CB36FAD0ECC98ACE8A29540C70975AA4DAC0E8A77956B375742AB3FC9BBFBAB681DEAB98919B452BA0811FDDB3B6787125E8B57A152B560B2070E084CC5F551F5E405E028888A4F7215DA1EDB740E82A6,
6F506560FB52CFEDF888826E1F7DF292AA2C3DBED037041E64E513FB97D5692381BB2D42674E31D14ED6A31DA3319973ECE996542E127D36D8BC17E7DE26CEB024A138EAD1A84080E47756994371A325F16453994A71E5ABB24B96FB7BA4E526588A0611240EB7145782F1A274A63D02956DE988FB2A8A5BF9CED6DACEA007AA,
1907D98A755D4420A2AE9D76B2193AF4617B36E581761E0EB1E791C241E19379DA066E823B8404E53FC1AD10182928B40B076568152DB6806890170BA69D08168551E45429F77F543225176CD01D206F916D5E89E863DC194188A375F603164134568DF2D6A6442A70F48B7DF0D9DA30784ADA0727E3885E0B86D99861D5AAD2,
1D292C9298298D16A1AAC039AF7EE6155A058253FA6B84571FE44A31558DB299D780DE0861E20B5EB8F631B9F6903A4760754076F77D7F20FDA8333E26F031B490A09AA0E4E5A4DFEE6B52C8DAB26D43CE336114EAC935CCB78E1009ABBFB22195BE4890ACB563C6A0EA583011B9856ECB88FB81201D5B4079F6BA6C9F984A0D,
7890E12A0AA4B9A26723BEA70811438B771F44EC12F5636045DE9A8BF281B8F90E8D48DFCF65F972224C26598A696964069CAE674334FB0275203000232EF9B354589C48BDE4CCE2E2DAFA5610CDA2A811FEEECA2436EC038098E69D505D9627BBB46C7E962E6BAC0F940C6CD8640F4E09807125B7D77FD90B0EA83ADA8579E1,
CF4819CCEDDCC0228E63C0B9EA7B0F9236C97D29D752E3A4C36CC617401999A94FE73BAF02E6064177B3CF57C7ADAA778178B0233EEDCCF9FE68057FFA30EE0C91812442395FE0E265A9D550E44ADA73398788260769FE29A767DF47ADA4B7EDBD099BDB858CA0E32B5CC534B79E5F05D3B530CA67235EF8524F229B75097053,
664EF9AA85A24CF376B55617072B86F4E9BC353A6757B5C642527F59A20D6EFD51E5B4D19F6D858777B63BA39A8A405C01D09689160A033B13DD3F6681590343E07ABA9BC82BA7272E0025F898676CEC6F8A31AD921C3867833895DBFB64C432D82671480DF747801FD9A822DC55202B49724EC98D27A0504857F7991DBC7505,
829DA383DF6BADD06950321C16E6AC709FEE90FE9DA1D8099588EB6378BCED3EE51E5C78D998F003710CF0AA919D87D942EC6093037BC59905DA8413F7FE76B74F85017B65942EF7FE561E0FCD5BF515FB411C27BD6F321C88883A98037F521F72BE7155FCBF7CBD8B51DDF2EAEC9C00744CD684CC0FC09DF032C88BD382CFDE,
7B97A71C75D6D2532129FD755BC08460787B0938850C818D912C7DFE259485BAA9BA06CF575D356699CF7FB67925A5B44ED53425282E072B902269E8016D294231B880EB8CFD7652A370CF29A7CE4B50853895901AB62ADE8240BB7E305B21FE4791B3C7CE7D80DC3DF54CC7383D9AA7D2A87677D1D435445F9A3FAF650567F2,
F765F6568FDE1895D62942731876D35365327EECF19723A1EECD5B675CAC327C29BC0858E7593A2E2B4181A5DF5FF8B2C7D072874F513CA1F7FFD0644FF67E7A8DACA8FEA9DB48398566B604250599E3096121BF4CD6C4339FDCD6E7C320DDF517FFC8DB4668D7C8FD8B877829E52637B727584BE6558E341015E4167B60F349,
EBF50EED8CF7B8CB69E4B5FA7B870028A15397B03774AE0E59AFD7391CD7BADAC19A2D55F49E2D024228A492384B3ED9EBC2CE633389D1C198DB2F2B7DAC9B881AAEAC916309D330929CF21C22FC3EC3FB96F4E67F62BD25A1D731E93ADB585E449129635777A7D915ADEFBAF1224D07350B0FC2F387ADE1DFE20DC6DF8CB3F0,
823FC059DA5EAC1A115966F45C90E3E7BCAE0DC7ED751EC053ED9DBD9C09CBA77BF02B99C2AE3EC2BE12A5A9F9E9745F2CCEFB0B320B52C91823C82F46B22FDAE968ACDF6B83AB728EB4057647E2F4F0641AD0F027B8DE63F3C90A00827A9DBC9A21B6A10FDA2BA42570D9787D41644820F6DA31F9532CCC631F5DAA903C5696,
90CA0DFD96E92727C0E25E74CAD03FB19B183BB8645452507EDC4AFB6C769B6035E60775B487FFE1999919998EE6E1C21137384591B00733AE26CA1DECAA127A4E874F310CE84683309C35C5C6416996CD2F1D63498A2F8F75A5D99CBB28F005A9E9397813CECB693DBB9391A5E53E3CB63FC9D0F6CD8925DD3B2C6D6E268586,
4BECB81B5A43B1B18D7B01B0F7C26881388E090DBED55FCF98BD2D85BCBF9EC621E15902D34A4D493776CCF70516AD827ADE0F927A9CB2D4A5A91BC40B7D5DE733EDD17932C50F32463954E633BD4D1DFB66B8A0214AB34AAF256410CD782E293F0AA2A674D15617F403B51434DEDBE6E5159BFC6A3C1C50805E0136813488EC,
646CD2B5F84E6EEBF77DE46E02964BC197DD014057897CF5EF847AAF0EDAE2124127B943A4C14C54AF809321447025D6F7F76900E3F3C64E5D691FB288637C4CA6493C52CE94A1847D3873D9F2A33070DDA07EBF6AF18592E7F1DFDD403C98C6F0F1CEF192B9E66EA33DC5E42B7BA756551C95B9CFB9681F32F326128B9FBF9F,
27DBB6F39D820AF573193E5B980FB3D63C52F9372688BCB1A8D1A15DFC5B869764743AF3D0A353ADDAD1126559C9657FFEFA6B6A3120B15481869B1CA97737474ACD25EB4F90680CAB26793968B50B554EB3504F0624B51E47D8860F397A0194D967B197A0CD81C6ABBA66DB046ED6274A03572B138D237D95DB46592E6F36CC,
0DFB430254CF387EBD8011561D230A5FC6AA90E7F9D6AC261DAB8D1FD36118D677ACB2A649523FA9BE2381DBB28EFC44053BFD3C0A4A3E8BAA1A137D6B1367BD7F5031AAD089F6AA5B48F99BFC46177BEE69194F020880B86B3C30BDA9252120E9722E48B3F159DFCA652FAE085DEC299DC05F4F22196D68F818741222682A45,
4C944C75C3389A3CD7A81F87842C675C452CCE41103177DDAC375A3ABF62283F0501ADD8BCA9F8D47CF6704FCF04F718F882C385E91C3E5884288C826A368BA555CD4553AA7EA0CBD3D2E2275FC540DDFBC991AF6EC7D2E078F9910E606A029E51848C7936E75BEC27C205918CF4A174E58806BFA0D41366F7066C14EFCFC761,
AE8866835E97377DF04158921D82F40D2D63AB476109D7674D32C24C73999BD3B2070541E8CF053E43BC81861B05A8C3018AFC293D1598AC8F10929F3AE0E28EA93D290AA06CCB5E9BFF6F56E2C03E11F62794EA327F9CC6256A91F79D072F0B865B9691D596CC09768E518EAA17A4FFAC797AD35091F55DDC1761A705358EB2,
64125E5C06FA85DA29D54F65D60431371DF3F321941A3D60108E246E9FFD5C0584E22B6F25896BE7D568C7400A2880423B91B4B97D967CA905A3DE09B48FB961EA6F95155648B4138915BEC44B9C1B225FCF20D69D46AE703F0FD80E6B819FD61A4C25507B15C329103A9A84B1C9976BA2CBDDE74CA3108D638E776E9C989409,
18015D4810199E38179C5FE7AC5A678007AF3A7C73C68FFB0139F9B24CDF43590D233816F0BBBAF4286D4C48585065BAFDB48A03FFC84570331A3F4826206DD6B294EBCCB18738ECBCCE99FFDA7E9E48AF6862CE901047157CFB25ADA626412DB3A310F20BB5B43AC71C00751F87D8FB4945C33A3AEA81577B1EA0B7554C570E,
DD11F75D86E54C8BFBAD58AE06AE73D8535ACD83F230AFBEB8C018C43F0D0F2D5AB0E9A5D07E7261C45325C671F01BA801D43306C9ABA51C25DDF7FC6DAD16CD61738811D373C08C676086170469FF9AA0CC2556E725A656E1BFD38D1E232DF05E907774D1748BBB742DEDFB02BBE47C50B9C6CBDFD0B79A2767C605D345A633,
E42DCD240A10F860F7D445B533D9FDD6D0DF55B39FC5E3F640EB84CA57B705E847321FD7C1A3DF3625B96318E822B39C83484D5F05C05B621CF26BFB9B7B1837D7DD735C4041A6CAF4A96F8A2CE899EB6F30EDF686E1D11E0502F76FF8ED32FF06E08BC6D3D2F16F467494CB61F8B6C93751A542936CA808E8B3D033D061DE82,
3C83335A7A28F9AD7FCF80C2BC20E04A5A3D5B2B52467FE53F5169BEEFA4B1AD1D38393392F0369698E92BAD540C3AE44D4203F05FA65F25C0F1677AB3E422FBFCE58D3E2E08A86CA7E120676D7777DB0AE8809A0A1F2101372131342F7DE0ABB15D02954807981CB1B201A004DCF73563791737C39294B1AFBA8B4E8D31333F,
BF6C1082735ABA2D8F512A8C8233E4B231BA9B4C3248733459BF00222E981FCA057C9F50E9BFDB8E46C126371EEFAE6C40424F673F86796C44726A236C3E13683ECFF6F6BD439D77409627375322F600E7425311367BB58CF9E064F804BF9E6CE8B14C10F8AF3C20B1B363C1CFED849F426ECCE4196F045186F5D048DF6F2E54,
D9809D405D7FF48072CEDEC60DAC061F44CE4E460681625785F72C9C1F52BA83554C2ACED0584679E23112BD846975EE2E2AABB9352DA6BC25E4E6B56A52EFCC2CCB9D0223CCE9C94887C8D5170F0AEEC102358BE89AE26CF284DC4A1CDC5BA79D8BC2507C8767E8C80FC02491C1B1EAEA0F4111E918EEB6EE9C30A18953CD3D,
5B48CD22B860B65D05B120270A41DF7A1A019E28AD38768225FBDAC0EC0CEE0E66E9715906283A6495E46D0D75A30CD8C90DD81F54B142555BEE16168E80216DCF5BF54A36AA46A91BBDACE1D82DFFE8FDCD76456AFF84866B2F07DA95AAF669513EFC938D5C3BF427F437C52171EF6625A244A15022D9BCD183597B5DD31AC9,
F6961AC0C333A09460AEA8B2BEC1527588FD09BBAA9E93FAD8CC48AD41A67048B98B192419653476F636F971FAA4C9D163A084C2D430BD14AD93EEC013AA6EDDB98B5F4FBA6F38243368290F4E7E77AC003D7189D074326E073C6F0674A7F8640F3D5202E7779EBBCDF4CB208070376C669DDD5656CE61608AB6120DA9EDA958,
A859A9CA2210473FD750008E11308E33C0F0B40F860686AF208C7BFB67E822B3FF75B86FCC5E0BC6ECF6666D144FF169EB4D44D4EA505A534561D809954D5E85B17FC91AC3CC5D1339ADFF2D9E03E25D690A2506543F393FB3EEC0931CD6F9908CAD6C1F0F806755748059BDB59A114004D6784700A8FF32E3808C102522538A,
3FC3A0E3ADCF4809214578118EFD5FA48BE939499E01464260446A06F7CF1F94CE3B80E632966F8DF68E12B13E54CD3CECBA4474C4939B792EE31396B1B51007C5877F251B3FACBE8A8E5A085D8287347FF1D05D58E9B39BE3594E22D5E93E083DE5910BD159E4D44F09686B36B87810BE1531ABD8B4D437203875B66CCA644F,
E87DA7AB3B6C379C2E682A3D8C970AFB137DF761178B1C7C9C5F6D6A91291D34D9B9DE875DC6DC8C819EAF50B063E296D0B82032374CEEEAB82A1A68267AD57CB762630FB107C116C77AB7C313C7DA9C2B0AB0AB5361552D4296D69C5440DEADEAB68216351F261B9DC1768CF1D4CEBB1A58F585DA9D90D173D239A08158EE53,
BA801A8AA5804863C9395CC5D5A5646EF0849A0B3BB062EF0C06849EF550E2BD7E398279B3D084CED60B99B4898F4EBB8DECAF494D95E6CCCDEF148E50B4922A1B4E5BA116BBF56A837D980E05FA5118938548B3148803683B4D9B3827F99E33E7093EBEC24E88AA3E9E9DEDEAEF91B44B483F3BAEAEC98D10DDA98525CBC1C7,
D393E39C54CFF28B343BA649FDD1E8D5852E3E91D77891C54EAE5E09E11A414AC8D5CB3C3FE3CAD2B90B31B47C9151676A1E384AFC4AD81F7AA175AD14AF528758E1EF9A606D614B5349DFD8C0346AE9CAE07FA40A84008D79DE2F687DCEFB2900D541A65576EA9A51D8FD225A1E7E0AE437C1CC8367667CA3AAC424D9B3B66D,
8448CAE124FB96DFB33C8F9D8AA65F698C0B2175B0239A298102C55AE63090032A36BCD98ECE0E12C6886FEEDB10FCCE845BAB34759EE588FB252F258418760B5FC10BD9B5773801942844413D2107982E1C12EBA5D56C1992C67FDC1B6709667AAA0E1B91DD06E070C777FB0D9C72FE8AECEB2BC25496DA0CE13C9B9F395EB2,
B1D838FEC98675DED471A0A3F6A6D1890EA46BEC7D23187F9913A3B75EFBA43C160FE6F91B3A3EE08C4747A82C439F4082589F3255C21FDA38CB87746FB632AA53F99885C6EB9238AE636CE3B55A9FC93D5576FD2A63BB16EBD1B03E410B70C2776E6E2BC5175138FC59489947E438F31C6DEE2CD8E4187652A618BB298FB386,
1711A0D0FB9E451A02A70B0FD161E61211A8FB639EEA156E26008CF847D9B170279251B1192F2ADD2060345C42B5D1F03A8E07D6610084A99182B8502E16869307121999B474A4CA9FF6A1122E0D292BF2B02D8F7B20E22F6F0F83E7E190D0651EC6855CE34CFCDB701D30768AEC6162757D196D20D8EBE7AD596ACF4455ED4E,
A41ACC94F359411B9B72CBC398F3D7A9A05B2EEC01A5FB01696EA287B4A9375E875DA2F8573A1CA5D8DBC0CF84EC57CBF4E62F0FD1A9591E1CF5D8E90E5E7126605A31D69FB1F9197BB73C415877460C912F130BC45121C52666A03349BD385AD950F48CCD3C48D6B45BD9488DB7C1D88C485839C833490F3F2650BF8728CBB5,
D2AD3C3D2D2D4EEBFA8A3E4FF6007F7AB8E7D52665265579C0430A688BB692C083BE4F0223D86B0F50DD2D46034C1B9E7B8637AB1E87AF6CD10111ADA76586409D11701B1B3F6736D195153F654B70CE8986EF49FF670C8A4E2D626A03239BD9579E2948B41678624F26FE0D040BF7D2B375D15FE035C9BE395D7468E86673B1,
6E04BEABCDF49FF82B25C4E68480395EA3DAB9DD361E2B569915DF1514D7B19FEA1EF5E8D0E8CF89A4B22BCCD392D49A79DC8F79FB785F99388D9783FF736A8ECF3C1F049ABBED20F66AD29FB53C7420C65C7C14835EE1A686C6C0564FAFD94D67E630FC99C16EFC8B1689850EEA0935B43E4767D8FAB7D33451083F3745B2E5,
B5657C12A7807369A14488EC55737F08B8A127CCA065579AF74188F224842011BAC13BB47105A58C690E86B2459E221BF280BFEAF01BEC8884B519079CA8775FFB80830429D9F53385C87EDE208B6007EE262FC4CBFC3B007A8A5394BED7075A4FDF2091871B830BF5918ECB2F3B203B07F359EC964201F56237D217FAE6A768,
CB73291BD16ADE4EFEDD641EB908AE4842CCF74DEFB211127003F536091C72812C049DFA195EB607E349C3D9992A24C4BC03D776A4244AD143271D731FECE8DDCBE33807510B38DFB1650BC544592CBA841B309FBAB70210B15529EDED1CE7A6B2A7868A2037CFDDBA228BA12122B335869FA2AD9D8010AFC682ECC609399683,
F3B2BDAEED99B5891553B67413585E73C7DA82EE9CBC81835B84405FBF6E69180B382C94761D8417177539D1CB8F9BF8B351752F60753866A2AE7156774CA3B3A9F4F316DF2573FE95A5D214FCCCF4C66A04FAC2BB1FDC2C81836B35AD23280C2C04C8D01B4824C03899A4AF2972E3500C656C022DC32935A9FAD01F9AB36473,
C0850B5B5FCC35AA71117F92B80D619710095321E33D0C85D96A71C75F7F920BDAC69E77495838EA820C0A15D6FF48DEB314BD02ABD3D1C5F1461CFBDB061D73925374B115BA8AB239F96C67C5D3FBC3B19E5A2F40136254E92EBCC1FE9C1E039D24D55809A75BC3C0AC9E82852544A1E9FFAE7F265DB9CE48495EC8A0386E92,
42FBFC5400CB47F04D09D5996DB9C5A92A835877B45721C3D64E8366E6F5C04CB5FE09BB7953A4B99BB5DD0C8C72E1009CB2CEA66D35BF4E0CDD42090AFD8DCE40C63D40E203618714085AF1104F49D61F26D6E24ABBC16AB258F3E616A6007EA240DBC89C6DC1E58E2EAC1E7BB214E483BB04BF786141AA0B4774C8153DEDD0,
CFD742794FAD521A9DAE31192F8414D68213271B104FA986327908D329CED8A68FE87C434473A07A3781C0568370DC6DD855F113E0485DC0F4367B37C92CBEDF1A81DE804F16EBDC49D45DEEA81EB0C7F33F7F70FECFFE48C57DBDD84A7B25A7825308D6BD7F5A3A1DF3735D66B1F44E09F853BFAECAF5B11A00A99F73B31154,
657CDC4A528737F3D2C645D7C9AFE56524F4AB8D4BA544F6545BDBE0835572A37A1F6CCB756CB850A5B3142F479D9CB17A7E23DC38ACD3ADE25DABA7CFAE167D990C737C60EF64CAD26D486DFA20B448FC60A4E06C6F042960DE8CD5F64E3B5730C28EE1D4CCAE0D7F9C09073255B8E6CDD354FF358D81F110FD546781EAA407,
FD5033FCC7CF947D2711B783E24FA618C562AC1B5434A3676E5ADA218DD6FDBCA3DC04E8F1211C296885625AA8A485F70E71597C0E7378734D6D408E33F53CF7DADCC8C9CBA9F5CFE9FAF40C3C118133D4220755A967E06D5FBAFD9ED99442D18F152E3D8459C159B2407A4A2225CF347D63BCE18A3D704C354977667A06BAC5,
3F4230F0C3E69B63A55C867A56BAC7A26AA3AEADDB34EAE0D0EF66EF0DFF7E65343AB5562B2AAFC7A65E01A4E4361BBBDACDE39C49D9C945256B503568B66BFE57ECE4866AE2EAC3FDA196731FB7ED7CC7B1160D7A424769BD59AAA74725F35156DFF4A9BC16EF340C15AACC77A75F04F5CFBFC4A3E020B540478DE32B661B82,
D2DC052C3C2B0ED66EBE499A9D56A92E742E660E5318E1AFA2F007E9C68E4B8DEE1A7E12B8BA936F8C980B33848CD4145E4E1C681B8C1B394D16959150DAD590EACEF8CAB83CF3C9433C9AE1D19B04E9A1F59F45A5EC31BAB6436572E52AFECB511486DA3515340EBAE86DD7C7AE4F917CD616442BDD2F81EFBC0AE5599214FD,
362C9AE4BC7D35BE64368B336153177AF2C90B9629357672E36B9E984D9C6ADA25FCABDF01BF06D8204F5A30B3BE9C7D3F4B547DDE2F6BB8063E481BE765E8415F28A1973B32520FA6111D7919CD38C163BBFAB325C339B79F0FB3FEE3B6E001FA306339E7BB0B4A6BE114F142F42795A532DC3D6A430D617163BCF1571A8A94,
62F1018052DBA00EF64FE93862A9A0567D29EAD1CB7E29C2F90749B4A8201BD71F5483C5ECA3DE6EFB0B39B9EFF863B4E17CB4A81D6633922238C76B8EFFB029B86BD7E3605CD95218739090E961ACAEB5A3CEA7EDA5821159A48AD16A8F620F01A58B39D34D7BBDA2184CFFC23EE3DAA1EE18CF7AE15BAC524D28EFF9040EE4,
559BD1EBB04A8359CF78B27B42A77A84E541BE3B9681F403AACDDEE7D566C0C16D30BE03FE5F68ED3B5D54DC17D407658CD41099A72F4925933979C4E55508F0917A1D9D76123F494A69E642847E78AE0641ED0B291B063A32A77CE6CF3A8DC094985A1551DAA6FB8C7382805865B1CEE469610BDA9BE3D9FBD02FE875D74A19,
3614C8824C0861067CA3CCF006E104C7F75FC297D2F54113E41F35D63F1F152D1348DAD0A59EE0EFF1887C4E17A54156611790D37F087A12F9E169F511F7BDAC61AB46B8EC3A6CBF46D5B283F18D136E6F512BFD7F3B0776C1192F44404E94CD3C59405BFFCC4CE485E252E17CF62C34260712908995F77D3DEC2E0B823A2150,
38F9F083726BA8DD881B423CEA4B2522BE97DD51D2C0ACD7B9E91B04CAF9B8541828FD273575C11E049BFB50C10ED70EA2364831D86987043177A7B6993006F2F3868AC74DF32ED4CC66E69D79F4E80AD4B9999A41EB62AAC54E1ABF372D4517A1BADB0A9082139636C5A3C17BDA2155E9C64A0E8521E7267E53FA94027F0606,
86AE5F655F4C95841607BD1D796FB694980966B11343234F85CDEF7829B7BD588CF852CC996E5ADBC6E61CBFF2E6F5B3B067C753A39C8C7BE9A81601359D443AE796F1870F975C854797914393D5B410EA53355FAB2AF943DBA5EFCBBD51A0D4F65858484ACD519EA2F0C16B4AD7D5C55C5F180CCFF77CF2120FC7CA6B5486AF,
738EC35C3F0019309C727F1DD8F44B8932F4FFA373B8AB75DFB6B44A310983D6ED63A09F9977AD1BF315A272780AD9BDB88AA8F2995BF057A9403E98C29DFD67F7584D1DF5E319026F3114699D9DB956E5730184071CC1C7FFD16A3447008817519AF31C3B5B2A5B91CD77392461BF8E76C521DCDD74405BD62E72FCEF6F7D6A,
E20F988CEC05085E7F059F6B3F53933F44B471A19791CF0CE093FFACCA4564328E21106EE31B99EFAD747693A63484CF8523E5BBD6B42F8DEB4D57C87F1A4634E735E0C3D5A3B6A43A390F405484FBA28F0CC3FAA7D193A425F34F616CD66B566E9155F9507E13278D1BC50AECB10F62FF5B188313ECA74B78B5106FAAD6366D,
2FA66B915F6BC564EC00E4B0C0BE486F6E15164C81C401F5030DF12AEF2CA18F73ED30E8407F3F6C07E877285568BF7A241922AAB9342FD0BC8164FC0E1BC6DFB3D35BEE6622A35EB4CF15CF3B11F959AEDAA91F19F9FED77FC2FB1FF7691FAF38F7B8EED827AF068C91B757531BF789AF175AD9F05221558B9CC4CE63C5E52D,
B3A19AC526C1F3246C07B6112C5C4587B9270EC5382D3583CCCAF95694D3DC24F07B17E9B31EA0CADA184AEC66F47E7BC9534731560F147B41D3E4703985368370AA87213B5A90222A98BE4B3890474955D11BCA0E6B3F7404530BBA7664674F932244F06415AB5673C18BBEDE1DA126E466232EEA6B4A42C340DDB8DA2C8BC0,
B4097BF5EED974D3CD07B8454F5E1A158CDEE0EEC4176E543187F906EEA5877E4695D694C6BD1C8C40FD499BE8DE7E49D3A78649AAADAB76E399D1A9AAD21410E17725D70BBA01BAA9F6A3BC1DC413511C8DDE885436AC94BA974FB9B605538472FB161A5F75967EB8186BA0F81378115C94B5F778833D318F02625CCEFE6269,
CF337B23688400E320C3820086ACA6C390DE3E62A82265D1ED440FFF6905B77061CF666FBB8D8599D463095422080AF72FD3E49BEA23AC424C73902F99C7C796F1AAB4B8C495953F4D05727CA4596F2B1581095BCA0170C1B94B481DC0CE4D65ED718C071105A497D5357036BE28A0C5559A01B170055A60484BC273A8AFF733,
E8E006AAD5137FC519AC3C86BBF413540F1BE58E34648651170EB5EEB0A5EF7624058AFB69AA33341A98641307B93F673D968068697C441F906042305DBE9CC00D0148DABBFBF5950F0B814DFFCDA0BE9031EA8102D992605F60A434A3BA40FEBF599ACC72666F6C6FBEB65296DCF4247354F082432F79B4CEA2023EA125E523,
4705EE7C30A3926CADEC441D91CD1CF1AA52028C7E0EA73ED212FC0C2F931E9826C528A2F7487BDBA90BF484C1857A398610854BD1BB49A5FB6FF5A0651ACCE5AE298E625FBE8161FC47ADBC96E41252BC074D9DFC61E4C85D9332D2B3CB3B16AB88340D976A0D6BE1355BFE6842E60141E0FD05BF1EF3D7DED300BDBD9CFE54,
BCBAF1C73C7BBED20DE4BC1B20629F7E10FC95EC2CCCEE7AF427B7EBA38133D66C84FFF351C5A2AFE3AA1DDA1F6F9C8D0A9C6D8728DD43DD009A0EB67B60A90039D4B78411A57B9CF8B25A0C55531B90BB81D2A430CA41FD8DB1780B00751033F5161766F17DC334E21B679C906F870CEB145951FA2DFA5F6B90565453FF30A6,
15959E69B84CB093F61B716002168E0B117C3D88BBA515F631F60C6C24308EB76F2817A92D9F404CDA1B976E91A2B7D72CF5AA46FBF7544E72E20D97A1CF7111CAC9CE3904FD102D243B8A13D5F5EC5197CEB3D5F703765266CFD7826325506592EB54CF6178BD4847E2AACF8FB50DCF28F00D30E6BD3D3975AA6982B90F3B59,
5D5F5554DB0F256B801DA94EBD900238535C14F32B23CAA5479F20BF900219A4F9117CC79758E70F4239C499F9D0AD7BD51D3C652B368E023674225F55D15AE2A583D8F2A71C08AB91629C68A8F82ABBCDA2EFAA34873B865BC33A79F23BC67B39BBA82240E62A9EB60E7B31BBF8A9159997E95D93A37E47F746B8340BBD44E2,
5C38B13155D80A758150523070D9F5E53F767EDA8D11364C17ACF1087B864371E976F03A6327DEBF01583732A298F6B38F972D62A0FE51FC166C1C43323106AC261E1C0ADD40E91DBBB23A5B96D9F8F219CA9B554957B652A47A3DB12A946BF3B566A590BF1BBF1FB31A25723FD44613197BEE4594F274F9AA468185C217671E,
990F216F8CDE4C85D8199438D704741F47695F07AA7FA476DEE935031E1CD0D722A2DF4553DCF9EB6D7B27E0E65444604F88B8866E8E19AD5BBE1D68F34C963F7F007A59244DC19710CE973E359023CD8367A94FE0E91A10A8913BC140E90B8E1B9B548A6F0E0ACEA5C70DB491FE0A13ED016BE51D1014FD13E9D98133115A94,
E9C3DD60012EF3C47B603CF1DA65D409A661369ED05F7EDD7E8460AB3EDCB1730B6E4BB555EA9F16DA7F3548E4AE083DE5F807D514025487730CA76A5E04DADA0C1A80340E5FD8B335856336D86D51E6A7C5283127DB5C07BB65B3F1E8958601FAA009EA7B928BE08E9D1CC5A4438FCE188C5FDE525E8C5DE1B066E69F8B64EE,
5B0A5A10F0787205F914C5A190B209327DC2E4F1687CE8A51FFE7B93C6B986477E3CA97FD9F2099D1F2A128891B3CBE4185C5339713F73136BFC5094EEA42A96148CB0C8AA898A566A6DCC527C73ED4CEEEDA65EFD4EA5780EF654AED95D2E67AC0481C67F7B60A44D82F8B69CAD7682AA7092EAD746ED8794505F2C011221CC,
C562E6E7BD6818846911FF3562BEBB4B4C57B8D40C3CCCD4C2712DA92894D8FE81CD453E1F7B5C7AA89159DC82964A6692A1DDFBEDF63700B3F734900E7E5CDC54E7099D27C5564983ABF935F75E897BFAFDC100A815ED8FB1348E9C26E4A41039B577A7708D00AD132737B9B14556E953262D481F40C889E1C1B1E6CB5F48A9,
DBB238E765CACE06532F95BC33843A215B4E06706CC7BDBC985EC8ABC6B60F74F94631BE106ADF217B9F40FDD3B60915221B0AD6983A2D48492EDF2794F147D7E3B3B2ECA186DB64136A02131D62387340E6B9633F218B685BDCC67B53C844699E3630DEEE7DD31B07C94FFACABA79E88CB139EEABF605C7E7B81CD72BC1368C,
07CF8071AF56697D72EDFAB099392519B9D1BCE908C105F04D906852ED55AA256D14CAC61B3400A113AA6DF8CC338718BF0884C12A6514EF35EFF76CD701B7E031ECE17188022DAD5F7753121CA22D5342D7DCCA9AB2741E970493F75ABD433A7F5749EB8944A2CC947310008172DBF7C946B6F7ED7F27576AFADF8EFA3E5EA3,
BC61A2CDA6498CAFBDF91B2FE01DE9BBEA9C8AC893A737503FCEE949F7D392041E3F484A5CE169DCCAA19A976064E0801923E938242E0C22155580CCFB8C6DA1F41DA99B993D769367D02FB2496AECCE1C61C8023EB8221F42F5CC6FF7D7DB0709301D83A28BEBB858C711A1069A3B2FB3D3CF9C2FEC039358705373920CB003,
A324985C7973615DF065227075D663D08D5CD08B0D7CE27ACE08CC5897889DE307BDFB6F40ABAC19746B2C3E0D91CBA1825CE71886BB9AB0DE76E8FFFBC0B6FCCAFD124AB55B00182E32AED27D384177CB3870DE855FD3700022F294EC0598DE5EAAE56B806AC3673F2443F7754959ED1F5F3D60FE83A42D17340BED99A0589F,
74360DE09F43D3655AB69A3CB9A3EE129D594998318C4DE4E30127053746F366FE6E3257CC14B2FDC6F7E36506E68FB4BC57B6E6406FF84CF645A458BA65F98DF2C1293A5962495C8CC08D983F60AFB083C4DB6A121BFC3837B3387D260C854777A4546611E57AA641FDB4DEAEBD673B8A0EF58FB594FA3E059012D840921228,
DF203CEC8EA257652E27829F95E1C3282551A755C9711EF3F2478C57279BBDD2A44A4603DEAB0A7EBE216811F788E4BD0AB22228876A6BA48263A454A74756DDC26EA7739B70350DE7819B7DD5862DEF00D9675F81FA8A512901909F4C74449E96685340F11161CDC59F7BF9E7F2F69895308D7B4501742D02A88CEEBCB5E432,
B5793AB1E0AE923C4E9045FDBB8494AD57AADE7E07B7D6AC00534802EACDB7552D923DD817DC5A520EC7EF160D482E0910E0D50A2AAA428C696B792869E753525A4D81A0F92A5C48C4A5742E1A8941CC76F3E6A0B047F5581F5ECC8019CC17E4C0DD46C329FB3949CE8AEF8C2036D4132CA310BAD746BE645C5A9421432DD70D;