memory_initialization_radix=16;
memory_initialization_vector=
9DFF8B611056F3B8F7BBEA303C3F1860F7692A10E8C6CA5D88A09AC28D7B0610A94F70A4CC9ED1F85E9C78ECF5D3EF81CE2CF90DD3991125BF60FCD3E34CB33F0D286972852A0677C46DA35000CC0F0436F6EFFF6A51240759FF81E310828C5DF04E1FE0F2D610422671B38EE2E493473C44651D4E098F34FE3531387362A794CC3DFA543CDA7FEE61B06B9CDA660CDD8BD51FEF0E6C9CDAE7830E71E28EF95CF95D21E6DEB34DC24AFD36C0551CED58661152CC238DF42B0B46AEF62C18A46A3EA9154C8FAF7C682A3CE0CBF7D27810A56C70A5F0BD9C18BDE05FCCCECC6DD5DC6D8F07FA5A2B932AB061889EEECBD8169AD0038ACF993DACABB2B216A693BB,
52ED8A6AE227D3427039375F01C90541B9B57A6CA1F585ABCDA7A8AD4F0BF7E713047C045A63DE390B507C8589C56421813232241949F51D36D02774709EEF2D22C07B36BF8DD33AEB52BFA70CBCD0BD0F35718EC8EA68A8B73E5510D9B73F6481C2644FFC22DB5DE318EF40C2C6561867CE12E8E4929097065B6EBBC8D0398C83774CAD2FD7001A45B6808AF9A134FE6BCDDEBEA0A374B493647D64284777B3294E8B9294A93607D682DA41A7EA405C3C070722F81F3782DC80F67E3F7444BC4ACE46BE42043FEB51C7B8157C85962580D16074626DEC7C3C9158B8A5F15667ECE0CFAE7DD5E27047FA14C19CF0B3604FBFA55E9AF99523CEB052CADB4AE50C,
4B08A02ED84207270C19A1A49F1CC1A4DDB7FA2A6FF9486F24A1B501C387A400D21491ADDAC8DC52F83A79D15C3AE3F280DF612C1BBE3958160B4D797C49C2CA9286FE4EFF89525AB99DA8D0C011102631C8892E5C6B4E1D7ED8A53AC62BAFB1D1B99ADF2A54F74E8E077FB2E500A6899A30C1E1C1DC6D03BAAD18F93BC4FEBC85D4A130F1BB90027BD43F09834163EAE103BA1C20AD8F3AC623E5DC463774E711F1A35A667E1A2295A939CF1C82FB25931AAFBD4B8B284E2BFBFD7ACDC490A00E7476F66165793F823F5E26259CC8CC4CFA4DCAA1E3C57E6B6296F1B1AAD31D0ECA87518D38FAD8B00D6DB48B17A361A5058B9846D2B2C357F9239DA422C1C3,
70CD424AA5224A81A1DCE198E40A13EC097B5F8D50F89D7B5A55782D1C03AB43C198B6273E6B28585A3071DBACF0CB7871997303E01E23B0C22B3F5358DB0ECB42836B65A3621BBDBFA76D99E8D320E6E653B8BC35D79E18EAA38E90B6178298487556C8CAEEF7C4D07AE53DFB316850E768A41B8B0C464E6C908955B41B1D9836729C32987E2F4EEBE7C18BE0D75FA2BAC446C144083FC023DF866E191A1E0C79CD666562382BD0D8BFFC5C23E4063F55194120E549F79C7EEAE8D43A201A6C33E228722F45A348A3B920A85B3606895361008F1F72DB80F2F3D223414727C89A70CF8B68C618C0F65C7950CECE5FA3271FD1816F5571B82CCF76C186ECDF23,
3A8CBAF526D6385160B3A0DDF1517E387144E4D79CD8C049FFFA1B3D1D393186CAD5E6399D885A05D839B86800A8C5FCE04292A47CEA16D49F0ECFD0AB7B9F783A653B0048CBCB632DFF045AC430DE8A9B9B362EBF91CF0A80F4DEFB902272A5103ABBD102FF2DD83273A3CB395EA3CB4619B4ACAAF03F57B8D7459BF068354C58C2D5A54C074FA2482A2C86CCD9F56593860428100FC61CE9F3689BCF853A48903F75E41B578046B69455E64EEFAE9DB947947586B68F6912476F986A2BC059D51A75281FEA985450B0AE44EAF78DEC49B371D42883F7F3E3016885E88BA13D5189A84A5E6311CF7119E873A970015C460F82AB5F494A3B80AA88DE01B4886D,
F1C2B6029D3D799012E4E2DCBD5F95AAED94D3D1BBB76A6AFE96DF5A3CBE97F2F575A2D3281B5F3D9DD4BB239DB05DF6C724AE258A02F93148A9E4F29EB4C7B4E79CDA56B791EC3CABA1543356F5EE00D413A54DBAA37076A5120CE94BE6C4C694490F0569DB2A6E6D777FAA0DED9F0FD90CFEC9250C5D1A6B65F01C493583EE1F56EF21DCCCA28386A4E852886BA6AD48073C5CA33642C48A27459F979A4EAD2EAC8B1F5868751B79C28A304A65C835DB3515B730332740AC6A069F7A4417D31EE8605F6F431A4F181D8C5BF7D61DDE15F72C0591ABA7C973358CC86EAEAD6D7D9007CEB48ECAC53698A60B6174B132DDDC8F6D44FC95FCECAB47417FC22DD2,
EF6E887343B6B2B15391D752C28F57B5E716A3623D6EEDDC7B4B490B05C991A4EE9CA91BD5D87B8BDC9BE92DF222954AD30F439A1A846E494BA7FFED56A6065D13DD6FC3164E7BE48A880CC226AB4D0E4593F3139ACF4E24978B35F669FDF29433664DCEB57A2FE539785181E2DECFF5E2B4E1B4D8BC61051EC8E625B67F8A5E6D249D9027A0CE83D88905D10BFA29C00C280C1979FD04DE57071F1CB8B82741764DEB59501417B604B02295CBE677504168919CE254B60509D452F8D178BF4FD06F9CF4FFE2E7F872D8D6C07A16B9A88F1E40600ABD8D750498DF83023CFD53A0257D149703E96FB79D9CFF4B7F48D2A7C84414A90689FCF1002A6C120B4CFD,
E8CCBA54BDA26F4AC58D52CF63A537191D5DD6B02E108B75F3DC8C374DB98CF9CD6FB8A0EC0B611787E1989FDC14BD8A84D0A267F70BC911953A742D95FE1A58917E46A563421DE172601E01E76944F9A680CA2651B3CDAADE253E100448549B2CC097C7F59B373C278A0C3E84B9203B3F9C6732A4A30349156F778215FE60429A6C7778CB3BA69C68B72FC9D4F884AEFC12E5F7B2C29BF2803DAB3F34DE8FA4DBEF724872935D9E28ECD383EB91157BA1496BBA4293E4A9A22E65D56887DA7D86CC5B6168F594CF466EC40F02F01E6C4A09426DF3EBBB4E6B5A50A3FB001B3177A48F4984E97533FA62DBFF173AAC38DCE05DE4C148E9EA0A6E2A77C2788B26,
4A863E41B3A38D079885BC660AD549CD5FB8CA2BDDEE554F496DCA2AE2B75E23DB83EB8257970DC06A7BAAFA168DFFF4FB686ABFEE943CAC57C5623A1FFFE0572AFF1880B9CC18471508C7AF9B6BAE3DBE3D39F0E7F801BCB638C81990AE45C21A394BAA557E1D586E3C2CB65BAE20777F429DEF193995B1F2243C6A8EBA2495719C2EDF4ABA81117074C84C4E1ACAFE1A47F614F30D426B49108E267FF7EEB8E06E51CE76BC970F213D9D4AA942F0F10DF22E18D5CB817B51E0D766172E4663DB03EFFB16A50510BB5FC7EFD30A0C43F8CEACED2B1B84DEE8D7091105A518CAA270BC6256D58EA41F64F5558815907835FA32A6EA2C1BB9A4D57507092E5C02,
DBA48519D9B409AFE3DD85987456E929A255889CC88D9881E48FC2EC238F1B670819659A7C4DBDA2D2878230ED477D771B11513A00B1F076FE23ACF24E282D1BC64C0BAB767819DA7F72FB8F4DA6548085FB26D3FC685BF393959192889612138D9937EC7AF7F88B88E723BCA3D00DB607350AC6F797AB2230642C704E9DC0DE50712EA0579540CCD6D07CDB1A388A1928D4F4B2184A0A569EB7E99064EF5CCB2273A4334B9985D492929E3C0A876A1960E3ED4164FBA1C2574A12C6EB79663F2907E4C5FDB080720A056E7EEB8C39D5E2C7306CE348130E18077D401603DA7CC109055A1B2BAC28A6C921504FA555BCA7D58BE366D12C4B4F5654ADA68C8E3B,
82A892B6CEB9B601DC70E057F768D966C3B4C66426EDAFADCDAB8DDCD0986F5C38B901800EEC670D895075D520C1D89823F6497FD6DFA690B5D0D67C30BA55F8A45987168AF067EBB9D3827A4557B389153E2D1E1950C3E01F8BB33F8308C8FFC112012B4D6F4668BD4773376096A5EE7791599FC21209261111F0F73D08B0413CA33441A2A4720B2E75E6D9AB5C7FD23C9ACF71DD440416494DAF55CB04E77D98E6B756B6D32910CDCC6B569D74EDD0BE29A42028667FE9C9432BE8748D70C4EFAA89140865F64640AB13C4162261BFC2567B73B5F1C62DF6F4542A2AECE3AD5DF102B10230C5F3FE2E40F2DF235E3BF7972750B38FC73CDED5ACEB4E7B6357,
8CE689FEA6978D02871731A31A138297F5BEA5ED51514CA7B53BF6A6595A7A8FFFC16D44E2A866A3711247387E0F7266DD080AB75BDB8D52789A8CFDE3CC7319A54C33F2EB3246867E8F7290DF1097F664FC923CB4466A0D2E498CC1A234D0308CC1A14093833EDBA57BF380396F9F2BB839E167BC1F83A507EB7AD60C3D6310AC3A08E420306617BB799CB5C302C5EBFE1628D62694CB00A9C10EB3B51DC08A8AC3AE526B97CB7A933ABCA2EB92BE5CB6EA1CBA20E027B10D352FCBF1A97B23B777313591F7F9B6E4CA94AF8532BA4C824E9437838D4BA5BDE858AC8322638E66A845BA8D03087C08079D0BA165A719D7B64615EC3DCF0CD93C8E9F846A654D,
1F230B6161B1C2184D6A09083CDCFBAC1331C3F51959B2C074CE9D8AA66F526248560FF5AD44BCB85CEF01F630C4A45EC41012B72E9B4D92E9A9051E47A83A53FF8971B3D417EDEA2564B79E0CD02CC677BB1F749DDA9E67D8C559CB7F135EC99C321346BA8C597E5B77A599531940AAF81A9D97CF9083574A7C7C41595295EB4CC3E696FC5CCC241CAD31C7DAB8D534E02ED7778EE93B363D8960BAF527FC116439752B60604F471BC301928A22864976F452F251E7DE8CFE83FA9748CD36564C21997343D95F88657D571D894772FD6A92E515918AE4ED60010E9A7F60A2C86139198C1458BB5A875E0200738F8316CF48881E4ABDA7609DCE201D5A099B1F,
278E02C5F1E4284C1337A8FA46323C2ADBE5F468972E0C24476217D9F40F19612240D75B25FC575E522E4459F7D45F6F06BC4448FBB94EFBCD3A08733E572986FCD03CEAD63966D5E1E58DE5B7C789DCCA2E7E27990FD94BEB0827F75D7E3CAB2D3F7EF26D1961FEB7FF8A53A9DA2434151BA4FAAB6D1A16193036318553734BA9743B889A8AB021306ED4DC40F39B5D0A5A5A6ADF544B0AF05339A10B3BCE477CA5228500517D803F3BB05AB5B7FE1CE91A2060F8D8D87F0AFA519F99D707A8F5B83AC4EDFA055F9AD0AF9FB46BEE3A366C816ED1899DB627DA9A50C37A27F84683390DA4C023188BD91F33F34CF706AD525102632932879A860E29D98DCB4B,
E1E8386ECC90DDFFEDB5E152DF0D2009642E59879D3B2E7EFE997906A49C060FE65AD3A8F9824FE8CA698C02E9A32667A8DB6CFFD90CD39CF13DD888B3536D10E949B4543AF6385EBF994A18A2DBD3EA0B4A85E19182F2A8EA6556DFE14D60499B82043712163F9B8FCEEDEB72CDED9774CCB782AC019256899E58354FE5DC8B52E3A68A02D30E9AC5BB211236870983E03B68DC1816A4FCB170233E50ED9518FE12DFFCA41CBD1B457FC72E22140D435E3903F8084FC169DB55BDB35D8CF3936DFF9301D1E4B0BF572F1BA6A356B3B1442CFD21E36470478470BFBF9A8728039C88C38188D2F8E4D6D47A69DD20116A3A52F2488962F36C776A0E044CCC974B,
5A4380C4EE170F147033A9734F608F1D0B083866D5DBF708189C79B17E82861118EF0FD7729498A0DC1C8C666C1CD9288E2B74E20E8A46A7337240935AF4F327F5DE52AE8E798DE93C3CCE940B944C73165E596D875E3A9E249C58FC289ABBE7E5246D19CA52DDA7106B1F034B792C0D778DC8A2FAB6B9F15779337AB8251252C65D88A2D986CB9023CCB132781628033C2C314938D5D2A6AB4346B74C60A182F67C6445963F4939A394B8663C3FD9F489F4068A3B8E9D99E7CB9E39F8BB3350289363DF03C302A2204F9245B4864646B3CA6491180EDB4D8F90BF867FBB119B3B81DEB8BF38D1DEF0D2577DBFD8A8FEB0FB9889AECEC74862B867D093EEE82F,
9416F36D4BCF01C9F71EA9ACC931B1B434A9620D394CB9D820CA6A74EB9A37F01779C1EEBE501F27C3B54739B4F679CE7D99D146FB7CBDD2D43CF0474B2F7E0234E19E0DB04BACB40665B463407BF95877A07EF98F1A8D2897E527653D6DA2737DE1E615BC79359326EF20FEDA218556D0598F927C93ABB72C2DC6656D9E9C0EDF38D139782381A3B2337709B533091DF05196D9094D042BD3CEC661C043B035DFAC553D06B983D6D7A0AE884D2CBA961B8654FF0C6EE50AB6C6EA14B9E431BD34FDAB23C41F0AE45572108CD5876BA76C0C7853862FA079575B81FE5C4FEB7D0F8487055BE1E8644FC1CA552C5BB53E03520E149100FB591528F578DE2A2AFA,
28C6571673575CCD4F993B82568473913941FBAE8F14B1CD1F1406516C58C1E4E9F479ABD308665A9719A6CF8EA7DFCC82E170BB8EB346176174EB5BA43B5B0E12D8B63861FCFAC596F6E5D346B5F4D5314E2D133EACBE0BE0C29F16502CC60344FBA1F8523BF28AB3C0871681668DD1F2A422917185F287C2B03BF21EEB378334A550E3D5F79A85E1561DD0DFDF6705434B22A30BA31CB354455AC56C981679F0291738F84147A41773FEA95FBEFA888C7C3A962DC7906CEFCC6A5837F2B363AF1796882F29D903E6AF67C0ED3CD2F639E793276A21A1ABFAADE4F021DB3073335DD2BF269C9973E31AF3D56E3C5C6F519D8E633165E5E71023E380C67EE8C7,
02DEDD78F98A6231944C1FEEEC90BCD5F2314CEA1668760AF8428F159F4B5B4C745E611CB9F41E17AC63BE62105A734B585F05AC0E4A0217060D3A6E4720487C9475557EF4B3A375183D6DA070222BB52625B1940216DDB9B4AB952E38B3FEF2E0DC0CE43A1872D19B2582BC2D112233D7D72824238C69F1D050C9E4F739417B52690D7B45751F8630E76C1880E59569237024F169CF339CA702B8C8CEB9E331FDA00FDEC6B7DD0313F566C2B740338E7E30AF82D2B8B520DEF3017649A3F6B8DC6CB94860988EC73849CA21BDB8DAD37A4100C605CEEC451CA0F45538FE223A12FF4E9D50CDFCFCEAE8EB29892B3D1D4493797F12D61A4A7E39FAF9B8E7F1D4,
1CCF00A15C0BA9CC0A5C6222E2FC383A02C85CC7A0EE5ACF9D77850A9B084BE9E2DA48FF1012C29089C064D9466CCF057D554FA080C3DA345B61CC2C6137669184426B348BD77D30E31CEAF8C71D61FD186D62079298295B02AFE2754DF3F996F2D6B64ED252958B8C14D59E0D766991E3535E3561C29D23F99C44E2376CD7856BADD5A9F21115CA85C3DE045330ADDA9DD20A778CBF7B88E78F0FFEDEC628C1E9B19D76CE90B957DB517DD592EB74D912FA18826FC64E0448314C8A8FB6D7CDDD5E176A912E8736F8AE7E9DEA1A4DC42090FCDC9446302588E26F9F2EA97325005B04B345FAD8AC253C8B4D3CE322CBC76B6339083CBF055D9E3D2076B16240,
B41A4A3193098FE802F8FB13BE42316FBEF2DF0EDE670CF0F9C9972BECA1E4699EF9F7F19E7ACE2BF0CC123287AE55843B29F364E7026B418947C40B81F546FB1869C29E0F369E08BB4D216AE29138CEA5385E2D9943AF6DCEC880E25321D23B6D322F1174B5798A77AACEEE16049A1A85E81AB15357C0906FE30F89CDE6DA9EDB402FE64722006506E5A34E82DB66F4EF16693EE686B575F35E7B04FD40E1302C83DB0B9F35EDA1320D3BAC609119A87E388A90B0F2A703ABAD5E9F879B0B995E6EFEF10B0C715660301C8EA812C5CE4F0CAA7C7B9B401AA0213C6412BA74EACE287422E18A3290998F6C28A72000D236500AA28BA879C38DA908A4B84ED1DB,
4F8FB51FC62CED3748EC61499356B87D34586DFF5741B2B7A36373E5A3C9B39DBD70E13E4F7B14B9EC0586A08002816D1331E1FE3D1FED46CE2E379289C439C0B1E386208FAEFA4EBF0D676C2797D19762E811B3DA2A4C385DA3A84603354B46D692A2F205A3F442BA5619610F3F3A83A4B34D3D99C0BFC6A5DB78892B161F817FC14EEB65CE7386344C76CADAD462B5BED6B1CFD335DD7D83E113397A19A0B5036B235CB1E7B71C13C862220FB996F41D9D1E23A4F02C8A8E68F4ADFAF9C82BE4482C2763912E1D9602B419556E12DA99CE482851E53600957072B5359C8EFBA83A1608250051FF40A09C205CDC13E20F661B4444E9BC6B1E7E65551842E64E,
50E444431DFEBAF4DA6E2EF245086B0013CACB551186A9A85C9D1B7E5DBB26F3DF2B46D9358F0CDF530516C52B24E7FA5A694242CCBE7B01A9AD8C01AB9D6B15D1843B9B78F9DBE146E29DFCFF8885B5468612E34CE14E4D44B8F45E2A4197D64484718840477E5581546EC1C24A4344E1E52F695F8C676D216CD55273969AD424AC3D0710FF602D7F869A9FC0FF332A8494F9C2578404863231A40DEA716340386AF32C5AB6662BBEE499C87FA807726B1A21ABCCAFDF3461EA7B91A41F2CFB3DC755E58290FE1B7CA2776EA4C7D5D2AEFB9FFAD75475420C1B24C4BAA20C5EE0D0D5C3C0FF933A272AD80386B4F84CF566671D046C6F0A4C6DE8641DF77BAF,
68A89655F3D2DF754D65753B7FF6FB00339BE578C033DDA417183D2F124CFE769EBA59F205388ECFB28CBB4BA49292413BE0E7840FCEB0AC7388C212DDF393AD32227EE67EFD473B266765ED81301720EE66E25F359D1CE72A04903B086CD7D8EC7E20051C65ECEB3560C80354665730607743C3B1C9078A99D2C4A265888CA11E359AD466DA5A2CCC45E9DE5B28180F200F42431CD62203B805F2D943BDD7F2A1271C0DD619151DBBCBD353B6D6601104527BB98D3D8BB9AF4D5C1A6BACF5244E4BA29590459DE4D12A6C503EB22D63E1735312EE8539A14661861A5D562205A1A14ADE80B850C2B30DE8079DE819E475AC0D3C89217BFB26BAEABB359A4AA5,
AFBB8266F3E03BA7EE017767A12BC46DB03CE33CCF149C4AC9BED4194B87FA44F5517536CD10E78FF1547EB3380B1EE36E8E4A1064ADE380D37FF4F28EF297A7CD51D34652AED038358E9F8B7CFB95C5E827F65A04F4D710F18914D0DD14F2E9772342C01D5B1680BFFCA944F4461C1FF27949A53AE2E9743417BF7A381985C5B3BD9F6A29C1DC79FEF8CE147B8A8A9B4874427B54FAA5DC3493F9DF6B08BEF5130E3948B215B4C80058E3C713090C2210B9F1AB1FC667528B1C0CD7A9451315995DF689B995DFE476146A3DDA864D84A5B3B0EFDD4D4173851164F663EB4CECB37BF9FAE18B9E1A09F0FC57E91F51E78B5B0BEE6AFE29B4911EB9E7D908F32F,
4D1433A39EEDFCC5580AD6CFCD6D52A1F98DBDEAE62B08CE68DCEA68F0486FC09127FA1940783A74DCC8D748FB3DF4C5F70B40BA9969943E65DD51CCB7E5C995C159147DDC3AA92596B775ADB0E50CBFBF8E2FA0742A2E96ECCF6FEDAA1161B77A400F6AEB2B8BA1D90EE62F46E55B9461263614A127B7ABF8823641B478FD1B82D2EB6FD92F82B0150E6664E18FA7A309868ADD101BA74A4FDBD5FBCF9E045C1070CC44F05B8A80F4A351EC4BEBE1823C5F8740897FCDEEA9B7AA6B41C5AE5B90001ABF10B9D7374AA39C610527C78FB0279D823CAFFC317838A44E4031D1C309CBE5A94B69B97801A682A003CA4A3FED95AA51C194A65091B2FEEBF981A9B5,
EBAD78A62C8C95834C3065B6F34C8E69958A4029C729838C427772BB3F893EFDB3C4FFBD1C3A9FE56676121D144F1B3A67554EA3B25A84F944DBA2DAC25DF2F93ED8A01422E5626381728F9833F82B45D24F5A0FDD2F7950A5B656E868639A110B9EC2CBADA2AF2E9A0161815B93543CA0D7B02B139789DB08A52E45205D7B46DE8F30D888BDAA322C065CB5563C67B3F25AEA356B69F359CE224408F54B97E270FDF8E228003DAF451642BE1F6F5CF2603551C9FFB8CEC0A04EF76DA1354EE5A95D5BCE97ED9F38522C7499AC4148CE3A141E011E3F6772F3FBE24128788A561AD09A1B4230F31F3276D63BDCF841F6EBC6D566C2BC5A6B7E91E59358900C83,
4DB0EA7B213D7AD106F8B7D3FD2A8E188B0969C75308B02CE369E1C7BCEA0529A79311EC7E31630ADB267FE9F78F00AA6E8B142C399139922ED9CFE71865DFABB67C67394B399C1F1EC6F89FCEFDDFCB8433226419477750422923DFAC9CA6FCA2C052422965E5EE0275D4140137FF51306A27971261EEE27FC2AF51D477E62D240D513CDF86EBB80008EF809EA5E9F95D1DADE8BFC314B6FF95C49D4AD8695638978C68D71B48AAC72B85030DF050B6319E6EAE8112C7031EA5B565352F8558C43EEE7F11FD7D10485F5C6CE2B9275DFC4B0D005CAF2CAA0C2720DECFDFF66591E9AA33C1B0CEA20835DDE24075BCEE0AAF5C80544F2316C1B8A706862517BE,
74DD816BEDA24E3FA8D1E67863BAE80EBFF8FBA3ECE3A0BA6B6261464C486004920C9000D2DF8A5222B8EDFC756411599D237E98EB611FF53DC2CBB227B17CD239C362FEDA81680940D2DB7A63C9B16A1085A799105CC4FDE3FEE5AFAB60EA238BF50656AB88D7F2FFC6E6520056CB0AAA28B1F591B4DF40F6AC42E8D94BECAB0A446E346DBED3F156378ED83055D2DD89251170093BDF51756FF8CFB8AA7BD33284E00D5EB1D62660FD83A1D31658CCC88AEA259C3A8EEC0C43B53FC5760C92B59D65FBE5AA931FA20C29677494C0A8A5552310A59381BBD26B4E8495D659BED1675A0B0708A5E6379ACB5DEF7337A710225103239EBE877DC0532464DD0954,
863E9B051C7FB2D27F7C6B6E3A10AF96D69036D96A36F330CECD757CF260C26FD8221FAEAF598F69BDF8FE82C3F6A8C122A695A58546175460053E932F0215327E4AEC9F99C2D2352E8765975131C79A29C962FE1E4FCE756422E02399005EDAAE0F327EC203E94BA4DA8B78D5C085A24DFC764D80F25B335C6F2CA5A4144C7C89B9ED3AC598826095235335AED5D0DF2395AE50C6922F342789D050A2B55FFE2A57C3181F0E405AB8A728858791D305590CE772366F91C8ECF67356383BC72288E7CE5806EEB67A25374E3548AA8E23F15F6EB86D7F5EAF3FC1F20C5DF92DF1F27E9FD8D44B306C5ADB0A3FB0CE0FDFFC78618AC965E69DC79E576D68D17D49,
C39B1CFDD6A9E8E87A15680B620392A30B2EDB66037CFAEFFF723FE168E293961BB1D87B8E7E219D25981AC1573EF0FB67BE029FFD02A5F99FB4E38F266ECE8DEAD30759E0528AB694EDBD8C34069AFD971FD97DF6AD14A930A0083323B49BF8544C14C6D256453ECF8FB1DC76CB4EE86EFE3C59144554ECF33693D75D4C14FE69FA3CCA7770677D420C37A9F1B2EC10AC7F65454B7B47C7268511BA17F62C95CF79F5788DB0981578766C1BEAD638D0265F5ED2D311F30FBB2796E976CB97DECDA73E7FE23B04FEF45BDE109D39DA2FF48BEC0EAA7322CBF943311A646CAE201C186B5CA1606D1A2AC4B297D1DF519501E8386D9142612DA34F048E827EB36E,
B7022AEEE1BFFF9B8E4E1AEB4C83D7F8B91118A0819A8559371A8675A160800F386010F0E4C6263261FD12BA17AF2205279D8AD7B193A4144AB5C825E15162A3DC57B1D39D32B590DBFF6760F86379096377C4D9905DE09F15842765500D53121BD1FAEE23E36772BE5CF364D53040A6EF7199C572F3CF21C890285F0613772E663EBA06D0E29E945FA8C3F31FE71E14897F62A3C9877F7A6FDB1016051A24264C6F4241037F504EA181F149EDA07F2F1170F3333F159CD8D226A3E418672381CA96D6F7A497C34FEC47DBCA6F6E6CCD94D211F853334097800403D58B6EFD2474F275796F9A2FD82930FC25B22171A812B35AD679D4346AAF8179AF010F8C52,
CDAAE618487B78E645A70A5F2E47F4994A5D749F9C78B01D8C9736602B6BA4F089E062ECF0BDBC9CC03C3AD727F47455474F0049BEF2EA584A315044BA3AAB015E5D483E845E8C342E5F9EEBBCD1A597D0B02AE796B5511640F152293765FFBE10A81742A4635BB9FBF5ADA57886F3AC57EF7295CA013155B1BDFF41D090412FFCC3D2D2105D75035B2196A84EC655953B88D3929FEAEE052E8B6BE43832A4A002BBAAF94D5190DF04BC0983A5BC9011BBB1716C44901FE6F8C5CB1ADEF59C1F897BC885AFD6871D70B566615EDF267F7E1F41DD434120B71FE3FE46F495729E3783F4F31CCB09A67BCFE0BA65C8200B864F4C4BC4B89CA2CD12D8552F4577EF,
402FB13649361E54777FA54DD08523B2FAF41B31A420BDD2F5084ADA61D7D5CF129143B401DFE96D5AE048DAE52CCA6689B837C956B5A998B1CFE2976D0B2FFED292C760770F38AB8C489F2CDD31A9E99093B6C8534CF34BABE2A62C519B51FC9B567CC739DB74ED8FD39C123F65393FF3D5AD39989B1414E6F80DE1819FB3F1B40D946715DA0394C96A92373F175301D4F6B37D223925C6D571DDF59C27FEA58E07CBDF0F98A487617408359FF6AF177016C40743754ADAE412C3033B3BB2E1FA9C63A95CCA5854BED7AF34752827DCF3439ED94E5F381A11449F533D6244C8249566FA96A55D9054E74C803557AE5A50CEBB9AF43A2654E4AAA31833F0F819,
C4C048CA54744B2C860073476825FD99B30C4C31F95943CB25B61C2925D0BA4D6C6E1BE4ED6ECFBEA1CD46E277BF2F98039ECB6E2F8202B9DB793B8B35182BE2308CA5351248ED4BD1B7FE4884C43FDE9E18343CB1B29EAA129BB6D2FC7BDB5DF8101D59702F30033A562455BC599961623C167FCCF996CE4D25DCD5991A4D29A8BC2752502E5E254F515BACA68E37D6BCFD9EE5A3C8BFC548662FA446B395B6ADA9687E9095B25FC83B531C70A88937CAD544D9D5D22E3524E691B2BE15DEDC14F5D22D1723E8D187ED137664B69283205F01A409D581C8AA35F242459BDBDFD53EAD582719EBAB8FFD425CACF917B08F580096D99DAD5F1211B91CF50B64FC,
DDB318FE43738799DD9771615BB1BEFA9DBB9DF23533E6794E17E515848C0DBFD68680D4815E50F2E6E3D0B68679ECD0E1A67D9D97CBFE6BB99332F9852E403D3B76662F26B5CF1B8CB9EF898483F4020FE596557B581902A240929348DFA26971D67E98ECDDBFA53821B9BBCC127D7E9AB0AC3F84C20B0FDD869E4232CF89082B7D4F57467B1F927B7221A11FDB99257FB08B2400E6ADB79EE13A721B45B2A5317C6C2480EBB7264265F035A65FFB2F840029805CFD308A05F6569A94E1CB45B33087ADC35FBC6B028053838CE2B819308FDBB3AB6BE8C8F5D29A824793B7C908C82E737D8C58AD88614B85D65F044348C3511E557E094A76CA4BC52A8DC972,
4047CE09C9A7B1AD0ECEADC83CFBC627790784FC216095A2F2ACD2EB12D0AAE739DCA6353A4D960B7D8F15940D37E6EBE10E3FEDEF79F5A9C6F9A05C967E67150CFEAF1ECA49E40BD484F9398007DBD433A0E5DD829E719F09FBA62542CE0A22BFFB9AB3DC7054CD151D663D6670AAAE12A241EC8BE8AC19816932E4EA14BA9781854BF45F11EAA94A627693EFF7C7F0891FCE07E690112A6450E9B0E7FA62AEC16750A1F31F6D53315C6F2561EA22A236243704E8E60A0DCA2AB2DEC5A0E897C3ADEAEECE0D3864F1482DE222B0A5DCDF28C13B856A5FEB117A25093B3C83E1D87B5992EBB3382B43B6A33B5F7F0DE780234FAA7F31CA23442D98A6C18DCF3C,
5328B79AC2CAA99256011B3B5FFA67B7C0063136045531FE7D735B14B7F9501C447936797F97A155D9173647D81C440C3970646AB9F27CD3C62842670045489038DE7D6258615992A7E0A7A96E4F677B2898D240C098B68D9B1ED1A470DB86418F190E2397EB8F555FDE8D833661CB488AEEFA0B2F1EADB8B5C1FE53BDFC4540C455B8ED1CF0D025CB226F5409001C1D8516F22A093D8099171C9115AD5FA5B20C98746FB6A260ABAD45E23AD91BA2EF1C05D6189F2042993623760479AE91902C5B5A844FB7E8BEE1ABEB8A04CB2047B1FF9F63592854D0B30ED0290AB8714DA66901C451ABA48667E22EBD05663D6E4A5A88C5510CCCCC227221AE44F0CABD,
8CA902EAAA05D5F5178E97B34919BAD2F3BDBEC2911CB56CEAA05234EAE1BAD1BCB2EDB65CE8C05163EAFB43A46E7493D654BDE3FCA29594DCBE9D2F2078E870CF02E9D15E52DC9C0B205F58C6C6F2525FCC1D8A1EBCE59EB5C0B5E37C957CAB6CC07C4324951878DF9619CD194D62DB140CD35C3AC2E25ED15BC6A556044FBE4D7517C40D72516FCBEF3D780573EB2D520C04FDED8AF7886EFF1A3B8FAA44CEAE44DBCDF0C8B936D232F686A8A66A4D5C664EB43820CC432F70857E617A36B00B3435834235D8B73A4CF2DFB869B9A0E07C6CD8A446041C492763BD05E90960FB02F661A42A83205C72E9F390FEC1CB98EA169E6AA5FF58664FC6F54952DA52,
09ECDFB1C65929C8ADB39A2FA9CC337AC906925606F4B3E8C6129852A03148083021151E319379DEB70B9E42F61E0EB5AC461B4868B664C376C05DC7D19FF8615362D95D9409AEC945A0DC25615AB580C58F9A4CDE030F7E15F3831C334B2526C96891AB4904C381464ABD9D4E52BC05430CCA1C3A1BA4324306AE8124A74A94CC850494F01B3FE0BDE1803F5FCD37E75FD35A90EC802C6A90862F4E3A7AC64F07594E843F6348716F033B0A89BEA0286A15954ABACC96D34ED319FDD04AC4C99AD57D55AC922AC9D323CCCCCE66883D3A7C3EA8755356A68F7A6220E0891BAF017F96CC29F062AD545FDB22E682A0935309AAD1C6DA4A2F4EA5555EDF3177BB,
6555C26C5E9859F87DCC01E8BF51DCB05A305FC3143CD2F7B19AFB707CE0F5D22520F16B76998CCDD03F0BA2C9A203D01BF5EE186A37C8C8D61F7A4FB1BEC126514F22FC893025A2863DA50B1C5B510E7883D4E78E907C9ED507985BE111D4B15567BFDA3F1F3646462F71C350E4B216436061B5767AE1C284808AC900228D165C2AA0113689D2431124516418F97A4B3BF931E96D864B5F0478B4F69302C2B2FD09161AA56895F00B791DB381742813A6FD84F7293F174F1A59E8E231CC184C1708735924ED52984593D8559204FA786BF389615718363736B1D238DC92F2724C25CC0AFFEA7623FA744480B06A921E5D4402B9B7EFD14F20A304DA884F56D3,
6236EF3AD6582D55BBEABD8F5F0344D4AD06764B7A617634A33F4BFEA6715DDF350066627DD3DFD3C52681375C481A3464072723CB265131DC0086A45CAEFB7FDCB4BD8CD80AF667E314BCA35B565C00B4C6F887A9F4EE994FB9D37CA0E1BCF0B9FC3405F86287D34DC7550FB567F3F8C2D76165D54992514D31E5499499EB693EB9F741347EBF5D8E25CA88BCC39D7F1FB45BC45BF1D6F7A91F3F6017185D0CE713D29B2A005876309ADCF33745B5388F0002735E073FB7E7CC3AE88BAA0378A3A1E6013C55531F77B902FB5FAC5B4826D3DEA1CD3B4DDE85BB845B152810638E487AA39CFA78DA21B3C251033754C2609F2118B1AABB96961C437682B0632A,
7D921A3A28FF8FC4B65EDED00D1BEDC8312D5EDBCB8B3FCDD72FB6A8C0DB1ABD272DCBAA6BFFEAC4FF2CDD4123FCF450F22B104213D5079FB2C710651902C807A3F38C7C750D9752549A2B602EAA4E52301422F555C1CA5757083FA8D7C0AF543D80A4DB6C17DAC778AB8DBD941E0B2E5AB3BB9BB59BBBE6A0A34D846702800A7FBB2F55F827DE8155DCB2524AC0DBF204350ECC6B554F3C8B3D11E6A5C4E9951D9724CD8356EF62ED09D73C834025CCAEF30EB69D0804E7E08DEDC3DB4AE294CA361F084AEF257676CC15D9F7729C7A8E9C8ACFE174FDE3BC2AAA4E54BBB20907683FF4FA9D114AE61960A502C29EC5D55916C0B0D416FAD11DDFDDF8225F92,
FE30ED0E59E31CA5D5F0F6808BEDB4F80FF3F10EFB9F7F3F39EBD4F811643463213D33B8222C07278DAC95F93C450C89302F30A8FB0B046911736F02C65EA98E7BD35DDCE311195E7618F0403E8B653379FBB565F1BE93737B29D4604AB1C8340E76A39DE476A30754DB1BAAB1CA1B124B18582D418375F4101F25E6E03B18D67CE240E2977BA298958CE0EB743E1F029571AD114EEF9D63D0F1E3097F6E727B797971824F32BFB0BFEE6F70B442092260AA44AB19E14AF24A2199CABB6ACAEF5BFC7ECECFBE563273FBF347F7F2835D7377A788D6A66523092BF8B75063A4487F43EBC2F6B10A8650FC8C2B928A5B13FCDAC221D1EB03320DB8099F2FBC4845,
7B6513527EA1E0528713A722E3AD7C577F615AD32B7B6FAF8AEF503D0835DA4A430A32E77DFFE5E935A45E255179422496CF9DD6B6B643567384B18264AB2299E6E8E3E3694FFE7B17EDAACB39AFBC6AFECF3D97E0BDEE7DBDFA22746EB7B14F5144BE5E8AD3499DF72E148DEF01DF793CCAB1AC141836957580642BD74867C9229329187985FDA734CA8B8741508B579C3891433E6AAB138EC558EB9CC77DA38684124346985DB2C29D5E2DE67B60E4C77BDEC636C396B7E4C02C571BAC6FC1ABAE0B0858B7651804809D13145943E2EAF47F85E6A0E5F562B95E84DD94A69FC8ACDD58855339455FBCA23F3AF0B01F77408E0E851BBA3C26855F56FF145D90,
785CB371EAA8CB0F1B0D04302902F35DF61D80A2941A30B45A332564164D3E676E69FC78140AE6797C461B764BE5D7151F4795F2B4896F1B7B27CAC45EBE753E71D205D20704C17D05DB36489ECF6F01BEBB922AB685E4313067EE5D7790666833BBED9490675142C670101E3A9CB1945C738C0AD19F4F8495197553C4B86F5C6032EAF79DAB5B81752D334104C416FEBA320EB4D288B859A64EF0E0A755F0069226BAC042B298FAF3DAC993CCBC9ABF649F824C02D47D09F1D8A4E32A36D4D4EED32BE1E68233556373D3BE7254868E35B7E28B754DC2161A4A5ECE13C928F19B738C0A70D0B0C921FCA320535F660E358B0B47840CB8A85134629D62973F32,
116FCFEF00DDDBC529EC0B51D9787BD2D14CAF024A20BCA10F1B1CAF162C9587F605982FC2491DBB96206BD33081255F426649CEDF04DED88BF2F9BC3DF068B0088B5C155156AB1EF39D83A0AD0B711377183698652F9E3CD8654CDCAAC846E1FAD50AD35BA79024DE0483E0CEDCCF68222E02637162F30AF9F3B6B91D2656D38C574AA64F275D0D6FD8833D82799F4DE25A04BDA05782D579FECE8B2E02E451D401CF49CB9CDD3146E7573F97BC9E295A8869099170DEB56164E009B709A1BD2E5FBCC433B73EA54C0135D0F0ABD75403A60811DE4DD701AB68E38E29ACC05C638769691A41445EFD4BB90DAD4E6BDE505681A81773BAAE6392F6377F1515E3,
50078AE9A6FF0E87C2C9EC6CF623D52815240903DEB41E8DB1D48042A654539F1672D52CE509FD4BA42D24F712420CC9E386D4433DC6736ED51C2E744E2CB7876F5F7AE7CEFC57CDC2306BFED32BCD5FFB8B3DD0266F316C9F0030CD66A092ABD216638C2469EFC7CF7767C96A0E15B1923E966BF7098308DAF3469D00FF1E39CDA16119AD3F6E206478E0913988B4076FCA48FDE79AC3338C0C43A36C6AD65F459ED7E27FCB2F3285A41FAFFE27C608061D8E2B16CA809C6380D1C5B2D0BCB6793B5A51DE5E4623060AF9B5DCF230A0C292777D850062E5E38BC258DD11AC1398B9365A92530D927735B319BD36C809CFBB9504FF144369F3303E099E8795C6,
1BF662BFFCAF0CE70231C9EFF9BA6E7F154147AFBC42A7C5FF5ADA6FBF3C8BBECD47A3AA4368CC38F018E3905444A3BD8DB53279C99AD0D5298EBA60AC499813E47D4F0DC16F6F18C1699ACAA891B512E20EA339FA6A7D1C44E89EDFD193E7E15196917E3BFE61598BD958FDDEF158F96E54091A489F65B771EBC7B3251EDA44A201533D43DAE46FC0644BDB805DBB3AC05B39415B692E165BF6E7DF7C3B180AD02AD30B5C1D562AE541C7A91A8A6CA51B9BBAA8237965B27FE160D48D4DFC645B48FDACC8F3518BE156A0F2E7D8B5128AAE0CA6BD310A04F815D242A93863609781A19F74BFC813FB114C91D0BF469840E2E704653B08B867911DCE9253A319,
83DCE0636DAA62F3457323EED89AAD16D24E947061E40B0DF1D43505F38E113FA66C7DC27A341171C272D991581191C59576AFD0B45F2DF9B2CD0D91337D29344171240E2B39EA2DE6355E7990825F04EA95FEAF68C5AF95A0FE0D2DDCA7737E122EE196A7F333BADC934E31E90E3F5B8A8CEB1FC230DBEDEEAF118C547CC4BFFA2207B847B7AC54FD07394AF71F391EC2934C8D15726708DB14A07F29ADF8D45060070FEC15C1B944F769A3D952416D6C39687F41349AE907B39717AC61E9809DDCF094D4864E96EE553B74003FA1F8E1D1D732CDA340343A7656ED6E294EF9ED184EEC475BC987D2795602A9A412FA25FF2751B31F615B59946E40305955A7,
BABF2697F9D34AE935B9294054221BE547D20EADB4757E2A365ACACA8D652E8579002619EA2CF007AC9B85B3A403F4B3A5087102CE4A7F8A9BC6E2FEC99B32D311F15DD46AB5C2FB4A80726C0B3C18FBF84E998CD4CFF560CD98FDF626E4FF98BE4F01EC25FFB419B0DB125A9138D12B7D2B4199BDD156C73D43474F24653C1CFB744D6A326B7876A2FBC48A933D34617F1D2F64552D5357740E9D25B956617647B92FCCACB5AFA91279C00B2D2A656EEB0FF68B3238F50568AC34E52AE62890CA88351EFD86C31F61679F46A7F4E51F460933A4AB4C2EFAF5BF35F820C5938328B7FEA79BC6476E7E01510565490BA83B020FE7A86EE6B42821E4CA6B390D0F,
D0038961A14C4A3AA151A80A4177BC44EA07FD7F2BF6ED53AC843D4F0EB6E8B5FBB570B6046032D0EF1E11EFCBC811978F409F4DCE558DC29B4CE40774799767BDB6C2F1569B91E3FAB5F225380E3F7997AED2674265E0CE3270A1617A6C3A0C3BD6C1AEB0586D5D1724291C04E82A53B1D19D3C72FF38DFC2CA31345A1A43231FD63CCB5B6B716AC30C4585DB6F4FCC39728D76395ECBE7A482A9ABAA06F4C0A8CD671C542F7C1BDB62A999EBCE5DB2A0CDD74112B1D7CE0AC5329A9DDE44E6908BAB3994D8205352109145CCDCAC87A9C4DAB4D6E062B06CDA4C126D85D4964F0B5379C7B3F6CF4A94C98DB57C23BB9A166EC74BEA7B34AB23D2FD2325A41B,
CB2E6A5A943CE85A366CB4A08EBA86542AFB3105F9F7681A02550BC8AB8CDE4910E710680DF93A5CB12E109E382551499E34422A97625CA590588A69944D1A79742337843204F6BCC0A7F9C0498C326FDB2E1D9DD11F1A977DF916690ABFDAAEECC6C89EBBD065716BF07B40678559DF4BA7E44DF8443D197694B213D6678240024709E59233C820A48F0278E48AA4BB4F657EC38475C275E42243A5B9F6B1E179C2716C6AE7AC5E48F634BF5B120EC6AA033C7C740514DB688368B7AB9D7C10713D2DE85C81EE9B1AB224CFF7150354060BBA38D0379B62AACCA9FC5FB9B5342E58393C4D481E5732507103E6797BD281DF3DC639FBB0CE56898282452F7AC0,
D03680F4659CB4635023956EF6C8874710896B4AF290C8EE5488E49D347E7FF74BA6BE2FF398AB075772246C8E5156893889B5100E0F63F6DB55B39A2ADDFF98BCA73A29F91446A1536A8CF70CF390B853CEAAF1E5C557CB6655C09A7D42F6A399CA6C1B80193DEC8F0C2CDC390AD9DFFF63616D992C3DB35072139E6068FFB8263103282E66B61C52233EEF31B2487F3D4DAE696C446F40B8268621DA4C3146BE8A2B4FC4EFD67CDA12082C69CD028B64984429D5232ACD50A0EC30A0C1477DC31583A69A84BF977109C5C62CFB65F64C15511527AEA3F97BEE3C12122520A9AEFBAFA9C223493ECB2DA9B4D43F23F98342A74AF295F591F7DB8526EC34F558,
44BDE9E1EC9669C32184519FAC2837A10E01B655C33395C32FA15A9D373E443EC573E077A73634FC60E53D2BC787867D19B32C50EC7E391EDBEED4704A343A57C96220E787020480821D682C6E24B64C2EB144AE6D8AEF0786EDDFDBD8AEF58E392AA8F51DD893FC434E6085562E3C4D4B285B1F15BCCE9D0A69E9D2F6AFBF0FEFE055C6EEDB38B2244E87D3D752488949D2EB4950C1CFFA524F2DF649949F3625DAF139DFE0A2BF9BFBBB9C8589A7E6084FF21DED12A1C1A1005FBBF443A8378FA5797CE1EA2CB9B2927B5AF65A37D9446DB809FDDE26D4338699A1C445597BF4A7F4E992D25418E6EB29551CB2A3ABBAB02613D01ECDD98E5C3CFC2BF3EE31,
4E56933962FB3DEFD4BDE52B0BC5D94C3E95D931E6B181EAB137654F9BE3943227B10E45B7BBB38D43A9CA594970200176160451B3BD894C2C25E48B5DF3C144D8046513100820BF2CABCA810DF27F1760B7DA84274A9BBE5834528C052F4434D8DFCFB45B8120F675AC8AE3F685206DF406935D9F27B8E86E0DA6ED447AA797A9584B0E92C0A7D8DC60F1BF4CEEDE061225CEE2017B300CA2A1D0732C83E7CC7E5135254FE7EED4F9D909DE76D0FA9372F6F25D13E3E115E2DFF7E1BD4F8D8C6DF23BF4ABC5C0E90F21F619F10DF5ABA98D435F164270E2491BB49E4633BC74EE5D9F3519EF0218D96837EE4D1DC7DB33E02E0EACB1587B3DF7AF84252B8ABF,
F3D650DC3FED1210CB52ABB1A872264E1EB6C14C03165C6410AA1BF9362FCA629D11A1269F5777235A69503A7A49C2B3FD1C1EBD40DF18423BCDF266CD5FDA79C5A8343C21207F7443298AEF85152E49109FD4EBEE4A5F812D0AE0CC19A160C7BF681D8DB2DCC28247C11A4840EE93A6E847DADF514A670D7CCDC3C163A489F4B80E42E36A3CA3BF41AF1A6C525629DB723266E5A30170E47C1F018632390DAA5946A0A9CAB35649AEF0226F23881961FA7B14265C6FF5DDE683BFDEC165E4B7DE786E47CD51310F55D59AB2DDE4202F87F373ABA4205FF2133A03F047172497CDB2DCFE755D943167EC302961123513A84AD109482FCEA7DA0ECC102F6036D7,
04BE5A72F7987A76CA9C34EC8EDE935EB62B627BEBA571479FA6560975181A29DF7BA10FF188B6CBD215F4FB656920C5DC9A676ECA39B15F437951DF0803FD350F38AD3FAE4F638FE7CED52F6C02DFD1B1EF09CBC02B749033324D5B49A1E8E0335C5F44C1047BD8405EDD03AE5698A13C4FE14407A6BED8E00E615C6B5F3E4DA14504F5637AC2564303FE31DE3D4B0F64A8F4C00D134530A36CBB841F49D5E380BFD9C2A7F0044782D87BD9E208F26A93DCD943D1AF5E121C1C5143533397F70DF243AF75DDAF249D1677F39E1186730D1A688F0F0CB78D1C7CE102548838E98BA4029486E093653566A070539C670F0A2F9B23288F794338AC8FC1F22FD86B,
BF554C2518660BD61A7411F7A463300F97C9637AEA1CBD5CDFE7E0B0639CCB0B94A10329946708892BD266377A35EFD75E511E530B82288E0C49CB4F2F32D46FEECAF12B681C9CC8DD37B58DADBEE8EC71122E70690A884F2BDED28B3E90A2ED343B743702530184D1853313E2B141B4DC0805C1E7BEB8D5C12098F52257CAD42957067AAACCA0C054086E0897D6DA6F9855269A9AECCDF37EAC2021A23784332940F113C4BAECC173A590869C934F110F0193698DD446DDCCE8C3A4378CB1463356A55463B554CE3F6AE3A85C1BC837760FE37080C6372D8C55E38C5786C301594B1B00F1031F90527005F26F25E1648FEB2F73F3C55F7EE6E8ADB2876F26E7,
314066439CA3F934F294A1D512F8427EABC4DD4040E86B9DC3F110752AD593FE7D7948584FA1DBBE7BBDCCA5BD55A209FAAF8AF9A849F6D4E93E5DD1AE771ABD23C9D85C7F2FFCE4ED518A82F38B0605224C055436EEB625A8271F2BC257A9E492696E5255327231241AB8E00C5B7E6362C6F02C57D622052D8DC165D9BA8A00AA2D99BB75A393B5080BE3D6350C06BA23B7C45159331B6E140D9346AA8044E62F1F33242FBFDF56152232FCEA9EECB24AA8B0D46FC853CDFE7FBD1F4A89432D6570D465357517FD54FBFD12F93FF5D397589E716295BAE63AD3FB44BCBF9F11FB5A31BB6C4A6BA1267A05D3249F8A02BD25BEC6845ADFD8AC31743D75F49CB1,
A51D81CEFA1ED246654B061A697B45B20F9D0D4935CFCF21502A9BDAB7022E7900422A4E56E6623140DBF0E845E20F7E1C9A47F32BAEF8E24FE58E8A395DBF7ECA3F98D23EFDDCAC2EE9190712272633699E7095CB8B0BAA96D83E697DCD4A28F3AAC1B80BEAF4D795B1FA80B5679F4B8652A0BFD49A12EDAD096D4CBB41B787284AC5B86E62ABF9CF417A28E4093E192D56F53F95B72386B6F12D54C678853EFE6F058D44319EEFDE3CAAD911B0E43A1109A24C677F5E2065022095148E080E5BEA5FD7FCAB80825EFC12C744C5A2122CA170D767D1B62D77BF2DE4C80C27652EC023E91C5B251645C3E6219468D948B236248507A8702FCE1885EB81E0EA8F,
313438276E4AA6278EAFF83E3DE919B5A71E55FDCE531A470DD23B7EF590A6C6C4511A7E46239D0DEF6699FA7E60C1E8F927B8264C2BAAE02385DB32BEC8BA793B0EE59571235B05D88B0857ECD7B239E896DE8806B227D231DE7A588C4F5334041FDC8F8B85ABE0A47AF2B389CB667D922A9FA3F70D1920BD702E891A31B0A66DD1ADCDFDBB917B0D3C1F760BF3C479FC771D921ED9DDF483562156720330F06889DFBE3783C2F0C751C1E4D6E37E04488AEDE2C212231A0E8B035A7D39FCECD465B0F8F1D7CAF54A2DFF0B1D3455A72F67D8CEB7499FCB4F6FE82BC44871F0AD38E11F3645675FF10174A41DF440B2777CE6DCA215333F94F934BFAEB82D12,
6DD1F5B9C800D940073E6C2EFE629194CDA13D87B8656BE146C3B6B9F0BBA3F31AFCA4279C4C529D43A8A1C1058B2BD3616B7CAC59451073FF6C78DFEA9CCA2DE7230C23FC2BB9EB7CC7F921497690CA36EF9F3DDA0B6FEDC32102D4DCF53E162A1D54519DC9CB3BCA751D60EEB962D6C10C5E151B6BFC4E8BC33A1AA06146F3EA47AE4510C7AB959698D4C5EC2976DC33BBBA66863CF3883CC3DF2B75EE02C5610E6508FF0DC302329A66503C83A1C4F4E1EEAC1F3891E2753DEE2957004D2F5EBA2D9F125619AD2DE0967B691958AC4B05F183D068CD2AF87A87763A6219801B1CEA88F61F9F36F1AA3F24EC8984EB4B0F34A3A8910BEEF80D9A48FFA710A5,
319868869366A16191A8EF05AAFCDDEAD993276964898C24C97527E9EB0474747458BCF3EBE9D50B9F0A92E912B1F4E172C7E146C7E87A75D8AD7CD3C96867D6973C82C8D332C6AA9B73A7A9A3EFA87DCFE9C487A9806B2D6CCB9EB146178A20FBAAF22E3969D3177D7A7953A13EC9EAC48F7D654C965F07222EAFBAF364F85A0E25F20B7040FDB1762AEE5C5E431C0F6DD5236A74884466C54BB245E2CF6E42528801E20BC8A62E39A28F0D3D8AE8D8805984B02DC34436658E79F6945EA8E7172F8E79A76C913415623AE6ED0C3E9C627B4B00D2D1AF546F9CD5426735930C5B72053EB9FE89F2E7083CFB12FD648C2094FCBF5F9D837240C273E30017BD27,
2260508BDE5AC2CB51AA62BC8DFFB50D05FB7B18F49BEE3F657CE6C73D2CBA70AFACCAA6BABC344F53B517C0E7A4ABCC5808726CD97D4D6FC4311A12948DCED42656217A3C02A85AD17591D281CDD1B57F945D265696835B6F6CC5EC6A044EE7CD30081C4EE4675DFB8BC2AA3EC12455E0AE59EFD9E0C93550BD90DB1A89378E2DF35592B6B29BB528FED89CA2A19F0CFA4083D4B8E69D6BC00611A5EBDE329DCBF6035AA1FCBF7210CD0DDB6C0B7AB152D2725ADBF7B983ABDDFB7CB3F8612DC98056A2518977A684C31C47D8F9219963375024FFAD46A42D8922E87611548D0057E1BA52CB7E2C81993556F8A38E1D91F39BB02FD8F131C20148116D37078D,
6159B1F246AEC59FE62DD576B78690FF1484CD0C2E62BA324AE69E70C194CB8A1FCC252EA9C7BEC9DEF1DB6CA42D436A91207455C414B8240647313264F04BF9437D4FE396A9042A0560E2D2AC7E9B063D3D43DDD5D2E5A98157D2D35B4ED9C50B9BDE3ED761C6686805C671604C1842AE302D916A43AD8E243A0F0FFF9014662C3EFAD3D8CF1CA8205C67CC311AEA85A3B3E59CF52EF64D0482DADC597083115A66CB6F1EF2F500F78F82BF949A221A9AD4818937B8A966C166AA0A22657051D1B4C3D9D7060AB7F8B8481EE652DB9DC8D265B62EDDE31167ADD3CDC9EC9DBDE75BC463FCC914F4BDEA36E2EFA98F521ADAAFA88B658F235ECB6503ED1129CC,
1133E69BC24E414806FDA2778230D5B2C8CCCE3E5F13075BFAB2ADD6520B3177F7C5844B287963F631AE6742D617DF5AE9EA6C0664A20D4099CDD90DA529E515625A6D472A3B556BCB4CE7663032D965707FC56E82B1C2A9FD68CFF93A7AEE68BEDECBD8EC5F43D6BB69679121F5DB24F2CB13C376F200581926C14E49F6EE755BFF29638752C17E28B15513A5A648EE6122CC3FC81C65378A1687FCD752E4E3C77FE07BBFDC7BCCC0D2B88F4411D43E0A69071C996F61A9F03CCD1382598A4527B040D416E822F7A14727F57CC0F5AAA44290FC74ED6ACBD49F4850DA12B6F6638C1572C277F3948E769474F5FC60D51D62BB7D2AF46CD0015D08ADAAA97125,
C81AF99A7653F80D7F5672A47809EB89F63F5780A86E21E7295EC63578DF966A8B08A4392FB9BCB04519CBA37A5F70242DABD17E5C382223EDE8C2A6D5B10E618A052DA92B37D3EF405FF10A385C23A08769B2A765DA4FDAB73FB73F71B6E3038106A0176580782BA14410906196A3351ADB5B3C2947D0E5217C5546ACB3422CE72E2775E3F02FEC92FBFB569F75EB1AAE42D0264930C397F64DA43C844F4018F9B4D5DE3E9B580768CA5E4DB01577A3AAFAC1DDD5222F9616A4F187D572C3335545884F9CCEB1E52B6274D9AC29704AFFD6C7117BA089DE9C3C6E3B801CE8DC4352C5B883D9846E77B506AAD945442A16908EEBD5A85B2D122FB1A111348A3C,
D1A960FFBFA7ADB8C4F6BFC57AFA75F97592DF755503F6C080C65C45213FD24858D51F3F6B6F2724F640E6272A39A01FAD9F652B4AF2245574602DC021AC41AD14F8916939E5A2EB34FD1D1E841B25EF3160D685D68EEBA1175F22CF4EB8B892D67B2E66AA0CCEE7C8E915FD22DC6FBF7823F29539ACD63E96F2CF0DFB2C9D357B3D9FD28AA43DA01295213E94BE5D9608B18C5B53D48D92D67E6BD55C1AB433BDF75C029ACDB18146C13B17ABB9242485E7977494607C52B5AE016FC9049FB65B3A18A31B8CE91B286847090DA6B3A84C415AB1AF53A21449A42A85C7CAA5A15987C0E9D785553281F0BD9746B56647648E9BB2E504CB9353EFB02FDC8EC423,
4864813F97B44003173CAF13103D0A29BA47A9A065C5224799CDDA5CC33439F674F6F18E70B733257FAFF52D44D6FC52B59AA042FFF56F90911928C8569EEDF82F56A69F61489E4DFFA3E32EC9B1AD3CB9AD0340746460E920FB10D442190E3BD712D23A00B95250D8D4096BB5740639F0496E5C6900A653B773C34DA80B261877F997DEE1AEAF9320D1768F370E2C79F7430E97100A858537C9CDE1AA9BFD454E051759CCC29D832D2E281CB0CEA246ED7E4053AE0C463C2EBDEC1CA878A47E89992F133324CEDED6E12159406ADF403CC86105CEF69816241E7253CDBEF6FBABCBFEC157E3D65E6BB409FD53FDF686F9DBD3F611587394E80927E3FCED70E8,
811316FC3B90CE1CE98B5ECF61D5F2121209D237CCD9FDA440B96C9AB5F86DF0D1DBCC4428840B33554A58E2CE5F7C9B81D8653BD162953B3611583CC7497A867E3018DD93B6DEE1EFDA1E23DEDCAEB78168C31C2B2C1950656B855E8B0340B06BA3FBB4B61416E9CA682FDF8489AD1F67AA6451080B06FF54E586442092A0483F6CF8DE987951383E0E924D3274C96F04C44DAA1406D41FA9D3EC83FB73D4F598B1AC8C64240EDBD8D618E3C54974D674B0B2F6FE816477E78C7A75F2C9DF7EC8239FD312A8D0827B1B36C206970806D9684A262C0D7F19E365DB74DE2A69BB91C2F5A8455350CD1DD00A278F6EED3902D33A98410393F98F097742046DD689,
6955DC879130EA559D9715276A4558238CF1884040DBF14FC11848763AC2CC9838851C513C57535B3DEC2E723603EF732C9452992369C6B1D2D750CEB482A93DC14545AEEC24D37A953CAEEDB7DA0BDCE02516FC76018FC56D22D7392C9267CFD240A43716B9F622BE6B72C65499F2EE56997BA1F780957388C5B217146917338C5CB7E9A370805B3A5F0C6920D6D6ACAF3DCECD5D855DB548D41B230C79D64425FE107687CFC37FBD28F066F5C7BB8963F4399BCC59F5F3252E99DBF9602AC05CBDB2757714785D989BDFBE27FAB05B5E134E242BA952A55A6366D112119998676FD32C0D0398C06ECECB89064BAAC0C46C03FEBF1C1471D0AC761627F48B47,
66246086ED9D20F4B2D69B1D7E9F64CF1B50BB56ADC2D4D44FEA23DE1B9C9B15077D92F851E0D6B7EF561686C110E5BCBEA2561308DEF3DFAFBB606F0D7F240393F5F4F0D5F1A3F22C354B805B67D6D09F33D5B02983B161587B0D5D0D4E19B58101753F94E78B3B8220E3BA34D7D69561C975C22C43CD4A5E56EB59EF6444F13721821A5258F2DE005C63670C21E46E16A3DE91CE34885D13ED30D465D45EA817A1A3C1EC07B36B3F07A2753CCEC6EECCDC1D849EDECDC21F80D6B33C382667BAB85EC0DCCB734A943489C2C8754EBF3B5265EEEF42F5212B501E13D998822CD08B9862E96E4B984345326EBDCDB7730EF76B2860B5B354F102D1E8E63BE019,
37CDC59449A92E697E95AED251A32E5EA626AD1A3C1E2A8D7DFD7A82C3F17986776E63028896DBDD2F4B7BAA582E952409DE12812D33C7FE65C58F38E5636DF86EB65F956BB1BD73652909BB8963CD2C18514E9232ACB4FACF83ABF2BB7A8007FE4A42F82B042F2B6012F65900695CF9D428CFAE58A0ED2F97555C84F790A7B94833DEBBA94F6F59B02F8B6A9D0B1FC7E0E3DAC8C081F4870869FFCA8B70EFA70203DFBF8893BD2348E3815CE743938A58A1B80E59DC1198B9551D8C1BF74F19865DAD739785D80E2B63A7F588187B542BB3A6B507667886BCBB4CA047CAD7E7A2CE319C88FA8C08F9F08128B4508D9775C6A6B19A0619BA25200BA5903D76F4,
8BFD7DE745257DE07651147489716578345FA37801271D4704605B1F575353337F4F165EFAB19E2925F3662C6B726B3B6005BD9D779DC208CBF405C682AC3EB520301DC38DE9A6328F4524C2ABBD2589982833847526A229D4E29000AB77A9281DD412DFC92F24C7554164B0E77CBBB46C28AF387AD20FBCDF192B7ED5713B119E26E1160236B6F3827F882C380EC4BFC0B47DB033108A566DDCC4A47B7D7FBD0A6686D9CDD6C090AB74537C1E3BD8147C347D95C9942DAB18C18196086817C405F25CC070B382CF95DDCD7F0D7A4583DD13A918A3557A3DF96FCC6C39DA440D673C759306170DC2806A3958E02CFD79A993969E61617370EE027702BACFA6E2,
1164CE0B33A3390CE77830EEB3B83CA01573DAD0A2B6693E279DCFED313FEFFD0EFE0242A30F464110466CF4B727367D52B89393E0BD34D193EC181BC322C661CDF4114FA1A23AC6510A8FE14508B495A88428FFE1D3A07BE4F3BFA0E3CAA225AF9115904A55912D7DF3B5EDF2B500201415A522A7E29285E252CBCE4BD6218E4A2B7EDBFB370A11B601C824CA543FB65ECFB693EFBBE57B3CE884D17A043F3F6C66B75B222BAE95D84DA689FFE900EFD223FE84C57F3583C0EF2792A104A95FE24664D4E801A3C60423949EF7BA081FDAE68FB948FAED4BF03B25CA26D050EB4E3134B364AA7B20A4950AA59EFD312E55C9995451FE5A67781EA0B55AA5FBC5,
07BCE9C14CF273752730F60EBF36EA87953B65BCA4B31AA5BEFB481C8D4D685D2A96D3B906F94FF3B89EDDC3020C7679411FBC3E7B2F31BD9974A2875ED10E3F0E5F97E2D7957B6174650F0C35D04BF5645EE1424547E90BF32877A2F595548DFA346B4A27AFA34F74986C756EFBB7E34E36636420C20782F567A828F3DE39C2260B4BA215F194247A94E0ACF16A43C5A92030EA5523730CCC8DD4DD71D2757338841B86323A42417803E91C909BE77B666FFCD87699E8173186D10CED279F6A6811EC82F9ADB7745BFCB835856A89A63B129D88B66658162C04D291570536F1B966A8B4115F17B252179D973507C083ADB05EE9ABCEE55085F12BAD14BA0E28,
B815E1A0782A296D5DACF420ED9F29928BA6FA22453741F9F2877CEB884146B92688F0EE7E9ECB8FAE3D63AB24DD9DD294E40F4FCB777F5165CBD15857C8F83D70E9EAEE0134A11BFF94A18BF517F8C9113F73E66BDD1BD9C0F06691773D6F9BE245AF2F5812AA88B1112C9329281DCFFCE9EEEF73F855660EF9452BCF3B491D48066BF597DE8081F850ECBA9EF8B807AE18954A3A8065D296469DBF380C897CAB9DC64C5A89C33E7DF207BE1129B9E5BC0C574AC706889A13C3C401532225C0028CA6243A669B37CF74C06DAA2AFF068DF97493B80E8DC92FE44A38C2F958C35A0DA0173ED97AF641859854E31EF9A67AEAF493E23FBDFA5E78961F2F926D50,
4EC33BFD53C2C4BAAB8B5F12C5DEA724D9EC74F78F610343560427705152E1C826B2AF594E237D6CB5ABC9B4F8D4D181B8B4404122DBB450D5B70D4BE624D27486B543FD526E62C203C1AB96C93AE5796B209CAC00FF2EC70D6EF580218C507D51E565800754BEF0CDA6A9576F0BD6E25C2C6B900D97F1AC069E59CB835E35EBF51D74F347B4CEB11B2032233378A19A9CC9C233ACB7CB1B7CD6B32C2BEC1830AF46C4D6484028E7A625465B3C661999881287BAD8B60A4A5DAB579970C967357DD25849EABA33C2B4F248671C278CEE888EBD6989715C336E3867529FB6015E2ECD2B517433B3AE1FCA3FF9C4CCDF3F84FD9CFF84882711668CBCC764667289,
C343BDD2C4B0C599A2513BA5CCC95322D84B2DF5F8B3EC53CE40553AE6E67CAAC416847D93D3E68DB792196E7D6918270FAAB220BD9A3759E1A3DF8D7D3F812E05FC49B3038509026FC48953F416E7A202B8F2671E6FE488077AF6F53EFE2859B928FE5B757AD36B911BF5844C66645D094223891A00363A526B58535D86890A65F5C820EB9FF9051D1D218291B56CAFBF9023B29660FB31F5505C56260F00F8550C4D19C1668535C55A9B5B61F52155F0F1BBBD9CB7E6C12BA5E7FDFC702DF40881D140EAFB14E3473F5C927E1132013DF9A8625F1FD3198F438FCC0A361B63BEE6550BAA3E38243137422E028956880BB514E469BBFEF58138F9C813A56BCD,
BBD6BD69C8C04026270A692047367EA4225D745A0CB9EC2B05FA6278D9CA0459E32E52E4531BACC64C6E8366D12F9C9AF7DF4F1932A0432AB7806A04B7EE735F1ADCB9D90D383B722E3FFDE3C9137CBFEF5A8C5BBD1D75DD01E158CBA7D3666B769C94B87B377682FC77963C32C7DB5031F8D45AB270AA84FA89610E1E65A284AE8C2A99FBF154C715D3AF90FDA4A54DF75F8558334668183B3969295F0E3FC3AF9F31C80CFDD76AD83A2C58F1672F07DE6C03E4C2029868DB4BB21C24FE05D10FCF5C488B4304DAC5FA7DA9CFC5F7D1EC2870A0B5588AFBDBB11E595638F7B8B5150D477823BC810A29631442AE5990241E4D0C0B940A3129B48FB8D99B7AF8,
B549DF399855BE14075317BB19C20D179E434731EE3AAFE687C2BB72E1F46C2093548102F75622AD2F5886595F75330AE63DA59058D75353E331759330F105A2E5EBA5CC36794130E43808EEE6680C1359237F9F3BC8A3E5EA6207DA479961F9102384DB46A67E5756E154F730174DAFC1AD83CC7C1C9C3451E20941EDEEF2BEF9151BF017ABECCF189CE874B50E7576FC924156DC434A0328F8BAAEB800706FDEF64AFA3B04FECD3C6653A25E12827A793055E82F89B2A8FD8516E500919E7F054F1DF17278F50933C1E542A8B3DE0FBF938AF4765CC9D7B47EB5BF41E07563E0CEA644CAF8CCDAEFF628E6BF071B2D8F68A038B96DA2E8D7227CAFC82F5596,
07EAE67B3146CE1D24BC7DE91ED26959152297F4A91E9B889A75CCC3BBE74C2EF35AE923CE87004B8A08EEC0E2B18FC95AD31F882D9410007E3BE862D3753BE8575B261467A90B1F3BB88320A157E38499B784A7AE655C30905A501162B2DF4589DD10A7DF8676C281E6993268BB13644DE61A1FA0E9888882A050CFFA424865C44E6C67EA8ADCA2EB399C4E070DE2BC47BA14BD1FB43339EB79108A4AB6FD4E369EC10DD72C7553FDFC9FA8A98E5430FDC5B812691D091ED2EFCFFE8170E0DE487462DBBA69503C1C3A1E24E92972B6313CE15592CB4CE6097FB9EFA912E67AA39E474B5769D4D197C71D0B3A26D3E4F9D3E6772B0403A09D4AC4B401934508,
CE39FC1047626E9DC45EE4E109A2C70841AA769788619F005BBFEC1304BAC301B65E54DB37CAB23688C7E30F74395546535115C5FA6F88CC1E5D693B1B5E64888EBD1D79F7390C6CBBB27C4791C85FCC88CE22F126D26B9B5BBB2F02C662C7F79E8715EC094DE57C93EAC403657051F0372531C56AC3C4A60878386462A0F9DCC90974DBF41E45C38208BE31344F8B077E3136896C86CACC1456F2ACDAA98722036DC8D3A140C990C5148995A5AFA7FFB018429C864290D8029E1AB7A51F231E6F02F4A3A4E9F553F2442483743B44843F79EA02BC0EA9CEE0464D9E1086DA6EF318D5B0D8B844132548FA2BBA4F5A0E922D487A27E060A9DBD89996F1C561DE,
14249A147DBEC13EBC323CA85855F160DFE05C33404FF73D4D9993B58DE273F16AD409089D37F902900B0D6EBCDC51FC6F5D033E8367907D2D72F4B70AA35737DFABF5A5179BBBC391CCD07F1143EE1BA1F66083A1CB61196A6A491A074FB1C9BEB3B12C4A01CAD6AF0BFF1BC6F0A1FF803ADA8AD20571E4014D8AAF86D83953DFE515EFF69EBCB70E73AB5D0019B1AAB3579F3E020975D345BE66457AEC86E35F18B81C28FB97A51D959ECF2D71F405BA8D53EED6A90E132FFAFB67A4EDE55864A509263FB1923A1C7AC0A31FEC13EFE5BFA1E8C7DF9FD0B6B07B86F7307B4C5DF9C57D43CA7DFADC3AC96C6C4C1238CBAD68DC8C0FAFC20B65ACAE68EB47E5,
FBC3D2274E8D5D8DD8413C95DFA330CFE04E43326920583A57286ACC3EE0A0EA9770F95E357F0A679B88D9B26699DC2E185CEBC8E4CEDF417598B0419A938D55F50CA2E4221D4C5C99DE6F15365AD3203EBC3FC0F8A62558F4068C55B924B819F87A7873CED38950A8C6B796632C41F3EE050F8AE9F64BACE1AE485F9ED0B7EA1499248C324B6A50C90757B4F35EDA3FE2985B7D41EA14D69A724BA95AD9D3B5477C74FB64669C4A235D6922ECBD38A696338F39FF33A952817A66B227930FC6A577275F423046B2A8EB6D21B86472576EE2D8F96C61FB29D4990240C46D390C565B505B2ACB4FB88A3C8367BC80E1E5423C91469E52C6E30CDA8C50C2A2CCA5,
27F51379953ED86AA1F327F8AAC42ECF9BBD18F84CFAA58629CA03CCC1BD41BE5D4382803C9E03D9FF4C1CAF73323FF1AEFD7BE97DE74CDB6781C6297A790E2504CA4203470A782735E5EE887D18CC9226DB9DD7B024E1A0AD19C70E2E6FD6000D534928F00ECEB292FD9871299D0D3DCF556EEFD8F2E1846BF6BA32EE1097FD126B2618A7BBD07E41FD81D418C50A148939666717FB410D51CD01B5E8C906A552DE9E6372341D12979D201CB65EF9A150101D89F84F4498C785CAC16E92EF8B765275DEF88064DE48412541B2B546328C577E2D2E1F0467A5B6971464089B74CD356B31E56BEF7073D9219E77E40C1F179013B3109E93E908585E5C6F5AC058,
E2C9230934155DADD4782901DEAA337B67FFE24A3B865E0458DFC282EF803D6D1429D306CE3DF062569E7B804A3A3C48230DFDEF92EE98116A81A177F7CAB4D173B51E60ACDC91EE090D6D21376308F26474C4495A6011716E4BA1A2C29A19217ABF0F9518F838A1A75E25F94776DDCF8F5C035B98290EE3525D6B1A813F8D40BB054EB811EB4B6AFA9F8762F7FEB5D2A350829B296712787DEE6B5F726BFFAE988D0973EBE4CF61A3591D599DF9EE8ECDD338185DD5D36E1F8AC328E6E37426F81A12E49E017600F94779B76A4FA3B8B9FE48BE66F32A7C72D1E087B19749DDDDDB7AFCF2AF17D927456EB320126FC5CDEA0E4C36E5DDE916706F077458FC1E,
55D94AF4EA9A499E9EB334FED8301F844D6C24047CEBAF2110976369EDD4D8474A820A4CF46A94D6E8EEE3ECDD5AB7F667CE6A9D705436D426333492674B0882FD1B989D4005707BDDC55AF987D8E6D7C4EB61204C99687A6C9528623D30E47B5F3AB97C9D0A0C5AD4387EBD8F0B75CAEA4179016C23254DB020D75CC4F8EAC8086900CA6E5382C8F45CEDC3E7C9C82DE442EB52AB42A837A32CD11935F4FDBFAA7B0B53821DC2FDD27FE5AD4FE0B6C25A7169ED45E046FE548463A9EED58B837BAB2723465A8FB5BBE84A2D718B000B1797344C2929F592060EB3AFB2B4CE2AFDAB171AEA359CFD07DD35F33F490BABEFBC1E575A23C052169C7B6442FD56F0,
174E518EB782019DC89B0EC6AE3F64C51E05BEF117A98E38D4C64FA483CCEAAC645888C5F84A1BDFAAA28E49E5B242AF542DA0A3F3BA37801C7F8638026F1B804A13924D64E4B431F4EC661553E80F9C9BE430367B73279674FF66D2B5A904635D0BAF7807471A97B29503EEF919CD33414C775925030E3CD293B87464137B05F6D2D9FE837A36B734E992020BED100D94CC4201B206391FE67532C9E989C3A4C12C2068B109790B46D050F74D370D72F22CCBD99519BDC6CE6D20849E006408895A91BF5F55444292A9EE05C3309506C74D2E8EF3DDBE1BEDB52A2A57F463B692C02669B002C961A0401F3AF9C5681680BBB509CD9C9B151C23A3207D6E079E,
68CDE1434AF1D7E1DE16A95FAC9C5FFD6AFC38EF1B7757913F34E7D41F33EF7901A4C0EFC932DF2AA870D117F77934C493D162DBA7BEC3CD70417EAF8B9CF9CA14D237F9A4431B60DA75AB4D5C54026A55F7A19EF04240C255EB75406E11C7F63FF96FF7FD0BE105BFF57251399524645C418C5E956ED9A32B4E55477B051BDE48CF7268382EF7528CC0F895D57EA7B378E30CE9D2239E54EABFCF054E755234F53BB92DE5C3DCB916D2ECC263DBA48769B212E99ABEFA7EEA0DFD5F49379A416DE5EB9097C127DC2734DAB7620DE2F646C1CCAE6B1BABBD1E01044BE14B48C080DD9C04B84B00EF2E33002CBD773375F994F7D718EED7A61B7BF696B313B6D1,
02233426DA26A9388F291B9211EFC7BDB6C3E6F7FC4B2DAAB33D7C94F213901ED9409C62E51D0D4EDA9BF8493C13541F95869144389EE8E8E97B7369A9DA0950E726C4DAFE712396704548698348AD6B4785161D8CA71D935AB7C7C857ADB0F71F56CCEC90393605C03647882BAEA87A31601F6A849ED3B400FD594019AEAD4AC33C83D9580B2EB58B8A0BEC70B8BBBA6EC313BF73CCC0154AC7DD8DE397F66B6A916029CB42514077675BC1AF8ED651EB245179EBAC0EE418B863013CC36A292AED36A5F51340508AF7A5A3945133CB25B99292BB1A2B8D3466AAA25B39AEB14C1BA3BD71CA5FD845A4A030432ED7E01EC85F634DE14103BA9508D495CDDDF9,
D7CE6472CF0FD8037F9CC9795CFEE4B9CBB491067561907BEC063B2C5B51167B156E379E168ED12FB9DC4ABAC3CBAECF0978EB9D635F57202F2A0F5AE81ACA3A9B761ADECF00BEF162267E2C197E9B9C9901C3E2B6197CAB0C094E640C0CC86685D63F4517D206F71AFB12C9AE38DE39D8E9750F772B6CB1C5B5882BBD30D55C8E2C1A66BDC8F8540E7588F37B2526AE38731993C9906F2869003A4576C8BD9B9D64CC676147179BAAC35D3055CAC0188C6A1D7D0A647814EBB39CB152D0AFA65AF003FF9C3D13F5F99BC14E17F03F25BCC4750011D9D465728D826B0CFCE9C8BFE7C6E9D3D127F2680B08CF6C1C2E753E3C7144BF69EE4F09702034A10A5BED,
729890C40EF719FBC339B9F3CE178FCAF5C1FDF23E563E3F44365B0D9017E9439E672DD97F45E7ECBC0B13D394326AADE5D20F0216DAB29783A5AE987DC53F8DDAE4A7DB9A961EB9989CD9B934B032480E0B8358D66C582F87FF5DAA0AC9D1B3A93879BF308282B1329339F76D679026DE146CAD152068EAF3C16DDD8F1E60ED0C92B9A19C1B9C3446584EEC02499DC89D54180CFB6E9B270746F665E69A166B271FD3D0D8FD2E7373620EF6D8E31DB39240EE2488E29CAD24ACE800C8BDFAFF44DE943D624145C31E466EBED4F5FE442F886DFC2FED1489B36D4C2A786CBF0BBDBF906F133B0ADB6A1ED8CA073AA978222CFC1513232F63F6C4C0492FAF5686,
5CDBB2F4A7017E2119EFBDC64B3F72EB9C5B5FC986EA85F3B0A5B1788D4AD497175C8BF488CBB4321E169CBEE4E639C4662041600D65DF7350E68DB2BBAE9B593040A1C91F41949BF795BFE22981EE8F638A512C7013762D253CB8072CA65C92DF3F5370E3631116EA9B0DB832ABEB9F5C8D4A50061F7F7EE5704447C5794A786B9A678E785DCEC5E063345B406FC540D4E13D76F358351D7F399F3A6E1420E50E78408FB74AFFFDCB91BD2D9FF2AB254C66AC728EB2936E67A2258C8EEA36EAA3AB0BF02CF46E0FBD72B9A4B41ADF178B26A7BD19B339C882E0F3745F74A4F024B5B49E32318E3DAF2BAC8D4399855BE271A0D47A3B0CDB42BE330CD32D2CEF,
E04F3E6152DCDF01080CE9E4D766E1EF7AC7894553316AE98D021C3CA38A898CE0400DE98DFF3F4FD405B7BE62A9A083506B6E306C4B7F2B44A799FF5F334279D18D3FBC22DD83451187FEE26276D45E1DD6F4BDE3183E782BB231E8D4DDE3D00FBC30C70ABA4A6E486EB33AE9ACA094C4317F05FEF44D8883F1C91CC96DF5572C4B1B8AD50A6A0551275BE73D5AE7AA419241D91787254616460B9C31BA7E2AB8FED44A169AF34D91BBA113AD91EA994CD9CE1D55998E5BD763149EADCD246AF2EE4291DC1AC36BD712F267E80FC07CB03169C978851EE0873ACB9FE904F4E2C92D570953A1AC0B505C47E7A3C1FC269D6AAEF5A7D27C0EC8BFC9D1EAA918C1,
2C86949E2BC539A294938F02F17B543CE23527A9751B6EA1C280E0F293606A430667B72FF4540B4029D6EE6E4FB7B1B75750B71C7EC677901B8E87484B293580975CCF35DEF270FF1722B40659D6456FCFFD7799959058B4EBE34F23E49EF6BDCC59026C8ADDCFCF9A45605AB7EAF1705C326B665348CF8BA96B3A7792D22BBDBA6C3E7B00597252C5C7CE79B1664A9EF03A27FCCD43D997A0A34BC6A76639D8584C082AABA624A588DCBDEBCDCC48967308AD5718865987D24A3991A0B8D8E48C092CBF8A71E640322022F4DE209BC49A520BF17D38E897102FED621E50DA92EE85EFEF45FD817FDA1ED11182140EFBC97549239D9AF5B23E57A2813FA18639,
45E9AD0412868967CE62AD8960536CC9E9D92A614B2805CAED1B6932F58D1E274539F701EB37B77E980CC729E86FC4FDEEA8A19E5E79025B2DCC85BA8478BFB187C728E337B6C15E7560BE534A4748FFB25FC061FBCFFC2C7F894E74CA342A6669964875229CAEB328EC8664C0CD478753B33F011AAEFA586AF28F1A9329B0AC538813CD27A3F82CF77F4A416518B4566D6954B152BE8774C51E4AD0766C1A707BDBEA8B01959AC77F9CE128B41E859700602E8BA03EB0FB5E7EDAC470ADA761D861166F5B744807FB39C6A11DAD1AE192EB83ED01634CD64F740490D8FA76189B1455B545997C413098B96B788216DBB5C845BC0E505D3CA60C69E569AE9648,
191D0F71932CAE44C9B0EC480930A64C89BBA11DEADB05F2A753F3301E034740372B4DAC1ACCA0DFDAC59A97110002748684090598E832031781BBE9289225765AA3C5E033736A7650E3BD9F2724DF2A700253D5EBB689FF5154CD09B777A8B10C54D9F9FE250C85D8C48E312D9B357B8214D8B901D15DC4FD094593A8DD98F1B3A3561948DB72C5B28D879BCBDFA12091CDEDF19F17F4C20255E1057C34AE8D77D95E0296B31FE99DC8CABB1338759D5A311775618A19C920E022056EAF3564C2457FD82E23FE939292F3C908AE4145DBE835F8D3E3B33D47A06B27EFC0F247C68B1931E10B160FFDA9A880C67C7DB3B5D55B996D36B1CA3394714F074D62FA,
E4C648338D336252F04B0E9DD0D22C9B9EB5B131F2CE02532AB3BC0D5FDB4A9D3B52E11CC16FBCD387FBE90D6BC03CDFA1D9495FD98A6529961E2FD2D3EF76D46B5E328332015755445343CD7F0B8592E0BFBA4C4B1B765D2574EAD13C7B6BD4B7B07D77A21982C61C635F0CC2D91186908BBDF07F0022EF5DB6FD2684F0649DDD2D422F6DCCE4CE3259E303AE4069CA711BCDE37A8249194B0DF6AEC2BDAFEEE0A3AC691C045808262941ADB3529104477BEEBFD35B5F014201CD915CA03B5DBF90883BEF3710155951BD17C5B30832901B3F498C0C2E67650C240946282FA6F1088F94BD551F78205132A2E680EA4DADA98D39E7B2EA330B74E63AFCB02030,
0D20932E92A0EF664B3690D9BE2801A140311E071EF5ACEBF3C0D3382CA4CA03F76BA8AB75140E0E2223135FD781260084F63CB7F5226424B13B2F01882051B543702CF6FE738EA0E981A05F8CB7DE3D440C3E395D676C7604284252199163A4B49F2642B0BC3DAD6077EFF88E61ED7F69B567D13722BDC10CA25DC748884A1D0687771FD8BE21F0F2EA2711DEF548C7CA6E0AB3AA6D9E61A365BBED14B0CC5AE0E96D96C1E6388E8F1B248C7541DEE0E7EAC4059807668A4B94DD0984631880845798AA8B0AFC419AED5D6D09F31997EA854AE665AB5C5A0E57E154C36C99A7BF2701458CDD7FDD1D94C54C21FF19CFDAE86F074A890BBF0446DD224EA90FB2,
D38FD575B36A08CE01E1E5258785007D3EE12C0927A1F25228A397EE5F66A25A161D282D89F552D4CF59A5183177BCA0670C0190F7A9E0ECA45C5563DE589E6E52AD9BFF001CA6E85431E520E55ED58F96D4ABFE8DB4520D805102F5EBA26B607017B00D5836885C090C43917C999A1095380F73F6CD09226D68F886A63AE1077F1ADC3785A213085EFB5F16CAA39A61E70D077DD9965DDDE817AC252751A9D0D46B8A0655C896C80CC6D9A7F253FCE06082B39233DC75B98AA80C6B5DFB1FC29F575716E99BF7154D3E9CC05EA3A53C0F9044E7DE4DA41A03BF55000F837840309FDA1BA2C553E15767255F05FC3CE31A97FD2467356A7BF920667723F235BF,
D353312035F66AF335D953B43E6CA2FBBD6011CE5B3E24DCE0A5865DF5226F7515D0562F2C21ACD0EDF86084787FECD5462018EB1625E7293845FD2235631B073EBDF07148E2B5F9F2BEA537F8D19698966A2312B0EF49D44212951599AD526CB93E89CEF43D5F61475C1621EE88AE00B7246CA780CB36589EEB6D2A612C8D4ADD26206B0DB3FBD26B22C75104BD9F5DEFE03173626042AC9C69AB63EBE5814C931877B63938C2085375F7783D824248AFDFF9787A9806960B2CB46449019DF4AFD0DC05D956189A804CE96F5355C2427F3CE876E2EDEE773B7AED7F119C7036F351D94B6384C8C3B3B6FC902F06F4F233A4AD1D9BA793E63491680114276891,
4FEE2D9463E4F03183FF95EBEB508A863471BF5FA1F67CAD086D4B7DF3531B769FD7ADCDCC73A71CB16E7DA979810DEDE8E6251B96CE9B8A34AF90FACB5DE79CA25E37123B6B381D8ED23072F850F65DB5DBF0F93B79EFCEE5C38B7C87092EA8C49EAFE7E4BB2AD746BF208B657DED0AC55ADCCC122E1A0A0EA71F8735AE2EAB2D33A4C79ECEAC3BEDC3DC5D92AFEFEF75B53CB6FCF5167CE2B61385416479ECDBA625EE731759249AA2B1F717660ACD57F567AD18F60434EE4AF0A11EA1C775765F319F09D4BB9CF3F48EDF3F0ACCB2667366CCFA5A4E6C6EC7E3E6D93AB6366854FF89DDF1C5C0A3B6E4EC57DCE33E56240EB844B1B5D701524633F394485E,
033A988F4A9FF9A38DFCF981DD1129F5AD32132F5A0CE7ACC65C57F6D32D888817272B4FF86C537B0BF97E8911E26DBE28AD6B0951B4243F9631E2D684F3E5298B861ADC9A78124035D24DA1B1E7014D1899C30F46CF7491758A10A13C7349381255FAD02A24E2FC787075D6426C8DA25ABD451110AAA0FE968505F1DAEC90FE91397E21472AF36E8B14B48DD8DAAFB68C6B2DF84349D9D52BF7C36D851A7A69113E17CA48DD569CA6DD280C900555B198892081E68113620BFB94BD7F864422A8000CDEF7FDAC286E3C2B4323D2415014B65F283CF94AA0CF6E14BD8C5238EE91CAFA2CFCE3D2C0BC1F9604A34539E36F08074056FB3045DBA582343F6ADDEC,
864B6060AF296D1CCDFA699BF2912AE225E212B7B4F9198198F0AAE63060C259CF29FC98703137C3BA39AFB1F233D3AD6F18E25910FA97855EFFAC9C07707A61FAA6F65BCE8580604B4156C92A5D4C7BB4D8FA3BC5E08FE306E8B65EBAC170EF7EDC8E3DDB2B7EAF287A509EA6E2BB723B378D67D1A600D5F8299DB076CED3DA9F745DC4F8DAF152E58752A9D2BC4DFC413DCA4AB47027F33D13DDA15785A90A59AD37D9BD5505CF1CFE08CE64C1D2612A014F4DA8185F8BF5883A39FEB2337C8A3CD738322CF4A5CF7CEBD02DB44A2E65F94F540C3B2779FDC5372B670884778E30FAC5CE3D2B8E1E33179C16CC9787BAE1EF8EB2D529825B9899D651393801,
E9B9D6AFE83AF14BC125BFEC70E87BC471DAF25A87A290700563C7DE0233EE0ED69514FABC5DF8D63536002418BFB96F379875A3DFB67A6F122AE7EF38BD39BE80D917CE27F39F38AB008E49675F247DE85713BCE6D8FB64C8BC745DBFEE93AE8FBF7232A82AA6D5A44757C177B03D99E0794D16FAEE31217E1DBDFC983B76CEAB8395449182CBFBA5A23956EB3A4EF4B30C5A0F1666A66A8FCBEA71052CC8146A7057BE417B863DF1645C98B1FEB3C69C3005A3F53C992861ED1CB8402F839C9D9EA10ABFA922D78044DF251FBB09B44A70F26C18FF37066D58DBBB9F38B7FA6A1216DA133D833A20391B738CD89DF1C2DFEF5F0BF6EA7487D23BE88C7D3A02,
A73DD672B62791B0D6AD69AC7D8B93E2C7016450F0E9B10A17174D34FAA831B6F66238BBB9D717C8E9736012F833D683D64DECEA9F88C2C7851D198118F722F6295266AF1D49BF009BEB0D99F8EF120B55167931013B8BFFD5AA7483F2F24D2D9B53F9487A1A32FDFB0B685D70ED4FA3131B35D1AD12694E7EA0824273B797851340B69B337DF9B273ABD58E07D6B5C44B8CE748FECA348208CEC6F76A6D05CE5A7C2EB0914478482EF0C16485096B5E762A7D866E15FEB8ED33BEC423637BA51F594D8E8C2CBE1FE4DB47ABCB14ECCB1FDC8762781C0867FDFD701C18C9989960D953C4ED848C83C5858E4AA6C59377BB7C16411A9707D25A0D178A8B088505,
94657B9DBA65CFFEB5A37DC7B5133D8B221B89A0570273C01182F4815471C52C01561105B06AB5620E1F93DC31855D2C8B9A22A1D05C7B16F4017E2E579A1EAD1B37B1A0945A882A7DE0C3F55EF530C559639DFA699A2D284A43531CE0E557C23015D1B6287934492DB40E1D6124857F8F747A1984E9D100436A8B630486A2021D0241739B5CCE1543CA467D4CBC075D4B681C32238661AFDCE0B402E3480CDA12E226195E5C1347DB5A90CC0C08F780B9F0B095D19AFC21D2237203F2B971D9C804285CCC05358D79AA6134BACA450894AD50F08AC17EBA9CD8FEE666EE8AC55CE97266AD8927CE75CD69EB035C2E6972B5BF2A875D2D5B6D1570DEFC7BE021,
FCE96F6BA37921C4D33CF59BFD85AD081B4A92411BDB5FEFD78B91D85B89930A13CB4E7E421409EA7058516E6627F91492D25A84DF3C1F5A01220E70478C1680A5F012A4B3CC572440ECB212793D7C79337A3112DB18B531CBAED7A75A2E8D64D3DE49D5F0413249F8CC5EE4AA23D04FF4479396E95FC2F61F23D9373A96295DBF3AA7289D69D9810D4307A9CA34A1A9EA518773154AEC244A4AFAEFC7A9305E7D97B2A41A874C394C678DB78F94F88235734E0D41EF3EB05676297B9D36FBF36BC6F2CB420EFC4705758CD616D2DDC37815C950E1C6D4EE2F97FB2D91F52165DDC8AB40C7A42BDCD36398276AF606FD4EBD9F22AF6B3DF29936E310B8650415,
C43441A47A5645CA28580310A4F90F57F71812AA57F7463E1436E7A3E90C4452AF2ED9B4E867A5A0F46DE82ECAA73434F247DD8220B7A27FB3AE4522A06298BBA7C7BBA6B870780409199A833ABF5FADFBD56DD53042025F336CCA53E0837D1C400E5139C01FB9C76F906A23A905492F8A0ECEAAB6E6C9BD5F1C5821C26D5080A649C5445FD65B88743DEFC1BDF7695EAC120460C798C44E1B6F8D0D6ACF88958BD6991E528AE1F778A10BB8D9943E40DB0EB68BA4368935C17E1A08D230DCB139A4790CA1218B4E2E69C3311BA6456BC59E1D8957B142CE2B8B06FFB3027E35900AC320D8165B82C8EE648F43A2E07D3CBA9E51159AC1BA5939955E70174E9D,
EA70073330F4F91B2F97C2A176AB861559806C41F49995B9CB0F75054A9EACBD2D2A0C096B8C846F04A66CC50891C334A31782A316CD6F2E521B910A46628F5BF71850D7BA5792CB5E8071FD7CC5C1EDEB09EF82F0FFCB7A9DF9FFFE46470F51D4C68976885BC53A620A45ECD08E1177841CE937782F1F92732E60C3B025418BE5A2F10D6A65070A7611D81292FE9CC27695D636CA0348EF8FAC1C193FDA2B97ABB748208AC33CDAC4BF3E362286C3914F99E85F7603577EED5A00CA57BA79C96F869759DC33D9AB33EE0F32C0FAB29E8053B2C0FEB2A577D6870C4AACD486BD6B0159EDA78027CC77FA39EF91AB9AC246FB21309916C961B70EA9A386C3D50B,
E310C27533D6FF1E7656E131FFB35E1B1725E438B2DBA4E5D65DA08D6312AF2705CD743680E26C1FCD4F2D94F367D88D2CCEFB3BC26B4D523A11B9F2F73F77324093A809DC7E3D95A2992D260194E70E0E97B8A77DBE4D7C1647BD8876664025CF6F9FD1173CE61297A59A9340A372CBEAED9D61C7E07DD085891443FA1E44268C7C414FE900EC8FDB4448734F1778F1C141A4BD4705231A997F9AC3FF262E53EC091A256FC393787045FFCEE2A6FD2137E22A3E1BC27DED2B8D01ADE5A9B531EA1BDD570A0FEB14D039FB61D17530F034C93EACF09DF3315591983765E99A6475808B6445C053C46C2CB48EFB9C7182F3C0838E5883C5B92B809A6370E59491,
CB9F524E60A85EAA7CC4F396AA1C43598FEC65D015AA42D946442ECEF54C8A8CAB0A6D30F0A07788E33D05AD3AF70C098CFFB66DF87FA5C5DCC9CA1FE36F7FA1B879DBA47F172B9F5028B5ECDB88BF9941136A328384BB6BCDCFD22C8015F1A156E8E22FED3B0C3B453C9809A87678D82DF9BB563966B0FD314137AA08383472C59F9ACB0443BACAF6AF246D4DEB09A68730A99A482C06C0E96F7BA65DE91ADEF61C757A027E2273B34B3BF063C0D256087B29862946F37EBD6B84C646287D9182FB0EC2241E960D56590CD3D739C6162076E9F5F8A40B0EDB7E8E47C730C59BDB6C86ABBE03A50E73CA62B6D1FB1928AA76866CF083F9450A22518E648D4492,
AFA89E86469364F8A4B0F8AB6F1F775218CCB8D4F656F7F4E628F5986E151C8CAB8E68078E20A7853FE8724EAC2B90637908C4B2383F14256DE1EE1FA877345FA272CE272D655FBCA38B8D35C7E064E96572BACE5F60E42B6523BBAC0F58E307FB2DC8977605F542630D27B64FD51099D6C8CC702C379AFB2E6261BE1CF86C5C479F820FB0DD302FB33304F3F6DA9F4B34B41D9810DD781E051146031FAF27E06FECAF02D4B82B9E158DD7487628C213BADFF82FFABA57175F13E0A34BA0043B0CFBAA3231E1D23D3479C331769694C781769321960FA04F2E078B3FFA7E50C8719F7552E6FC804E47326A0B89ADD9742988EEB00A5D8AD639E6EFB69F740985,
BCC2076F6240715E6AD8725A9FAE7D618195B0C50DA512352CD57D4AB23694F78A217893ABF81A71D80CCFE83655BF9EE43E11996B9630397569A54B85C69310C486FD975C4284190375409C766D782EBAC5BDA90DF4626947A49916756CF5840D3DC4FACC77A90520A0CB1E7AD1F4C47728A31408AA2B3062878BF3CCEF80D955CDF2BB0EFAD74D95C35BB14CDADC3473A39DCE969E12CE39334BA2D9C78E2DFBA762CCC52147BC5437336BD35A13AB8F865B9869290257CD915C1F7849AA3DCE1AB345621255853BE42E9A30DA39C7B885527A2B84D3384C82F692EBE7FF5068E64B9EFEAAD2C5AE4C2C3ABC3BE87E2CE39A36FE942F626053157262046B4A,
BA1DDF739BB31C3FF778DB4D7F48C2D859E16FBEC6FBD8D6DEEEEA1E4769DB89BAA66D4F8E27BCCF6E79B9718657204E22B4F5799C15AD2B26BC831CEF76E1553724FC636E3AF6D83244F5A8C8BC038FE1A106745A390684A75B31D326103853CAA08E5A46CF509DDEB66FF6111CDA69FF187BBEE9FFA389E3C536A4D8AA77C0E9DC3BBFD3B5DDC3ABF732248A0603B8AA7FFB92E1DD32F6A0FF4545AB84C0F4DF6FB8FF16412F09EBF074435A460419D9CBD5568E5273C84C73D6039B16E0DE04F320F1D61ECFF3A41188663EE9BD0385387DB3BC7553A3D267B98261A0F75E56F1F72D7C1D7E00D703164F365DD222221933FBCEC5C95FEEC3BA27239FBE79,
D84CC5D6B429F3AA3E5B128198E5318AB953DF08F1DEE190698079F2F4E045429EFC683F365A541415FEB8B4538A241C0DB266D5255006C805B0A316D62C1AA39AAA86A61E0865D9A07FC4827D02C82DD4272BB8BFCC6A4527634013430AF58E9BE5954359FFCC31CD1B8A5BE80983A012B7AB43F7CF2AB5E80FA544C811C73433B33B3A4D1341BB6501A3F2C8C4204C43E7CF289D704D5080DC57D8EC673578966BBE764F9FC1BA99617F0C5ABF21BD5C4E2839E9217A2F80967EDBD2046D4CEABCCA6B252C563020054036C7B4591A1BBE93912AC439938EC1A89A03BE48123CAE3F6303D3C0B5DF6E9D93B04646BC36D0E11D7F95C31F5AF20CD9F75DD365,
F94382E6FCCF811DDA9B3CEE42649B488E0552E5E866911C622941E34C1777F4972203B5B283972899DC4C38CA975BB531A21E5D601266BCD1A048F251EA6841B52B5B1F03120F014D79230DACD161721C222F5A2B8D5C05611DBECABB4B73D0D37E32B3C14ED16F1F373402C281BE48E36787934BB1D7B7B6ECD299E8FA989A157ABA21FFD75AF2AD4FFD890A4705EEEE3CDA0EE8685DDF051A9532FB35E47A03A00E4E5AB03E81652B63CAF94A35A8567D8EA83AD4217E089F86D4DF66B89EF5C4122A3946BA11CC8A85C0403D589ECE7139C20293E3C0B9BEF3211C930E3493D6F5660158F1B2B2842C4C1841044DDAC7E4835E3B37A767EF420519B85561,
C150B3AE2D575408BA754CBFE9A86BECA202A3D96F07CFFB1571DCF92C67D78A7EC9945531A84F8BFA8EC5B20E9665A835A8DCF18F73F20D8CC5EAA9FD568B4E1FE6286CB60610578B8A91F26FD6CFA15DC998C2F059FD4E24AAC8AC705156D259762C9365E6CE605552771D2432F4449026F5BD83168909150CDE2AA7E1B91E94223FC7A7B1E7EF55C745CF8DE92DDF73D80A8AF561EDE749A34B817E3938D0F6033B160DD481DDD8DC8BC79DE33D4E0B2DB86C5EECF395EADBF6D071D2EF8F81186F356B0208CB09D834F17814A47A7ED98BB59169BEB7F9F029FAA4FBE0279E84D9D4DC64A952521E69E7445A46270732CCA294F5A96982ED31A5CFEE409D,
9D0F05059E58AA695B067567F00F8B1EC780499F980C8A48255440C8109CAC8F2E1254E02B57834C7152DC4509378AF1598D3A98F786A7C11BB71A82C2D506AAAB41EE88FF99282E631842AAA9064F89A79801C515F7A5D634474FF188314C5DC1710D42AA10165271FA85956F4DD2988D4607DF4A701DF351FB50DF63C27EE5761C1D591007B585431D844F95D83B488C3416704473FB4BBE76B33E046C013C3F140F86CEBD2AD0BF972F6B855492C0A2B7EB89F07AF3749DD90A3326912A28B60CA3ADD12AE00ABBB703F12E18BBE458C3A3488F46967E6147135F58606E8004A9F7336FBC0B0F71CA22A131B3C03F8955FFD0E2177219481A363102E63DE7,
7AF871C8F6500A576D25807E5AA8A955BA91329B4301A36C2CCA3AE3412C8C31429D1EAE11A6937C62A0D8748BEDE6687B332C8AFD53C4410655FDD242B2D0D583E685E3FE475EB4E044A81BACE244F992A196B29FA345D74E8A62671226E55DF55D15C6BBE904A4510695FB88A604E46D1CAAC65691284A0694EDD0B9D28F9CC6A72B882AB869C45B5EE38987749671383431DA6006EF38CD96F8923D6769E27A317145882D50799B575CBF6AC3C2B17C828753F8A56A879007B1C47DC05DC5130A9916FA63ABCB3AC6F79FAE77409A822BFD7F3ED5E17DADC57B051927A399212140B212AFF73B72C7BA47F91477CE18D808602F12CE0D1A7EEB332A6B5629,
37D4AB3D95BA96BFDA028A75426F59D780B8576A86D363E2E2110CCAB8E67800B14EF6A5079992D7C9EA16EC6D80F0196D29C9F0EDCA4712DF559BCDF1FE09835E4540F4EB645DCECEA97604C47FC845873FCE83AFE9FE92A76CE1D422EEFBA56FA75F4AEC5D0498EE79B776119D3E0CDD3F1D81A00F4CA08D79A4C3A9FA2B24D52E6BE9354186C24EF7C332AFFF3C22D83B85EE569B876B078C90C174966C94D26291AF96F1876C421FC0641E7B74BC411E7BB901AB701D54A106B148699806D082445F3A345E04D8E50B352F240260631DFE146383671819D67B8ACEFD4669A57847FF6A7078DD639798578D844B4DA365C5314B08D65F0909CE809F956AE5,
F4BB04FD78D51FB4F7E66CAA08E986F4D44CB0C5391B2FA040567FE20B074EA89E570F83174ECF98003FFBE3674AAE729CC8446AE9F6B1ABCD1F4D355B15EF7E70792661E11BD3089F0927FE41100237E1A0904EDE2E060B4206B909F8F21FD9E86BF742EE388A06CE2BBF447A56754AD5412F82EDEC5125D1902CDE9E9C420DE77AD55A068A1AC303612F871A4F27FEFD00189186A813506D4D69232BAAD6B3D876357DAA4CA53AF0983A6FF90CDE70986F0090F7A0EF069A45876DD949943C72EFE13B9F10803CFCA5419E0758A4BA1B576024494213023486BF679815092435CDE85C8C555D1D77C6E73A3E6DCC80CEB075051F2E4519270838FBAD401290,
74C9BA2106209B4B736A75B8DF4EBCFD7EC03A07ACA5E68FAE21B0149FAD6E9CE7D792D60799E21D49DAB598AB6EC4E17BC9A22E608D86C51A634B55D4E769C5E1635817F99F1E71FC4ADBD9CCB81F7DA8E546548AC6E2F09C294503C04BDD265910FFF4985F0939EC8F325657F9423CB9C1AF8EA064FA98634C8E12DAE5B445292CC0C5D3082C49E8D2A743B79854EFFEDD63B87ED085079D0A68A7A9AEB476702B957FD10986B8D31BCF86F6034AE63BF675587926A8A15D124E3B4204260A55ED6F283A007D3C489B5FC4CC086B1812C1D935C62DA744F096C124DE8DE7083421771501BC6126DE9E68946952D780668525914DC404C9D9AF020747056540,
010DA065D065FD01B466EA2F1D3CA3335389CBC367A80E523080046549E21B8FB517BBAEF2E8159B98A8FB0D763FD074EC827B9DD25E8A43B50FD863DF66734BC6E8E6976DF29710F1F206B71D52F8CE9E19D4F189AFA4C547885FB74E382309E2BC55818A99330C80530F803BA6DC47DFE272A0AD4546195957733FC6F183B0F9932B609BF4157694511F7B17516F212E7826292DE56A91876C398D43D5557E51FBCD0B7F4598E3C980B50C88D70979D2A1D7EE1A05B7668FCD2C93A02D7AAB1C5B3BD92C224172FBDBB35F6DB9740DB46E5B79811BD2D081ABBB844B2EE0B0F4CE7E09304D150C15FD37E1F4C0BF8D9E244858A416AE41AA7850E3BAF5DE53,
EC93DCC268563D4456DFF60E144A034BF8D9D93E2C703640BF7AD9695B28D5C15BA7864ABCE9DCAEF920DE9CA07D0E69FB25B3AC9C7C5124C2F24D08212A97D02609703FC7C4496F2A6BAE91C1DA7F930D352965DBC5A50D901C10A8003B7E9323910FB4053EB403A5B0C9F474E6AC243BFC678CCDDD4898A1D1F177728D25AE51C91E62BE5F8698E65EFB1F050992032E067118290EF5DFEBD82D000F480AEEF095FEA1B0F82543A6388CDB984C0C0B6B73A7B5E7BB960B54037DD0F623D6855DDFDA501B9A44C41DBCDAB91AB77D04CC2E6B783445F125239233C97493B27AA9EDF8150C5A18E01C2C09DAE6AD4DFF416A7E066E6AE9C5566CEA2D98C59A11,
F6DEFEC867EA5F0E22DB8588E0D5D97454EF679CE7BB7C652946AAEB1576FA6DAC09AC39C8F4413C07BA7454A649F063FCA7C50A3759627BF1A6A30C4D1E31C19DA0F25E5EF4631F4ADA66E7A783B854B99F6765CBAB2B970B50F142DA520A26E7D28852C47BF578F5056A5631D8503209DCBE5E8FB3B35C2D085C5AADD792AD8E6EB150BB7BD8E60C3C6B66F4C5E1CCD776F3A9721E6DE8E675B65F186D01ACABFD0EFA486226C22E124568EC6240D6C5189A65D050D83DC51448B347974ACF16BEBDFF7DC99DEB77961C82DD99D91539FFCA542CE2430BE64CB0125A4A64FB47E0511B86F4543048B34ABDAF4EC90A30B61AD3B1D8BDB38D67693F643F31D5,
2ADD85825D3B759156FA2093C9352BA637FE85FC6FA1DB9AE961519888E5BFBDC2757BF31D30E1E0C6012CBACC1BC22F4356A1C44F8EAB20B2161A6DC0581B39EA994F38467D97C5FD27315169DA22058F081DB83123C6E241E86633A31D26E3F1C8653C1651A82522F41F91992F82C408E9DE86EB67E79567890ABA30A5EAD3941D7FCD85D03EA62E9D315BD790FF950A49BB0D872713B5E309C946361A8F9E257D0C4E9440A061B602B290B08AD12CE50A8FC3B05EF93692E5594F805A12EF308F6DD2239049BC44165DD005CD35757B2696717F9E832217CB5987501A6EE3096229FC8BB55AB38DF3EFB83AF3924226C18F4F0358B7A5C174CABD6C903CDD,
49E8BB374EB551FDF8196E366026DF0CB18F9B9B88948A925D90C0F11945C6F7B5821E7C62DA35AA45397BFF8CAD19F1E21B5B4804CCA6749E191BDDEFC83D82CB850203AEE3425D7288FA9B05BFA2B490605D78691321620DD7A2E6517A6D1A61A7DC9CF3F13979A3FBD3F7C369087DBFB16A3F0D6C3D0A874F58EC094C5FB0ED2367015279837116107ACC23272AE6A9D94AE1F380CA3B74290AB8C8D195D471CE0C379B89533C7E2FA6C774A36754F6F9A42A22FF30DB08B86718DFBB29B5318707D411ED7744540A0E99D3535624DC6EA3BAAAED9ED6A2C75C4A2067D63DEEBD8299C4F3BD4DA132479EF4107F427D17727D3CA73323D9701E836B3AA3E9,
417E6F9E184C003389E4AF4107DDA9B7A77F661E747D422F302DCC21898FC9D3DCA923453F72090E32F8C476AE5BE647E130E67CB797CDB43E2276C7E5A84F65CCF5184F21237E628EAE5CF610283EDC50D57A399D919ECDD83E729FC52315D3319925A665B03946FAD4FEF2EEDFB06C971C92EB1A3B2866BE5FC53BE064CAB2F3481E6ED955DAEF1F2298D9488F91621A06A1D94FC4D2886D32E17452AAA08A63E78B6252C77628F5E581E45ABFFFB1890A57FA3C800F287279B1A4AB08712497C0739FCED34B02FD18CBB0227B7A2CF168576B61B3C6B66F3881BFBB4CE74DCC2461E8E23C4146F16CEE691B5FA9AD39D3722D6D4CC6706DD866EA7090FB8B,
E8E634E5A248F811D5A07F4B7182A05C51951808614ECD1BFF701A58BF2A2D60FF8D2D2F26322B7F372AEC33E375A4C35F6F6075E4AA607CE88B23194A9D96E00CC23152E2138AEEDC844F64129251B2F4430BFE9D43243FEFBB03471018D450578CFE2E642C6266013838BB1F903BB8DB1A6E5D4DB100B41DCA29314158769A1EC6427BCDF080763DD91832D019B37DADB6166CE8CB7A32C03BC8C3CF0E1CA0E8E75173E08FC11442811679E42F9CE602EA3A07082E857241606CD4869C1695BEDB8C83CDBBE759AAA114D67A763DDE087BA3A408B4BE6A638F40AB2751CDFE5132694EFA768F62588C64F997C53CC5185FA36A8A2236C3321C47CEF5F35957,
BF8EE8CD8B208C60EC184160A91215ECE6817BDC93A135228551F342B8FDE8347B119BE354729D9FF7A23BD0F29D8AFEDB1F19DBDB7384B21B9A04266C37F3B3768C99344859E017F66D7AC75BC854E5F7D4B132C1E89AEE3F19E78E3F23F5354FC359C16EA04F1FE6A84790809FABE3C71796497386B9825DA8CA1F906509A008FF49C3CE54B17B2BB6123E84290EDE4FF860AD191756CDBD7E6668C976D7629C3763A2B37ECA2C22C6E4DDC6D2F1E04700FB0BCA00D2510F8CBFE23FCB87028C5B8B38D27CD5E1B7BA9F3406D14CD021D62AB6A01E4DD03BD578628CA6E7440ED5693284B2CF956230E7A4ADC14A62BE452E1412B5491216F3BF698E4D0356,
76CDF818CEB468292D154E7E16C046D301A3B1CAD9AD05B024E1771214AC7AA4138319433C09512D9E44CB3AFD1AF8F10FB8943A9CA6736BAC5B383A40865E0E44D8791F012519334E31E70EC7AF202F1008A3D30CFE73FF61F5E8F928848A9D10A46C24DD6AA4AC5EE33810F6008EAAA4EFDB79D7E2378121391EF74763AAD501E38DAEC0586FBF34AF68CD78B1C4A865D570FDA904C07304A426576021EEB5ED15FA489B076B69AA33131DBEC71F2E794846185BFEB2337D1A8557CD02BEE903740396930C2F8BD8B371FC4759511CC4680B6C754A246DBA62C422361C77CCF07BD2943617328178187E9A056CF8336C4E57843A287690451AEA7E33BFC8F2,
55B9C217B24A051630383017A89FFBF62AC728C141FA764ECA8769B8B23EF6C2DA244F7B7C8792F8F40769E61B7CC4267E8AB20A18B63F47F2BC678B33BBC7E3C8424F5914E4BF02E9EE053615D2E994AA9FFD49436B8BE281FD7B8186435407F8E50864674EA0676B63344F4BB7DFC2AE1DF5557A908192C5859EA823AB88795BF033D0235C32A479DEC180AA9A3AB3CC8CA2B000A780DD8B39E0BEA01CF21EB721AE77B29D99087FCC70A7C153B56A3EE4BE107D6216014ECAC865AB2126548E9D78DFD1319A6B35B458133868ED61A03FD83B162476B63347B6A51F7A34D56AE5A5F4CE8E9688B04123D6F0198934BD25B15D76B8D2D9A010C11EDD68C41C,
0C910D989758F894305AA14F7040B4581EB26A06846CCB0084AC4986AD922F14647D0116E790F1954EE2A4CE02A5E1F761E6F1BAAC279E54001C85A4B5800E537A69432A241E6AF40B8234491DF63F306B4A3F3AB673E3B094DDF5B815178C6551788B6F3370DFFA98856D80AD2ACC0E9A38F855C742EE239D201B100B89F22AE384C5AF87D26869551FE53F49753F8A8A47F49CF4602A996D9006DA3AC683514E94967498EBCD3D2C878962D9BB2F63A05A37DAF3AEE0C496A42229020122331AD618B33284D01569D34CCB77F631E8172A0700505809EB2469BAFDEDE91F9AB63BF7DFDA7B364B56EC9A167F06343F7C1C23206EE400E1CC809701F93E66AF,
5A21EAE462429FFD23373C5CCF082030CBCC78351C6FC8CB4FF4C0A79AD223E042D900A15C3CD0957A73AAB09CFB79DF91C3FAB2674FE24FCD572E1E4797A27E99D17E5FEEE86B7652E455FDCA85B2E27559211B94C21B9D73683729739EBA202205EA015F5A81D5574A208D449B060E8981CFB893CAA5C30E253011F4CA776E260500027F744AD75FED1CC9EF8F0E9B4FEB24FE68187AF868A0D3D87730A0C5FCF7A32B7BAE5210EAC6843526132BCEA74D1D0FEF63F497989359C5B357E7846129EB5970F4D9F0294E5AC8F7D85ABBA569DDFBFB89F311409455E6BB3CD5FFE8220D1A0EC191BD26081ED2B7A6690F7DC2BF7B9003ACBB970B23F523B7C32A,
7013B501DAE8BCEBF0E475D6E85B89D5F5FD025D54CDAC5AFBCE08014D560960F8837673444878DF7B0612A761E079A719D30B5DCF5A8A07D7985F4489245B30BA024D643F354D6C4B0E8E101080A60B4F6DA2D6D747E715BD180CC0E7C5B8C8DCC685BC1CA3BA3DCB01DF9287131F4E128AC4B57A567585C153118C4AA244E348838E5550FF15F4214D7DC059E3CC83C278B2F251457906134C650C4E94E4C7CADCB02C099BA1670D579DAB3FEA00260D7163907C4995D90A89238995439580A5319F3B5AC4021374AF800FB02C86F6BD1375B1D51511F40F9C548FF4AC6848C3F1BA6A3730E4C7EA8C389136C368E8864B3C44601AF275CDEB151819E26702,
A8A57A820CE960932E2AD6F428A039AAF19CBC9D00CBC4EE05DE2D5B7DF25F80C71DEE588243A3D360AE0C0E4DAF59A52A3AD6F7B4590EE2478A4A6BE6E60560D42086C7EB35950F3285914CB832E2C9394E134506D9E3C20FD9D98E5F551FDA9234B1A1092D0A1C885E1FBC221E743C18DA906821D420213BC7B24AB7E2AADCA869E869157B2A47D818911F5018323B39FC5C59F697B8459A477D5CAFF06646E06227DB51C6B8990F48D1F1AA81EA9BB4D032AEBD68ED3464ADF5523724E53FA245B3AD5DDE754C28E91AF95298476E9AB2B91E902266E9E932559770BFCB7E84012D543228DB2D27B7134170BFF4CB1843080F87A2DEA3F260F6A899535ED0,
A68F05B892E1D4A3FB47439E7E7A0EECDB79E5CBF33999D5BC5419C8741AA13FF91C33C1608EF6E4495D3AC0E64B1D85156E801F357E6175DE0FE452F1622FC9ED500947C65074FDEAA8F858478C01AC47714028033D032A96C87301D5692110CF7EA72A3478A28383B8A18D6FC799256C6A5B730B8A0051D429EEE4E52D794931F1D24122BCDABDB9E869B93F3650C66A6AEEF3D7E5DA434672D6A6174EAC35EC7FCC558CC83005130EDB2F2588E7A17346707EC3142CEDA5E5A9F04DD1B23228D29965140B8BEDA6CDF2DE3D6863F9D72E7EBFA9BDD84023D04D064EA3548AB20C74C0F97DDC8F5478AC260690ED978D97948F67F77C325750116CA501E054,
1653F381E5C8A61BE085D9EA8044B50A17D2D3F3418C1F353500870F86EDBFFF5ECF829CD660B621AE0C15F5580BC1B2EFAB585C76AEC6CF5CEDE526203E874FAC8EE0109A70A0EEE21EAB1AC53F7DCBB0C30E1EF5DE480FD28EDE59B0CA838A053C862D8FEAB1F8BBC6C632B891B79B0947FC693CC03AD9082A8A1111D6D874A6FE90D8F517519DE8A4FC9B861CAA0F5B8F71B16D16229134FF77DE22F78403A453E8C6F02463529812DE6B53F8C565CE4CD4BA11B441B120F0F1EE55EDBBA120E643A7FA550EAC4D3EBA12076D1FD5CACEF9614F15DFB327484506442140810DB01E152E86788233EEB0E9D781E8527D4EC1936527F3A1BA858EE0B0E44533,
1FCED1C3F11E4D3633B463A9546EF6C0DB939F819A2AEFFF60BC8FAEC9228327F198DF1224D0899B3EC82B4F7148EFCE10F6044FFF0303A769D4698E31FDA1CF32D3F49058866669FD7097458A5EED0EDD556275D04559C4EFC03ECC810AB2EE1A057F18ECB78D06144C436DE248771777D142BAC685AD69693B39EAE77024F8CA28A9684E63538DA524B2FEAD2F5C01CED5A35C5C10CD8494D5EBE36FD3CCA9DB5791D7F56BC00241014D939ABA9A4D4BF372DFA20A45B93C8C1C7C29C355FFF747B0A12F6E36608A53AA90F97A63926702D2AF6948530F9C8C500D00CD6C9F321EA3791383CB99A7E0360208E56A250A556EFCA952022357B3C46EAC0B8DBA,
73F11FC0D0FEBB94CAA81CD265C09AC0221E3EFCABEA05F685011FC668C40E110E9A281C1741B5DEA0769BD7AD7A78E0B3454DD63007F7FCC978F33EC8CAB556B23F7419442E8EEC94B18D3DE082293511D7ED3FFD8C0E3363CFA54D508C17C6164EAE8382C6C008347C953A7E84543D5749391D953A34A77329AE572C8CE00D1219231F3AC223E45D300CDFE89843970C34723A72C11A74EEA7299515507497FD848EC202678F314D0F1E5ED3D96B6C40950496CB27E2CD7C5CAF1ECEB292909FB0B787BC353F6187F09A30CC1A13EA620726E353E3FC183D2C4EFEFB86F8E61ED282C46CE7B4BDFF307B5CAB9F9DF6DAB3D0A0BDBC6E860CAD87F594F17861,
62AE8A0F37D203B9A580BBB03C7B06E91C292EDF574781EE0D3BB4D58D0E2D1B557478AE140AF743DE3C4F9E685D6DF34EA36AC363DC899BE16D1D05DDD3CAA9634ACA85536717E3399D8B49B040E1FFB597C5EB627ADD4D4FB8B0F6A82CF8A41160A2C3F7C1B2F7F5B377A33C485FF6DD8380118F503B3B8195F2BA843B33F052FCB886038FDAF35721AE7B0E76BF2CFEF8E678AB6E7404DDBCDDA26C4A9B3E89D05B465BAF8BEA33C09A7D9E6B6D2791FAF08B7ED7D1223A0B81419842FFA5328A3A74F5054CCCE92DDE0E61A63915BBA0E754266D2D73ACAF6462598F76AC138A75D09EBA7BAC88BF1BC0EDF05AED8DA4548963128CC80AC29929A9E5CB6E,
EA1E800D0525962A9F2264D54056BA9512CE30E130736A002ECF10BC91E77B872EDA0020D4660D16812DB6066C7679FE01E7BB524C767B92D55C8D57AFB7EC89FF8B316AAAAEE8B713CE48748C5BDD4BB5A58936F7A48AF447D8B0CE18FF3530B2DD655D6256B2D85E4D24CAA4987A85FC73C3CB04F1BF60B7EB2DAEDB2668B343DD4B05DC873FB24CC34D8BEACD2EC4554698B489D3FCE57BC463C3AE7C2DD1E45DD5C26045E96B220EFAA922E693734CF91A80005FC07E40CCD49E61B0D03E43E23FDF9A15124AFE1FF505D0FD13DE5CAF34901F2CB4E6F5A6BA6C567D59C8BB5B1085BED775BA2C099DE0C287AC9ABA7B6E741BBEC4BC969A0E60C66DC75A,
89A7F0307410E0DF29A3872FCB528BCB83540367AF10FE5E1968FA91D8C7C546F37ADEA7943BF636A954FFFEC35FB0DC628C1EA465A091FB4A447D6A75C33BE73DA6B3328FF6B2C159142CAC48065076DB0227B203760F8504B417D0F2BD2D84893B412E8B3C7E4AE2F05D7DCB7FA19784EF735D39A7D1278CE080838AE2B026BEC2D2589890334645DF031C449DE7599A3809B809495F7483AB32759F4B264F0BE682797FC2F65F1C870710370CC255C8A1C4E6FCD94694779087C3BB999B0A65DAF6B74BFFD67999C481C0D8A28C552BADE71FFA61CC7D3AF756553CF9E691F57DFD2D09B742E83CF726148D016F9EA994941E6BDEB5FF55216EA1E3AA39D6,
74862722D1E813886AB0C641131DD1DF4CC336A34F1161A7D9E974D6F3C167BC9EA7F9E35F4E0E203122684324A9DA788815260E14864D11E9701A4F60E3F842DCC3611F08A9672A9EA5B54A9A266C93007F50CB457BF296232D89357F14E2FEF1965E9A6E83148AB91A105B4F7080B7707B5E2A198076B323EE766DB1B2E69E5C28A82A78B2C52F022477D046CC18B42BC5A853A7B1C1A6D0D0565BEA76F078FEA7641AC7C4088CD6D3DBB1808B1E4E668AF42334A4A515E0352D2C86471E710D7DAA5FD681801EA4C413F594144F3F5440FF3C2072937B8410D08851965A9F36E717FC9F2AFF0B351F66053888E34623E17D03DF7897F9DE75732C9F8D55AA,
2DEBB666AAB1CC6A1D67039F02CDD2A0A2CF685EF8EE035D30E490E9A142A09A12D3021ED7BF38F1D64C5133A6312138EFB058922506E129566BB602DFB2F0ACCE958DF348906F9DAC397F34BDBF912A150953D19E3E44EB58BE60E0756F6B5DEDFBAE535311962ADD9044DBAE6A78E18F7A5FA8A879DB88B3772342977090891E29896EFB8B3CBF81143D55E19FBD40077627B68814181CC662A65649EDE3A6C243BCF71ABD9840CF942D484D05053A92EA3943707AC092AB9FB3C4BD016EA7968EA7F79381F056F27AB75E288B1843BFC448A5937D26E3EF80E47596A45086EEDBBF800C8252241C6FAD57FFD187DCDECE284DFCF2E90B1E15D90DA358814C,
7A34B37D09E3FD860B7234A4C041211EB2C060F3F6A0C003DF955F4FA683A80AF0C3D45012FA31DDD1B9F8505DC77422B458620488863082DB476EA24182DBCECD67B424044B6B62289A16234DF2FA27F52B273178089F4A2A0223D246DF5993B2F3B74A9CE18E9C277F6051B3DAE5DF2CE3A984479D1F597D39D8B2F5A3409DC5E81E8C9BED888349DAA69652FEB8D4DB605077DB8DDC2462A4336D456AC1EABB7DB9405D227BB4A32384CE365AAF9B6F17F77AD7442458C3B34FC03DE79EB04BB8185BD963E0903318E30F0A0764AAB84915D31B07A028AB4F444DB746D9DF5E0711B8C81816739BA7BFA57AEA5CFC7D02093E3618B1181940F7CA3BB58B93,
95018BE40F6338CC185747D16DE09E1B2DB261E9F897F9B013D97CB80824639D1DED11DC423FA36391FF27278389EA9F8D3ACC538570BEEF9D54BCB5AF5B494CC2D88BEEAB2E053C3EDE76E0A66E62B9D9FF0260086AAA18F00A72A9604C97C0EAAC9A4CB06F122B63EB3BB5FFC37B590161FFD40574C4FA4A8A812E0C53653A42ADF9ED9C80CE2EE880D2AE945A087FEEF98C3CADAB6E59A94A9DC5ED90459F2D5AB9C58D454454CD32619B0306C4BA6A0A465EC417D4A638FBF1AB1A64B2088EDEA5B2F10FF9C06DF67CD5F9D7BE20AC67DDAC333E4DEE1CB953E7EC68CF7F1EDA16BCE38EE511E2BDEC778F28EE9E408A6237BF69478562981DE3507575A9,
71C6AB989A80CA967002C67B6610719F8673731C4F5ECF2ED923016E2AB1A54A921E08D887763EE7FF4D1CE2E370CCFBF7D86E565D02E29D573D4EC2C8BFBBB4E0219BAAC639972BDAED4B8E7AA79E46FF5D46837A7EB754418CEFE47F2ABED068082C11F73B1D2E523C80C86552ED72E69606F8AB2FE173D8CE193EEE5F535E756BB85258F7B8DC0F33FFCCC3F0CE92F31FC5054222E9383EB6968D8950EBBE4D1621A31D524D5C5CCA6D3DA3230A768D17913B910BFFB33324CAF4CEDA4769A66AF6D9F9F5EC9F432108874D225A65A7E6ACFF1CDE280DEAFA9000CF345A465F5C62B6C1466BEE9DEF3B5A4C363B0C587BD2D9C802FCDAD737F8208F61F182,
0845BDFD561A48783AEFE327BC0C425EBD623782F0E581BB98C999F65DFC87E95392D32D52D3B9B34447919D682E78D06949B8B5B895821480ACA7A4FE43E2CEDBD2FCA6CDA9C64AAD9A87139B0DEC26B4F14D05796C6CDB296FD56AB611A2A1DD294323C71C132C48D2868B25843D042A012F59728D48F2588E9E8F230E63405BD94BD8EBBD8192440F445E6AF3811C44E437A5BFB73CE9E056E8FD8353656415F40E07488993836BDCAACD273E86440DD1E05EF42409C0769C488F662A22EAA23F8CCEB5C031111C2A11A63D7A2D3173E7DEA6355751F0A558A51BED435F2B219C78DE08A20E641160BE9DD1E1C0840D341D7A5BDE9DF776CD864CD8D56CD6,
D8493BD78B33FBEE99D99415DD1C1231C84FE63CB7117434DD4DA2D93B5D31A616FCAC523862DFD0C6A9F458CDA4928EF87B6756B9E2F573AB2828B63D278280B932CD81825E4CBD954AEE960797FE989905E2BCEAD4B341DEF051198CE02666F7B7436F5D8429E00D4475DD5548EAD8E0EE55255DFFF38DF35A47ABBCBDD5CCC83E121A258371A3AB04C06E0A36F31585AA772817C9E142A3AF48E8A8549A1D73631D305557CA1994E464C6827306A417ED32B4129ADDF09E356EBD01803E25CB82AC1037E987EF8A73D33F521F2BD6CF7CFFC3C27F62970488140F8722C27EF2D404670B21BE4BF9F248A65FE8641CC326C43062CD5FAE81F29D501132E2EE,
A3EFE0018FF0F38F33D1FE5E780303EE4F06A51F9C17DA67CE9D5F26D54347BF8AC71C7F6E2D598C54ABCF6A6F214CDA286D7B5F4285674B113E821C1C625D874CC990C34084573DEE10FD3EECD950E0C973384136DBB2C86C2992DC205EBC180CD0D6D125B3C21979D40782D279E7BFFAE822612E56A1AB0063BCC8DA74DE2A0F307E8C09300BA5C9D139F140D521B41BF666559A896A185C9040EC8D77B9BF64B731F740EDE0970F1A667EA813A12C3C212C1EFDC528AD65EC008C4ADB7B85C874A3DC462AB8FF15D38244A46691C7F0252F48F811428D10DA8C4C6F622D0216137DB8B12521007EFA434DDA050A23993F433D5C8AF17EBAE5126004E881D2,
B43CFCB7E6F1E3D0CBD15B13D0431EC635FB687F85A0610C26B673017F8D9F3242CF41C23A147F49665E489157F4A8A85BBFAE5A5EBDFA75A4C81FFFB227375B5CE2747455AAB175492EB1287F45DB20B1246A389FFEAD063C1C37DCEE078936EC99DF5E84FD377DA3893062B1909EE734A0E19D5EC10E65DE222A1E1FDB06C9BBFAE3A4DA7324C504F39E343C458A951BE3229C0421F52F0BE2F25435D9A9863D8D74D9194315BD3DE0AFC716E1E11F5C864A226F29FE999FEC7DEAE336BCC0850FB2B6A347735B62D67C4DCF541C056AC1E44942A1687E9EB3057C69C626BE2A33CE373DEB3C69D459AC7F172E329B3DCE2AFF0A48561DC437769276BE4BC7,
8FDCDC2371142703A5C18824779AB18437FCF2D1A5F89C20F0F2A42DDFA348A20FFB4AA8742FFA9627F1380A6D0539D7F0B0507A6C97CC5591D6FA8002AD40731392BE551B4CF198E3DDE2E164AC3241F929DC99C4AD03A179D96CC8F9C033A94950990F2B577163DF83EBE01A550613A79A4552A4E34F24F129AA53CB58CC2539D85F6687BB860182819331D819CDD5A81655FDDF5853DB7ECC51916ACF0322733F85F8F9CFC337FED666BEBFD0F59BA8DA5E1F3BEEFF648063782FE04A68FDA64535623369F3F5B3B5493C2CB2C98F64637D6CED7171DC4722D3A64739E8B62E0D1A119D7C1DDB7895C654118CF35504FB3E7C223A090E7D3CC2BDE1AF771F,
AB17883A6751EE7F95FBF4965CBAE4AABE1DA7BABA1946D5C6614D178AD8387DA1A5A4E956F5CD182E3AD51516C9F95A7A01E2FB8C6E4940CC82085EE1BC7E91AFDB45DC3B57626552B6C393C0E9731804D0DCC6E73AEF284A06FBCE151A33F730E7E89A1E40F2881E67C493AB578A75C1A7E6B7BA70A4E785D2F40617A46B21C0553621875DC726D3044E1F87B5B4F3D26A89E94406EBBED8FAB5FB1D4136B527D7203E7BD5F9CD5468C17CBBE96B5FBB43A705287B059DB78B6A934E71376E4A85FCE3BA7C33D084249F6C6359DA4F57A720FB6463B3F759E5E1F741A9638DD6A895E78B38EA7A9711B76FC19BDF2D79133185106FA8242BC6A069E6B808AF,
D005A6B797B9402B2C11D8EFF1AD24213953CFC0E3B93854F3BB75A2D78A678AE20BB5720368427EB5A6CA0638621F4860688CF63DCBCDF7E8EDD3AB4041EBFC7D884798DB16EA59077B9BC8CEF865327F917462B907BDF7D737A1D04E00A6B105BE93E83CB29F5F409075BD74E9CCF9CDCD8382DDCB0F47E469D57269E6BE4116B9C005B3B1DA222C9FA711B91CC6D94D83F04CC90618628734B59C7EAA0075C4267C983C4B79B4024EA5024DE3FC16D89CB9C661CC795BAFF7E6414A75F5C44A6EA04870832ED8018AF495D24A72D3DEAD98C50B8725CF04261C8A7AA8BC676118DBDBA515080C3DDF288D84904148A23C80F043E53A947CAF7FA3D3B5DB35,
990CEB7D93976F593B56A43FDFC5ED22EC6B20C24A546BD9806BF218E4FA7A3DAB15BA898590C41D2EFE63C894FFDF73FA79C468CB2562B4742494F27182DFEA8EE10B2E8F28DE2593E88C47D91803A7D656FD01F447FCC7310C33336C0697872DB12F9FD24173207DF01CDFB0847FD16F65D7E44C2DDB7B56D80A73286258ADF590E58C1985F07D23A1C036A0DD04E01E8DC694790952186FB0F32BE00A1CCEFE23751FC483610C0BDE4A79B92E4D542D7603E473337AC5EBC59CF5B9D894A9367738484C00E097A391D9D60019FBEF7CDD17B2D7FEB101F121DC3123599076B044E1B193FB1CDF8C46B1A0B1AB55694015FC62F14533126562843D1D4E8130,
A7593A09F99D0C50DDC4FD7179D6BA7D7A8223065AADCAFE2D47731F70866B5562A89BFF4BDB123B556F3BC3CEF8599F64D6666C5BFC5AB21B25C963EA1BFC7F3D31B36B39A5757F3C4249300175D69316FF2EAB724B401FE0E09832011E9BF4A567D5B2616F8D7BFA7D761324FE33DE7DCDD5A5821B336675BB77A1B7540ABC0CD835FFAF0BC383A6643CE2C4268BA58D8459D351516ACA022F66415AF291C221C9C26BCB7D95A9C0CA5E11D29A8485C3B5E235AE2A5441DAC90712F6973ED30AD30D20DA526C7DC0A9AEDEF1E842095E50E6E0FC8242728E135ADA94F45ACF586DFB3B4BAD749C8AA6F4CF1086971BDF661611451D8411DFEBD8FE52544303,
2A4AA496B2A6E691126F5F65A73882E2B82846F1A39E3B88A34AFB0F067580B7BBA09F7CCAC3269B65019631CF97CE76F1346C207185F1165E8BB673A34CF156AEDAD3DF5E6B0A3E1425716ED83EAD2539C24C6B4B5833D3434B0CBA20F5783A43F2EC581F88C506253526DDCE34B0314133591814632052AEA3C277BB115E96AD8DDF3346029A1C7B826ED8CA8C8AA11A5FDBF9BFFB6069662A2043F4B6B0A0C2E20033673AA74A55DDC1D818DE10BC705AC4F54D08845F4D4AE2F2A54E91D2BF947FA5B915699DF18A583F174EF3B53D08F065BAC0609A8CD4C19B6F3EA917B988E55C44C03BF4C0BCBBA703DFCC86F9B02B5137FB2883242DB407B24D81A6,
1A3311709B8F5224BC6FD472E125C6044FA5C03DB9D12750AFD4C076C14B37AB6524DCEF00885CD00EBFF992ABA1A0F1F90118CD89513C967C2F894F208E88A00E3B8D8C0C92030BD401CD5A1ADBFBD332A40AC249491B13DF7946C0C476F5CE017696CAF883035D709F87D59F5C74D85E02975F9ECABB4633F69C1EFFF9B1F497809D0D4E20350DC98A8B4BA36FCC27EAD49115C0B711BCFF835A5C5E5ED43CB67A16C3CE8611354E7FD18AB624A66B0DF312C8FE30701D180020DA603F93541E42F6F9BA8B8F8AEE3C85A95AD11D2EC139BB5835A455D48C8277FC95F1F26E596D6EAC23F5C1C3184FE423BCD6824F6D84B0276C66F5AEE4C24117A0A5615A,
AC17FB300C86691D36A4008AF6134A0E3621F8EDC913C40CDF58CCDDE8E2E49F1D680A455CD4AF8C6905CED6D43B13573BEE96DC9E375D894015108D1181CBA9FA75A5D4E6F2977CE3BBBD93B1F7A9EB8AAD2F7D7266A4F38F9458D08D93AFEBC522ADB5F710B458D4A1D8E2C8A345F429EE246926EBED34621087E4A49034D3A7AB594CBA4D146973796DD242121CFC82E2F53DD3D9E8E9BF3889A7AC48B1275485E1B3D8AB887EF16146AD67B81CBB8ABB9D1E9CC4FFB6774D1EBDDAD71D173760A73CC52C1D46B8D222077A83BC63CF148917348A82380CA22A2FA2540FC063CE72EB9D359DCC7FBD256E156C317F32F848BD15967E407F68C97873465058,
FDF40B15E269E8BC4BAB897F577FD1641BD85874334F028EFE14CA2C56CD97AFF41D0F24EAC5365BC4C7A1A28C4F099AA3C6C2F954B52CC1C98BB191856CEEA528E15DF706D1C4152E564742B91D1E87D132C50B267E82A972E458CDFCE5DB1800A4A3B6BB5AF064409493DA5383DC2F41565355FC356D3DF697C0B84BBBC6643F01B9EE0341C49D77C2432F4953FE1572A1FF9492F9A8FF82F01A616E034BBDF1754C6055F01A5C17596543EA54C10E6948A2F7928C08E011B8C020B88210F70D9C5153F127E18F44DF449353AC168F2159E4578D7743BE2108C8ED3A9F1F6E513A5FDA0EB36266449575111023E61EB68569BC2D7F2A2B3C0C156E7DF074A8,
74A6AE0DE5454004D8CCB3C02BD6F0F0F260CF3F5318DB9953D82D0B93CC8AB07F77EE965E07AD6737D718C04AABD1238051F140B0D9379177F4AAE3D7C3272399C724D3C88531BB1C4977844269FF5F8E0C94B8BA26F774E2937F5BCFC65A34C1439EC970F5F4FAB08670CC2CB3D4CB3A35F17666A532E438C1F5F99CBC2546E6ABFCCBD65CFFF7F8F243DE582965AF880B7FE7017888AC298F3E9BEFF8CD0C15BC1BB50059FC32A33435B6070F4BC54FD3B5FF9BA72E8C0FD5533953299C1E58AB3066B7CF64DB894E8EC4B42858D77FACA7347F7D3A49A9E2D1D6C71F609E572F20BB3A55F4C242108F4CB708446650EF6DC06A93ACD9A5793B6EB63BCFF8,
93136C115F72D0A1BD20F9AEE0A56E510CD286C36A388D1E6E2D96F2DF9821835EA5206E8E5BF35C32D475406CEBA088FBD9DE8EDC9F2CE83A69B281E7CF65C9510B41DEC0B4DFF178C02841E9888B8FE2193EC4722CC90CA67FC93B7C672A7AA34F7F6C0742F0E49454E93A9FC57EB3968A276093C26A906306414D091C7280700F7E867C1695F05426960102FF6D18225E3372777587D79C81AB0CC28EEA07002E36B2E1D8A28BB4373741221CB21E79DA40B4D501536FC00B7534CE591ED2BEBB6E0E9A4135DBB37636998BF5EF21761A2BC07389C2826A440DED9C711D764F7EF3D6C7A9FB44309FFD082960096BA4D30590848BD285C2EAF19DB27E4974,
00082D181D0A26560EAB0232B391788DA70D488B61A9F8D1EFB0742511A621269079D68A67B3483E93A47626673E3C226D91834D7E1BCD7371193F3EAA2AADB1DDA30F42C91DAB6A49041A84A068963545CA1AED0DC70A0EBF7292AEAAAC9CDB512C15FEEA5C84E0C09C0D1839847E3A92804366DD91CCD30268F27342D0FE702E8857AEB70633542E1EEDAB9AD5504916F834C909F6862AA9BE88A6A1AD06F6B874DB55DE84DCA7288097A6D66973D090160BFAF9E39C63699B169304A6433FCCC63379BDE0ABA28C41B168BEB9CDC14CBD11F100912A002ECB28F644D5D3C2A6CA7A15F9FF43B5F62DE9D91AAC8959A9DAA1551748332B4E3CC6FE8A0FF435,
891F8326083FE51142DFE2D70B8855C14968ABEAFBA04951895B194DCE6DF020C41977052D62E921A2B161023A3948D657287DA2F03729B08D834CB48E20E0487C340485F3B9E7F2706955BA37AC7D4595ED89C7E5E5BDB48825BB78FAC6BA3BF844749627D4B29276898253FB9C1492DDADB5A3C30E334D07D9CD5AAA5AD9C515CCC364667B8D80CEE7EFA8ED70F70BC64FBE0514CD85CF8E75075C1449527344EAF23BE4773EE2A0716549CBB097E23FFFAD2C5A8264E4BD9F3965DD1EF6D076DEB1482F4B3C777523C3D8F8E835CA14EE719A381E08FA2234756FA8B4580A038AD3410298AE62CA7A1BA4BA560E0ED7A0E1D59CB501453AE959F91276E3E6,
89FFB4D732E1BF11A96AFFD14A10A79987C54BDFA1A25B925D02A58907F713F952A636926586F7524FC81D4E04DC8FB684B752CFFAA107DBD5FC00742438F960793EE0980F8EE5416885A552D5A5F896E681C23355B4AF940ACB942D7E0942075E7D56956D1EE2293E77BB66C7D579033B777E21A6FD99BD99218BD3A90CB2E2E913A7F6CE6FA88A7A4A29C2013FF953BE5501EA22BD56C67871F3A306CCF11A491A47BE2B50858A7D35FCEA0AC490E031E40C0327AB69AADC95D3A3021C74CA404A26DB4B65537988182522124AA96E4F5628F475510A8D99915DE2FEC54935CAC6DACDB48C5575B5BF1F0F92BAB2B4BE9E00D2CBF1209B70EBFB5F9D55F760,
FBCF2ADD8FC38564C11AE3884A888B47BDDF2B89AFA3B093AF4D498B6617A55B1786E347A4BAFBBE86D612F72451554F35E15109B53C11D76A2891F21EFA58D65D3248EA6984D14C94FECE9645A1DBE67CE1234B5158E511EBACF13632EDF34E7578152333C4AEB99845946E4FCECD70E3D7BFD84CCE3971915F1A32F9D2B0223C2D183905B0BB6ACA826732965FFB2CEE55B86C86F22A6A4BF4BA5E30BD4D160C5B2413722312397BECC1E4DA9FD911B2663EB9EAB32068BEB08D93D649CF9A9ABBA832A076B6FCD5148A4008E1670FA9C9253EB523CAA11BB9C848567EA6A26C2EB60AE6A0D637B61DFD363586FC4BE78880A293CD5C801C6D0D229531E405,
44A44C82E0DF5A47FA1EBCD01AF6086706F077B53AC1E82C0946678D676C500FA28CE8C6002332B70007ED7007987FEC73AAE1AE9ABBA3E9C7097D8FA86E84A306E74464EA8DF9B76C1345C8FBFADE3F719261E00C31BD7C6605C898FF0E4676C2F56E841F4C7B6709CD973AC4E8A51B8D91611AD826362E36F2961DF8347F4C2F91CED9E33BFB3123A7E97100A1E10A44B94673B0A56F4420DC2011721DAED3CA60037A5D605D82D991AC8CBAE8A2FF5B95C2A1C66080EE8C8DCC22AA9AE0E11781B1276AD6BA057FCA9B6213CD3445A1AE89D46ADE76605AB3C3552B1DF2D9C9CFB7F6A8F22A917FD379764E353928F5353109C09A0D9E2AB28ACD675D16E4,
E0750F39B6D285B75358BDBA50143200CED4ED28018316A7D15C0F40CE9E70ADBDCB92B1757988F3213EC4ADA6A1EE0BC2AE07C8F0D5495DAC10003C30293F6F618135AAE7CDE980828B28BE9BB2061462B8772E6711228088FFC2628B62DF99C94430C7E566B4D65F6A845A1B0960C272220EB91ACA6A0134433C016C1318714F8A020CED847CB8E3B7538817B5023388B11A008A9CF1EC1E9BEE87B0E10F597B177CCBD5108336D43BDE3173FA06EE53FBDE2BEDAC3459B780C895440C63619975D0FE2D745010EDA38938B3CB9525D25B24A0B951B15BC2A75883F4D1636C6FE0C889B22127F38A61B9934A8D8A77E21FC8DAC2A66DFADD2120D3B5960D3B,
AF630F0D81A98C1AA241621FDA52E97EAAC88FE330A33ACCADF1B51CD0E6EAB93D9457896D2473785BF9B88A40001EF7755F44CB59AA94F9EC2BDA26F28F25CB97834FE8EE1CF6B623926B5902510A4E0AE2A15B09B62F0E0BEDEA474CF5E7CE2275EE2EF66950DA6A42CF580A6E1B56500534DA208653C01A69E3E32C458C7DD52C07A109DF81D504343A2D5D9704BC2457AA8AFA554BFBA62051CCEA8825F66609D3A853A3B2E33EDD35D9BC867594B201FB2C842E69B11E60125DE261386A9D724D29524092FF259A0FE4D3EE7F77E3777F0ADD43A802CE21A4CAE1BEEECDA43179C8E9560323FDB4A121A8E9CE8B6ED5364DFF31069139DE9673EB597F18,
D4E55823744A2446D4759B5DF1EAE312A5FE6376F5003DE8F71FDA76D07B9E36624B6F7B9BA7D2116FAE566BAB87972C756F5147905808470DEE0CFA2551FB393EB36E2D15D871C08D48CE55D66B1CD659801CA0099A4D74EC31D1D5F21BE2D9334D594ED43E086D095181A1708BE555A159E534C7E4C52D5B1933BE3A0C7E1A8C8B0EAEDFA57CA0C85C5C022209E477B82D1F91CC89AF791ACA4B726A40D4AC0F56C3AA44D39154EEBCD86C7C76D66AC48617B26883B20E42C2E0380B0D3EDB44EA9CA6472CF379F4FA252AF36AAC7664D6A1B1096FEBE75CC545CB8A0F7A6DF3F2D09AC132988FAF4457FF8D23EA44FFA044A829C7977F5C4977BD6F2C6DEE,
73EF874DF42F5FD1F2AB646ECC1B5353093FF281897DB25188245B543D9FDB420D71BF9E27FD0F95AFE9A638F3FED9EE2CD7E2F0E7E15860E0637526353719D34B0BC5D43C2337EC168BA99E02F39FCD323745BD7560E7283062308F9FBC2FC71A05FE1EEB8FDC79DD035BF2A370FEFD57EB7589F1AEDD363A2E5F63262A227CDB230C7D36DFA05F2029490D394DCD95172D445F55018ACE6E4B41251FA5F451F397CA206FDEB2FDD0CAF247E625BB071FEC93EA2EA2149113AD2C0FC0FC3F3CF045ADAA5BA18FBADF6B909ED3688BF22F188CFD66A7FC5C780C5FD9B1462AE919E02EBECA9A4E1E08352BE05D5982F143F6FC4206A696E8624D8893BAA67572,
39DEFF93C1E06609207FCDADB92FB28871A356F7275FE7B55124066EFE284826D8DDC3954EF5DD91D4280CEE6154BAC8421D80D9FD517B4ED73991D4B4744B5955536DE28B7BD666659421BB4A18437BA2D013C2FCCCB7B7817B3C3D4A65D3F51F52E50267CF56DD3304FA8671F87BC0BE73FC36DE37682AA465F891BDC862338CC9777E6B279D1FD1722C9931A07B312C1102E64899BA18166A63B85FE71DA85D8F151FF34C9A471D09B6E51EAF25482A73D4AE2C2C82A092B55DA7218744A50F408AAF06A39E407052C224F2B0CE85F40058C86075F60F82CC81575B06829C92392BF29A7A3D09AB3876BA225C801C4A44E21A327AB9B9BE31647913A7F984,
0536B7F404756E4BF18FF114161E3637959B8172DD5D6A548C09CC6F22DD94D05AE6D6DCDDCB26B2E7CC5296F753CC808FE188670E0145BCFA9C3B8E95D8F7F1BA39FC097FC70452F8200A1C49712210140B6A049983B6DD5CD03467CC842DF5F03853D5D219D74A4CB93CA3ACA4E43CC959E02B0CD0F7FE7B9AA1DA8EAECF4DA3209D81A56BBF2510DF9E0F49197C53B533ECA87B05B80BD8962E968ACB4C5DE258C43119A36C6C920F901E5365F21927DBD187219C5146A8F95CFD84AAB221282FC282FFD82CD36252B3EB8541C8DA85DE8BAC769F848C179F31B356FDAC79E4E4026A7F1CCCD02D3821F18D6CB02B67372A33B935FF6381BDDE8385D93F43,
A8811104346EDAA50E09329F36326313847CCAC61B81A309DCC1C504B1AD222AECE437B90350A53A029353FF331749EF0984C157AEAACB72D32455E2F6C1DDFD228E78F8A8AE0377A4965F11865A7609CFE311638D775894020A5F14C774857A9154B721FB26E1E17D8A1F5E3D1D10E24C7C2BC402B2274DFC5B012254D077B04312B040FF7F34FE794A7E5309E622599C985320FDD6B488DB9DC4BD47A790894844A90D81D8B0DFDC071722E2622BD04C24052DA2E294699F656C28AE925214F446938225EC6C61613DD581B8C9D38A0B3A2818B35D12448276EE765B35D718F40DC4A081E5C472C44E895D61E2887820D9AB4F0913DDE85ADFC0911F85F6D3,
2BFE321F8611B4CFB45A0ADA3EDCE9D0A880E5AAED56E03444EAC536AFF63E2389FCED6CA81F887098CEE74D4E22D592FFC54C5104CDCCCCE8954A15777992FE5581DCB54D99E61FB248CE269C4A1771BD65A4CD1F5C15812E1ED67F130020B2FD9C8FD0F8E94E647AF50B2B97207302B7A52C07A458BC28A495879D90813D23BE505778B70D5A345AF13B4BB4356B54556041D79C0FAE523B5F4B494F1FF21556B5EF7B1966BB1C244A80655D24EB9CB36FAD0ECC98ACE8A29540C70975AA4DAC0E8A77956B375742AB3FC9BBFBAB681DEAB98919B452BA0811FDDB3B6787125E8B57A152B560B2070E084CC5F551F5E405E028888A4F7215DA1EDB740E82A6,
48F35FEB4587E1E3A43A52CF2D2CC92E097D5219C56CC9FAA470F1CD8F6AEDBB1DA0616B4DC57CE1766BCD9B1120AA9F3730425FDBC042D5686353DCF8E6F46D0879BC0DBA3A2C3514EAB4D529E8FF96043FF208E320637C01203B43E0CDF8FC402BC95A280DC2FEBEEE1CAA5C41B0A71C1ABE409EA5582853F4B860869825016F506560FB52CFEDF888826E1F7DF292AA2C3DBED037041E64E513FB97D5692381BB2D42674E31D14ED6A31DA3319973ECE996542E127D36D8BC17E7DE26CEB024A138EAD1A84080E47756994371A325F16453994A71E5ABB24B96FB7BA4E526588A0611240EB7145782F1A274A63D02956DE988FB2A8A5BF9CED6DACEA007AA,
191BA6C7D081BD0335EB5758BE0D5BF73967F345B636F8350EDDBC21D94E5BDE6161AD9DFE41A46DAF5E55DD4CB4E50F48E4AB6C48DA10C5E30FBFBDAB9A75BEF7E3CF675F85E92559C1934FA99492650332C25743A5C02A2A366975C8069C572C020E2B3E0303FE0EFE859C0C8CF075ECDFE93FBD1FB2FC3FE43EC84743F2711907D98A755D4420A2AE9D76B2193AF4617B36E581761E0EB1E791C241E19379DA066E823B8404E53FC1AD10182928B40B076568152DB6806890170BA69D08168551E45429F77F543225176CD01D206F916D5E89E863DC194188A375F603164134568DF2D6A6442A70F48B7DF0D9DA30784ADA0727E3885E0B86D99861D5AAD2,
720D7AC03120AF5C7AD8FE9CC0F8C2DE7A0CA70E8FDAE99719F50F5932D2C03A212C98066A30C0F4D2FF1E7F9378B09CD61600FCC122328CA52D136C1A254E0674F46F9A1C4290C4E78A034959F6B0F0B8C0A0612461F146CDADAE4EA348DB82258D2CD101D1097DE07E23E00E96377C93766E0E956EF9069E3C189C8C9147A01D292C9298298D16A1AAC039AF7EE6155A058253FA6B84571FE44A31558DB299D780DE0861E20B5EB8F631B9F6903A4760754076F77D7F20FDA8333E26F031B490A09AA0E4E5A4DFEE6B52C8DAB26D43CE336114EAC935CCB78E1009ABBFB22195BE4890ACB563C6A0EA583011B9856ECB88FB81201D5B4079F6BA6C9F984A0D,
AC7916ADA46C11FF73FB239BC95479857564B3974353295D4950C05A71F6FF7D3D2847A824381CFDA62259A049781DA012D52DEDBEDDF3DB1C5F4E1A968D088B2EB86E5244C072B2EE67A50413B1F7DDDA4166116F337E0F58B5997C16740C46E11B9D37CF2B638E9F9A61DD868EBE2FC3634DBDEBCCE9BB7301B99CD5FA4A697890E12A0AA4B9A26723BEA70811438B771F44EC12F5636045DE9A8BF281B8F90E8D48DFCF65F972224C26598A696964069CAE674334FB0275203000232EF9B354589C48BDE4CCE2E2DAFA5610CDA2A811FEEECA2436EC038098E69D505D9627BBB46C7E962E6BAC0F940C6CD8640F4E09807125B7D77FD90B0EA83ADA8579E1,
3C067E52A7D9A728DD3C8944892C68CFCD8636D90607551521CED090651A1FC215FE53FF979EFA9DB2A20183AD9740158A1F68A94B219933A9035D8D9D630A0BB9716E72341E024E428193B077F2F3DF27C6665E3C710BACE95FA606775A4B2AE3653F2EB30952103422CC4DC8A729E41485B3A836F9E4E4406DB6F0AE355F52CF4819CCEDDCC0228E63C0B9EA7B0F9236C97D29D752E3A4C36CC617401999A94FE73BAF02E6064177B3CF57C7ADAA778178B0233EEDCCF9FE68057FFA30EE0C91812442395FE0E265A9D550E44ADA73398788260769FE29A767DF47ADA4B7EDBD099BDB858CA0E32B5CC534B79E5F05D3B530CA67235EF8524F229B75097053,
A484EE854932B206E04D1D9A3A5105343731B45A6515B4EEE5C9DD5849040D5F41F8D82CC4A6889D45D7DAD2B3E60C47A6B92E9D5FBD7CC0E9D04939ACB56772C58D57A20C9E50FC24BB1FCD82647380D5017D5B2380DB54D977876D4F6B1F063FAE21347FF9AE930C2E198A4F449F81EFFF7BA28E2DAC0F85AB1F197E5B1B5B664EF9AA85A24CF376B55617072B86F4E9BC353A6757B5C642527F59A20D6EFD51E5B4D19F6D858777B63BA39A8A405C01D09689160A033B13DD3F6681590343E07ABA9BC82BA7272E0025F898676CEC6F8A31AD921C3867833895DBFB64C432D82671480DF747801FD9A822DC55202B49724EC98D27A0504857F7991DBC7505,
787142526A703DCECA98E9CE55167D5F562C67AF5E33AB5E0F75DCA5547C904023E38731208AD314EC98D45B4D01927F309094D171622B661A87C962E2039E2B08090E8022004106CCCEE03C3F0ED08E795ADB17BDDAD1F80AAB981317ABD3AD4A9AF279298B87EE08366CFF6EC0ABA8B82B6E8B22024C6A0DF9BEB40B03EF88829DA383DF6BADD06950321C16E6AC709FEE90FE9DA1D8099588EB6378BCED3EE51E5C78D998F003710CF0AA919D87D942EC6093037BC59905DA8413F7FE76B74F85017B65942EF7FE561E0FCD5BF515FB411C27BD6F321C88883A98037F521F72BE7155FCBF7CBD8B51DDF2EAEC9C00744CD684CC0FC09DF032C88BD382CFDE,
CDCB15DD43096EED8C80715E7E6F8A65F2EECEB023443FE8998AE644125977D2F0DEFF14CC567EBDC568A8A744E029787256DD73B570DDDDFBB281D04430294806271B0284C1AB332F3BDD9892AA8E01A522552D0C6324E1BBA720A0C0918AA8BD1E4B28057F4E78D6818A0C1A20FF82A90593D45F69CB0DC592930AE91B1DCD7B97A71C75D6D2532129FD755BC08460787B0938850C818D912C7DFE259485BAA9BA06CF575D356699CF7FB67925A5B44ED53425282E072B902269E8016D294231B880EB8CFD7652A370CF29A7CE4B50853895901AB62ADE8240BB7E305B21FE4791B3C7CE7D80DC3DF54CC7383D9AA7D2A87677D1D435445F9A3FAF650567F2,
D5D1CC005CD835F0B507D705BA5259C1134502BDA1E614E4F5D48784CFCE2C8AFD39A432CCEAA3A481BD21FA48CEC706E362A0E24462725E76AD0C145539B55A12FECA50EF7E9D3B0D613882A8F9D39C0D7163419A16248F0780C4AA695A57F143D5F9305D67C3C23728EB381A8D191FBE4D32C7F633DEB3C3BD8F8EA7C7914EF765F6568FDE1895D62942731876D35365327EECF19723A1EECD5B675CAC327C29BC0858E7593A2E2B4181A5DF5FF8B2C7D072874F513CA1F7FFD0644FF67E7A8DACA8FEA9DB48398566B604250599E3096121BF4CD6C4339FDCD6E7C320DDF517FFC8DB4668D7C8FD8B877829E52637B727584BE6558E341015E4167B60F349,
45C0BA61B4B7F9051EE5D059524C2AF9EF77BF4141F3BA47D2493D14A17D34E6913A60D6BB67827D92FD57624DFF17F61FF41FAFFF2FCEC88CCE40559FCEE5BB8B22378CA7FB32FB4C14C470F8679280E1FC690BA3A8C1C5C07BC1FCCC6E760F851A2ACD118D23F2AF429C69355C341B5B5DCCEB89297135D3CFCF8E6783D5A7EBF50EED8CF7B8CB69E4B5FA7B870028A15397B03774AE0E59AFD7391CD7BADAC19A2D55F49E2D024228A492384B3ED9EBC2CE633389D1C198DB2F2B7DAC9B881AAEAC916309D330929CF21C22FC3EC3FB96F4E67F62BD25A1D731E93ADB585E449129635777A7D915ADEFBAF1224D07350B0FC2F387ADE1DFE20DC6DF8CB3F0,
E6B175D602BC1EC7863A353636774C7214227C417E8595872F828108FFD3335A7DA307AF1C434464FB5A27A93E0D70148A5AEAA2FF0C0E78A02DEC01B1AFBA2796D41C66792B8BEF72EAF269CD7C2D225D0047FD45EDAEAC6DFF632E3763B5D6C35340D82C15DEAB6F422DBD52154DAF7FD7D501224E6CAC9C8EE56433480179823FC059DA5EAC1A115966F45C90E3E7BCAE0DC7ED751EC053ED9DBD9C09CBA77BF02B99C2AE3EC2BE12A5A9F9E9745F2CCEFB0B320B52C91823C82F46B22FDAE968ACDF6B83AB728EB4057647E2F4F0641AD0F027B8DE63F3C90A00827A9DBC9A21B6A10FDA2BA42570D9787D41644820F6DA31F9532CCC631F5DAA903C5696,
9F6C04918C74AD225DB85A6424D1B5A8D3DD522EE1E31F7DB260B227BFCB7A6066E7D61FA0D2A8485329967CAE1DA0ED3892F06FF8B84092A7F01A23D7285D11226F91CF4578ADD44BEAB79B8FF25790A93047CFD04A7AAD6FE62069115C76F350EBC1948F9D92BC3CAACC54992094B2C0FF2E748A0BD27034F45ADD0982560090CA0DFD96E92727C0E25E74CAD03FB19B183BB8645452507EDC4AFB6C769B6035E60775B487FFE1999919998EE6E1C21137384591B00733AE26CA1DECAA127A4E874F310CE84683309C35C5C6416996CD2F1D63498A2F8F75A5D99CBB28F005A9E9397813CECB693DBB9391A5E53E3CB63FC9D0F6CD8925DD3B2C6D6E268586,
DF4CC047F32A96414EE4EC40D080413B89BA54A6FA1CEF3CEB81F0086EBC8C291D4474F5D7E4C35C37CED22FFFBFE427C2E70ECC338A27AC33EE8E42F973E425201328622B740F4B208E66EE73D7A13CE8423539D026B0976C16E4A7D30F79A6E58438A03873B89D53A7FC83071878059B2811FFE91073762ACC60C0B6E7ADC64BECB81B5A43B1B18D7B01B0F7C26881388E090DBED55FCF98BD2D85BCBF9EC621E15902D34A4D493776CCF70516AD827ADE0F927A9CB2D4A5A91BC40B7D5DE733EDD17932C50F32463954E633BD4D1DFB66B8A0214AB34AAF256410CD782E293F0AA2A674D15617F403B51434DEDBE6E5159BFC6A3C1C50805E0136813488EC,
F04278EBAE0C30C884594C6F08C48B245141D9EDCEAF6ED5EBD85EA6CC7B3656B73A78C3441195A352620DCF371BB1619AEB16224F069B7C86B8488EDD776993B226B0DC9AE9BE05BF86D3220183DF436220A4ACC7944D260DF9EF12902A21ED25CEEC5AC9F2DCAAF11246C9CD249938C44B592ABF351965CEEB497820911E6C646CD2B5F84E6EEBF77DE46E02964BC197DD014057897CF5EF847AAF0EDAE2124127B943A4C14C54AF809321447025D6F7F76900E3F3C64E5D691FB288637C4CA6493C52CE94A1847D3873D9F2A33070DDA07EBF6AF18592E7F1DFDD403C98C6F0F1CEF192B9E66EA33DC5E42B7BA756551C95B9CFB9681F32F326128B9FBF9F,
4DBAA66D1262E60C5C89E18ABECDC0CE75B9AFFBA1D0395C354524A9055BFB7A60C9005CEC88A5CCC2EF513D503C19029679EAFC76873C7413C83CCDD6E400EB0BFFA644CF7407B7FCC61EBB65435A7FF395B592E91475DBB16EA97CDCD84951D3D3F0DAD61B255455F6D1AFF8B42F9D81542B6FDF49015A98D3432FED1025C227DBB6F39D820AF573193E5B980FB3D63C52F9372688BCB1A8D1A15DFC5B869764743AF3D0A353ADDAD1126559C9657FFEFA6B6A3120B15481869B1CA97737474ACD25EB4F90680CAB26793968B50B554EB3504F0624B51E47D8860F397A0194D967B197A0CD81C6ABBA66DB046ED6274A03572B138D237D95DB46592E6F36CC,
