memory_initialization_radix=16;
memory_initialization_vector=
9DFF8B611056F3B8F7BBEA303C3F1860F7692A10E8C6CA5D88A09AC28D7B0610A94F70A4CC9ED1F85E9C78ECF5D3EF81CE2CF90DD3991125BF60FCD3E34CB33F0D286972852A0677C46DA35000CC0F0436F6EFFF6A51240759FF81E310828C5DF04E1FE0F2D610422671B38EE2E493473C44651D4E098F34FE3531387362A794,
52ED8A6AE227D3427039375F01C90541B9B57A6CA1F585ABCDA7A8AD4F0BF7E713047C045A63DE390B507C8589C56421813232241949F51D36D02774709EEF2D22C07B36BF8DD33AEB52BFA70CBCD0BD0F35718EC8EA68A8B73E5510D9B73F6481C2644FFC22DB5DE318EF40C2C6561867CE12E8E4929097065B6EBBC8D0398C,
4B08A02ED84207270C19A1A49F1CC1A4DDB7FA2A6FF9486F24A1B501C387A400D21491ADDAC8DC52F83A79D15C3AE3F280DF612C1BBE3958160B4D797C49C2CA9286FE4EFF89525AB99DA8D0C011102631C8892E5C6B4E1D7ED8A53AC62BAFB1D1B99ADF2A54F74E8E077FB2E500A6899A30C1E1C1DC6D03BAAD18F93BC4FEBC,
70CD424AA5224A81A1DCE198E40A13EC097B5F8D50F89D7B5A55782D1C03AB43C198B6273E6B28585A3071DBACF0CB7871997303E01E23B0C22B3F5358DB0ECB42836B65A3621BBDBFA76D99E8D320E6E653B8BC35D79E18EAA38E90B6178298487556C8CAEEF7C4D07AE53DFB316850E768A41B8B0C464E6C908955B41B1D98,
3A8CBAF526D6385160B3A0DDF1517E387144E4D79CD8C049FFFA1B3D1D393186CAD5E6399D885A05D839B86800A8C5FCE04292A47CEA16D49F0ECFD0AB7B9F783A653B0048CBCB632DFF045AC430DE8A9B9B362EBF91CF0A80F4DEFB902272A5103ABBD102FF2DD83273A3CB395EA3CB4619B4ACAAF03F57B8D7459BF068354C,
F1C2B6029D3D799012E4E2DCBD5F95AAED94D3D1BBB76A6AFE96DF5A3CBE97F2F575A2D3281B5F3D9DD4BB239DB05DF6C724AE258A02F93148A9E4F29EB4C7B4E79CDA56B791EC3CABA1543356F5EE00D413A54DBAA37076A5120CE94BE6C4C694490F0569DB2A6E6D777FAA0DED9F0FD90CFEC9250C5D1A6B65F01C493583EE,
EF6E887343B6B2B15391D752C28F57B5E716A3623D6EEDDC7B4B490B05C991A4EE9CA91BD5D87B8BDC9BE92DF222954AD30F439A1A846E494BA7FFED56A6065D13DD6FC3164E7BE48A880CC226AB4D0E4593F3139ACF4E24978B35F669FDF29433664DCEB57A2FE539785181E2DECFF5E2B4E1B4D8BC61051EC8E625B67F8A5E,
E8CCBA54BDA26F4AC58D52CF63A537191D5DD6B02E108B75F3DC8C374DB98CF9CD6FB8A0EC0B611787E1989FDC14BD8A84D0A267F70BC911953A742D95FE1A58917E46A563421DE172601E01E76944F9A680CA2651B3CDAADE253E100448549B2CC097C7F59B373C278A0C3E84B9203B3F9C6732A4A30349156F778215FE6042,
4A863E41B3A38D079885BC660AD549CD5FB8CA2BDDEE554F496DCA2AE2B75E23DB83EB8257970DC06A7BAAFA168DFFF4FB686ABFEE943CAC57C5623A1FFFE0572AFF1880B9CC18471508C7AF9B6BAE3DBE3D39F0E7F801BCB638C81990AE45C21A394BAA557E1D586E3C2CB65BAE20777F429DEF193995B1F2243C6A8EBA2495,
DBA48519D9B409AFE3DD85987456E929A255889CC88D9881E48FC2EC238F1B670819659A7C4DBDA2D2878230ED477D771B11513A00B1F076FE23ACF24E282D1BC64C0BAB767819DA7F72FB8F4DA6548085FB26D3FC685BF393959192889612138D9937EC7AF7F88B88E723BCA3D00DB607350AC6F797AB2230642C704E9DC0DE,
82A892B6CEB9B601DC70E057F768D966C3B4C66426EDAFADCDAB8DDCD0986F5C38B901800EEC670D895075D520C1D89823F6497FD6DFA690B5D0D67C30BA55F8A45987168AF067EBB9D3827A4557B389153E2D1E1950C3E01F8BB33F8308C8FFC112012B4D6F4668BD4773376096A5EE7791599FC21209261111F0F73D08B041,
8CE689FEA6978D02871731A31A138297F5BEA5ED51514CA7B53BF6A6595A7A8FFFC16D44E2A866A3711247387E0F7266DD080AB75BDB8D52789A8CFDE3CC7319A54C33F2EB3246867E8F7290DF1097F664FC923CB4466A0D2E498CC1A234D0308CC1A14093833EDBA57BF380396F9F2BB839E167BC1F83A507EB7AD60C3D6310,
1F230B6161B1C2184D6A09083CDCFBAC1331C3F51959B2C074CE9D8AA66F526248560FF5AD44BCB85CEF01F630C4A45EC41012B72E9B4D92E9A9051E47A83A53FF8971B3D417EDEA2564B79E0CD02CC677BB1F749DDA9E67D8C559CB7F135EC99C321346BA8C597E5B77A599531940AAF81A9D97CF9083574A7C7C41595295EB,
278E02C5F1E4284C1337A8FA46323C2ADBE5F468972E0C24476217D9F40F19612240D75B25FC575E522E4459F7D45F6F06BC4448FBB94EFBCD3A08733E572986FCD03CEAD63966D5E1E58DE5B7C789DCCA2E7E27990FD94BEB0827F75D7E3CAB2D3F7EF26D1961FEB7FF8A53A9DA2434151BA4FAAB6D1A16193036318553734B,
E1E8386ECC90DDFFEDB5E152DF0D2009642E59879D3B2E7EFE997906A49C060FE65AD3A8F9824FE8CA698C02E9A32667A8DB6CFFD90CD39CF13DD888B3536D10E949B4543AF6385EBF994A18A2DBD3EA0B4A85E19182F2A8EA6556DFE14D60499B82043712163F9B8FCEEDEB72CDED9774CCB782AC019256899E58354FE5DC8B,
5A4380C4EE170F147033A9734F608F1D0B083866D5DBF708189C79B17E82861118EF0FD7729498A0DC1C8C666C1CD9288E2B74E20E8A46A7337240935AF4F327F5DE52AE8E798DE93C3CCE940B944C73165E596D875E3A9E249C58FC289ABBE7E5246D19CA52DDA7106B1F034B792C0D778DC8A2FAB6B9F15779337AB8251252,
9416F36D4BCF01C9F71EA9ACC931B1B434A9620D394CB9D820CA6A74EB9A37F01779C1EEBE501F27C3B54739B4F679CE7D99D146FB7CBDD2D43CF0474B2F7E0234E19E0DB04BACB40665B463407BF95877A07EF98F1A8D2897E527653D6DA2737DE1E615BC79359326EF20FEDA218556D0598F927C93ABB72C2DC6656D9E9C0E,
28C6571673575CCD4F993B82568473913941FBAE8F14B1CD1F1406516C58C1E4E9F479ABD308665A9719A6CF8EA7DFCC82E170BB8EB346176174EB5BA43B5B0E12D8B63861FCFAC596F6E5D346B5F4D5314E2D133EACBE0BE0C29F16502CC60344FBA1F8523BF28AB3C0871681668DD1F2A422917185F287C2B03BF21EEB3783,
02DEDD78F98A6231944C1FEEEC90BCD5F2314CEA1668760AF8428F159F4B5B4C745E611CB9F41E17AC63BE62105A734B585F05AC0E4A0217060D3A6E4720487C9475557EF4B3A375183D6DA070222BB52625B1940216DDB9B4AB952E38B3FEF2E0DC0CE43A1872D19B2582BC2D112233D7D72824238C69F1D050C9E4F739417B,
1CCF00A15C0BA9CC0A5C6222E2FC383A02C85CC7A0EE5ACF9D77850A9B084BE9E2DA48FF1012C29089C064D9466CCF057D554FA080C3DA345B61CC2C6137669184426B348BD77D30E31CEAF8C71D61FD186D62079298295B02AFE2754DF3F996F2D6B64ED252958B8C14D59E0D766991E3535E3561C29D23F99C44E2376CD785,
B41A4A3193098FE802F8FB13BE42316FBEF2DF0EDE670CF0F9C9972BECA1E4699EF9F7F19E7ACE2BF0CC123287AE55843B29F364E7026B418947C40B81F546FB1869C29E0F369E08BB4D216AE29138CEA5385E2D9943AF6DCEC880E25321D23B6D322F1174B5798A77AACEEE16049A1A85E81AB15357C0906FE30F89CDE6DA9E,
4F8FB51FC62CED3748EC61499356B87D34586DFF5741B2B7A36373E5A3C9B39DBD70E13E4F7B14B9EC0586A08002816D1331E1FE3D1FED46CE2E379289C439C0B1E386208FAEFA4EBF0D676C2797D19762E811B3DA2A4C385DA3A84603354B46D692A2F205A3F442BA5619610F3F3A83A4B34D3D99C0BFC6A5DB78892B161F81,
50E444431DFEBAF4DA6E2EF245086B0013CACB551186A9A85C9D1B7E5DBB26F3DF2B46D9358F0CDF530516C52B24E7FA5A694242CCBE7B01A9AD8C01AB9D6B15D1843B9B78F9DBE146E29DFCFF8885B5468612E34CE14E4D44B8F45E2A4197D64484718840477E5581546EC1C24A4344E1E52F695F8C676D216CD55273969AD4,
68A89655F3D2DF754D65753B7FF6FB00339BE578C033DDA417183D2F124CFE769EBA59F205388ECFB28CBB4BA49292413BE0E7840FCEB0AC7388C212DDF393AD32227EE67EFD473B266765ED81301720EE66E25F359D1CE72A04903B086CD7D8EC7E20051C65ECEB3560C80354665730607743C3B1C9078A99D2C4A265888CA1,
AFBB8266F3E03BA7EE017767A12BC46DB03CE33CCF149C4AC9BED4194B87FA44F5517536CD10E78FF1547EB3380B1EE36E8E4A1064ADE380D37FF4F28EF297A7CD51D34652AED038358E9F8B7CFB95C5E827F65A04F4D710F18914D0DD14F2E9772342C01D5B1680BFFCA944F4461C1FF27949A53AE2E9743417BF7A381985C5,
4D1433A39EEDFCC5580AD6CFCD6D52A1F98DBDEAE62B08CE68DCEA68F0486FC09127FA1940783A74DCC8D748FB3DF4C5F70B40BA9969943E65DD51CCB7E5C995C159147DDC3AA92596B775ADB0E50CBFBF8E2FA0742A2E96ECCF6FEDAA1161B77A400F6AEB2B8BA1D90EE62F46E55B9461263614A127B7ABF8823641B478FD1B,
EBAD78A62C8C95834C3065B6F34C8E69958A4029C729838C427772BB3F893EFDB3C4FFBD1C3A9FE56676121D144F1B3A67554EA3B25A84F944DBA2DAC25DF2F93ED8A01422E5626381728F9833F82B45D24F5A0FDD2F7950A5B656E868639A110B9EC2CBADA2AF2E9A0161815B93543CA0D7B02B139789DB08A52E45205D7B46,
4DB0EA7B213D7AD106F8B7D3FD2A8E188B0969C75308B02CE369E1C7BCEA0529A79311EC7E31630ADB267FE9F78F00AA6E8B142C399139922ED9CFE71865DFABB67C67394B399C1F1EC6F89FCEFDDFCB8433226419477750422923DFAC9CA6FCA2C052422965E5EE0275D4140137FF51306A27971261EEE27FC2AF51D477E62D,
74DD816BEDA24E3FA8D1E67863BAE80EBFF8FBA3ECE3A0BA6B6261464C486004920C9000D2DF8A5222B8EDFC756411599D237E98EB611FF53DC2CBB227B17CD239C362FEDA81680940D2DB7A63C9B16A1085A799105CC4FDE3FEE5AFAB60EA238BF50656AB88D7F2FFC6E6520056CB0AAA28B1F591B4DF40F6AC42E8D94BECAB,
863E9B051C7FB2D27F7C6B6E3A10AF96D69036D96A36F330CECD757CF260C26FD8221FAEAF598F69BDF8FE82C3F6A8C122A695A58546175460053E932F0215327E4AEC9F99C2D2352E8765975131C79A29C962FE1E4FCE756422E02399005EDAAE0F327EC203E94BA4DA8B78D5C085A24DFC764D80F25B335C6F2CA5A4144C7C,
C39B1CFDD6A9E8E87A15680B620392A30B2EDB66037CFAEFFF723FE168E293961BB1D87B8E7E219D25981AC1573EF0FB67BE029FFD02A5F99FB4E38F266ECE8DEAD30759E0528AB694EDBD8C34069AFD971FD97DF6AD14A930A0083323B49BF8544C14C6D256453ECF8FB1DC76CB4EE86EFE3C59144554ECF33693D75D4C14FE,
B7022AEEE1BFFF9B8E4E1AEB4C83D7F8B91118A0819A8559371A8675A160800F386010F0E4C6263261FD12BA17AF2205279D8AD7B193A4144AB5C825E15162A3DC57B1D39D32B590DBFF6760F86379096377C4D9905DE09F15842765500D53121BD1FAEE23E36772BE5CF364D53040A6EF7199C572F3CF21C890285F0613772E,
CDAAE618487B78E645A70A5F2E47F4994A5D749F9C78B01D8C9736602B6BA4F089E062ECF0BDBC9CC03C3AD727F47455474F0049BEF2EA584A315044BA3AAB015E5D483E845E8C342E5F9EEBBCD1A597D0B02AE796B5511640F152293765FFBE10A81742A4635BB9FBF5ADA57886F3AC57EF7295CA013155B1BDFF41D090412F,
402FB13649361E54777FA54DD08523B2FAF41B31A420BDD2F5084ADA61D7D5CF129143B401DFE96D5AE048DAE52CCA6689B837C956B5A998B1CFE2976D0B2FFED292C760770F38AB8C489F2CDD31A9E99093B6C8534CF34BABE2A62C519B51FC9B567CC739DB74ED8FD39C123F65393FF3D5AD39989B1414E6F80DE1819FB3F1,
C4C048CA54744B2C860073476825FD99B30C4C31F95943CB25B61C2925D0BA4D6C6E1BE4ED6ECFBEA1CD46E277BF2F98039ECB6E2F8202B9DB793B8B35182BE2308CA5351248ED4BD1B7FE4884C43FDE9E18343CB1B29EAA129BB6D2FC7BDB5DF8101D59702F30033A562455BC599961623C167FCCF996CE4D25DCD5991A4D29,
DDB318FE43738799DD9771615BB1BEFA9DBB9DF23533E6794E17E515848C0DBFD68680D4815E50F2E6E3D0B68679ECD0E1A67D9D97CBFE6BB99332F9852E403D3B76662F26B5CF1B8CB9EF898483F4020FE596557B581902A240929348DFA26971D67E98ECDDBFA53821B9BBCC127D7E9AB0AC3F84C20B0FDD869E4232CF8908,
4047CE09C9A7B1AD0ECEADC83CFBC627790784FC216095A2F2ACD2EB12D0AAE739DCA6353A4D960B7D8F15940D37E6EBE10E3FEDEF79F5A9C6F9A05C967E67150CFEAF1ECA49E40BD484F9398007DBD433A0E5DD829E719F09FBA62542CE0A22BFFB9AB3DC7054CD151D663D6670AAAE12A241EC8BE8AC19816932E4EA14BA97,
5328B79AC2CAA99256011B3B5FFA67B7C0063136045531FE7D735B14B7F9501C447936797F97A155D9173647D81C440C3970646AB9F27CD3C62842670045489038DE7D6258615992A7E0A7A96E4F677B2898D240C098B68D9B1ED1A470DB86418F190E2397EB8F555FDE8D833661CB488AEEFA0B2F1EADB8B5C1FE53BDFC4540,
8CA902EAAA05D5F5178E97B34919BAD2F3BDBEC2911CB56CEAA05234EAE1BAD1BCB2EDB65CE8C05163EAFB43A46E7493D654BDE3FCA29594DCBE9D2F2078E870CF02E9D15E52DC9C0B205F58C6C6F2525FCC1D8A1EBCE59EB5C0B5E37C957CAB6CC07C4324951878DF9619CD194D62DB140CD35C3AC2E25ED15BC6A556044FBE,
09ECDFB1C65929C8ADB39A2FA9CC337AC906925606F4B3E8C6129852A03148083021151E319379DEB70B9E42F61E0EB5AC461B4868B664C376C05DC7D19FF8615362D95D9409AEC945A0DC25615AB580C58F9A4CDE030F7E15F3831C334B2526C96891AB4904C381464ABD9D4E52BC05430CCA1C3A1BA4324306AE8124A74A94,
6555C26C5E9859F87DCC01E8BF51DCB05A305FC3143CD2F7B19AFB707CE0F5D22520F16B76998CCDD03F0BA2C9A203D01BF5EE186A37C8C8D61F7A4FB1BEC126514F22FC893025A2863DA50B1C5B510E7883D4E78E907C9ED507985BE111D4B15567BFDA3F1F3646462F71C350E4B216436061B5767AE1C284808AC900228D16,
6236EF3AD6582D55BBEABD8F5F0344D4AD06764B7A617634A33F4BFEA6715DDF350066627DD3DFD3C52681375C481A3464072723CB265131DC0086A45CAEFB7FDCB4BD8CD80AF667E314BCA35B565C00B4C6F887A9F4EE994FB9D37CA0E1BCF0B9FC3405F86287D34DC7550FB567F3F8C2D76165D54992514D31E5499499EB69,
7D921A3A28FF8FC4B65EDED00D1BEDC8312D5EDBCB8B3FCDD72FB6A8C0DB1ABD272DCBAA6BFFEAC4FF2CDD4123FCF450F22B104213D5079FB2C710651902C807A3F38C7C750D9752549A2B602EAA4E52301422F555C1CA5757083FA8D7C0AF543D80A4DB6C17DAC778AB8DBD941E0B2E5AB3BB9BB59BBBE6A0A34D846702800A,
FE30ED0E59E31CA5D5F0F6808BEDB4F80FF3F10EFB9F7F3F39EBD4F811643463213D33B8222C07278DAC95F93C450C89302F30A8FB0B046911736F02C65EA98E7BD35DDCE311195E7618F0403E8B653379FBB565F1BE93737B29D4604AB1C8340E76A39DE476A30754DB1BAAB1CA1B124B18582D418375F4101F25E6E03B18D6,
7B6513527EA1E0528713A722E3AD7C577F615AD32B7B6FAF8AEF503D0835DA4A430A32E77DFFE5E935A45E255179422496CF9DD6B6B643567384B18264AB2299E6E8E3E3694FFE7B17EDAACB39AFBC6AFECF3D97E0BDEE7DBDFA22746EB7B14F5144BE5E8AD3499DF72E148DEF01DF793CCAB1AC141836957580642BD74867C9,
785CB371EAA8CB0F1B0D04302902F35DF61D80A2941A30B45A332564164D3E676E69FC78140AE6797C461B764BE5D7151F4795F2B4896F1B7B27CAC45EBE753E71D205D20704C17D05DB36489ECF6F01BEBB922AB685E4313067EE5D7790666833BBED9490675142C670101E3A9CB1945C738C0AD19F4F8495197553C4B86F5C,
116FCFEF00DDDBC529EC0B51D9787BD2D14CAF024A20BCA10F1B1CAF162C9587F605982FC2491DBB96206BD33081255F426649CEDF04DED88BF2F9BC3DF068B0088B5C155156AB1EF39D83A0AD0B711377183698652F9E3CD8654CDCAAC846E1FAD50AD35BA79024DE0483E0CEDCCF68222E02637162F30AF9F3B6B91D2656D3,
50078AE9A6FF0E87C2C9EC6CF623D52815240903DEB41E8DB1D48042A654539F1672D52CE509FD4BA42D24F712420CC9E386D4433DC6736ED51C2E744E2CB7876F5F7AE7CEFC57CDC2306BFED32BCD5FFB8B3DD0266F316C9F0030CD66A092ABD216638C2469EFC7CF7767C96A0E15B1923E966BF7098308DAF3469D00FF1E39,
1BF662BFFCAF0CE70231C9EFF9BA6E7F154147AFBC42A7C5FF5ADA6FBF3C8BBECD47A3AA4368CC38F018E3905444A3BD8DB53279C99AD0D5298EBA60AC499813E47D4F0DC16F6F18C1699ACAA891B512E20EA339FA6A7D1C44E89EDFD193E7E15196917E3BFE61598BD958FDDEF158F96E54091A489F65B771EBC7B3251EDA44,
83DCE0636DAA62F3457323EED89AAD16D24E947061E40B0DF1D43505F38E113FA66C7DC27A341171C272D991581191C59576AFD0B45F2DF9B2CD0D91337D29344171240E2B39EA2DE6355E7990825F04EA95FEAF68C5AF95A0FE0D2DDCA7737E122EE196A7F333BADC934E31E90E3F5B8A8CEB1FC230DBEDEEAF118C547CC4BF,
BABF2697F9D34AE935B9294054221BE547D20EADB4757E2A365ACACA8D652E8579002619EA2CF007AC9B85B3A403F4B3A5087102CE4A7F8A9BC6E2FEC99B32D311F15DD46AB5C2FB4A80726C0B3C18FBF84E998CD4CFF560CD98FDF626E4FF98BE4F01EC25FFB419B0DB125A9138D12B7D2B4199BDD156C73D43474F24653C1C,
D0038961A14C4A3AA151A80A4177BC44EA07FD7F2BF6ED53AC843D4F0EB6E8B5FBB570B6046032D0EF1E11EFCBC811978F409F4DCE558DC29B4CE40774799767BDB6C2F1569B91E3FAB5F225380E3F7997AED2674265E0CE3270A1617A6C3A0C3BD6C1AEB0586D5D1724291C04E82A53B1D19D3C72FF38DFC2CA31345A1A4323,
CB2E6A5A943CE85A366CB4A08EBA86542AFB3105F9F7681A02550BC8AB8CDE4910E710680DF93A5CB12E109E382551499E34422A97625CA590588A69944D1A79742337843204F6BCC0A7F9C0498C326FDB2E1D9DD11F1A977DF916690ABFDAAEECC6C89EBBD065716BF07B40678559DF4BA7E44DF8443D197694B213D6678240,
D03680F4659CB4635023956EF6C8874710896B4AF290C8EE5488E49D347E7FF74BA6BE2FF398AB075772246C8E5156893889B5100E0F63F6DB55B39A2ADDFF98BCA73A29F91446A1536A8CF70CF390B853CEAAF1E5C557CB6655C09A7D42F6A399CA6C1B80193DEC8F0C2CDC390AD9DFFF63616D992C3DB35072139E6068FFB8,
44BDE9E1EC9669C32184519FAC2837A10E01B655C33395C32FA15A9D373E443EC573E077A73634FC60E53D2BC787867D19B32C50EC7E391EDBEED4704A343A57C96220E787020480821D682C6E24B64C2EB144AE6D8AEF0786EDDFDBD8AEF58E392AA8F51DD893FC434E6085562E3C4D4B285B1F15BCCE9D0A69E9D2F6AFBF0F,
4E56933962FB3DEFD4BDE52B0BC5D94C3E95D931E6B181EAB137654F9BE3943227B10E45B7BBB38D43A9CA594970200176160451B3BD894C2C25E48B5DF3C144D8046513100820BF2CABCA810DF27F1760B7DA84274A9BBE5834528C052F4434D8DFCFB45B8120F675AC8AE3F685206DF406935D9F27B8E86E0DA6ED447AA797,
F3D650DC3FED1210CB52ABB1A872264E1EB6C14C03165C6410AA1BF9362FCA629D11A1269F5777235A69503A7A49C2B3FD1C1EBD40DF18423BCDF266CD5FDA79C5A8343C21207F7443298AEF85152E49109FD4EBEE4A5F812D0AE0CC19A160C7BF681D8DB2DCC28247C11A4840EE93A6E847DADF514A670D7CCDC3C163A489F4,
04BE5A72F7987A76CA9C34EC8EDE935EB62B627BEBA571479FA6560975181A29DF7BA10FF188B6CBD215F4FB656920C5DC9A676ECA39B15F437951DF0803FD350F38AD3FAE4F638FE7CED52F6C02DFD1B1EF09CBC02B749033324D5B49A1E8E0335C5F44C1047BD8405EDD03AE5698A13C4FE14407A6BED8E00E615C6B5F3E4D,
BF554C2518660BD61A7411F7A463300F97C9637AEA1CBD5CDFE7E0B0639CCB0B94A10329946708892BD266377A35EFD75E511E530B82288E0C49CB4F2F32D46FEECAF12B681C9CC8DD37B58DADBEE8EC71122E70690A884F2BDED28B3E90A2ED343B743702530184D1853313E2B141B4DC0805C1E7BEB8D5C12098F52257CAD4,
314066439CA3F934F294A1D512F8427EABC4DD4040E86B9DC3F110752AD593FE7D7948584FA1DBBE7BBDCCA5BD55A209FAAF8AF9A849F6D4E93E5DD1AE771ABD23C9D85C7F2FFCE4ED518A82F38B0605224C055436EEB625A8271F2BC257A9E492696E5255327231241AB8E00C5B7E6362C6F02C57D622052D8DC165D9BA8A00,
A51D81CEFA1ED246654B061A697B45B20F9D0D4935CFCF21502A9BDAB7022E7900422A4E56E6623140DBF0E845E20F7E1C9A47F32BAEF8E24FE58E8A395DBF7ECA3F98D23EFDDCAC2EE9190712272633699E7095CB8B0BAA96D83E697DCD4A28F3AAC1B80BEAF4D795B1FA80B5679F4B8652A0BFD49A12EDAD096D4CBB41B787,
313438276E4AA6278EAFF83E3DE919B5A71E55FDCE531A470DD23B7EF590A6C6C4511A7E46239D0DEF6699FA7E60C1E8F927B8264C2BAAE02385DB32BEC8BA793B0EE59571235B05D88B0857ECD7B239E896DE8806B227D231DE7A588C4F5334041FDC8F8B85ABE0A47AF2B389CB667D922A9FA3F70D1920BD702E891A31B0A6,
6DD1F5B9C800D940073E6C2EFE629194CDA13D87B8656BE146C3B6B9F0BBA3F31AFCA4279C4C529D43A8A1C1058B2BD3616B7CAC59451073FF6C78DFEA9CCA2DE7230C23FC2BB9EB7CC7F921497690CA36EF9F3DDA0B6FEDC32102D4DCF53E162A1D54519DC9CB3BCA751D60EEB962D6C10C5E151B6BFC4E8BC33A1AA06146F3,
319868869366A16191A8EF05AAFCDDEAD993276964898C24C97527E9EB0474747458BCF3EBE9D50B9F0A92E912B1F4E172C7E146C7E87A75D8AD7CD3C96867D6973C82C8D332C6AA9B73A7A9A3EFA87DCFE9C487A9806B2D6CCB9EB146178A20FBAAF22E3969D3177D7A7953A13EC9EAC48F7D654C965F07222EAFBAF364F85A,
2260508BDE5AC2CB51AA62BC8DFFB50D05FB7B18F49BEE3F657CE6C73D2CBA70AFACCAA6BABC344F53B517C0E7A4ABCC5808726CD97D4D6FC4311A12948DCED42656217A3C02A85AD17591D281CDD1B57F945D265696835B6F6CC5EC6A044EE7CD30081C4EE4675DFB8BC2AA3EC12455E0AE59EFD9E0C93550BD90DB1A89378E,
6159B1F246AEC59FE62DD576B78690FF1484CD0C2E62BA324AE69E70C194CB8A1FCC252EA9C7BEC9DEF1DB6CA42D436A91207455C414B8240647313264F04BF9437D4FE396A9042A0560E2D2AC7E9B063D3D43DDD5D2E5A98157D2D35B4ED9C50B9BDE3ED761C6686805C671604C1842AE302D916A43AD8E243A0F0FFF901466,
1133E69BC24E414806FDA2778230D5B2C8CCCE3E5F13075BFAB2ADD6520B3177F7C5844B287963F631AE6742D617DF5AE9EA6C0664A20D4099CDD90DA529E515625A6D472A3B556BCB4CE7663032D965707FC56E82B1C2A9FD68CFF93A7AEE68BEDECBD8EC5F43D6BB69679121F5DB24F2CB13C376F200581926C14E49F6EE75,
C81AF99A7653F80D7F5672A47809EB89F63F5780A86E21E7295EC63578DF966A8B08A4392FB9BCB04519CBA37A5F70242DABD17E5C382223EDE8C2A6D5B10E618A052DA92B37D3EF405FF10A385C23A08769B2A765DA4FDAB73FB73F71B6E3038106A0176580782BA14410906196A3351ADB5B3C2947D0E5217C5546ACB3422C,
D1A960FFBFA7ADB8C4F6BFC57AFA75F97592DF755503F6C080C65C45213FD24858D51F3F6B6F2724F640E6272A39A01FAD9F652B4AF2245574602DC021AC41AD14F8916939E5A2EB34FD1D1E841B25EF3160D685D68EEBA1175F22CF4EB8B892D67B2E66AA0CCEE7C8E915FD22DC6FBF7823F29539ACD63E96F2CF0DFB2C9D35,
4864813F97B44003173CAF13103D0A29BA47A9A065C5224799CDDA5CC33439F674F6F18E70B733257FAFF52D44D6FC52B59AA042FFF56F90911928C8569EEDF82F56A69F61489E4DFFA3E32EC9B1AD3CB9AD0340746460E920FB10D442190E3BD712D23A00B95250D8D4096BB5740639F0496E5C6900A653B773C34DA80B2618,
811316FC3B90CE1CE98B5ECF61D5F2121209D237CCD9FDA440B96C9AB5F86DF0D1DBCC4428840B33554A58E2CE5F7C9B81D8653BD162953B3611583CC7497A867E3018DD93B6DEE1EFDA1E23DEDCAEB78168C31C2B2C1950656B855E8B0340B06BA3FBB4B61416E9CA682FDF8489AD1F67AA6451080B06FF54E586442092A048,
6955DC879130EA559D9715276A4558238CF1884040DBF14FC11848763AC2CC9838851C513C57535B3DEC2E723603EF732C9452992369C6B1D2D750CEB482A93DC14545AEEC24D37A953CAEEDB7DA0BDCE02516FC76018FC56D22D7392C9267CFD240A43716B9F622BE6B72C65499F2EE56997BA1F780957388C5B21714691733,
66246086ED9D20F4B2D69B1D7E9F64CF1B50BB56ADC2D4D44FEA23DE1B9C9B15077D92F851E0D6B7EF561686C110E5BCBEA2561308DEF3DFAFBB606F0D7F240393F5F4F0D5F1A3F22C354B805B67D6D09F33D5B02983B161587B0D5D0D4E19B58101753F94E78B3B8220E3BA34D7D69561C975C22C43CD4A5E56EB59EF6444F1,
37CDC59449A92E697E95AED251A32E5EA626AD1A3C1E2A8D7DFD7A82C3F17986776E63028896DBDD2F4B7BAA582E952409DE12812D33C7FE65C58F38E5636DF86EB65F956BB1BD73652909BB8963CD2C18514E9232ACB4FACF83ABF2BB7A8007FE4A42F82B042F2B6012F65900695CF9D428CFAE58A0ED2F97555C84F790A7B9,
8BFD7DE745257DE07651147489716578345FA37801271D4704605B1F575353337F4F165EFAB19E2925F3662C6B726B3B6005BD9D779DC208CBF405C682AC3EB520301DC38DE9A6328F4524C2ABBD2589982833847526A229D4E29000AB77A9281DD412DFC92F24C7554164B0E77CBBB46C28AF387AD20FBCDF192B7ED5713B11,
1164CE0B33A3390CE77830EEB3B83CA01573DAD0A2B6693E279DCFED313FEFFD0EFE0242A30F464110466CF4B727367D52B89393E0BD34D193EC181BC322C661CDF4114FA1A23AC6510A8FE14508B495A88428FFE1D3A07BE4F3BFA0E3CAA225AF9115904A55912D7DF3B5EDF2B500201415A522A7E29285E252CBCE4BD6218E,
07BCE9C14CF273752730F60EBF36EA87953B65BCA4B31AA5BEFB481C8D4D685D2A96D3B906F94FF3B89EDDC3020C7679411FBC3E7B2F31BD9974A2875ED10E3F0E5F97E2D7957B6174650F0C35D04BF5645EE1424547E90BF32877A2F595548DFA346B4A27AFA34F74986C756EFBB7E34E36636420C20782F567A828F3DE39C2,
B815E1A0782A296D5DACF420ED9F29928BA6FA22453741F9F2877CEB884146B92688F0EE7E9ECB8FAE3D63AB24DD9DD294E40F4FCB777F5165CBD15857C8F83D70E9EAEE0134A11BFF94A18BF517F8C9113F73E66BDD1BD9C0F06691773D6F9BE245AF2F5812AA88B1112C9329281DCFFCE9EEEF73F855660EF9452BCF3B491D,
4EC33BFD53C2C4BAAB8B5F12C5DEA724D9EC74F78F610343560427705152E1C826B2AF594E237D6CB5ABC9B4F8D4D181B8B4404122DBB450D5B70D4BE624D27486B543FD526E62C203C1AB96C93AE5796B209CAC00FF2EC70D6EF580218C507D51E565800754BEF0CDA6A9576F0BD6E25C2C6B900D97F1AC069E59CB835E35EB,
C343BDD2C4B0C599A2513BA5CCC95322D84B2DF5F8B3EC53CE40553AE6E67CAAC416847D93D3E68DB792196E7D6918270FAAB220BD9A3759E1A3DF8D7D3F812E05FC49B3038509026FC48953F416E7A202B8F2671E6FE488077AF6F53EFE2859B928FE5B757AD36B911BF5844C66645D094223891A00363A526B58535D86890A,
BBD6BD69C8C04026270A692047367EA4225D745A0CB9EC2B05FA6278D9CA0459E32E52E4531BACC64C6E8366D12F9C9AF7DF4F1932A0432AB7806A04B7EE735F1ADCB9D90D383B722E3FFDE3C9137CBFEF5A8C5BBD1D75DD01E158CBA7D3666B769C94B87B377682FC77963C32C7DB5031F8D45AB270AA84FA89610E1E65A284,
B549DF399855BE14075317BB19C20D179E434731EE3AAFE687C2BB72E1F46C2093548102F75622AD2F5886595F75330AE63DA59058D75353E331759330F105A2E5EBA5CC36794130E43808EEE6680C1359237F9F3BC8A3E5EA6207DA479961F9102384DB46A67E5756E154F730174DAFC1AD83CC7C1C9C3451E20941EDEEF2BE,
07EAE67B3146CE1D24BC7DE91ED26959152297F4A91E9B889A75CCC3BBE74C2EF35AE923CE87004B8A08EEC0E2B18FC95AD31F882D9410007E3BE862D3753BE8575B261467A90B1F3BB88320A157E38499B784A7AE655C30905A501162B2DF4589DD10A7DF8676C281E6993268BB13644DE61A1FA0E9888882A050CFFA424865,
CE39FC1047626E9DC45EE4E109A2C70841AA769788619F005BBFEC1304BAC301B65E54DB37CAB23688C7E30F74395546535115C5FA6F88CC1E5D693B1B5E64888EBD1D79F7390C6CBBB27C4791C85FCC88CE22F126D26B9B5BBB2F02C662C7F79E8715EC094DE57C93EAC403657051F0372531C56AC3C4A60878386462A0F9DC,
14249A147DBEC13EBC323CA85855F160DFE05C33404FF73D4D9993B58DE273F16AD409089D37F902900B0D6EBCDC51FC6F5D033E8367907D2D72F4B70AA35737DFABF5A5179BBBC391CCD07F1143EE1BA1F66083A1CB61196A6A491A074FB1C9BEB3B12C4A01CAD6AF0BFF1BC6F0A1FF803ADA8AD20571E4014D8AAF86D83953,
FBC3D2274E8D5D8DD8413C95DFA330CFE04E43326920583A57286ACC3EE0A0EA9770F95E357F0A679B88D9B26699DC2E185CEBC8E4CEDF417598B0419A938D55F50CA2E4221D4C5C99DE6F15365AD3203EBC3FC0F8A62558F4068C55B924B819F87A7873CED38950A8C6B796632C41F3EE050F8AE9F64BACE1AE485F9ED0B7EA,
27F51379953ED86AA1F327F8AAC42ECF9BBD18F84CFAA58629CA03CCC1BD41BE5D4382803C9E03D9FF4C1CAF73323FF1AEFD7BE97DE74CDB6781C6297A790E2504CA4203470A782735E5EE887D18CC9226DB9DD7B024E1A0AD19C70E2E6FD6000D534928F00ECEB292FD9871299D0D3DCF556EEFD8F2E1846BF6BA32EE1097FD,
E2C9230934155DADD4782901DEAA337B67FFE24A3B865E0458DFC282EF803D6D1429D306CE3DF062569E7B804A3A3C48230DFDEF92EE98116A81A177F7CAB4D173B51E60ACDC91EE090D6D21376308F26474C4495A6011716E4BA1A2C29A19217ABF0F9518F838A1A75E25F94776DDCF8F5C035B98290EE3525D6B1A813F8D40,
55D94AF4EA9A499E9EB334FED8301F844D6C24047CEBAF2110976369EDD4D8474A820A4CF46A94D6E8EEE3ECDD5AB7F667CE6A9D705436D426333492674B0882FD1B989D4005707BDDC55AF987D8E6D7C4EB61204C99687A6C9528623D30E47B5F3AB97C9D0A0C5AD4387EBD8F0B75CAEA4179016C23254DB020D75CC4F8EAC8,
174E518EB782019DC89B0EC6AE3F64C51E05BEF117A98E38D4C64FA483CCEAAC645888C5F84A1BDFAAA28E49E5B242AF542DA0A3F3BA37801C7F8638026F1B804A13924D64E4B431F4EC661553E80F9C9BE430367B73279674FF66D2B5A904635D0BAF7807471A97B29503EEF919CD33414C775925030E3CD293B87464137B05,
68CDE1434AF1D7E1DE16A95FAC9C5FFD6AFC38EF1B7757913F34E7D41F33EF7901A4C0EFC932DF2AA870D117F77934C493D162DBA7BEC3CD70417EAF8B9CF9CA14D237F9A4431B60DA75AB4D5C54026A55F7A19EF04240C255EB75406E11C7F63FF96FF7FD0BE105BFF57251399524645C418C5E956ED9A32B4E55477B051BDE,
02233426DA26A9388F291B9211EFC7BDB6C3E6F7FC4B2DAAB33D7C94F213901ED9409C62E51D0D4EDA9BF8493C13541F95869144389EE8E8E97B7369A9DA0950E726C4DAFE712396704548698348AD6B4785161D8CA71D935AB7C7C857ADB0F71F56CCEC90393605C03647882BAEA87A31601F6A849ED3B400FD594019AEAD4A,
D7CE6472CF0FD8037F9CC9795CFEE4B9CBB491067561907BEC063B2C5B51167B156E379E168ED12FB9DC4ABAC3CBAECF0978EB9D635F57202F2A0F5AE81ACA3A9B761ADECF00BEF162267E2C197E9B9C9901C3E2B6197CAB0C094E640C0CC86685D63F4517D206F71AFB12C9AE38DE39D8E9750F772B6CB1C5B5882BBD30D55C,
729890C40EF719FBC339B9F3CE178FCAF5C1FDF23E563E3F44365B0D9017E9439E672DD97F45E7ECBC0B13D394326AADE5D20F0216DAB29783A5AE987DC53F8DDAE4A7DB9A961EB9989CD9B934B032480E0B8358D66C582F87FF5DAA0AC9D1B3A93879BF308282B1329339F76D679026DE146CAD152068EAF3C16DDD8F1E60ED,
5CDBB2F4A7017E2119EFBDC64B3F72EB9C5B5FC986EA85F3B0A5B1788D4AD497175C8BF488CBB4321E169CBEE4E639C4662041600D65DF7350E68DB2BBAE9B593040A1C91F41949BF795BFE22981EE8F638A512C7013762D253CB8072CA65C92DF3F5370E3631116EA9B0DB832ABEB9F5C8D4A50061F7F7EE5704447C5794A78,
E04F3E6152DCDF01080CE9E4D766E1EF7AC7894553316AE98D021C3CA38A898CE0400DE98DFF3F4FD405B7BE62A9A083506B6E306C4B7F2B44A799FF5F334279D18D3FBC22DD83451187FEE26276D45E1DD6F4BDE3183E782BB231E8D4DDE3D00FBC30C70ABA4A6E486EB33AE9ACA094C4317F05FEF44D8883F1C91CC96DF557,
2C86949E2BC539A294938F02F17B543CE23527A9751B6EA1C280E0F293606A430667B72FF4540B4029D6EE6E4FB7B1B75750B71C7EC677901B8E87484B293580975CCF35DEF270FF1722B40659D6456FCFFD7799959058B4EBE34F23E49EF6BDCC59026C8ADDCFCF9A45605AB7EAF1705C326B665348CF8BA96B3A7792D22BBD,
45E9AD0412868967CE62AD8960536CC9E9D92A614B2805CAED1B6932F58D1E274539F701EB37B77E980CC729E86FC4FDEEA8A19E5E79025B2DCC85BA8478BFB187C728E337B6C15E7560BE534A4748FFB25FC061FBCFFC2C7F894E74CA342A6669964875229CAEB328EC8664C0CD478753B33F011AAEFA586AF28F1A9329B0AC,
191D0F71932CAE44C9B0EC480930A64C89BBA11DEADB05F2A753F3301E034740372B4DAC1ACCA0DFDAC59A97110002748684090598E832031781BBE9289225765AA3C5E033736A7650E3BD9F2724DF2A700253D5EBB689FF5154CD09B777A8B10C54D9F9FE250C85D8C48E312D9B357B8214D8B901D15DC4FD094593A8DD98F1,
E4C648338D336252F04B0E9DD0D22C9B9EB5B131F2CE02532AB3BC0D5FDB4A9D3B52E11CC16FBCD387FBE90D6BC03CDFA1D9495FD98A6529961E2FD2D3EF76D46B5E328332015755445343CD7F0B8592E0BFBA4C4B1B765D2574EAD13C7B6BD4B7B07D77A21982C61C635F0CC2D91186908BBDF07F0022EF5DB6FD2684F0649D,
0D20932E92A0EF664B3690D9BE2801A140311E071EF5ACEBF3C0D3382CA4CA03F76BA8AB75140E0E2223135FD781260084F63CB7F5226424B13B2F01882051B543702CF6FE738EA0E981A05F8CB7DE3D440C3E395D676C7604284252199163A4B49F2642B0BC3DAD6077EFF88E61ED7F69B567D13722BDC10CA25DC748884A1D,
D38FD575B36A08CE01E1E5258785007D3EE12C0927A1F25228A397EE5F66A25A161D282D89F552D4CF59A5183177BCA0670C0190F7A9E0ECA45C5563DE589E6E52AD9BFF001CA6E85431E520E55ED58F96D4ABFE8DB4520D805102F5EBA26B607017B00D5836885C090C43917C999A1095380F73F6CD09226D68F886A63AE107,
D353312035F66AF335D953B43E6CA2FBBD6011CE5B3E24DCE0A5865DF5226F7515D0562F2C21ACD0EDF86084787FECD5462018EB1625E7293845FD2235631B073EBDF07148E2B5F9F2BEA537F8D19698966A2312B0EF49D44212951599AD526CB93E89CEF43D5F61475C1621EE88AE00B7246CA780CB36589EEB6D2A612C8D4A,
4FEE2D9463E4F03183FF95EBEB508A863471BF5FA1F67CAD086D4B7DF3531B769FD7ADCDCC73A71CB16E7DA979810DEDE8E6251B96CE9B8A34AF90FACB5DE79CA25E37123B6B381D8ED23072F850F65DB5DBF0F93B79EFCEE5C38B7C87092EA8C49EAFE7E4BB2AD746BF208B657DED0AC55ADCCC122E1A0A0EA71F8735AE2EAB,
033A988F4A9FF9A38DFCF981DD1129F5AD32132F5A0CE7ACC65C57F6D32D888817272B4FF86C537B0BF97E8911E26DBE28AD6B0951B4243F9631E2D684F3E5298B861ADC9A78124035D24DA1B1E7014D1899C30F46CF7491758A10A13C7349381255FAD02A24E2FC787075D6426C8DA25ABD451110AAA0FE968505F1DAEC90FE,
864B6060AF296D1CCDFA699BF2912AE225E212B7B4F9198198F0AAE63060C259CF29FC98703137C3BA39AFB1F233D3AD6F18E25910FA97855EFFAC9C07707A61FAA6F65BCE8580604B4156C92A5D4C7BB4D8FA3BC5E08FE306E8B65EBAC170EF7EDC8E3DDB2B7EAF287A509EA6E2BB723B378D67D1A600D5F8299DB076CED3DA,
E9B9D6AFE83AF14BC125BFEC70E87BC471DAF25A87A290700563C7DE0233EE0ED69514FABC5DF8D63536002418BFB96F379875A3DFB67A6F122AE7EF38BD39BE80D917CE27F39F38AB008E49675F247DE85713BCE6D8FB64C8BC745DBFEE93AE8FBF7232A82AA6D5A44757C177B03D99E0794D16FAEE31217E1DBDFC983B76CE,
A73DD672B62791B0D6AD69AC7D8B93E2C7016450F0E9B10A17174D34FAA831B6F66238BBB9D717C8E9736012F833D683D64DECEA9F88C2C7851D198118F722F6295266AF1D49BF009BEB0D99F8EF120B55167931013B8BFFD5AA7483F2F24D2D9B53F9487A1A32FDFB0B685D70ED4FA3131B35D1AD12694E7EA0824273B79785,
94657B9DBA65CFFEB5A37DC7B5133D8B221B89A0570273C01182F4815471C52C01561105B06AB5620E1F93DC31855D2C8B9A22A1D05C7B16F4017E2E579A1EAD1B37B1A0945A882A7DE0C3F55EF530C559639DFA699A2D284A43531CE0E557C23015D1B6287934492DB40E1D6124857F8F747A1984E9D100436A8B630486A202,
FCE96F6BA37921C4D33CF59BFD85AD081B4A92411BDB5FEFD78B91D85B89930A13CB4E7E421409EA7058516E6627F91492D25A84DF3C1F5A01220E70478C1680A5F012A4B3CC572440ECB212793D7C79337A3112DB18B531CBAED7A75A2E8D64D3DE49D5F0413249F8CC5EE4AA23D04FF4479396E95FC2F61F23D9373A96295D,
C43441A47A5645CA28580310A4F90F57F71812AA57F7463E1436E7A3E90C4452AF2ED9B4E867A5A0F46DE82ECAA73434F247DD8220B7A27FB3AE4522A06298BBA7C7BBA6B870780409199A833ABF5FADFBD56DD53042025F336CCA53E0837D1C400E5139C01FB9C76F906A23A905492F8A0ECEAAB6E6C9BD5F1C5821C26D5080,
EA70073330F4F91B2F97C2A176AB861559806C41F49995B9CB0F75054A9EACBD2D2A0C096B8C846F04A66CC50891C334A31782A316CD6F2E521B910A46628F5BF71850D7BA5792CB5E8071FD7CC5C1EDEB09EF82F0FFCB7A9DF9FFFE46470F51D4C68976885BC53A620A45ECD08E1177841CE937782F1F92732E60C3B025418B,
E310C27533D6FF1E7656E131FFB35E1B1725E438B2DBA4E5D65DA08D6312AF2705CD743680E26C1FCD4F2D94F367D88D2CCEFB3BC26B4D523A11B9F2F73F77324093A809DC7E3D95A2992D260194E70E0E97B8A77DBE4D7C1647BD8876664025CF6F9FD1173CE61297A59A9340A372CBEAED9D61C7E07DD085891443FA1E4426,
CB9F524E60A85EAA7CC4F396AA1C43598FEC65D015AA42D946442ECEF54C8A8CAB0A6D30F0A07788E33D05AD3AF70C098CFFB66DF87FA5C5DCC9CA1FE36F7FA1B879DBA47F172B9F5028B5ECDB88BF9941136A328384BB6BCDCFD22C8015F1A156E8E22FED3B0C3B453C9809A87678D82DF9BB563966B0FD314137AA08383472,
AFA89E86469364F8A4B0F8AB6F1F775218CCB8D4F656F7F4E628F5986E151C8CAB8E68078E20A7853FE8724EAC2B90637908C4B2383F14256DE1EE1FA877345FA272CE272D655FBCA38B8D35C7E064E96572BACE5F60E42B6523BBAC0F58E307FB2DC8977605F542630D27B64FD51099D6C8CC702C379AFB2E6261BE1CF86C5C,
BCC2076F6240715E6AD8725A9FAE7D618195B0C50DA512352CD57D4AB23694F78A217893ABF81A71D80CCFE83655BF9EE43E11996B9630397569A54B85C69310C486FD975C4284190375409C766D782EBAC5BDA90DF4626947A49916756CF5840D3DC4FACC77A90520A0CB1E7AD1F4C47728A31408AA2B3062878BF3CCEF80D9,
BA1DDF739BB31C3FF778DB4D7F48C2D859E16FBEC6FBD8D6DEEEEA1E4769DB89BAA66D4F8E27BCCF6E79B9718657204E22B4F5799C15AD2B26BC831CEF76E1553724FC636E3AF6D83244F5A8C8BC038FE1A106745A390684A75B31D326103853CAA08E5A46CF509DDEB66FF6111CDA69FF187BBEE9FFA389E3C536A4D8AA77C0,
D84CC5D6B429F3AA3E5B128198E5318AB953DF08F1DEE190698079F2F4E045429EFC683F365A541415FEB8B4538A241C0DB266D5255006C805B0A316D62C1AA39AAA86A61E0865D9A07FC4827D02C82DD4272BB8BFCC6A4527634013430AF58E9BE5954359FFCC31CD1B8A5BE80983A012B7AB43F7CF2AB5E80FA544C811C734,
F94382E6FCCF811DDA9B3CEE42649B488E0552E5E866911C622941E34C1777F4972203B5B283972899DC4C38CA975BB531A21E5D601266BCD1A048F251EA6841B52B5B1F03120F014D79230DACD161721C222F5A2B8D5C05611DBECABB4B73D0D37E32B3C14ED16F1F373402C281BE48E36787934BB1D7B7B6ECD299E8FA989A,
C150B3AE2D575408BA754CBFE9A86BECA202A3D96F07CFFB1571DCF92C67D78A7EC9945531A84F8BFA8EC5B20E9665A835A8DCF18F73F20D8CC5EAA9FD568B4E1FE6286CB60610578B8A91F26FD6CFA15DC998C2F059FD4E24AAC8AC705156D259762C9365E6CE605552771D2432F4449026F5BD83168909150CDE2AA7E1B91E,
9D0F05059E58AA695B067567F00F8B1EC780499F980C8A48255440C8109CAC8F2E1254E02B57834C7152DC4509378AF1598D3A98F786A7C11BB71A82C2D506AAAB41EE88FF99282E631842AAA9064F89A79801C515F7A5D634474FF188314C5DC1710D42AA10165271FA85956F4DD2988D4607DF4A701DF351FB50DF63C27EE5,
7AF871C8F6500A576D25807E5AA8A955BA91329B4301A36C2CCA3AE3412C8C31429D1EAE11A6937C62A0D8748BEDE6687B332C8AFD53C4410655FDD242B2D0D583E685E3FE475EB4E044A81BACE244F992A196B29FA345D74E8A62671226E55DF55D15C6BBE904A4510695FB88A604E46D1CAAC65691284A0694EDD0B9D28F9C,
37D4AB3D95BA96BFDA028A75426F59D780B8576A86D363E2E2110CCAB8E67800B14EF6A5079992D7C9EA16EC6D80F0196D29C9F0EDCA4712DF559BCDF1FE09835E4540F4EB645DCECEA97604C47FC845873FCE83AFE9FE92A76CE1D422EEFBA56FA75F4AEC5D0498EE79B776119D3E0CDD3F1D81A00F4CA08D79A4C3A9FA2B24,
F4BB04FD78D51FB4F7E66CAA08E986F4D44CB0C5391B2FA040567FE20B074EA89E570F83174ECF98003FFBE3674AAE729CC8446AE9F6B1ABCD1F4D355B15EF7E70792661E11BD3089F0927FE41100237E1A0904EDE2E060B4206B909F8F21FD9E86BF742EE388A06CE2BBF447A56754AD5412F82EDEC5125D1902CDE9E9C420D,
74C9BA2106209B4B736A75B8DF4EBCFD7EC03A07ACA5E68FAE21B0149FAD6E9CE7D792D60799E21D49DAB598AB6EC4E17BC9A22E608D86C51A634B55D4E769C5E1635817F99F1E71FC4ADBD9CCB81F7DA8E546548AC6E2F09C294503C04BDD265910FFF4985F0939EC8F325657F9423CB9C1AF8EA064FA98634C8E12DAE5B445,
010DA065D065FD01B466EA2F1D3CA3335389CBC367A80E523080046549E21B8FB517BBAEF2E8159B98A8FB0D763FD074EC827B9DD25E8A43B50FD863DF66734BC6E8E6976DF29710F1F206B71D52F8CE9E19D4F189AFA4C547885FB74E382309E2BC55818A99330C80530F803BA6DC47DFE272A0AD4546195957733FC6F183B0,
EC93DCC268563D4456DFF60E144A034BF8D9D93E2C703640BF7AD9695B28D5C15BA7864ABCE9DCAEF920DE9CA07D0E69FB25B3AC9C7C5124C2F24D08212A97D02609703FC7C4496F2A6BAE91C1DA7F930D352965DBC5A50D901C10A8003B7E9323910FB4053EB403A5B0C9F474E6AC243BFC678CCDDD4898A1D1F177728D25AE,
F6DEFEC867EA5F0E22DB8588E0D5D97454EF679CE7BB7C652946AAEB1576FA6DAC09AC39C8F4413C07BA7454A649F063FCA7C50A3759627BF1A6A30C4D1E31C19DA0F25E5EF4631F4ADA66E7A783B854B99F6765CBAB2B970B50F142DA520A26E7D28852C47BF578F5056A5631D8503209DCBE5E8FB3B35C2D085C5AADD792AD,
2ADD85825D3B759156FA2093C9352BA637FE85FC6FA1DB9AE961519888E5BFBDC2757BF31D30E1E0C6012CBACC1BC22F4356A1C44F8EAB20B2161A6DC0581B39EA994F38467D97C5FD27315169DA22058F081DB83123C6E241E86633A31D26E3F1C8653C1651A82522F41F91992F82C408E9DE86EB67E79567890ABA30A5EAD3,
49E8BB374EB551FDF8196E366026DF0CB18F9B9B88948A925D90C0F11945C6F7B5821E7C62DA35AA45397BFF8CAD19F1E21B5B4804CCA6749E191BDDEFC83D82CB850203AEE3425D7288FA9B05BFA2B490605D78691321620DD7A2E6517A6D1A61A7DC9CF3F13979A3FBD3F7C369087DBFB16A3F0D6C3D0A874F58EC094C5FB0,
417E6F9E184C003389E4AF4107DDA9B7A77F661E747D422F302DCC21898FC9D3DCA923453F72090E32F8C476AE5BE647E130E67CB797CDB43E2276C7E5A84F65CCF5184F21237E628EAE5CF610283EDC50D57A399D919ECDD83E729FC52315D3319925A665B03946FAD4FEF2EEDFB06C971C92EB1A3B2866BE5FC53BE064CAB2,
E8E634E5A248F811D5A07F4B7182A05C51951808614ECD1BFF701A58BF2A2D60FF8D2D2F26322B7F372AEC33E375A4C35F6F6075E4AA607CE88B23194A9D96E00CC23152E2138AEEDC844F64129251B2F4430BFE9D43243FEFBB03471018D450578CFE2E642C6266013838BB1F903BB8DB1A6E5D4DB100B41DCA29314158769A,
BF8EE8CD8B208C60EC184160A91215ECE6817BDC93A135228551F342B8FDE8347B119BE354729D9FF7A23BD0F29D8AFEDB1F19DBDB7384B21B9A04266C37F3B3768C99344859E017F66D7AC75BC854E5F7D4B132C1E89AEE3F19E78E3F23F5354FC359C16EA04F1FE6A84790809FABE3C71796497386B9825DA8CA1F906509A0,
76CDF818CEB468292D154E7E16C046D301A3B1CAD9AD05B024E1771214AC7AA4138319433C09512D9E44CB3AFD1AF8F10FB8943A9CA6736BAC5B383A40865E0E44D8791F012519334E31E70EC7AF202F1008A3D30CFE73FF61F5E8F928848A9D10A46C24DD6AA4AC5EE33810F6008EAAA4EFDB79D7E2378121391EF74763AAD5,
55B9C217B24A051630383017A89FFBF62AC728C141FA764ECA8769B8B23EF6C2DA244F7B7C8792F8F40769E61B7CC4267E8AB20A18B63F47F2BC678B33BBC7E3C8424F5914E4BF02E9EE053615D2E994AA9FFD49436B8BE281FD7B8186435407F8E50864674EA0676B63344F4BB7DFC2AE1DF5557A908192C5859EA823AB8879,
0C910D989758F894305AA14F7040B4581EB26A06846CCB0084AC4986AD922F14647D0116E790F1954EE2A4CE02A5E1F761E6F1BAAC279E54001C85A4B5800E537A69432A241E6AF40B8234491DF63F306B4A3F3AB673E3B094DDF5B815178C6551788B6F3370DFFA98856D80AD2ACC0E9A38F855C742EE239D201B100B89F22A,
5A21EAE462429FFD23373C5CCF082030CBCC78351C6FC8CB4FF4C0A79AD223E042D900A15C3CD0957A73AAB09CFB79DF91C3FAB2674FE24FCD572E1E4797A27E99D17E5FEEE86B7652E455FDCA85B2E27559211B94C21B9D73683729739EBA202205EA015F5A81D5574A208D449B060E8981CFB893CAA5C30E253011F4CA776E,
7013B501DAE8BCEBF0E475D6E85B89D5F5FD025D54CDAC5AFBCE08014D560960F8837673444878DF7B0612A761E079A719D30B5DCF5A8A07D7985F4489245B30BA024D643F354D6C4B0E8E101080A60B4F6DA2D6D747E715BD180CC0E7C5B8C8DCC685BC1CA3BA3DCB01DF9287131F4E128AC4B57A567585C153118C4AA244E3,
A8A57A820CE960932E2AD6F428A039AAF19CBC9D00CBC4EE05DE2D5B7DF25F80C71DEE588243A3D360AE0C0E4DAF59A52A3AD6F7B4590EE2478A4A6BE6E60560D42086C7EB35950F3285914CB832E2C9394E134506D9E3C20FD9D98E5F551FDA9234B1A1092D0A1C885E1FBC221E743C18DA906821D420213BC7B24AB7E2AADC,
A68F05B892E1D4A3FB47439E7E7A0EECDB79E5CBF33999D5BC5419C8741AA13FF91C33C1608EF6E4495D3AC0E64B1D85156E801F357E6175DE0FE452F1622FC9ED500947C65074FDEAA8F858478C01AC47714028033D032A96C87301D5692110CF7EA72A3478A28383B8A18D6FC799256C6A5B730B8A0051D429EEE4E52D7949,
1653F381E5C8A61BE085D9EA8044B50A17D2D3F3418C1F353500870F86EDBFFF5ECF829CD660B621AE0C15F5580BC1B2EFAB585C76AEC6CF5CEDE526203E874FAC8EE0109A70A0EEE21EAB1AC53F7DCBB0C30E1EF5DE480FD28EDE59B0CA838A053C862D8FEAB1F8BBC6C632B891B79B0947FC693CC03AD9082A8A1111D6D874,
1FCED1C3F11E4D3633B463A9546EF6C0DB939F819A2AEFFF60BC8FAEC9228327F198DF1224D0899B3EC82B4F7148EFCE10F6044FFF0303A769D4698E31FDA1CF32D3F49058866669FD7097458A5EED0EDD556275D04559C4EFC03ECC810AB2EE1A057F18ECB78D06144C436DE248771777D142BAC685AD69693B39EAE77024F8,
73F11FC0D0FEBB94CAA81CD265C09AC0221E3EFCABEA05F685011FC668C40E110E9A281C1741B5DEA0769BD7AD7A78E0B3454DD63007F7FCC978F33EC8CAB556B23F7419442E8EEC94B18D3DE082293511D7ED3FFD8C0E3363CFA54D508C17C6164EAE8382C6C008347C953A7E84543D5749391D953A34A77329AE572C8CE00D,
62AE8A0F37D203B9A580BBB03C7B06E91C292EDF574781EE0D3BB4D58D0E2D1B557478AE140AF743DE3C4F9E685D6DF34EA36AC363DC899BE16D1D05DDD3CAA9634ACA85536717E3399D8B49B040E1FFB597C5EB627ADD4D4FB8B0F6A82CF8A41160A2C3F7C1B2F7F5B377A33C485FF6DD8380118F503B3B8195F2BA843B33F0,
EA1E800D0525962A9F2264D54056BA9512CE30E130736A002ECF10BC91E77B872EDA0020D4660D16812DB6066C7679FE01E7BB524C767B92D55C8D57AFB7EC89FF8B316AAAAEE8B713CE48748C5BDD4BB5A58936F7A48AF447D8B0CE18FF3530B2DD655D6256B2D85E4D24CAA4987A85FC73C3CB04F1BF60B7EB2DAEDB2668B3,
89A7F0307410E0DF29A3872FCB528BCB83540367AF10FE5E1968FA91D8C7C546F37ADEA7943BF636A954FFFEC35FB0DC628C1EA465A091FB4A447D6A75C33BE73DA6B3328FF6B2C159142CAC48065076DB0227B203760F8504B417D0F2BD2D84893B412E8B3C7E4AE2F05D7DCB7FA19784EF735D39A7D1278CE080838AE2B026,
74862722D1E813886AB0C641131DD1DF4CC336A34F1161A7D9E974D6F3C167BC9EA7F9E35F4E0E203122684324A9DA788815260E14864D11E9701A4F60E3F842DCC3611F08A9672A9EA5B54A9A266C93007F50CB457BF296232D89357F14E2FEF1965E9A6E83148AB91A105B4F7080B7707B5E2A198076B323EE766DB1B2E69E,
2DEBB666AAB1CC6A1D67039F02CDD2A0A2CF685EF8EE035D30E490E9A142A09A12D3021ED7BF38F1D64C5133A6312138EFB058922506E129566BB602DFB2F0ACCE958DF348906F9DAC397F34BDBF912A150953D19E3E44EB58BE60E0756F6B5DEDFBAE535311962ADD9044DBAE6A78E18F7A5FA8A879DB88B377234297709089,
7A34B37D09E3FD860B7234A4C041211EB2C060F3F6A0C003DF955F4FA683A80AF0C3D45012FA31DDD1B9F8505DC77422B458620488863082DB476EA24182DBCECD67B424044B6B62289A16234DF2FA27F52B273178089F4A2A0223D246DF5993B2F3B74A9CE18E9C277F6051B3DAE5DF2CE3A984479D1F597D39D8B2F5A3409D,
95018BE40F6338CC185747D16DE09E1B2DB261E9F897F9B013D97CB80824639D1DED11DC423FA36391FF27278389EA9F8D3ACC538570BEEF9D54BCB5AF5B494CC2D88BEEAB2E053C3EDE76E0A66E62B9D9FF0260086AAA18F00A72A9604C97C0EAAC9A4CB06F122B63EB3BB5FFC37B590161FFD40574C4FA4A8A812E0C53653A,
71C6AB989A80CA967002C67B6610719F8673731C4F5ECF2ED923016E2AB1A54A921E08D887763EE7FF4D1CE2E370CCFBF7D86E565D02E29D573D4EC2C8BFBBB4E0219BAAC639972BDAED4B8E7AA79E46FF5D46837A7EB754418CEFE47F2ABED068082C11F73B1D2E523C80C86552ED72E69606F8AB2FE173D8CE193EEE5F535E,
0845BDFD561A48783AEFE327BC0C425EBD623782F0E581BB98C999F65DFC87E95392D32D52D3B9B34447919D682E78D06949B8B5B895821480ACA7A4FE43E2CEDBD2FCA6CDA9C64AAD9A87139B0DEC26B4F14D05796C6CDB296FD56AB611A2A1DD294323C71C132C48D2868B25843D042A012F59728D48F2588E9E8F230E6340,
D8493BD78B33FBEE99D99415DD1C1231C84FE63CB7117434DD4DA2D93B5D31A616FCAC523862DFD0C6A9F458CDA4928EF87B6756B9E2F573AB2828B63D278280B932CD81825E4CBD954AEE960797FE989905E2BCEAD4B341DEF051198CE02666F7B7436F5D8429E00D4475DD5548EAD8E0EE55255DFFF38DF35A47ABBCBDD5CC,
A3EFE0018FF0F38F33D1FE5E780303EE4F06A51F9C17DA67CE9D5F26D54347BF8AC71C7F6E2D598C54ABCF6A6F214CDA286D7B5F4285674B113E821C1C625D874CC990C34084573DEE10FD3EECD950E0C973384136DBB2C86C2992DC205EBC180CD0D6D125B3C21979D40782D279E7BFFAE822612E56A1AB0063BCC8DA74DE2A,
B43CFCB7E6F1E3D0CBD15B13D0431EC635FB687F85A0610C26B673017F8D9F3242CF41C23A147F49665E489157F4A8A85BBFAE5A5EBDFA75A4C81FFFB227375B5CE2747455AAB175492EB1287F45DB20B1246A389FFEAD063C1C37DCEE078936EC99DF5E84FD377DA3893062B1909EE734A0E19D5EC10E65DE222A1E1FDB06C9,
8FDCDC2371142703A5C18824779AB18437FCF2D1A5F89C20F0F2A42DDFA348A20FFB4AA8742FFA9627F1380A6D0539D7F0B0507A6C97CC5591D6FA8002AD40731392BE551B4CF198E3DDE2E164AC3241F929DC99C4AD03A179D96CC8F9C033A94950990F2B577163DF83EBE01A550613A79A4552A4E34F24F129AA53CB58CC25,
AB17883A6751EE7F95FBF4965CBAE4AABE1DA7BABA1946D5C6614D178AD8387DA1A5A4E956F5CD182E3AD51516C9F95A7A01E2FB8C6E4940CC82085EE1BC7E91AFDB45DC3B57626552B6C393C0E9731804D0DCC6E73AEF284A06FBCE151A33F730E7E89A1E40F2881E67C493AB578A75C1A7E6B7BA70A4E785D2F40617A46B21,
D005A6B797B9402B2C11D8EFF1AD24213953CFC0E3B93854F3BB75A2D78A678AE20BB5720368427EB5A6CA0638621F4860688CF63DCBCDF7E8EDD3AB4041EBFC7D884798DB16EA59077B9BC8CEF865327F917462B907BDF7D737A1D04E00A6B105BE93E83CB29F5F409075BD74E9CCF9CDCD8382DDCB0F47E469D57269E6BE41,
990CEB7D93976F593B56A43FDFC5ED22EC6B20C24A546BD9806BF218E4FA7A3DAB15BA898590C41D2EFE63C894FFDF73FA79C468CB2562B4742494F27182DFEA8EE10B2E8F28DE2593E88C47D91803A7D656FD01F447FCC7310C33336C0697872DB12F9FD24173207DF01CDFB0847FD16F65D7E44C2DDB7B56D80A73286258AD,
A7593A09F99D0C50DDC4FD7179D6BA7D7A8223065AADCAFE2D47731F70866B5562A89BFF4BDB123B556F3BC3CEF8599F64D6666C5BFC5AB21B25C963EA1BFC7F3D31B36B39A5757F3C4249300175D69316FF2EAB724B401FE0E09832011E9BF4A567D5B2616F8D7BFA7D761324FE33DE7DCDD5A5821B336675BB77A1B7540ABC,
2A4AA496B2A6E691126F5F65A73882E2B82846F1A39E3B88A34AFB0F067580B7BBA09F7CCAC3269B65019631CF97CE76F1346C207185F1165E8BB673A34CF156AEDAD3DF5E6B0A3E1425716ED83EAD2539C24C6B4B5833D3434B0CBA20F5783A43F2EC581F88C506253526DDCE34B0314133591814632052AEA3C277BB115E96,
1A3311709B8F5224BC6FD472E125C6044FA5C03DB9D12750AFD4C076C14B37AB6524DCEF00885CD00EBFF992ABA1A0F1F90118CD89513C967C2F894F208E88A00E3B8D8C0C92030BD401CD5A1ADBFBD332A40AC249491B13DF7946C0C476F5CE017696CAF883035D709F87D59F5C74D85E02975F9ECABB4633F69C1EFFF9B1F4,
AC17FB300C86691D36A4008AF6134A0E3621F8EDC913C40CDF58CCDDE8E2E49F1D680A455CD4AF8C6905CED6D43B13573BEE96DC9E375D894015108D1181CBA9FA75A5D4E6F2977CE3BBBD93B1F7A9EB8AAD2F7D7266A4F38F9458D08D93AFEBC522ADB5F710B458D4A1D8E2C8A345F429EE246926EBED34621087E4A49034D3,
FDF40B15E269E8BC4BAB897F577FD1641BD85874334F028EFE14CA2C56CD97AFF41D0F24EAC5365BC4C7A1A28C4F099AA3C6C2F954B52CC1C98BB191856CEEA528E15DF706D1C4152E564742B91D1E87D132C50B267E82A972E458CDFCE5DB1800A4A3B6BB5AF064409493DA5383DC2F41565355FC356D3DF697C0B84BBBC664,
74A6AE0DE5454004D8CCB3C02BD6F0F0F260CF3F5318DB9953D82D0B93CC8AB07F77EE965E07AD6737D718C04AABD1238051F140B0D9379177F4AAE3D7C3272399C724D3C88531BB1C4977844269FF5F8E0C94B8BA26F774E2937F5BCFC65A34C1439EC970F5F4FAB08670CC2CB3D4CB3A35F17666A532E438C1F5F99CBC2546,
93136C115F72D0A1BD20F9AEE0A56E510CD286C36A388D1E6E2D96F2DF9821835EA5206E8E5BF35C32D475406CEBA088FBD9DE8EDC9F2CE83A69B281E7CF65C9510B41DEC0B4DFF178C02841E9888B8FE2193EC4722CC90CA67FC93B7C672A7AA34F7F6C0742F0E49454E93A9FC57EB3968A276093C26A906306414D091C7280,
00082D181D0A26560EAB0232B391788DA70D488B61A9F8D1EFB0742511A621269079D68A67B3483E93A47626673E3C226D91834D7E1BCD7371193F3EAA2AADB1DDA30F42C91DAB6A49041A84A068963545CA1AED0DC70A0EBF7292AEAAAC9CDB512C15FEEA5C84E0C09C0D1839847E3A92804366DD91CCD30268F27342D0FE70,
891F8326083FE51142DFE2D70B8855C14968ABEAFBA04951895B194DCE6DF020C41977052D62E921A2B161023A3948D657287DA2F03729B08D834CB48E20E0487C340485F3B9E7F2706955BA37AC7D4595ED89C7E5E5BDB48825BB78FAC6BA3BF844749627D4B29276898253FB9C1492DDADB5A3C30E334D07D9CD5AAA5AD9C5,
89FFB4D732E1BF11A96AFFD14A10A79987C54BDFA1A25B925D02A58907F713F952A636926586F7524FC81D4E04DC8FB684B752CFFAA107DBD5FC00742438F960793EE0980F8EE5416885A552D5A5F896E681C23355B4AF940ACB942D7E0942075E7D56956D1EE2293E77BB66C7D579033B777E21A6FD99BD99218BD3A90CB2E2,
FBCF2ADD8FC38564C11AE3884A888B47BDDF2B89AFA3B093AF4D498B6617A55B1786E347A4BAFBBE86D612F72451554F35E15109B53C11D76A2891F21EFA58D65D3248EA6984D14C94FECE9645A1DBE67CE1234B5158E511EBACF13632EDF34E7578152333C4AEB99845946E4FCECD70E3D7BFD84CCE3971915F1A32F9D2B022,
44A44C82E0DF5A47FA1EBCD01AF6086706F077B53AC1E82C0946678D676C500FA28CE8C6002332B70007ED7007987FEC73AAE1AE9ABBA3E9C7097D8FA86E84A306E74464EA8DF9B76C1345C8FBFADE3F719261E00C31BD7C6605C898FF0E4676C2F56E841F4C7B6709CD973AC4E8A51B8D91611AD826362E36F2961DF8347F4C,
E0750F39B6D285B75358BDBA50143200CED4ED28018316A7D15C0F40CE9E70ADBDCB92B1757988F3213EC4ADA6A1EE0BC2AE07C8F0D5495DAC10003C30293F6F618135AAE7CDE980828B28BE9BB2061462B8772E6711228088FFC2628B62DF99C94430C7E566B4D65F6A845A1B0960C272220EB91ACA6A0134433C016C131871,
AF630F0D81A98C1AA241621FDA52E97EAAC88FE330A33ACCADF1B51CD0E6EAB93D9457896D2473785BF9B88A40001EF7755F44CB59AA94F9EC2BDA26F28F25CB97834FE8EE1CF6B623926B5902510A4E0AE2A15B09B62F0E0BEDEA474CF5E7CE2275EE2EF66950DA6A42CF580A6E1B56500534DA208653C01A69E3E32C458C7D,
D4E55823744A2446D4759B5DF1EAE312A5FE6376F5003DE8F71FDA76D07B9E36624B6F7B9BA7D2116FAE566BAB87972C756F5147905808470DEE0CFA2551FB393EB36E2D15D871C08D48CE55D66B1CD659801CA0099A4D74EC31D1D5F21BE2D9334D594ED43E086D095181A1708BE555A159E534C7E4C52D5B1933BE3A0C7E1A,
73EF874DF42F5FD1F2AB646ECC1B5353093FF281897DB25188245B543D9FDB420D71BF9E27FD0F95AFE9A638F3FED9EE2CD7E2F0E7E15860E0637526353719D34B0BC5D43C2337EC168BA99E02F39FCD323745BD7560E7283062308F9FBC2FC71A05FE1EEB8FDC79DD035BF2A370FEFD57EB7589F1AEDD363A2E5F63262A227C,
39DEFF93C1E06609207FCDADB92FB28871A356F7275FE7B55124066EFE284826D8DDC3954EF5DD91D4280CEE6154BAC8421D80D9FD517B4ED73991D4B4744B5955536DE28B7BD666659421BB4A18437BA2D013C2FCCCB7B7817B3C3D4A65D3F51F52E50267CF56DD3304FA8671F87BC0BE73FC36DE37682AA465F891BDC86233,
0536B7F404756E4BF18FF114161E3637959B8172DD5D6A548C09CC6F22DD94D05AE6D6DCDDCB26B2E7CC5296F753CC808FE188670E0145BCFA9C3B8E95D8F7F1BA39FC097FC70452F8200A1C49712210140B6A049983B6DD5CD03467CC842DF5F03853D5D219D74A4CB93CA3ACA4E43CC959E02B0CD0F7FE7B9AA1DA8EAECF4D,
A8811104346EDAA50E09329F36326313847CCAC61B81A309DCC1C504B1AD222AECE437B90350A53A029353FF331749EF0984C157AEAACB72D32455E2F6C1DDFD228E78F8A8AE0377A4965F11865A7609CFE311638D775894020A5F14C774857A9154B721FB26E1E17D8A1F5E3D1D10E24C7C2BC402B2274DFC5B012254D077B0,
2BFE321F8611B4CFB45A0ADA3EDCE9D0A880E5AAED56E03444EAC536AFF63E2389FCED6CA81F887098CEE74D4E22D592FFC54C5104CDCCCCE8954A15777992FE5581DCB54D99E61FB248CE269C4A1771BD65A4CD1F5C15812E1ED67F130020B2FD9C8FD0F8E94E647AF50B2B97207302B7A52C07A458BC28A495879D90813D23,
48F35FEB4587E1E3A43A52CF2D2CC92E097D5219C56CC9FAA470F1CD8F6AEDBB1DA0616B4DC57CE1766BCD9B1120AA9F3730425FDBC042D5686353DCF8E6F46D0879BC0DBA3A2C3514EAB4D529E8FF96043FF208E320637C01203B43E0CDF8FC402BC95A280DC2FEBEEE1CAA5C41B0A71C1ABE409EA5582853F4B86086982501,
191BA6C7D081BD0335EB5758BE0D5BF73967F345B636F8350EDDBC21D94E5BDE6161AD9DFE41A46DAF5E55DD4CB4E50F48E4AB6C48DA10C5E30FBFBDAB9A75BEF7E3CF675F85E92559C1934FA99492650332C25743A5C02A2A366975C8069C572C020E2B3E0303FE0EFE859C0C8CF075ECDFE93FBD1FB2FC3FE43EC84743F271,
720D7AC03120AF5C7AD8FE9CC0F8C2DE7A0CA70E8FDAE99719F50F5932D2C03A212C98066A30C0F4D2FF1E7F9378B09CD61600FCC122328CA52D136C1A254E0674F46F9A1C4290C4E78A034959F6B0F0B8C0A0612461F146CDADAE4EA348DB82258D2CD101D1097DE07E23E00E96377C93766E0E956EF9069E3C189C8C9147A0,
AC7916ADA46C11FF73FB239BC95479857564B3974353295D4950C05A71F6FF7D3D2847A824381CFDA62259A049781DA012D52DEDBEDDF3DB1C5F4E1A968D088B2EB86E5244C072B2EE67A50413B1F7DDDA4166116F337E0F58B5997C16740C46E11B9D37CF2B638E9F9A61DD868EBE2FC3634DBDEBCCE9BB7301B99CD5FA4A69,
3C067E52A7D9A728DD3C8944892C68CFCD8636D90607551521CED090651A1FC215FE53FF979EFA9DB2A20183AD9740158A1F68A94B219933A9035D8D9D630A0BB9716E72341E024E428193B077F2F3DF27C6665E3C710BACE95FA606775A4B2AE3653F2EB30952103422CC4DC8A729E41485B3A836F9E4E4406DB6F0AE355F52,
A484EE854932B206E04D1D9A3A5105343731B45A6515B4EEE5C9DD5849040D5F41F8D82CC4A6889D45D7DAD2B3E60C47A6B92E9D5FBD7CC0E9D04939ACB56772C58D57A20C9E50FC24BB1FCD82647380D5017D5B2380DB54D977876D4F6B1F063FAE21347FF9AE930C2E198A4F449F81EFFF7BA28E2DAC0F85AB1F197E5B1B5B,
787142526A703DCECA98E9CE55167D5F562C67AF5E33AB5E0F75DCA5547C904023E38731208AD314EC98D45B4D01927F309094D171622B661A87C962E2039E2B08090E8022004106CCCEE03C3F0ED08E795ADB17BDDAD1F80AAB981317ABD3AD4A9AF279298B87EE08366CFF6EC0ABA8B82B6E8B22024C6A0DF9BEB40B03EF88,
CDCB15DD43096EED8C80715E7E6F8A65F2EECEB023443FE8998AE644125977D2F0DEFF14CC567EBDC568A8A744E029787256DD73B570DDDDFBB281D04430294806271B0284C1AB332F3BDD9892AA8E01A522552D0C6324E1BBA720A0C0918AA8BD1E4B28057F4E78D6818A0C1A20FF82A90593D45F69CB0DC592930AE91B1DCD,
D5D1CC005CD835F0B507D705BA5259C1134502BDA1E614E4F5D48784CFCE2C8AFD39A432CCEAA3A481BD21FA48CEC706E362A0E24462725E76AD0C145539B55A12FECA50EF7E9D3B0D613882A8F9D39C0D7163419A16248F0780C4AA695A57F143D5F9305D67C3C23728EB381A8D191FBE4D32C7F633DEB3C3BD8F8EA7C7914E,
45C0BA61B4B7F9051EE5D059524C2AF9EF77BF4141F3BA47D2493D14A17D34E6913A60D6BB67827D92FD57624DFF17F61FF41FAFFF2FCEC88CCE40559FCEE5BB8B22378CA7FB32FB4C14C470F8679280E1FC690BA3A8C1C5C07BC1FCCC6E760F851A2ACD118D23F2AF429C69355C341B5B5DCCEB89297135D3CFCF8E6783D5A7,
E6B175D602BC1EC7863A353636774C7214227C417E8595872F828108FFD3335A7DA307AF1C434464FB5A27A93E0D70148A5AEAA2FF0C0E78A02DEC01B1AFBA2796D41C66792B8BEF72EAF269CD7C2D225D0047FD45EDAEAC6DFF632E3763B5D6C35340D82C15DEAB6F422DBD52154DAF7FD7D501224E6CAC9C8EE56433480179,
9F6C04918C74AD225DB85A6424D1B5A8D3DD522EE1E31F7DB260B227BFCB7A6066E7D61FA0D2A8485329967CAE1DA0ED3892F06FF8B84092A7F01A23D7285D11226F91CF4578ADD44BEAB79B8FF25790A93047CFD04A7AAD6FE62069115C76F350EBC1948F9D92BC3CAACC54992094B2C0FF2E748A0BD27034F45ADD09825600,
DF4CC047F32A96414EE4EC40D080413B89BA54A6FA1CEF3CEB81F0086EBC8C291D4474F5D7E4C35C37CED22FFFBFE427C2E70ECC338A27AC33EE8E42F973E425201328622B740F4B208E66EE73D7A13CE8423539D026B0976C16E4A7D30F79A6E58438A03873B89D53A7FC83071878059B2811FFE91073762ACC60C0B6E7ADC6,
F04278EBAE0C30C884594C6F08C48B245141D9EDCEAF6ED5EBD85EA6CC7B3656B73A78C3441195A352620DCF371BB1619AEB16224F069B7C86B8488EDD776993B226B0DC9AE9BE05BF86D3220183DF436220A4ACC7944D260DF9EF12902A21ED25CEEC5AC9F2DCAAF11246C9CD249938C44B592ABF351965CEEB497820911E6C,
4DBAA66D1262E60C5C89E18ABECDC0CE75B9AFFBA1D0395C354524A9055BFB7A60C9005CEC88A5CCC2EF513D503C19029679EAFC76873C7413C83CCDD6E400EB0BFFA644CF7407B7FCC61EBB65435A7FF395B592E91475DBB16EA97CDCD84951D3D3F0DAD61B255455F6D1AFF8B42F9D81542B6FDF49015A98D3432FED1025C2,
B1172E5FCADD2D745114D1D09390FEA6F1F65807E802A955D985CBCA359A5A7DEECD14D04CEE8C9787E73562FCBC824D1AEE39FEED04BAC766BAA358F8B9D20D667B4990E0B835F0A6870B9307EF3D129C7BC52CBDEE53FC0CA7567CAB6D976C5DBCD74BA892BC7D1AFC106F043857E5CF2E08E3E1E024995488BEAEDF378A34,
4E0BDFBCC5DC9F3188F61F0E5140EBF97DC76043CAA7D5CB13B89533454B6594BFC833AE429E273EDECA366B5D4E98C84D6453742EC60D07109C1C5E09D64D08721D247F80A0835F0121DA9B8ED027AF5B1743CA242DC0784151C7A3AC66CD351A5795BD2C2FEB6E0E5D175D29970737401FDE745FF0A28E7C8B5E5450249858,
4890547C0876622A338AE96EF122AD1069B5D171B46E20D722D2E487735E90B77DF746E04D9E2CF9EE35A59CFA71A575752C9CCC3633E67C1DB6B69DEE8793A5A0155E10C7CC697FC22DA6F482BAF1AE81CDD93CB4117CA6531A31FD0080206DC7B7E5ABBC4F461D52D551A12120C9F6688220E5C29A3F430D15F2D808FA65F2,
139A940A602A1C3B7DB5BC372E3E66A216CFEF07AA119BB5C5C7A9F9567E7F149D4489D4300F5CB5F0F8AC5CC971B4B2C1E36527A5C8CCE762DB0A48A6ED8F88463F86AE356898CB01551D70C3CA6C78BA5D580515266F22065B8149BF43FAC60762F30768130ED3037DAFF741D527F40EE965CA761BF4B58E389C632AD8964E,
DB07447B379AA57122D5D4D543B957ED1032717CC6351DE88D3DE6E35CAC23BC251A768FF376C78B9543D38148E999BE782E14B3ECB931CC30DC97D05D6535EA083AEC6340822D6A6A74F08E71BD579CA283A4C230DE099971F9339A83469D4ACDB69A85D9C5E997AC2C4638F84DE16D7592856A54AC30892DD09F0A7D0E1E1C,
E5F3859BC1D53FC899FD5909EF3F37A86373F8F5FAA07BB14EC92B06801D4069D978239B3B42B0DE84574520F6604A20EB70EC55289D1840A1C786CCD6E37239AC80088ADAB1EE76F71B94FB285442D279B503BE8A13C688A0D49C12DA21F27C86D83F22312D4E03725D844B2471456CB82B85684166BB48E75C9182F92B974D,
98B3B3F7FD01C1162DE2D7AEAF4C851681BDF83D547D64B0BCE592C97432AED33E802FE9DAECF05935FED414EC47A19CB0A24C1691F9648C488187FCA9245C43DB00EB257F573830AAEF4E36C84A911CA9D9AF45033A81CC238C1C5079225FEF7AC9DBE21FB5CC88EB19060ACC91B5716C1765B7CB50865C1A85F9B5E2461D21,
27763D305395C105113ADF1509E1D74CA2C1AB19295D8CB8B9BD26B02E746ECEFCDA70B546FDC69FE0B41D80E739F987FF03812CEF4585EEAA53DC812DA1027160E3D9D195256915DFEF4989901255E9AA7302F02BA95B4F39A3434E8B8E641CF2FA73963D6D6A1833AE607782479DBEAA03BD59CCAB609C42CDAFA58884B6CB,
D45454EC51BF4ACB9942B5BD55E49C785769EA6FACE7C45CA8EC4A17C7B638E1E6BBAFF187B471013AB4086EABD372B016E14F17F594018256F8579C2193CDA2E005DB14D4421FA319DC030DB440159CF80549DE95AECC96B1EC4B0B69268484DC27098679BB17F508269920A452C368B79C10D3FE0A9309BFA672A00B570E2C,
7CD9C5ABE8E1AD1FB41B09BB76E0835A2E078F6D144403741242E0463C73230E0CF8723A9911677707CB4DF6462156C5CE09EFFFD692E85AC3F6DD6B6A273FA7F9C153055A848BB0D9DAB60D0DD6384C1D7F1E56D627E2DB24850E354E8AE5BFA123591E9B24D2147F53A41EE3D99A108F5E5A8A1ABFC5A566A84079BE0DFBCB,
4968AF3BDD82ACA4F718175415C7AB9390450D54601536F67C555957F5FCA4A039577365F6AF793E2F24733CB718A42EB05CCB2E7C8B021806746EFFFF03C41A7D7E3897DE89898AC4A71F355B08B80E7620836AD7F934B3D07CCA3EAE9669CED65E38D13179A5BD4910F04EBED1BE1982D6A056E51F116EA5D45A93C1612332,
E141774CBC3FA7F2BFB0A3DAB639378FCA5885243F399EAD5CBF081B7E9B01581C166D809B7E41072782996021677F5672BFE3126A46FE45A35F8E4AAD7C25318D815A9D0310355CD650DD6D37D60B76E8854797FB4CF4670DD4FC1AC4E0DDCB746E00267D0036B7D6B8561172D420DA6A09B2C4553258045F0F31505EB6CEE6,
A50AED810541EF1C55A87986CB1673EB3DCCEE31AC9F36BB93BEC365970AC59335F58744152442542BD8E1EFF0A3484232EB73B2FFE951CB069FAB4C8764815DC46AE6C85FB63F4DCE416BF0F8ADDC9075B08A807B6FB98FB8BFBFF0C7BE316BCC5EA3A5932B90F4826E8A2DDF0857195B7D072F9A4492617CED8F887C3DFF86,
01DA9591658D089FCFE734DA1A7A295FA982CC28932403E660C6112A76E67588AF8C8711E87A244C3DB96D88AE720EFF144427E39267D76F29B059101B26301BC0F088A81E7F4A0C6455ACEAD2B9EE76ACE098555463632974D282826DC40FE72327996EE71A2D334F76F47DB2F34BFFD1F637D37B856E90F874CC3A0F8E4CB1,
50EF2B459BAF8A1C431680E7DF78825A426C04BC293C2CC4BB4C684D79684665EC3AABCF57B8936B503DCEE547990C68B48D77174C61F132D1D341F119DC39AC0188426DD8D0AAF710F62BDBFBC7299CDCCB2DBEAA3AFC0C09674C11C134AC763CDDB680527B138FE4CD17785AEB269484DA45653C127FA02EA9071E3DF17F0E,
B2DFF890CC29E92082B0294FAD9F3285D4A209BBF1ADB8AD20139A741FAE7E65B731C9669897F60283A51C74B8061C7E0B2C883B409C345A33647B06A000C19C0EA4A18E7328CC4FBEE7B82F9A949EE6EE29A084F1E3273AE374A5532408EF222BF1A54CB7F1C71CB1752C3A5265AAC5BE7B9D9ECAC4EC6822F2035850F5A230,
C9431E367757D2D63331E7CFC54519DB5E55A70E8485346FFEC8EA8718FD32CFDD93288D2221A21AB28B264265828585F44C6F9277D7603AFB9F21E93137B59F7C1C6EF04F35B6F68E1AC1F28AD91A1E472ACC44AC28150CD09BEFAA9BEA5555B557307166BC6BD21F6C31F61C1FF7072A8A9E07BCD85E48CA675D918701135A,
676B5A70165AEE194FE9BC9F177F2E6AD250879337D5702598235247D64EBD165B3435D0D2D545AFBDCD3A94F1D59E8B6AD9BBAC2620CB81D9D7FCA3B446C88AFA530829CE70397C3E6202C428060FB4CD130516345BCF0183D753CAC9637A456CF26A7A654EA94B8EEA91E7CFCC9B161A5D0ACF6B07730546CCE46537D50F7A,
D6CAF7C2BE5CEF11DD7F74EDEC0F21B5E289C7A1A42FA69B095FAC4C66C69CB6BC2442410CE9094787E7096E4CCE850484BEC730ECEE4037A912A3F21F12CCC34CC23560C06C7E81EB91FD7CCFDE27BA3BDFD7680A2C1FCB8F77F76C20657DDDBCD819E3BF1B7418CA3B8DC146A2153D87F4C131C227528CE61DA72F4CFD34A3,
D0C3B358239ED6F5ACF3A1A3B69FBFB83465C2FDB7D8378B4C4FFFDCA7F8194CB112CB292B0B0563E5AB0A80D066EBF5E03D6E00B5037E0AD7E104FD75A0BD5B30C7E07D590632166F2F4AE161145EC15A472D23136CF147EEA9F557CB7D6FBF85C42977C174EDEDB495DF5F8B8C47D247A2A26166187E604A93935C72338E93,
83F970185F1DFCECD3F34BBAA3BADCA26E07F5148DF0BB492DE4E4074C53EA81C6FA19FB87D8AABC9D1E17593E609046ECCDCC5B26D752CAAB0DC44CB2E896242B480D9F79B1812F9D81CD9F607262016265BD1430FFFD39BFDD5B7336A6692E14FAE63A49E2239EE6CFA203F9E094292610357AB18DB31017A888BA873A0342,
CDCF0C93241449AA0C0721461DBEEBB0CA72A9A9AD041F3F198D78B8D20D05995082FDE67B819CE525B4E1D291D6F2A8A91D556BD5CC5511518FF9AF7E07B9F44D536C4BBD5498D3B72E18BCAD75CE9B54F74FF7123797701C1B38E66202FF03BA93FB91970B3116800BD8132244A621BC6BA66FBDB093B7345D57CED44E7154,
C71D5FD0CC7D7ED78C68755B0310228EFD59888BD852A6C3B3D45C6399885449155280D901EB5C2B52C4001F294C0FD276D8056FA6541E73F6AA3D536A985A5546BEF1E56413E81FC479AC85A2C9DEFEDD0ADE9AB021B3DE40BF83FD88D3F0188A27A9F708805ED904F46166AC3E880A33ABC0612FA3652AE7BAB40AE62E660A,
3ABBAF0E44693F9C166F669B5D36CA77722ED76D0D4CE2AC9F65AEA8FADA89C13BC1E5085FCBE1FA69D7438B1AF9FEA34A93C695034F35469E308F52C0FB7972C3E9DAB3CCB514EF756CF064BBCD3D5A9BA78CA42FA147664948FD667848309BA68F7E3CDCE97D4E958A5450DCC378B46FE9702803DA2F434B6D443CB26DE0B1,
4CE6104D5455AC7D231071D7F2E61EA43CD9B8C3E0AC94BE1C8F404F82A038EBDC906FB2C4E2308EE7C0D98B5A0559A710C477B0B8AB577018429BF5BE100E82217B9B7E0A1C14346EA9BFD3797385859CE6BF4C795AF15BF3382B08DBBF752A6FFC649A6C5E1B7FB8DDB6067DEF3BD79EB7DC3B7AF8E3EA510D08757FD7A07F,
7295F65E0BFD03A4D4C789158FD7D124847D205BABE266E026B26AF42D30A36AC8ECC2D759048B1BCCF09B0BC22E7F82CD71BFF5BEE7C28473D1FCF5CB4755E5208B4306EFA6B4DAD3CC5071BF19ACF87BAACE6D9B0A52367223FB041E1D9031A8836507C8FD12FA021CEBD7566C5349A485155248959FB6378922A00A3D01BA,
4392C7EE77E0B89025ADD54C55F9F2C1E0D7254309C61586AE7ECFCAA560417B1AB1616A71D7AE8BD5FB0BCBA054D8062D609E596C654C7A7A6F1285A491D02372E3BEC5B997D1A652AB275E92A23D7A93705638BF05DF265B04C91D307F00AB2D67EB38554399913FF79CE4E1DD46399544D3714E50F655879CF76D4C58D7BF,
EE7AAF506592F39BAADB4B151A49AA81C82548411050878B905E1DD21ACDF8494080E210DAB4F988D9D0D8A1D793843C540A9A2A35D1FBEB0AADFA1BD29A5130F19FB2FF91E1B7B9BBFBABD3A630685B82951EFD07BCCEE623928D3E6159BA9EF2132CFBC77287A23812068A5CA3F65D267FEBE04F0316288A898C03065BB2C6,
A01C80D783046DE0D8F36AF9B4FD7B95CCE185390DF5F5C17743473F3F293F8BA3BE7044BAF000C023C8F485C757425C05F63675661166F228EFB744621CEB7E3E7752E8A06D1B876C50F495EB401C35FF0F554083930762F594692A7A310A56EBE199A0A4A1AC7D515ED932EA685D88A2F6251C161F8B24CD55BF7243FB6D4D,
D83EC049AC82D3D045A28FC5084FA7773D90360067CF6B18F124C198645614F81699CD50EC7CB16AF258CE94CCAC0CEEEE2F345046EC1B2340C7664AE55054E2C96E39805787305745973F03E0E9F184790899ABF9483BE064AAEA6FDFB66723CDF348B68781260722DBE7FD8136A85460D6D205EE302BA6B8404ECB1CB14E68,
240CD76B8592D3CDEB891AB42DB0C699299A040A1C3AF84374BE515AC2905DB982DF4BD7B9F78CD3544AFAF414A0E604DD0C7C36DAA65376DE3203DC7994D29B957F7C813748F1D52634E872F13EAFFAA14A3B9E30C9992650DC4C13C5C08469DB7FA68D4A92C31B5F0975FFEA962E4AFCFD4B24423E92393E84060AFA5473E3,
A84FB71D0516061090C338C94F36196AE81CCB59966F9AB120B5C9026228FCBBA7DB720506AFED9F4E7727EE2E55BE511D8D30AFAD6307358EAF8C5F717D3F3CE71F11F51CB7F2E099005AF40B752A835262039818668F60A60F2FD5D8DBC4D8FC97D381871967FEDC052DE75FDEABF73E069524758453A29EE2EFE480905106,
7C38045D828F00CD132E7BFE9992BB7D2CF18A96D35A0E7739E15E82D2C64BC40CCCCDEAE91249897C2C90EA6854A02C3C876BEB05B046B9D342019ECCC8B413A8C0322439958D6D2BF1D751CA722048AA298E9178F35143F5F957683D0CF8C932A6F066892258AA1BDAEDDCA01FEA9A62D47F47F5CF19A793F2D6BC0913F0C6,
59EC0F732E7A145AFF420860BEA65A66881E893CE1DB95CEC64C7B9CD58DE645B7EABC7AE7E051C44BFB7BB2AE5AC4E6E51BA1E58AE2E59204B34EB7CB69F85ABAB8E6DDC86DB0682568F5EB78198CB8E7018BBE9A3C5B303D1C8986E5B179C3DDEC612CD630FFB5F8F2F0B1698F4D6DCCADA4AD1D81EB86CF679978CF566657,
15AC090CA2FE75437023EDE0A7B58668E62FF9776C661CA7F9524BBD26376ADCC811E4C1B48F5EB25D2268A26AA053F6606709D6557646DA082B9ED72E53677E271B6E01A07A394696A029D06993C44000AD24D9EA661FEE5F4F97D3D651800DC89F46B93D2DE0D7220EF6597E7BE00348AE699CD51A8CBDF716664E35B6E4AF,
43890CECEF834AD03C7F0C76E2E440E4ABD5EE66BB21C829F69D03AE0BC29899A51D8982665F24820A554A3DD0581D5C053B5BC417D532A67D673E4701DC59196AA94B6B08D1A5A1B4A31E9075C93FBCCD8089989422149FC7297BBD0ECB91A0A2322C45B4974C17F3DF0E8CC51D7F0CEA020FFE9DD008F01EE754268863D901,
1505A353C025A20BBB029595F13056060A6F9D362440447E5D459C1A90A4D831249A50F62248C135A509748036F7FCEDA03DE3FB9DBDDD30FE1B8CE5D062C6A0122A4D4B350FA834EB9593F8C6223733C4D431C3E13A7BA574A6B1144E27978E4D6B7ADE2FA4DB1F3D78CB539E21FAC8F6D1725C1BECDF1498493ED80559E87D,
2AD947427BC93533063D30E03CAF073BA7F25E511C9F3693C00A3057EB0F5A62939A15242C32027FF03564AD961A2B0752D784D9893610155A5B148A056C8B2A055687571B35C93AA358EF03685ABE5DD8630A9BDDED267C8D7163840E75158925EBE462B6576F212818C3EFEDD73770440F9CABCB05C7B02CA7D0B6281C8C58,
945E36857288C6DFC016E1DF964A6F57C629A11801B8737D3244B75A61D977CCD93AE1B884A42DCB1B90C26430EA2C5590CAA0CBF7185695DA6DE3AC65E7298E67A272094ABED69C021BAFC3EC032DB8E55D594CA457DEC6C8CCEFA3D4C328BA1DE6FC8058A99077BF2E5EF141640B0D3A41FAE684036326F753FA43BAEA8DEC,
AE0F0C873F267583283039BA2C1C4225BE7A548FC187B3B475E660B0811FAEE883250B5627EFEC48ED809BD17FDAB9773F74DE2CFC153DE68B4B48B657A1FC8AB3D2C53E63CE7FB9319243AA47D0AC7F10157253222EB9D6B3D105228C9D34B9F01702477E3C4381C1B2908797197BEFF6B2806F789E069F428DE827C59AD001,
0A265F529C1967F7836AE0A02038BD37DF75CE5AFC9EC9362E4D5D126EDEA63031C1FDCCADEC1C8C64577FBEE3F8321C60C4C78E4A4B56CD3925611819C2BE7DA55B6DA9824AB07178EF257765A293546E027593D71FA7EB5768B95011B630209AE56A1EF0BD809A0A531899AB8D64C7DDBA82F6FD778D9BBCC1B4B87BEBBE5C,
F5A9C89B24B9C2185FC7765514495F9A5803004B2B9C5199689368DE6902F689386E656E5FE632C318AEB51A112EEA1E7A79028BED4456335FDB89F65E44A2E853C5C2F47A424C668452C0868B8E71545B66D5A4D7BE18C32AE85C07838589D34EBB3654EA8295D416390C242674425AEAB68177AFFE933DCD7DFF434F5A8DDD,
46C050C0B102E1E6F75A5E6F4676AAC7BA6CF33D66A1092BF766D27A4529377034C3BAD7C136DD362B5E59306AB5EB684A882E32C88C161157129C01B362BAC48632213E68B704C6B120B93DE5526A33D52711E70184B9369EBFA22E9BDBA382CAA2A25C4D3358F4F4E4A83AA634180E40D4F9448D9DF07901C53B487CE314EA,
877390C46B28EDBD9DCC21F4B66CD3EFAE300ECA109A89E17D5440CFC8D2985B6ADE8E2C0E6CC5AEB988AA8092A147146270D85C63F906973E9BDDABA61B9F84FC851DE48D7EF2E787D95206B22A0C74CDB464EAA06C6B58A658E9A1875173A6EE344C740329300B2310811D7626D58F0C3167312CC4AF249189A6A3F046110D,
5E27D8F42562F78E462DE2D8E556D78282D30CFB7BA6A22EEC7103390FB4E6D3BD594006BD9F2BE618530DC6EC910884144DCF929544B74B787581F0F5BB1F1AE2B8F1ABD04DC1741C014749125DA913192261171429ED24D2DD93E0AD33624AD7676299033A508A89D1BAFAEA432D2BFF64EE0E1B7C86F249B37A202D468AC5,
2F6FE1A6CC3EE5E4FAD90000626E298E293F12C435AFE804CE14DBEF94EBD59D518C58D9EC12D24DD79F2DA38F30B0EE91387EE764EBE4F5C42C14CFF2FA82C86B87A588D6898C96436450987F7847527471975F4BBD583688BFFC6AFD7C3A6F8123A93ACF08C290EB43D001F77D0925C77D519A18EC24F8B0353746F4398466,
A1BE705A47FD50A58C3F5306B436F99BBFAFF30913D8979F3B440C33394D718103664C2BCCE2A80BF43473ABE3DC9F475ECF3575D79E467AA8964FD992072DF8DE5E2907E78D73D980179CB1E870D3B6C269C11D2B65C5310577B7D4BCFC60D9FE4F03F014C28CCF483F0907B27FAAADB1C83B08D5C1615D272657969BA088FA,
B59246EC2FBDAC6DE7BF9B0F32C72B6DC4506D9EF34891EDFCD1A9C0A44369A20DB7A0C2C02F425016672E9EAC6B7C4D1536A90EE78C4B86EDC89B9AA8A793866CE7537DDA4C51800CC7A24196C645D817BE39C3A0BBC8594ACF8B8AAC9F96056043427E9C6D6823C2F81D3B6482FB599A520179DFBDC2D62AF212B17D0EF98A,
792EF4694A4B47114074D55BAC6FDAEDC2C5DD6D9EA05E566B9CEE8B7FD0010EBE7272EE5A40C3DF3F7A92E7451648D1B76ED62671C9D0BDAD90F4C86B423441DFE321F75A526B2784B1F71B2B2562000DA6313AAD86C68A4FAA502DC5722D64CDF83833BC2A0988F502F81C10762731DA970F6D34676E225BF1324C1C84FA4C,
FEED26669F5CCF596F63BB0F3178587F5C68555B9B2D825DC3AFE2017A878381088CF6A5B2BA294250DF50ED9D2EA9B8EAA65C6C9712E33CCA5F5A0B4052FB9C5DD352A9526A921D49F860F7A2CCDDAA1DAF645F8B9E970DA1DEE75862732DE7F73DB34D338BAD820D2AD80B23E0A4EC8B1E6040FF1716206E5BCF5E0045CAF9,
811869FF838337BDA1936F3F4BAB8E867BB45AC9D40E33C271700C1FDD6D3DE6C6A93AC0027772DF28E011D8413ECA339F85FE1FEBC985D1AE4AC6C0A5784138DA629A1010759D9A7BB4077E7653CF443BD61BD15A261F85141DEB717D85ABE0DD1778DFFAD11C1D27EF79FD9779F6FAB6590464D54088F764EB81DA58569EA5,
4EFF9FB89D700B3ED008BAAE845AD60AB8923F6573F210C65B348512C4B47B9A22F7858FF34080B3EE1BA103A44019CB994994B675460149EFCCA1FA9858F2F91C3F8654CCA9F5ACFA68DB44E819CB0CFA36AFF2250BD657C21B886E86DBB9A6880500AA80C056B641417746026FE9834AED7B59241EE389EF319AB5E9057E81,
0D1A09384FCFB3B7B30019F905F6C0659D4A10073F8241395E2F464CD0E1971A7353C615F547F96149B13B14F7CAF894D275825C1734C72AC059F775FE6FB968ABA1D9152C749FF8A6606A269B6E30A3474C0017E3E55455DD25D80B723D98E6B6908D99D5678395DADE96D72F7A3E3C5F1A2683FA2A0525C4BCCFBB13D0C8D4,
15EDCD2F6991E581C938A88AF2599079DC680F104EE61ED997C1D17EE127C3241E2CF3B8B6E363CBE37AFF08588C0B2E331E78F1178993E99408F671CAEADAC4E20918BC22103B15A67096B2AD1137B2BA0107C5932E384766EFC45E4E9CE2E6BDD90617DEBC51949FAE4E2320D6C4F20D831F9626CC1AB02F47FBC56A6AA7AD,
3648E2B879DBC84E4EDE680D82C36640BCC0A0329284CF2BDDF17D184DE20D58D260C387C997208A88D8505F0BE6E04255211742626D69F1E76A09525808E9917C57DF34D7CDC1FD1B62DF2F5BEBE6A276E3A57E0751354A8086299EAD5359001383E72E4C9319C022E36EC0B68E1AED4FAC0D782442F7C7149BB2EBC2914FAC,
A95AADA4E4E9D89894E359FA398E5D967705AF1727B85494FDD703C80C355F032E4A1DB3B817FF5D4535BD50F4641946FF3A63B0B51147DE5D2A5BF022046585171A75C4FA7B536F981B89840EDFEB66874B9363F7B702E30B38AB2BE828FED2EDF184C48C3F3FCC1C389B3D51DC9A930F0F12AB9B325814D6EF5384D394E42B,
FDDC1D50B86494180576040884B7C71762E142A8C9F9B51D3AC2ED6EC8AFF880D4C379A2354AE1EEEED4A7A40CC1F0DCF2B9EFF10E9D3D6A37A94263FF31E0A09A656B803721BB63CD667DB1EFD3F6A3D5FF17C29E1881B3C50A7390CF5597EE0D433A8B153C22CBC20BC581B71FA19E3F1C82E65E23DE6557806B312625E80B,
D9409FA5FAFE839DF1D47A9CCF0C55A475E8250336218E3F1D8FB422508426A4A46D8449E067059F14AA4B22D79A3348CADDC65D2A48A76EEFAB4C9C658EFC861D65C14BDE12EC94C6D499DF1A89E474C75D4F7AFB1AF89E342B82AE65BE7CB38A8D2248F9057D364BC50DF91293B3F980F9B491B0773B525CCF2760CD8945E4,
98D067F075C8648F24C15E7DD14E55749B29BA94EAA729CC45FFC54DAA073A5AEE3CC6CA1A6F6A8324909829A8494C41DDD27BAB30D460B559C1839C82F5707E26B427BD1088CDAD72FEAB38DEC8FF350102877233EA1F50270A50B781E46DB6003B6D75DCDAE0DE00AF15D03E8856145D7E7AD5EC88EF5B3AB81AD13E848613,
3A23437B7649E97507D358536B6F77419442B72AB687A56FF1267A83D4C42D6A6533BC951B90D87C7ACF8B84AC5939CA20897CD369FBD70FDFEC0A927B6569F0BE7B552924328EAC4E5481C3432A2AAF385045587FC8029BFD9ED106B25D1620E3E36D8692F25BADCE780166323C864D75502A647FC3174FB3768FC06FFCEF5B,
CA5A962530FE00E841D1A8A5734562FDBA03A37178D8A1376246089F753097CEB5569BC8B36B0F7F3A9BA526AF7E8B362546AC45F6363CACC8BF629EC5BCEC5C8614B6A64244243642F189FF72C4DB8AE2A05A1B66B9CA39C1D1022AA70F91CAF4523DCB34511194F5CC6A67758279E093B6F278A41710EC08168CF599CA0232,
F07C50C953344DF484D71B3F25F2928F6A9C6E7EB3448F56139058965E120C4E1847DD873FFFA19DCDBF8CB3F57C9F2D38D2B0728BAAD29BE859285CE667D6127B79D8EFB1CD03C630024E89646693579187AB264836348EB67887E0D94154BF0A6D1DBBDE3519224D29E9120146DBC6AC7B8EA934AC4E67E3D544CFBFB790CB;