D9 95 16 24 6B 3D DE E4 27 1C A0 13 2C 17 C5 47 31 EA 51 C0 7A 2D A4 A5 49 AF D9 73 3B 77 40 5A 59 2D 40 39 21 75 08 B7 72 CC DC 1D 15 F6 B1 87 18 AC 25 F2 46 DF 71 15 86 9F 15 E9 28 02 2E 0C 08 E2 5B B6 7B 93 95 60 6D 70 0C BE 01 95 17 28 11 34 F9 87 F2 F0 9F 72 9D 0E 76 3F 64 D9 E3 61 4E 5A D2 18 CD 26 9C 26 4F F7 E5 17 8E 02 4A D7 EA B7 46 0E A4 83 15 A6 47 D1 B4 C8 37 77 A6 97 2A 38 66 37 EE 99 6B 95 65 DB A1 8F B2 A8 7F 3F CE D3 8D 0F C8 75 1E 18 F8 E9 B4 5F 8D 84 0B A4 39 AB 46 98 F0 30 95 E1 10 F8 E0 DF 35 FE 30 96 ED 5F 6B FE 68 AF C8 D9 7C 1B 65 A4 E1 F2 B8 02 9C 0D 09 EB 5A 79 77 2B 6A F6 7D 43 77 81 6D 7C C4 47 BD 6C 6B DF 63 ED B8 BB 34 73 06 69 8D 87 7B 25 98 FA 39 32 17 9C 48 16 10 22 3A CD 94 C9 23 3E 37 3D 73 06 35 91 23 12 B9 EF B7 FF F4 44 