22 F1 33 E5 BC 51 BA D1 24 9C 3E 04 F1 61 B1 F2 96 4A B3 2C 7A 4A F1 06 F6 33 6F CD 65 00 FC 08 36 D8 10 8F C8 EE DB BA 66 55 0C 4F 9E 61 B2 63 F5 0B 94 87 29 FA 8B DC AA BC CD CD A3 03 57 B7 67 10 81 04 E1 8A 9F 81 F5 D5 FB A2 0D 8B 96 43 E9 0D 5F 96 C8 CD BB BC D3 71 1C C3 96 CB B5 38 DC 01 7E 24 3C DC 22 65 80 3A 12 6F CC A8 64 D2 64 EB 03 0F 32 E8 27 72 7F C0 36 14 DC 9E 27 43 FA 60 D9 57 E1 C1 DF 81 29 55 74 62 12 E3 F1 89 A8 F4 35 D5 21 35 6F C3 D7 8C BC 10 45 51 E3 75 74 3D 07 62 C8 A2 1C CE 5C 92 1C 9F CC 77 A4 0A 0D 82 1C 77 AC 81 5B 6C 8B 33 C4 EE 64 43 31 3D 16 1F 04 3C BF 6B F7 7F F6 EA 58 6E F9 42 48 26 93 36 50 E5 9D DB C9 AC 56 20 25 54 78 3C 89 A3 03 C6 3B BA 2B 1D 86 99 47 B5 2F 81 B0 2B 91 37 12 BA 46 9E 79 58 9C FF FB C8 55 2C 89 B1 9B 27 