memory_initialization_radix=16;
memory_initialization_vector=
D9E11B6733B5A13E6CDE75C17D3F94D0025AAFEE97E2A8FEEDDE7A6794BD591283183982C205F14393E3AAB96254621A29F6DCE704A713621796FE89BBA94EF0B033480EAE0470ECC98975516093D4BA7B0CA9823B9C25C8DEEEDBABF5202DAC2E44871D044FDFF564CC98E97002600C5C17ACA184DD4317BC350B001D05F53B09B97131532A40CB4C93B9543B7261B58253ED8B532E2C20D1BBF8E9302D42B37DBE852C09490F1A9363D19AFF496A94DDFD2D6D40FB4D56FE444316F88DC2D0D8F54E22C02EA313DB4FD98829363BF054DDE96D172E4AF8E28B59384C9CFBD570A2B69BF66B6B4CE8B8494F183016D37465A6440B743D49FBCBDB6C49A699FE,
07FFF7E6E1D04B54918DADE9B92E8587C9B23998819C4F36395D00BA25D1DDCA3D6330B38968EBEC25ECB94A39D42A599B189A1D0B8C4A711C0E8C29DCFD4FC15141672B1AAF97BB3044D118BF1D10107F58BC2C1DE08B0AA906B10A699CDB2994568870EE065432023D7A4CD74BF6A6375079C04EEB4A6ACECDCA2C4CC7804BF1DD7F2B89932BC640D29F053115B419D34208798511AC89CBCB3A89F60E77753A3723BD0A9D57C94FF877F5296E6968CA381A46F2007DD8D78C884D8586DD7C41DEA251A1683360267A04A073066E92A5E0D0045E4A685C6F0A56C1FF6BC95A83B12EC9B2FEBD105809BAFABBED5876296C2CBD7A68788128DD5B4894BF0BF5,
92D8A8A89746FED461537F86C57D4BD3EAB78A611C4C1A412FA9F3511B81632E3F88AF993C368F72E83E3C17E532B27E97D89FE920937E42DCBEF6E837BCFD35FB09BB2A99A5B2B6C151078F79E68CCEFEDC606F75B7CF1BD73A2B97C4ED0934795CB59C0661497DF7D47E8EF6DE9822B4EC7A8554153D07DA353CFD2340640563EA30DBF90928E929E6BE81FBA9CA9ECA4C92CC53939C11FBEEBF52B797787DD5B29BED0D83185B6B0C3489C31A323E14C60234FFE57513CCC8C66C97FAE5ED2D3E4F574F75D569F17792179255A95FFD1ECB7193650D1AFD01F4BB14BF1336940B415CCF9B622CEAA337388C52F73C9F9C43AFA81E86FAD3D43775C296B372,
C3F77C67B732537FD82D85D77D94D150168F16024157B07834EF384976FC4B2F96B7FD005ADB72922BC19044027136072BFD3C37E5AFFB24B2BD379D0400004351BD6ED9FA9C6CAB30CD7C26B7E62982AA72F2429882C5B21A84924B4E123D964307855A47CF1DC08DD2C77F16AF0AC513375A1EFB8ADE149E36E9397408B6A4E656A00833065F537232003521182A0E8DFCF36F70AE84046D3C619B87FAE430E6D083E7111396B5F1C6FA2CC87D057BAC9B6BFCAEAF6BD74443BF93781C78530A89176CA284C0497E52D18BF2CAE7394FE2F26ADD49F6677692702DC283F8BFBE8BE49F687D2C0FA8A1A6BC36A3DF57AF0F8A6F3244436E17EF9C3CF27CCE3D,
AF237C5F403D94FC96FD3C086855DBF5F3FC91B3DD9058EC6F0AF02B289A285400AB99A8B67F3830C1B2424DFFE39C6CA83CE5E22F168189561C447F935202654F54F1DDA64E98D8FC96626AEA0B89692022D2FDD244335BC16C2C2D53EA9943D69E21613CD3DBB5944A053F46D534CF791231D42F6343AFD42768779BA3FF6B0E610755E5DAEE5EAF7FF26505B9C7F281B63E041EB583F8FDFCE2233FDAF66B25514D3CA13A471276F92D75D01C3F4B55233EABB4B6E5C304415F6BC33C2F0C3847B75E43D4A4355A5A50FF535890D9E374CF01A88E8E3D5438B05C3A216A02F7111B9420024ABF6B156C96F63FA0EF78FE2E0B6DF970E9DD6016BF79653A77,
6B1D369362D21032B3ABACE77E6B8C8FEA6E92ACB6359976D4D4F1F3AC722FEF12EDC6229F97B51A5296B9DB2AD3BC3A8FE9F7FB326F2B86957D653F4C11449418748C85457874A28F6273D832064D877C7D9274FC408B21F236F1EBE39A93504E7A1FB191F4963E76A79D936FA4227CBE25D3F888D6529AB6E864E65708814321ABC5E6F98B00C2CD585ECC41792A8FB04B7492C9CFEA0C692DFA3F242619170BC123D8B0620ACB3EB01D7C2ABA7D0D32514402A4EE87270A1332A95C933B0CBFAEEFA151592994F030B58C3EF71825A0AD656950DD1105B563DEC74954E3EAFC8FF553D63282F137EAB61B918F83B7952CEFA331962561C23CA7C88CA371F8,
2DED6BDA6921D8702F18068E77E6D2214520379BEA89633D7E34ACBD5C71CA1BC5E259228C879886734CB137C73B113AE217DE4C1E2229C057E84B992EE287C66431A512B0A96DEBD7748D6F45A0668D21476AB3A304B78B4F5DA1FA97D5C7D9B87640E2788574647AD12AA4942758CDB5F1CE1CA672F385F84C2643DDFFDE8110B28DD395345FE82DB11A8DC51D025CB38BC52E8BCF4950597D7E0952BCD856D6F35BB8978BE093EE312E33A341377900CF9716025EC39BD32FBE61E590C80184C5B7D75E1D7D94E49AD0A7608178E60791CE841100C6A9E0C35DBDB89868CFEDAE5DF922BAFFAFEE02100B3F40942E0DD8F142E74F5636D447423908E9EE1F,
0F41422E5835C691D2C0518D30059E2AE3DD62EA8E40FBFE6827C7B39AB14C9E8107DC723A418F1B44C6C728025388829D8E09BB3687E9DD3FC3B6D5749B88617E29A75677A8F2F50D425E2C2871DEECED38849CAC92B45F9369E86F47C911261FB4980B5DF4815B6B3CFD12206AE6F989074BA1583E90EB699F8183E1862C15981592A49EA09BD0A0D80ECEDDD1D48ED591D284BD6D2919A2A923A64F56217F4A47CF4871BEFEC4F67465D5B7EE73BC27DFB0A2353FFF20BCE0FB0B97E7965C4DA2891EC10D427919A67575A952172EEC7F5A0C4D1A2BB737E9EE0B9504124B3E231317060EBE408B7B7B6D92B6FBACCB4BA14A8EF21AB2A03993FE4E3F8281,
B42915C53D8A1400CE772D8B0BA7C7DECE7C350E0DB39BF711567FD10F0C038FCA1E5260F02991C611741E3BA12B1356FFC15B147267658F614D2B1AABA72C682F01F864EB942A4700745F9228C85C58D6B0D819CB1C963197D4C9200DC62D0D7D8A015B8F37EB59292D33112C5113C032C7604D1271A3CDE9B9604EE1771EB6B715F11091BF7F725B8D92067039380A3C2A0C1405D8E0579938C092B343BDF7121E30E45C9B4B2901D1C99C7B6D1CD85BF63F7C9FF7693C0A6B5A023091DC2163E4E93325CAADF3404777D6288549B4684ABEDAE68E2813A7973F1F2778325C0474B91AA6A6EF8302F587FFDBD1BD624FA8C661C75D0E95398493E195F1CFC5,
3C6AA862A4D022600E6492C322688A772A34F582B7CA15C23DD00683BB89EB9E827D87EA7D0F11F3EE74DE251F7C1CF7AF14CF344128DA15615C174FB8CB74642062C3EE8C882351690986ECB593BDDD97B71F2D7DA472F4E9ACE0F32B7280C59662CB0D4E1709DDEDA4961FF4C9E2894A3B1C1523318B92000FB4113B1E4E43AE1CBF053315AB22649A105FB2CE23B7AA0A5498F35EA15020FAD6DD493EECC17C27B1A25C5F4721125A8D7536B2D738C1A92C95FCE7493B34F47715FCAD27D04E5770D17B31984F95016DCA8DF54E4994B617D73FCEA7B76CC4C7AEBC43B54B1C9CC68D238427B2EFE37C341ACA0FA306F3C81E500FAB9375E6244FDD6C2AFF,
941E993E09ACC31A1E791B8CEE44E3BCA4BAC10E9BF3B012D196CF3D19D890BD75B462BEFCE7E7CD7779361BE3F077DE117F94C7D0E14C528A4324F70F4FF063CA299F1E721D9EC2EFEF511361409063122490D2CDD6D175BF9B495461E23025CE24FC3AF0E080ED480DD625B092F261164C120C4AFD761D56A8448A5FB3C2D3B3D5E4D5A32753C03D962BC0CDF59E6E791731F326B7F271BC2CC496DACCB43B3A1EFAEF24C426838ABB0CB7D201863FEADF572E690057420B9C7D77F18300835216AFE258C77DBEF71A6E484572BD7E7E4E0066C8616C9EC3A3FDF23B9F5BF0736303CFDCCE91F355708AE5CF30A36C2CCF704D30AADC389EDF87A09B0EF813,
6050C81FEBAD1BBB8FCD78E04D664B076BCEBE2075F6675E4EF44441D2AF9CC92F86FC20FBBC88D96811BB205EB23980D03B286F32AFF64BD916DB3B7371C1D60CA8E336893A815B2740F507C902426EC8E54804257B85E516512737D90B68D16D81C59C7125A1A6D51526215CEBC69FE17BCF8E540169D6ED719A9FC6C6A83434078B902A9F907C55DFFB86CE5212A3B8D06C6A381EEC9E3858491925767675D35B13D691D2BB2A002E08AAFF14046680AF1C4BE9854EBE79AEED8C8357D5E6F3BFCCF4DAC4FDA5BE84DD64F45F50A6524CE2C4315B9EE07D29AA30DC84D7FBB94E8069EEB7EDBBD6FD6F0E8093EA98855DF7AAB7363AD827E008C665833FC2,
0C366587205121D5308E0F2179AEA413251D328C1F8F8EB4262F485DD39C28AC68C2B22BE35482768076B0D9AC87AEB34D469FE5805B21F1F3435DF669330817B19DFC42C7B1FB2936CBBADA3B7D5C8399FAF52C2F35FF14708F81B2142A3E478C52B9F529F8C0C30D9E9F7D36783BDF2DE0A26FFBF85447003C88C20B67228FAA06D1C61C13EDD4413B76A88786A0E98039D2558013B84B9B1EA07D06BA731F27880ABE7D738A02EC95D8F81C179EC4E4B2828E336FF0C832B87A2B7E2F28063E53A40FB174CF3BFDC96E87438967A1C53BBF6099AC4E90AAEAED3D23377C9E9DF892867A38848B2A24CD5A1A9D5453CF4C1A1714180FD418979FD8CBE18465,
7458E76DB88DC81ACAA408E2797EB54A9E7EADA3B0AC8DD7F5F6160A88A15356C84DE6E931AB614267873C3E4A212E69813A990E0ADD2171A6FB9798BEA9895B717E4B2E9DB779A5803BA1F7890B2E8D03B841B2E6FB4F1F912F5754AD9F99DA60E628461DB19080BFF2DFD4F8DCAAE01F73E9B75C1723087A3ACD184E35FA1166CA6933D641E6D72484C977A323A77044513EE359127042F7EF97B3B960DA6A142BE30F6507DD3345495751C4FF28612A80D89F988FAE280CB4D04C6D66A3D999ED62CDEE900D0F31E161AC286A3A1308F6ABE4E054FE779BC2694FB376EC979189F282A2DD7ED805A771929A2AB94F15BC713ED03327EC592BA18F661ABC11,
51B1D06CDF0F46CEA7C46C508684B444B770A62CB67DF7F4732507CEE25A3BD718E60F5AF2ED8071B1D68F6408222E74E8B63C6BFC4CBB9438D6636420FE2AAB2FE2014407315B64E042F50ACD41BA521AE5885E41BB0724F76497E643162C3857C263DB36C614B359D9829CE6B2DA354CE672EEB11DA2200387FDF41D30F6D01C93B6673DDD84C2ED6B81AB6D84D31C5905F2E94184307599AA9852CEAD726D9C3D7810553E10AA623CAFD8B4BC2EFB7810E9B4F1DA34996730C746784F3E77179B58E5E8D0B875BF121BC16665D6947C7A8CCBB587D6AAB28686FD924B57FC21EAE7662C3702091EE21CAD51E49A1D0E2226F3394D9834B525228C72B2FCAE,
4A21F5670117D52C0F65A2DCE198C92B9E0803D63E5E8DDAA83DC1595D9D31B5434B31374040E7800D6E2AECF5C0B0CF32CDD2E7DDF416A8EA9E784CAA9B4425968AF1062A4188828B1D46661E28991B57FBB46C2C4B8ED6268B338E7EB531DDC61B3041F22C424BA3C670C6450458578A659782FE9FDE325C12F15C0B803A02C2C33BBD6A12D2969C77C5F1C1EFA6754871BF27D709A78356D7D3C140E832AE925E573343A59F9C0DCE19A9AC655E7207F6F21770D2642319774EC3EC1A905F9CA4380A5CD6DD6E0E2A2A6E1D1289D3BB3D803D1C0E97007EBB73B138F885144039BE7D773B8F99C72F6901A36A356C7071B6D38A860B356D06706592EB4E8B,
CD9F7E671A5F559D3C97AA7C0C95442026B25BCAD8195676CF8F823FE41D14DCA1A8115D4A8DF10242040FC95328157B32DAC49282D6D9C2DAA3F660E92AF16F7346C191972514297229F56793D5287602BD12BE6000FB4CAFC17F0B6FF1783E31E315DFD3980FA7B9DA29300481F0494710FF012E2C6918D75EAAA7D29CF0C3AD272918D51106540629006199825547263812C131F4B4A167A2D2222E5FFB4A4E3367DE1A4F576D711B16E2BD045EFB83991E83744575020549F2DB317F3DCEE7B5C947214381488392A2397E90F92CF1FD0083E2A2D3964451F3F791A611770DECCB8A00B6A686338ECFE7543C223C4EC2154A4C4BFA797C24D46E2D8F4050,
E4FDE2E6E0EA479ABB8B47E283917763BD1F406919633A35E443DE3A898B5098C4A5151CFAC661FA21D32BD4319428221B7F79F54D1439B757060D779E44A4AA8FAD57E27B56C743E5A8D442F526E18B35D38D6E01AF9FC3644AA7AA814E5813CB34F640B7555C897DC45944266E90EC652A6477DBB901310FC3327C3793DA387C9095C48748FFDC973391A22A7393023A35348649F31459E86163D50DA957C0A3C76F3C9741E842C30DF9DBFD3D5C13B41AB7BBC02DE71B748ECB2FCDCA3BC95D1515C45F6242FAF1422D71B0B288D5F6DA3684530771D9DE90B477D0AA1DF7481F616C3DAC3CE5F9E6B0040EBBCA8845E5A48CE2C4F232127674424749CA99,
0D9A7C474BC3088E13640693282F3B4A0BE2A9A2B47A3AF536A1884695D20636EE1AE62360CEE152225E858B3A981B3198CA31A24F3E1B4A031E56E5C39AF84F5F9A05AE428A511DF4622BBBB15A91B499E82AE3BD913044DFF70EE78B0D5C627147F833295C06D6BD13EFCBE87D79A06306101BBC8E04BECCD592877C57E14819791F8677F244AE64B8032F37C97374DEFBBFBA0E91A785B800D7475AB24C70C8758F2A25E46D27CCDE7FB450DBED4616A53433AD5374714A8DA2C4FA142C07AD00B417192D55393379AEC862CCB2D438D5BD4771C46DBD0C6CD36216810DD4335F90494BF0B87BF64C3E6F0E851A2F179908CDDE56D9B566484DADE01FED6F,
B84EB3A0387049920E2A4BD0C917EF1F2C6D521EEEAD0D40AFE2561BD2196F9EC3BB524DB46CA9C70AD9E73324AFA1193DB50204059B1BC674BEBA1792B3AD6E5673A4F2C690B92BC7E8C200A8000A1FBA8346BF72BF54932460722A0E0F18854E48D0EFB16A1340F5A24B9463F5E27B15B620937E3E21D4978DC69F8DAE1CDD1DD6E2322531AC9C930BA9C3D604FAD98269539FD9C3D54DAF337E05840CAB2402575E3130D271A460DEAAFD5A95320D8C30613BC3A314F0AD72F4025690C938CCCDC4CEC486DAC41203063922458340F2CB831BEB8048721E975CFE2150346B4BC83A7EFD3941217F55974A1E4CEE45577FD9BE227EA4F18D825ADA60C9B45D,
53C6D0103285E068ACEDEA7EE27AD2936F555E1DB210A6EE3959A12235731C3A2C9FE0BF0C7310CE8C0EA7930B0ECF3CF34652EEDCDA7FD4DDEB67B39B02E1070EDDFFE3C4D26E9108E1A70FBE68807FF489F76BAE15EE614FC6698284D05EB7538DD5B17C384330C03F0C20E8F9F0E725DDA4D9042705AB3EFEE610E116A780BD4B50B7F8F2F32F5622454B541F2AE7C771B93EB6AC1E10A7C2702A8664BE13922F16F484FCE54EEA95626A3F76B80CBCF68F2AB17B16D88145BB48CCECBB9C093B3116A036F4FF09FC88F79B620404FBCB010286773B8FD0F6193E2AA6483F2B24B6B702447310863C731FA61DBDED4D2D04844B6A8597FBB14675B5315EB1,
B01A2D628204DD5FB178D0E8815738707F958BF3C57E3B2484F0074B2E40FFFD3CDAD158A5B08568897DB40C441680A58BB42BAB745D6D4E4D94C5144B4B258541A1E116FDC4FD96C0595A8714B90DC5597515DC69E3919D0C43760C5EE590560B01913EBEFAADBC0094104FF95B4F0B1305FCE6E7017293B2DEC0E8F99E16D07F88FD6A411A80AE0ED45FD8AA8B76BFEEE58C777101BFFFFC2DA6ABE9D08B86BEC1F65189E2B70CD392F55819F94E342D9214997FA011164FE179C0DA2CBD3AAFE9DDF83DB3098CEA387BC8D27741338E64B4A735032D61C5DF19515143206FF3196B76D6E437332886588C969A25C92AD6F0069F653D5C8C15D7EFD8144914,
22E317CD8D2DB5BBB97ADD81C671FC87F1ED535904471D0F220DAC948886019315EC71642AFAF60937C27A439E9A1BE9DE8493858A2BDA12690BF54D811F3654AAA4B17DED6F835A50847AA5CEAD4B18626A0DD0B31D5CF06ABCD88BDA3E34F11357713274C579330771C78631D43CAC29C5F8A967F965548CEFEC02CD9C8DDD03A99630A2ACD72DB71BDD0C7C4DDD6FB242997170E5A611838CF19439739F0C7BE91ADEC6924936EA608A77E163DCC00CF110DBB0F8923413B73495BDD5404E87B7FC89CBE77E9D679CC50DF948D544F2FA5087FFC82B1660A94AA37709450F164C9898B73FB45CBE5D0987535EC35F33EE073BD4ABF538A6D512E89663BD78,
4128536007412143CCB0E6511CB76C8EFE3C3759B678FB06545A3D115C8BCF4FB69CDA19F44307B389B8DB795E97D3ED2F9E5D00E23B4C0EB7CAC3FF1651086F14341E5956988AE06B265DFA3A5732647D36B098FCECCD5D5652D3E1472BE3D995D589D2B8BA7B0075C67A6B4ABB38843B332011BF8011F15316F670899037BE3FD0A04DC8052E892608BEB6433D6A6F9296D7B3D6BAE7A912ECC90117251DE0D20DC682B1ED1C88B172AC9F67C42FBF9C724C0EF25E61800E6E5C8843EB74A432598CE183D87D6F16E38B2DCDEA37DD20E46DAF6AABAFDAAF641F0BD70E66F0B554DE800A0505A5696C2828B764B80D859372743BB2CE1D20E0595C154E3ED0,
55A667A4ED173E8DD7764D56BE6BF06A94DF6D4D2E92B5ADCCE14EBCC859D6379DEBFA1C4B886A42F004AB3C53AA7F4B9B56251C3E772C9B291DBADDBC8C9A925DE34FBAC91EFC27B7E36AEF262313160F9914F559153BE44882272AF9F5643C48796DB5A76AF34F5515F6CA890A69E82042071597428C82DC961CCB6B1BDAA0F741B7D14D0E347BE10F14C3DF3B2A9D57A8905710707B630BD8F657265E1EE8481FDF09126F118B1B2A999249F0A76DB1E466DC8C2784662617B2C1EC6F89C71798B6E954DBE7EBA5E6A648CFD5EF751C2097C7376DF70B014EB67F0E940A3FC032768C6BAC105E61A8FB74AB561FA23F8448AE250C2F5E05A107CB877A81DD,
C6C03B8ECFED7DF80719C76F61CBADB1A3E95E0362A50887B999AD74A968F4F5670E96B28987925A133676E9ED283A323A8E879BD1756CCB4E986DE76D9905357D48174819DBA388278D76C10C98E6114B597F11155CAB8759E73E94EDABD8046DD0CAAD7CBEBEBDF2ABEEE1387797FD98619BEB47D14EEBF6214382377C2E38E365360FD5ACC4E74C5462195FF94191ABDA989FFE0DBFED199742A345F3742CE42F7600481DA7F8D983C7AF1BD6F4F5ADE6C294E89C1563C50EE23E3894269BD6D71F0978180F8AD3F119F56978FFABB989ECB25EEBB4B080FA2F06992EC39CD0ACA78A290DF3BF3A83B1C1D2203E892CC5D56063EC8545344378C571BD4EE2,
1EA3ECAFE7438B1892EFE8FA264C18AE27182DCBB58DE21B2F10320D2BF14B2873A5F52F3FD5E02CDE5943CFF981F86CE68487EE02DB6D3ED3B6FD4ECC491DF3FFA5C159A71B9115C87811FFEF57925D1DE005A835C1144B7B96B9B36FA50D8D5E40EA69D78B571F8BE5143E75EE5C2131DE322B0DD0F55326C90F56FB0D9A68D09D4A857E43683B856CC63B57A205EF67FBF73A9941BF724AF91ABEA39F541364151CB0E5904683183AC6BD8710A4CF239CA8537D4638DDB8085C1540B64414F80F25DCF4A8C584B1C2B19C248B074C6301668E8BF5CBF421EEEF82ACCCF9D40CBE5901DC79DAC06DD9121FB4E8D266BA973066BB80C048FB47BA509BE5FA87,
0F8D6887C8A6C399D498B40339B588CC53C6E17A8EA141C4FDB9B192E0E4421F9748E7627F7866C50072233327C6BB6B042A0D0BD2B29E1A9E5F5D503637040E619E21B7746BC4C225C67083AA97EC1435795F281DB28148192D2E76226C7D796276DDDF73B0DAEDBF41313FFC578996100CDB899B1BC6B2085CF53E5A8E9B1E31C81F17AF6DB0B393169DEC119966CFD1CC4111F71017BC71FD522CEBF68C4F33E7333630FE49E44E1C77A9B4929D850557B0BF5B894C753938B993854B280D70B2AD175BD8350297F86DFE5CEB7FADDF419E234CE5B6A4C247E8781B1706489F55A2B21E76D41522356823FB8D6732401DD27581071E7359366DCA17AE3974,
6F95DCCD3DD11F172F58E3B937B7B73C1E41731A4F657887088722BB87C4FB36B3D12ACB13B69ECFA9D331A0719750EFD01C7BCCAD0AC93F6B1015B242A52D4208FE1D4E97E1C3481E8670909E54A9E88C9C8ACBAD6350D32927C9E6DBA12556D21AC99DC7079BC68674E7EFE2274F46D0BACE741752D3D85C659FB2DB4F387BA2CD86EA9B14C9FEFA6DE7AD7FAC32A9249B543FB63CE871D41BD1CC4A9E534340A95151476353D602A56791FE41DEEE4682ECE2AEBF03C4F0772459606C16D2E91BB19E81E73161A67ED4A9DBDC5F0200AE2FD0816C5E31FCDD6C4B0903CEAB6BA8248D662D25640D7A5D71DC0B3BD5CDE62FED04B763C49DEDDAE2EB46E5A5,
50E6210E27662D25584B3AAA43310245A56B862E54E739BB8E9BF802DC5A31D2BD2926733D7F7E4D0698185D9D500262D2315A267985F811596F38991F1B476D7CDD87C39277A914DB6E26BCFDAFD2B372F77CEB0DB47C378718C9EED78CA4411E3DB7656C6D9B19B1EC760F99D957E4C37C807345EF18E012BBAADB3F0FE3AE36B57235181FB79570572352EBCC395E2F5143B8DA37C9B1AED2CD315F8C15956FAC953C82A69535739CC31F3D3DBD9DBF7D0F7AC07B5F7784637209A2AE4221808843201A5F8B532A35412CB34B8CA53D442D958D69573138A4FBE1A9FF7BCC6E606338A146BAC9E8A019C1D62C460245B2B15DA6E91060E01CC5CA84E54757,
309AEF987C2E858B4F6F9899EAB759C41E605D63D8A694A8FCC319C3A487290A567BA00E3631A974ED5E8709E27DF9722B00CC9A7E64218B8AD76B5DFD1342548A5C02CF73924F60ACF83A3D0037F45A5DA98E8A852FC19562A823C1021DD3569B76BF7AE10527BD2A0220B0FA09B8F93FE6960BC4B4EF5938D5F779A37256B278112E55DB3EA9284080F8AD9DE53D5581BD3115A1B0C1FBB3D56DD795DEF782CE18EE11C85364CAC4E88F969C17EBA7B4093B51A192E32EF3A0EDBC95C97C2E83293303CCDA49443DDF81298AF6F325BC5A3AB258C9F06DB4DDC57B526D50022D3F2D80A6E3C0611441D113E1A2DD1DA7CF373D9D35319B97B798E26ADD57A3,
304591E4933830B9B83609334DDF141ADD8CAD58CEE6AF4B67E2030D92AB743D0BFBBE0D0193C27D8FD9ED48AD285CBF77D0F4D69DE963E95DBA1FA0F77A8225CBD24F945CEA1AE63AE9A3B01A7E9BD16166C9272080B2EAC8D2342D751276A3ACC2D65B0C205487D5F2E29DD1DE63B5F91B66D0649BDA4A70A50BE931F622CFF8AF9F913C5A79A53169E5AF2514C3B29AA6FAFEB55E8BB215453D23B1184C8DD1FE9FF25A6951CD4F94BC8B722B0CD48234341FCF9B7ABA7968C47519B66A792708C4A96A93CCD9F972426E0612C978CBD42FF4EB00C34C7EED55DF071DAC5CC194FCACB321F8F8DDA6E8422D913D878255B5D2E782C8BF951E0D91A18F793E,
EA2227B6DBFAD5204D8F5034CA86D456A527272708BA9CA2EF304C5E4B5CC22D9216D682E2D924C13336D16C9E9F4D83412971AEF84A941E69FC87D92119A120A9364511E48C00BD8B283461EFE1DB118B859994E40D551380002FFB86C50307F3D5CF2CD7BA0A803A05BB35E6D8261D9F60AF1BE150D5B122D1D51D1894D1DBBBEF9EB8F7C6A9C6A140AAD6858353EDBBAAF94CB51B6303B386103DC57F7C7EC7E5B7A6669578A15910F8E2ED8CCDE391F5D760EFFC4AB42EDA6F25F065D6E23BAEB6077025F8D2536C3BE1FB0B5FC9ABAE8E5CBDCC1DFD26C8A0D9607C54588B52A9EFC67613AF94B8D6CAD1E63BA42420B60A34B9B31507EF4AFB434A9D99,
1CDD7B9631B5014146EFC4B68FF5B6468C5238801781640EEFD2E4649A0C8986532481FC50B4E8167C40705399C0B2615BEF9B74DD14C6BD8AE66D34B9FBAFBD14CC53C7127D5470E55FB2323EC481A9C0F591F9020A6B762ADF345B567978C4A86209DEE2C35B1F4F2BABC1F91E01093A03957C9B7A9AA936E2CD3735B6A729F448EF87A312C286D01810FBD8DB404D394BC0C513AE5E28CCB19D62616328A3A5BD72FB18B177B0C739D9F3F1CF821E9C2C45FB6D48772733A99A4CCB27C794E6CDCFD6B31610A637ED70C0E91564965688991491008CD8F35EDF000A7133D0EF6AFAEAF08A38EE4E2083592CB44542FB2DA9635646EB4080B9108B458A90BD,
739143DB2BD6357C542214DD5D1BC21F7FEDD02381DE4C0F2B9860BD71F9059AA671C417FDE469CF824087A58DB33A5FECE2318D0E2CBBAD0DC4C3D1C41B786FB6E32D44F65734F236E3D5DC965B3BB7B3834A07AD6D30F458C6A8E978748DE17503F89D4C034666D5A78F7CF8DDD0037DBF2B791DAD16061E0BA7D41846622FFC3A5CE2773311E4109559494E071665B2DA154CFD81E0C6BAB52D644DCD992ACAA272EFBE56BAC4A7A4480D16019AC9DE71A8B64013B4F8072AB879E2F210CDCC523EE4FC9E66B47C608A7DA41EE9155A8ED1FC8E7108755198EB1F068700627B87249EE8084AFDA1C2E8CB09FADD69345AEB388963FF0F6504BF1A8DD2E636,
4A499CB1FA32147F141310221DAD5871E9A71050088F29E3D4FA6CB63A1432BB564C00199AE10A074F9C1B4631C88867A277FCC42488C00B1A8D0D7679BDB1D63CF2D91B85E611FAA4F473A7F97A27BEFBF3276684DC37893650C5FEDE860472CBD56B3CF7F7D0A031C3A2749DFF92062F66F807AAD0B83A5A0C5E0DF8783DBCBD83522858154945EB1197224DFA360DF70553D94018268B06D338EE95D78197F82848B99ADF3478963494D91C48B762B5E59681DC03272F30C6E9B8AE6C2582CD5795C9AC6898CF251D971B4690C45D89D6557F6522356F5BFB34CA853CA8115416ADDE24FDD8071A4F0BE1511EEAB19B53FDA31A6D49D07AC7ED92E598D7DC,
AC7F41F3B05D1A527FF3C6239C6C8D4315955D36E6CD653ED9C7A78202E40487455A660178B9DAA2C3A514A83FFFFAFD99A215FDE0C7D84C8D18BB5832B3FA714FC578D0B755317C868CF0541AA374AE66B2D1AC5636FB214DA7CBDD6A47C5425332601E803CE84D176DF83F3BACAD9CB93B950FEB779EBDD7BCDF0EADC13B45CD2FA86D0D8348A7998C665890DB58B9D1D5BC67E0F8E118DC52BC14AAEC77A2996F982706C90ACC67801E6538D67C41709092DA49D6DF555F865373499E687310FDB3D24752B23DA833F5C6F0B5999BAA535628A551B3275AB10A21C8B5BB8B7F3A6A6C0A525E0FE10244B934CA902C233AFFDD25E9371A58819B73F1F221AD,
B1948D92447CB8448D77E40F65CCBEA90EE43439A1060ADE4762AFF340695A351A579954181A3688611E91694B54C657849151276D1370A9AA219C5E83E32B33D143D280B0E670259DBEA1E02E904B1B4439152C251A6B948BDB973846CFDF7870C43C4F820B00A4170BFB3582FEFD016DDC52DDF078BA7C2F036CA871ED15A3EB2982E8717A1DBE74648FE04046F5918F967F330632FD9C68023875603566960460E480FFA7CE6CDB3D3394554780FCFCB8F33C300E42DA6C91FC30330E2301DED8ED3920DC4E10C9E25780289E2E596C9FBE5768ABFD45F6511973862210370E6F9B349E0584B08C80567CB91E41653D95252710FB437B3ACA6AC883E57D75,
1E69009409AD3FF05680D9AA1B3CE7CA353FFAEC73F292526565EA238A6AA5017CAD792AFBF7616FD7151397B69A0A7921033B9236723676D5BD3FEF296925C1D7525912D919CE14BAC43C382A6FB4FF9DB7E8005D940EB488F14276C1A898054C632D0A83A66A70E46D8B3EF568C53F1C8FA82F89B8FE11B6470E23929FBA687974086904ED7E8F399AD067E38BBDC0371083C100F2CAE347826FBD6DEF896C437390EAB1BDDF1912E739C0AE6D71A2CB1ACB9A79281DEA46C83834B80B08E73761C7E8A55332737A4D54546AB7AA3B658062437D25616A46D8A0DA5757CF69EC3613C1A3E957E5405BEBCEF089DE937574BA45F4EB23E1CC2BCA37BF48DC13,
73F7C5854BEAE53FCA058DEF34B3AD28E6AD090AB2FCAA42BD07AC8BDA0D25069E1764BD0EED5304766D5A2988A346615A93488DCB7874B2FA7198E5E62D0DB28BA2667F843098C20AE13306CDDCA0DBE42B0C2E8DAD48E5744F7FE3C43CCA35AA38DC6EB252260C3DA8EF018B749EAABB43ADF89F7736F51A4CD40A869BB8C862130793D8BCB0BBD3A6C3185ED6479E132850034F074A9CB2186412DDD8773D667D5C5A5D4CD90BC15FF142452063210B031804CD9B4B51C43DBA4B7AFB5C1EB9800C2A506B4214FDE1BBB53D6F6F26BCBBC5D30B6AE9253594E20482BC387A30ECA4DC76A0029E3968F2F8C8398B9A9E9D1F643CD611AE3BD8100D635786C4,
F182252085C58144E6B8BA161B9154DF3C5F7E33371EBB4CB958F480BEFE56AF9A139239F9A25A6E9D4E0A6ADC9762EC2A39F0A9EE4437677A4065059311ECCC218B08981777833C7BBFEA7081FBFCABA7F9F906C45860E3A46E7F930A3FB1DF3B43FB1AB37A6B039F07B2399BFC02D1723873B152041A896C8510AB1ADAD0DD0FF4340F0A657B845E8A89D600A6E2BDB89014C303BAF368139A07F7B8654A46D58C656CF6A12F85DEA6BB1FF20C46B84BC3D563252165928374C9677543F84508D04E609FA0F703131F5A871FD70D5BEED4B2589F807EEB213E1390E9B08B92C4AED37E75DDF1A70FDDA62ADDF2993133A31163403CBED3BE10ED622DCC3EA5,
14E2C6A800738BAC1CE6ECE35224B64F4AC0935593C8F1DB4C4E8A31DD376858B1CD298495A04D64AB5ABF81EAC9E6DB7E80765314198328FF91154C0724DEDDB8A0070E3CD1C960F79917580F19EE8F0C0C257AE8647737AFF32AFB697D27A7F3FD769DB75E6D873EDF6E5D6884C40F530A83A3234F0E06788080FE2CD565960B52F6ADCC924AF47658945F6A7F5EB8B7C084AFDC64ADC4BBE363957EF0556B584A0149797FA74B4DCFE8194DACF6B8312415083FC496AA0303DF8D2C79B7ACE1032B5985022CD377480FEDA0FCE5E6A8523BEF1D6CD14F566188B19E118D98D6C12C93F8AF63420FEED3CAB0ADE01F4177284157D82F37533BBB4937267046,
1115B72012F622B82DB8205405C43FB44DBCAADFBA2AF75C58618AA2DA1AAD9FA164702F897B584F9D3ED1F7BF900307BAE351E41946E954D2CC0925A719A107F228CB6C7552C019592C0C16897B486F4A2C7BEAC70F542B3729D3F21705B2A5294BAA591F8FA81D3F6C8BDCFBF3D3DD7A628266F4019C2463672CABB82243CB8FC86C956A16E2B40859F6ABB843A3A504553739EE5A7BD0564D00F170FD7D8B858EC9D5FF810FE4EC33FEAAFFCF3FF090377C95083EB22742709DECAB279E77E4D1A9C734FFA5432174B1AB98F11766CDBD6F69F7D5023FE18F9E1ABCBB6EC7AC16DD67006E7A2456F3F94CF1776A48A7B0EF5655ECDDA43BE710116D37A5DE,
566AC82EFBE9425D9B5220445995E75AB31D38D9A40B60C9B273AD709AD65D0A5CC6874CD767221308907829CDCD99FBAE3C9FBE1EDED594C432B0D27D2F4ED18A316BA364CC7CA39726E504B7808C434F5484EFF75D02F588FE0D54AD6FEDF64B877962951E7F7BAFA69A580CA43F208A12D1025D65929845818291140ACE955EBCAEB8825F8DA9E63B274D78E9AD51FA686D80F1947A993A86FC830E16E7182A09ED75306F68DD8FCEA2C85EEC634A4CCCD5D2B10064E78697824C939B84FBB4733B2B5BDE05DC9B1C50FB8D7C3F6D2BAE65ED7C324E6DC6B37DC64DBD3D771523250EA8FF33E2C304B0702413CD921DCBDF5664C91018B7D051C6FB5E7C3E,
FFFF5C663E4252A8A29572593D23A64FEF241D62A15B23D82A28FBEF61A092A05BDC762FD7AE7631D413E916080A87FB977109E50DC3F769175ED14B5C0D940786C9E39A0F7493C1B3A31362E7EACCECB113EC9167F3F328E1E9F10676D1C61FF6F947D006064098B5421C44983C6DC4AE9D5C9C4139179E0BC841A69EA44CB0145C040FAB6D9CF4A1F288AF02AB77A3582E24D994D6A4E2A33239D07B63BFFC481DB3014C917AE41BC407CB776175E245956487D0B30BFCC4CC9C4811D6826D600DDF5BCA3E81175D26761CB26AE73C99D1C61DEE33E905C46BE5F72ED35DC06D98462A69AE4281620A391ABC82DA5240C204E101C373C8E34B452F358AD34F,
8B4E5E02DEB31678DA713EED367A3C8208854C4698B318490AF9D40D6A3AF8A6400930755E292BFF216E6C6EE0EC76EF5471EBFD46A4C518C5999C41958E48CEE88BA2AC2C9605C6395132ACD1AD323F1BB5CF278A77DA5CA27F6B49FE23FC2EB2DFDE41E8050C40DA6EC4024FE2B99F4B1C405BAE16A00B33DF91E1B8AB2823C1FF15BFC22286B09FFE2253BEF92395D8419A63DA1255C8F411AA9186ADC049871E2FAE1A55F9ED28381E197BFB5B20756D8FAF499E48937E4858EA22DB6DC9AE2B550D778103C5CD63F2F53AC1F24A9CEF6EBB5AC43EC7495F507C0FF2022CC35B214E48089EDC51F79B0642EE0DD11D33E42BEEAA7B2B5FA42B9936264B4E,
4ED906B0D74AA1A50F847A148A39EEE27720037C6A029086CDF64090E46A8E5AE53475C3313077216251C0E869A60DFFCCC6AC63A5D6279F97993B7C891996D751ED29CDE393AE815F4522BEEBAFE0B694A3E4FBBDB9885C8CF5E60AAE0ECA9D6B45B2BE8961FC6FFA3FD766B1078140429F28714CC06BB92C65B6805025E75AED81193A519B253F6FB7C092799CB50209D0E8B4BDBD0029F836F569164350D5B15064017C118C946FDE7E320DDDF1651F410BEEAB4E24CE2DA3A5EC871E89C2F1E91E9121799F6B283ADAA18AF33BE4CB37ECCDC7E9A16EF209F3B8FB2F08009D2ADE671E9F9347E4ECCD54374EC5DEA9EBD0F6926B1EAF488A56110A85FF19,
2E81512DEEFC356ADA1886573A2CBDFB8A382514A796F365BA192DB68D4BEBC29B5D68E4ED9C1FCDCB3EB8A119836A9F37A10C6CDD02709497AD2B439CAE7B4BC2E52973D5914A577D02E82EEC6A4135993F0285922E1532A0F935E0C7D9F48241A6BE7BEB597DEE4AB03026806D98AAC0C155D5BFCCF557946E7393EB5E5FDD05C8AC29DF5869A216D541D14CB8C78E6D2AA8DF918A49524F9BD9F1568360E99B9664B4462B27E040B888C6C3DFA3667C0353C3534EFB8A8864DBE196EA970F7B38CA86253E15F1A0E298125CD79854606945E0FBD646E7F7D44AE10D426DA8EFA5AD0A1CD7D39773EB53C377153516909B74935C2E986AD230712C0E5A1BD4,
FB039D04FDF821EE482EF26BCE5CC05971D471194EFC7F88C9395E1D6819D8A45A8551587E063A5F6BE3533946A1C3B1E2125EEA5DCEDEFE49DD9E3057E5BFC9E45EB1135F263DAD5126342977E0AE7B2DB47F12E3227718CB9CE18AA1E36830FA58DCD89568B48F001A2745258312522A05107CC5744494914C464397D24D5CC49608E1D01ED8F073AD217BDD20BCCA08C9099A88F25E03E4EDBD6601DE8B774CB67507A542B99FA7C63063CFEB143C2BA63DDEBEEB173D23CF927BE9B19DA219097DC3537CBD8E8C5B8612F02BBA790EE06E163B43B18CDB87577B175D967492B7C92549B7A178D1F41CAF3D35F51231713977BA22860EE0624C3D2F12096F,
E5BDFB73C46C77D8EFE573E49399222D001C604AA84E9FB02ABFAF6133BF2D78D0553F4AB6A47DDBCBB67C85F6F8E53FD03B28CE8EF98184135C270B8A0DACA04F2C0B0EB73A499C62CF1EBD2D3D22B625635B2AFBC4DECDFBAFA1628ED3C57A454116F114A0A12805E1A15FD3D0E658254D41052BAD143C848981352F38F88E834A9513054610909BA95EC0BC63671212D1E3D6D2E9946185B6C54105E663196B1A13D2B40503297F51708E5266844C75E8DD59CB61F51E56D09252F0349CF0B29A983721FA3043752E0654B3967BA1FCE4F924642C37A4006010F3D7C25E1CAD80766435ABED686F66C9F766D44629C8A86FCB20F4AB312A2A2C7C7FF36006,
736C000B13F0D638DE42E540D8876E55D898551E39FD4497FB3F695AA1E4EBF52587077A7923A1FC6C99111C5D259D536756AB8AD1034508266973B54320E9D7012C49BFB3ED9E7C9B13C9F9FB68409B274B919A50DFE8E81E69D8ED2F12C2A278A00A333ADE6FDF83A6CE37276E5189FA1D2DDB9450E543497E0B04ABC7F9EE92ADA4FC08AB9196126CEB3ED93814EF8397C73D7F005BBC53FE062DD394BE1DBBC9FED8DCB6EE12ACA143FCC317D73E0C1142C7596675DB30EB8C50C1FFDEF1AA3AAC1A738C9FED5387372FE5CFB46C3189CE57476D41F23C755EE8D851D899769E075201552161F03C8B268692A9F34563032C0CB02E57E76B95CBE721C6B8,
22C3F7271E087F3B4CA18778042BFE52A50212D6C209EB11D978844800B7DBE156354B59B42687FCFA1069F59DF48F575E45029DC4DEE94170A4DC0C07079E0FE631FBCFABF84390BACE2209DEA6CCE5DFF2D495CB36AAE7DDA877C7573C8A385C0631DEF3481CD55EE9BD6BD4C4C7749EFFC28973D891AE684349677E9B41EBC9A83E67F5228C20385288DD2D031B1B8F6E29B841D400BBE454E9DA6816C8D4E86B8D968232E72BA12A5E3CB9EBFDDF435B3834F4A2FBC4EB72F10A19FE54B3A20EEC004A92F466C5E2E4DE888A51E0AA10934D4D679BB28C478232DDE8005ED4D74B8C3DA2FD75CD670795003FFCEAA4E39A6743B4B26EA9704BE52F71D699,
E1E805BD54545D907DB4DDCFBBC03197FA605D05A9E256A9A5E125EE196AD1F86EF43785112AA78BBA007DC9FB1CDD30F54823267DA01F2743D28F9BB4DF31CE48E6C04B9D86381418EF93E865A1F0646FEA093C08F44ED7AC4275B0FE21F73A63C92A382CA24CF4F1AB9365442874C52112F357FF820703B12962A4CD8592F6415ED59C5D9BA9034A3950EA12D817D70756A77EAB64E0C16A48A15A8544B8C91F028E7B319F7B78EF242F876BF8DFDA37F624CB085A251301A8985D5CC39B75A8746DB8761CA69C42AC5A5F6E9078A96BA0039802CE15950A976AB79BB9E137CFB913AE5EC5635AE660C19BC8AF9485DB045EDCD15E11AD82CE8C55B6D7079E,
2DA8921AB9AA71FEB950CBF08C0AE278D4D30632D0DEF64FBB71DEB63BC80848A5D5BE8267AC039D13609B60A083765497325542A61E5F445BED4E136C5ACE8778B5BEA5B979C6D17A565588A8B54931DA8B83CE2AF595E361587050F35664971B0DA7AE71731E0A6BA12A09EEB967925B10C435ADA18104DF779DA7128B163B3DE50C12B1D0F87DBA38A3B56E4A0D79DEF0219D058B07AFD32070B930A84644B03943CDB04D8752ABC62978396B8DD40B617154DB5AC226535F5FE3F00FE0FB290D2B09C4C8D085BDA0B85B26FF355C6C486E5E7F03C5614B0D1A883D874AE0091769BE43913637ACFDBC37D63E73BDCCFDE3BAFEFCCE3A7B58A59310520116,
F9C04F83E693F7A40CDB1159A963AF4705F7EEE3F5EF7FB7B72CEF38FD53F161335B15BFD35868EE27FE7C47F80E36C4FB5F548A572D2519355227D34D636F16732707EC3C37C79E7945DD2B936FCD7444AA8742FFACAB2F712C5D3DF405908F1C354347027183B631108C83D0AF08C1EA9283FCD2DE9DE9245B2401ACDFDCF28208B406AFD1E5338E5F25079580C813B5B98B615C47D902CBDEBFBCA9322848347027959C23F87607F3D4A139660B1103CA513767442CFAE0B37BE517EA984A92C7A6CE9D02C4F7AAED61ED08D3E275DADB1C6339DD55F2D71A27D05D958E315F7D92F5F5CB3E2C4C877CE576434A11E2BE70C7784EC2B25F6C8BD420EE3132,
5B464A12B5911B1B34647C5D729235887D7EE80367998D54403C0AD5F563A9E64A212EE9EBBAFC9676718C3C8ADFC35766D9FFB0CE9EE5BEACF8BAA2C35B79BF32249649473014BD7B8C994FE654009A5CAB6248A69F205D78C057892CDC4A649520A444126A2F4EE9AB5F48ABC798FB9B8D0250572E7278192ECB4783F9AECCF478D71B821776EF1D5DA1045043F1A1AE39B451E22D0954DD027963B9BC753C8885CDBA9EF545B6BB0BF947C2DA760B5468D6E77CD8097435D73DBBAA847BF2AF0F81DA6C3C3FF25E843B31E42B3850B4F2B2C288A70097E762433FA4C2EEF9D77795E058B403C941F14B10D1AA9A24F7AEF0EF2154FAA08ED99A6774CBAD86,
2BC7E9862CD63E951480E276F0F80CE85F41F70800AD3399F86CD3D94D1636260F6821481F6D9ED4D137F182C7FEA52AF826D9652A8F6940CE42E954BD414C9C32871400287F62DE455F1DAAE82C6F1356C68F30E996EC2E11330A732D2225C918DEFE46CBC79F9A24726DBD06BD1E1E0DD06DE9A8B93926F43DAD1AE2190499C433C1A99095572FC376F131728DDE5D60F704C5056446C176F410111F30EEC2B97CD5386D9759A73F9A177D2B287C060DC119E60C08763D80FC08BD906FC92F0537953FD15CF71E42E9D21962374CBF28B7C5D5A17ECD6EBF5BC2C69FAEC2B199C67F0DB56691DF2EB550B399CF64BF9DC14EB341E49366726DD6079D7DF2DE,
6A2377A1D241DD449975EBD3C618C1C3BFCEBB3AACE0852AA21D41B7D8A3E544D4178B1A825BECEBB3D3A4652DDE238ADBB9494D9FC3A171E288D2B443E907D64FF8E17C8CC2424362DFAD7B1F7BB0B7A5BF3A00D7FBAD6011401CDDA912E27902754054E1B3014804ED118F313FA2676BA8BB6261B3B3848996159249EE2BB0A8A9CADEDBE2E2C2817886A9BBC16633842BC00BB721B111F904D1AE43781FB90A6DCC4E9493B5814EAB8304BC819230BBC7C391960E925428236A5C472CCFBEA861F38BFBA8DB80148BD179F800602B59A9FF7AFF61768C2CB988357C73CAB2BC8FB5DD8A37CB48F60806B637E129D1536D9EE57B3935560142436F1E565F3D,
F19B5DA9F70DF8445F79336FAF69519F6D00359C47F1C75AB582E7D22ADF3398320D74973B939015985285F949B0E41B706F15E4239B3B41C45CD58B92813435399B1BE2AC410A253DA4A512C5153D2D2E9F1D7CCE81E4DC16020EE8A8C1641EE95837A3CD7F6CC0C4C609DE5ECE7307206BB03978462DB43A52E12F7691D14BE03A5CA9C1449E7AB550FC3979EEE3BDB3A5DD7E5D5065DFBF8EFDA20062B8F9B8874D5F8F7B63A38602DD7D7B4215CC358A10380C449490EA243A10049AE78351AC77E35FD23E01E59B1DEB8565DF2C3E7F697FBE18F6EA386F7D134AB0053757CED46D039F1FB6D0FC5687510417BAA944127EE0C4C8177BC5181DAAF582A5,
DF5AAE701D8A098B7CC13B2BEAFE8A79E8B524FA07EDF636CF8C2053C2E5DBAC07ACB46676ADA2C856F09EEB41561C98E8EC49BCDC5798040D422DF4D37524B5D92D2AC84FEA68F707EF2BF44B659098CB2CAF6A76A014540E3A4EBE915ED6A7CD686FE339326835DB9992CC118BFAC47D09483B3A92F4ABC3A50693BA7CF9EAF3A737FDBEEBDFFEFF1BE56C9216847AC308DF5BD8944F89645DA0AD6E9890A39E89FD6E6543E4533DF83E0AFD553D1FF77743E14AF76DAAED1F97B3F13D250A6154E8830B9FBB0D1F3E70363400A9CF4BE6405E56F8D4BD509D69339DF0CEFDD354AC0327393A92BF8A2CB6C461593B3F0F6A8DF41BD0D6600BE770F7607C36,
F3B3ABC83288DBF12099C8821B0753284623179DD7C5D79255D030946602ADB716B15A557197689F57BF8884942B5FE7CAF02F581229EE910CFB9D9E3DC9782BA5A0C1EE37246173FF766269A6997C59EC571BA6BE2F2C54896133B306F94E4514458A3F4F6B05CB938A7E86E8EB8B1E7F05B2B6917725113283BC9FBFD5318C7F798D89E2E5DDE663D92548EFBA6433C9453C5CEE40968BCA2AB3833D903CF87EE363CFCECB650EC3B9ED2BA8B87331774F2D4A4D5C8A9DB73DBE34F38B132D0CA81BEFA8EBDCDFFB9E0A7EDFA107AB01F642D25DA60BBB1EEB18BFBCCD5B23388A0CA0E0B2BDCE119CECD3F96DEAAC7E2246C45FF9EE6DBEFA8018968A85F4,
6B65E198055617E2975D6892E0AF74283F421BE576235D6AD6B5B379E53BFDF1528A5FE44BC2294D6FBBFC5E30597703347F02DCFBA2FC784F84E27AC95F49417BD73060D8A5E128E4F402E830C30B02198D36E28EF566AEAEAC80B7ACA82D8A00879A11F7BDBB7A55EF754FEE8717242CF834F27BE9C289DCBBB604BEFC1696EA7FAE589485EDDD27B5FF14A7143155C6613C049C3D91CAF075D872C777B60DABA56131718725C32B617330D993423CD5BEA5DD428491530C03DA3292378E2474BA019E99592711A1DE21E250BE759F5366A9EC981D0F6C5DE7516371A76E18C152864D3BEBA7001C60D01AAAE6F2C3CFC9678B0D0DE0E217FFFC756588928A,
1EC371A9A6DA8BE3EA6EE9B6780506FAB77E4C868EC3CD1FFF2AC4799D12FE33159D07B5954A50B131E3CA88F150DCAFA6624C8C112D02A4A01A51E978CD355614A8061CAE0FA10A6E9B2BF134F08419784E469C825C10E93234261E9568E05667A6CAEA4DEE66F601060326A3CDB4FB2B4CD75CC3BBCD25B033171AAD612BC6EFF5641130A94ABAE63037FF86F824220900FFDC3821E2DB2CC2B1CFA10E2DD39A8AB6EB51F1DCC7612A458344368CED74321BF00B02051F7F45B958378644F041DECB08F227A0957726263D8509E16B898B9FF63ACEBEE82C43EC9A16D3D659C6A03EE3EED67D9C08B048EAC24C1C87EB64613967BE1DE4897F6A7A9F896B2A,
2789C34694D5E7B6D1FA12BB67C6BE8E89DB74D0E4B7E19865808171B4E4F3770A1BC18BCE7118C75B1555BA4BF64AE7D38E250D709917CD1357507F2DD6BF62D0896650FD598BF161FC141374151DEAC3952F418439447EFB1191AA90CEBCEB64AE6B7DFDC458A937DC8777FF996AD1694A77A9360C77DBF99A54D3FA8BB6075EA9E79CAFBB3D9FA0168B609816C2CC69025CCF41688F00D3A51DC11F186ADCA04B3940B57A288DBEE7C795B5354002CFB2CA77A1B83319E4C08BA998CF9DE8222E76D7B05F0267BCB428131F35611B9E3C2411EF84E462CE476CC2EE8CC5245C1B43E945BBC4E1FBA9D1C2DA5B9B985758EDFDA0499C4E2B216B335700A4E4,
F88014115120972C39793E47AACA2E8EC57431903DA5935D4A9E5B5C1511CE761DFF6BD78083A41445397B5F1AB1A18C4730A632E6233B2A5D7B5F3494CD2AFFE1860DC4FD8CEB0749A2CCD237F271B551001607EF8718AA71FE5CA66236FAC8A31E15B3A6B1A7C8DFA555D369C8FFF48F950C42CBD7CE59BAACA60A2B4306EAF067946F3F1714BBD86EE730E62996677CA8811B4A5017686BED24A84C8EEE08F860B07028A5C4EC0883EDD552A21B8F5E4DCD78D7D942692CF49054EC51BA47B06FCA9D73CC113A26251A38ABC8A5B5F7C9ECB4EC5CD00686B5E4C4B155EFF1E624034895CA39D819F4EA154FC416889586479D039F32B9BDF445B19F7E6682,
2755636524EDB7DD62F41FD186589DC825D2B4D3876217BF026658B99FC590DBA0460DC41D8893BADBAAB6B0BA3236E8DCE515E85A4BDE9E43B7F0BF11C07031133943045DA944232A9F0D2784B20674F21BDD23D3FE09B2135E8BFACC3CB30939E442C73B22F54DAE4C0317309F4E5CA7D09DF53B50DCFE3E313687F75F965856A6B21CFF642544B9A9FC7D58E04E3DEEA8722B288038A99B5C9D11F1CF69B6809BB812BDFBE35796B1027E7FF2447537685A9665AC445141E1F2E1A867421227D5A7ACD0D45365BD4D200D021D8B85F0ED2F7970434DDEFE2C0E00E49C9E0E24B21DC5ECA8D5742ADDE8BB5BE8CD289CDCE2E13AF8EE7E6E2A895FD4910E01,
CDEBAA785DB7B998A3B9E995E6C9EC17F397D1BD21050C171DE1E828AE481C76A84959A6127122EF9526EFBA1CA28423DA6A065559D22FE71D485388A52B68D53F55AA63A3D9744C22016FE2F9BE12CA0B8846E0344E1AC168FF0BADD1F941A8E1360ABA98285D303952A6A3F4FEF2DDA363446F9E31898B51DB060D0ECD3BF99E38DF716FE2A6264581570278EA80F7E9437814A9D6292D5AF83DC718B325204302C561E1B0D365611BC16CFD25211BFF92CBE7E19EFA83688A7BDD6F147F67FAA7CB2D8D5D3732D15B52FBA0F9244C5C1F2330D3CBA6DFDDF80C6D5747FE265CBA655BDAB22812BE450885DEB87BBAF08BE62445CB710FA02A785502D39E99,
59D1892ECFD9FEFE651E5686480665CE314B24E9F264A8A413574AC7261DE89A6E001CD7ACC25F7A844555BBBC5273568B32091011BD019032D8CF9A27E67AC63065F895DE92EA0F06DD5FD12FBED199DDCCDF460AC9B5FB25C866A3A4A79A34807CA15E28F63998384A6387D1F2F34B2E50374BA055A190830C563F2627442BA354DE063366F3302298D8F64A462CBA11B422EDE47E80B643DE54035D420EA11BCFCCFB616F09C267ADF88B431DCB1292FB6FA276574EA374857666B3EF6007C7A071D2B82D811E2CF4571E11EF435F321FDA88FA6DEE65727FF3A5BEC4485617B846D4F198EE7E16690F1A4711E1BE5E8CBCF79AC44ECC6E7B50D5D4CEADA9,
C36D0E420B12E9CFE55CE68CE78A6297965940000813C0D76778EC1A3B0E80EEAF01A80CDF6FCC29D7CD52F030F44744647893BB3173E8932E152D226668418C5320923BEF4506B913E1E165D0A100220AF9E3B62B3A338A437AEE5647A0C30E07220D127CECA8C698F0751928A174A8BA1EBA61263F17F194720A0091D2F9A41DAB9B53CEB304A5FBF4E3EF9A8BCD3D0D3D8A5A4BCE40B93D242403124EB10DE2DC95B86B1D34392810193C7FB656A8BDBD6E6CBC2C92F5397854FD521C27B914DB069C8D78BC4054B312BF488BE59E0F4BD67B4DD8006882691DC27FFB801DAAE738046091DF13450885BCF92C44C8AAE540AD945604D46F59E39016C9AC94,
CE6986719D8E2FECBCDE7ACFC54330FE10E028E681A33C83CB70C2FFF07F6C6C266D7AAE285F631B340139DA8E9D37DAA55666DE33BB21E154044A73D2AC0C05684C6178D167F71529350CCBDDC7579014DDECBF68B0C3BFFF2DC9A310D4CE2CC05555C588E22F1B2C778F511061B62F40C427837DA09A4056F7D9050770EB9C253A8B5AF35359C7817F92B46B60C36AD61B9F001344F4C8C0556D5D5A2F34CDE59B846A1B106B96BB7E115FC17F36ADB21658E157AEF43598E662A964B4FB4432DBA09E9382E99FF83D962772F8F6483E263EFC0C0E7BC3E1D081CF1E748DA245D3B274503C536629D4CFCF5FCDB0321CF5BF6E18CF47B5ECCE216845C86775,
E63317CC8E349F153994B8F8291A3A53DAA8182A972EDE522CED38741C13F53179F0ED15FCF29E5DE2AB64221B33E25D700E29623AB03BC7A4926A99044363AF929ED07816F5EBE600CBCE60F8DFFA6E69E998143DDA006B9AA6FA4668D952DD6903E211902639B73BC949A819C08ECED71C49B3FD2BE71C4E0891434138C48A1CF4CA7DBE3BC67C986E320BE6FB178362D98E27AB447F48BC05FE2394B5F714C823B438BE4A4EB25BC55235D3ED35950AF4FB5A842B3FE1E6CB59EFED46A541C571200C74FD452FB0B78CA77D230102B7B01A74445FC8A230FFEEE0C9E1CB2BFD81CDD49655159D436330353BF95ABB89DF73557244AA57CC4A858195066BF2,
81008960536FF92DE9D36DD566C720021FEF3A606726B020CD806871857CB9925EE0C68120485208D4563A21A819F7696889D8C7B7BC19F17F64A2B4DD2A3ABC5A85593F6A39BB2828FF9F2746D8E3156038CB235C9B741940159AD46282EF33917A7BF9B7E5CE84288601A54BFFE3C2517AB73B36AE172C93E403F50DE2B91D9A17B147F617F0C765DED7919E704710F3F26B65B8A47D3FDD0B41D9FEC798F2451415F5339002BFFC1383FD2C42FC9CBD2B290558675A14302F01A82161AB36C2450ABB15152F02199DE2CD4AE1D041B7CF252F775D4DA3AF8E340CBDA069958D668F1A3777DABFFA33663B33739A7B9376F3B860DAB32BED12FF4ADF15762C,
4D85A12659474A351B014EE51EC7E7E628C96F7F871896F1A105830B552249E1B7973B0FE916EB3DA70E3F8A777D91082EE0D6AFDF2A31AA151C7952FD695365FAFB69D30DB8EAE48A23D80033049796143407D374003DA8322402BDD91312287C268A3E9935868F29312BCA0FB183C42D5FDFF4670EA4F94F415E01037FFCDFA8B51DFB33BBEE745A98CEA1336FDD5CE593E943DCDBCE6F5DEBAD8F8B47C726F20EC0D72FFA357908F3D5CAA4B5DD6A5D0A4F4143F412CD403A6EEC66F8C6F683C03CDDE5278F9867DF490ED5C46BADDDE17AAF68E0E8C39CA0E1ADC124076AAA290DD6BA8AD240DF4089720B33DAC77F3DB85F678240AAAFFE006CC0220713,
374BE54A5ED21F350B54E720B3ECB308E041DC35816BDD74CC418E267E3FEE3996E908126213E735F6355F4A584F05753AC6B6A102EFCEB0CBF9F1B1E3E1AC6B7A12B8D870BE1D543A4F80F2F661DD4533E2ADC2843318CA907CCAB3BDF8CC3278E9E19D0E9F1AB4D383D0916DBC031C3B21C671597B56B14274EFBFF1E559E145132D7DFADABDF70539D0CD1FE346770BC405F5CEEFA00D9843043EECE6E6A3CF8C7A2473107A5022FF8E5AB163033FF665040FEBC3F2A9FE473B157173DCA39573B3CF9FD6AF4117F139B14F68392C0EAD7476F47CE2CC4CA772699C5514DDBABEABB8E405AB73216E1B1FF267016F180DDF08969EE19254D63B81308CE82E,
911EF3D07CBE5BF8406DA7DF977BECE9AE4B0D9E8C4F5EF80BD196E98A49A8BB1EFD91AD5FE53B92FB6D09DB731B63D8143E9C594D9BBB3F0225DE45149637ABFE77BFABC4FBC0F9073E9D86A975FD1AB045D831F0E04B1B18A5E4AFBC7DB1D7ACC66A43939AA6799FA5AEBEA92AF5C0D14B80B7E84743AF5F532CD2B321C77BE98D25D662077E64A94311BD2B3BF5BC9FBFFA00F478257BB864475B6B8A7238C7ED73EEF07ED526719DB82A96421A19E854C02F1E6E5FC456859C2B40D1067063779A90184724CB7C081F8B290485508A421BE0EA177FB32100654E943B0F5316A5EF1B2F5F32FC640EE21BEA05635E168A765996D45CEBC271851174381FF4,
9545AD18753EF9B70E8F053E97CF64302E8D6F3C155125F9F86AB8B4A028D8AD3D6BE98F58505205D28D71F5C5CE2BE109699FBA1F33630404E028A5B05987889D5A4D3774B8C6C3522021711410AB320247888B4FE1B38DD5238129F96A5C6CD8A8816B6CC92AF3608475535F0F8501530BB0BE5B4D19619290699A17BC45E91D21046FF22705F6FC5585457ECFA6618AAB9FE7746195E78C0456017146896A092D2DAA34AB2AA29972863F1F11090153246E1681C669812AF05AD86B2AE5DAD54922E07DD1A93373C1C051589A13BFF6CA640E618436DE762F1313260344726511613554DF643BB28A9A0F6E54C5FF92277C8069B3885BC01B0112004D8CCF,
780EB02477560E4E5F07433298081B874F973D257F44546A5C892533E95F75839A0CE3CE6D0407D5CB55DEFCB70D2A311FA42978409CD68855D33C7E1DD37A97B162495E7CA761A220674B6B3F065C94676D57C99B93A8D25555A6B3214EA477AE967502BAD99107712F6DEA26BDC787AB1B826756ADBF6BF0F928600FF86050E4C25A6134EDEC97D3E8B34979F15EBC1D03DA65B6F3422571C359D96DB4495E698E711E6E7C77C5723305AC8B59C362BA51B0D20B11672AB369EE68660689A0509AFD4A415958E3EC0B39CBCD14FB627AB2F667BA958ABA9B0BBEA3E799B9089D4ECFB1A309BB83EFD44A79C1E529C36B44D4D4DC45C838751CE8A7E0DC6D8F,
5E085B530F1A92036ACCEB4146D7940B612291F135B62F2FC183E9E1B54C1D65954FCFC193BBE76275E0125C718EB3156DC2D240C221A27ABAC15D0173EF354B4EE4C37BF8EA3ABF4F4F0D66CF7399CB04FC1594D3227B609A47CB7BE24AC6C6FA3ACEB5DDF6CE5193B1C56ED54821BF03C5C239C724F1A90E829F821572DB166096D2594F86D77B2E3E783CC8CE24F9BE072B112BAFFC6DBCA37ED5C2C0B2F07E6A9D3D238A88A929F4CA8DAD4EB934725A3DFADA7F26AB1B83D16A47A1F3630871746687A1BC8B6192585631E12DD5263DA835C5B2715EB55F4410099536872CB8E2E2B26AAE9C35C8DA99EB1C47618994578058D0D469758C3AB8A05F1D83,
0772419285FA240335C8BE157E0A314AF01544D9A1505CAA3DA0BB8238C69C6E7B4EFB749B3BDC57BD15C252C474C3F967676CBAC9018B212825AA9144A8DFD3CE8CC327FCE87077DB22F40BDBF13C84BA58586AAA270867DE6EEB1077C3BC6BB9EB696AB13F876BFD0E11E6D40CA47B8003383C21D51C57C14BF8BE9DF5EE7123C80EFB797690DE46A35E4E55ECAC817647ECCCE4ADF43E45AB62FF75C7973F74546D79CE5D26F1BC088BF19C1AC61873F74862F41DC0C63CBE57DA45EC86ABE252FEDE8DB47177FA3ADE9BB7601CA7B89A2E70ACA02E1B8CC9876A014E93B5408C5B88D16983616FC96763C30E74BCCF37103EF41C518DC991BC989CC29989,
8533093714C64ED561A25C08D8E4A8899BD29E5A3E0A399A710F4BDF94BF09BDEAA0E6AE34904371BE57DACCEFEA640DA7773FE2F0CB26972D4901A77E6F39BD17375BFE40FBDD75E329157C02949C08BFD7BB794B33FAC7B839263E697FD05A5644A19A58AF30215A6EB2C490D4F0CC52CA7B7E26303BD080712D7E6D0E52067CF17487A29D2FB1532A13C5977A3F5EBA92FC68BEF282DEF6EAD5F5BE7C7E9616ED928BF2098B8D97C5B3B1AE3F056231655055353D6AF463FBED1ABEC8D1424C7E0B4FBE95B40C78D185FF1CF86D123E3523BCEC802F0A7C5AA0A6CBE658B0BF3AF20996A0CD21AF0597DBAAC43CB91F26F0CA5E3464DD394EBD767370095B,
5416DD6E67B1CBA9A4F15CCD37A2C71BFFB4A5BF88E4346F8A1A74C2DC18297BF414BCA0080C22A7758CC5DC5B83D66DBAFC62B87753A2FBFAAC2D76B53FF654560E60BD3171C18FDE68A5E8C1D67E41CDBE85F58BC87BA6BC4581597CA5F607F2AD1ED87EF74467B0F5182CA44AE0E152F4B2CF88A7CAD0567CEDC4D86845558A17A79296BB45958E3FC41A1D68A4ADBF804B595C3E4D4FD4E9504F254D8BA0952029D46176550DB095448EA4A08E8549E664B1A3C8C38A043A6D5B688315D2CD16018643925E7EE875DBFF478CCB2340B6238B574BEBF2614246D955C344E32AAEAE5B5477D07434AFD219EB13A5EE6FDFFCF033F4609DD83AC583B92E4164,
7B85912458FA309CB8C96331AB8DFF77FF9D962750C3D27808D1F50F2A9CF42F0DCE30F2836546F5BC8BFF5E00BD320EA58F57639FBA678E24E99AE1062F7AA86A2CA763DDE50273554EC3E793A871E7CFE5184D89B802E4364E9FEA84EFC35BF82DB6EDBAFE9E27E0800190E89C71E1990A45B8D46D257EA58C4938B50EBF31689380A258C74E7FD642519E6DF14F45B71F047D71F0266A52AA7B36A1D724BA24AD8323366362CCC32FB373C2D90931EA2E8285D615B53DED50D26A4D9BE61CB6CCCABE4904DF64348BCF641069904CEFC8D92D4709F98DB55260FD49221932086FB644464F621B9843E89AC08C55B1A30AC2C7C3B1E181F8CC61D983099242,
B71F90800E9B0941A423F18645920A10647EC0DD3EBC48F14A6F298F4DBECC0013BC51EDB62302456A00F8428927AA34E12DCFBDAEA2D3C6E87F4DE259AC24E3F5C129389B46C6CDDDBA21FBF3430083EE190CAA61BAB58079F1385121246286BF1AD9E65A035543A19DEE31CD898061C68F52FA1F21A518F93ECA8DEFC15D3CB68A1D8D2F2A523608F53A1D0CB7FC56EA3904F82A8884D2285ADBC208FAF42A1BCE8353BFD6E3DA35753234DA08E873BD62B46EAA3E5F50CF96EECD630B354DFA0D56B9A2DB1443A828067F5C6B08CD15AD311F984FD6DE51F24E4D217B8F380859F7A4592A0453B265BBC4CB59CD53A2D7A3F2E1A72A915AD6827EFD6158E7,
4165A6D22CE3BB3DD2DE22519C417DC025FEB5B79B7A60C8DD94B5CC101A8F780812D4029BB6EEE4EAD7DFDF920C94B5DAE4CB9C17CABCFC3C4DA65EFF1259CFE7A22711A1363772291B641EF1F6CB9C9D1E24E2859D98F113562A84CBDE837BB924BDB0C214EF696F3BA8A60B411D28C2148EDD1CFFB35ADE675915CB1FD2B370D0E4DC259CDDA4E5D09BA4E886D047C7974F2CA6BD5B1AE0C2ABDFBE3DC6426F4B14C948E15F92405EF82C0B675C63E18C789E4B505A61D8AA699072EC2C9BCC57A9E9727936144561678967215DABD063A5BEBA6B3B3DDE737468BE54AA7D222D222787D6F6E8E4F3A25BE608DBB596B8375387C13303FAC8B13C22E7CF0B,
58531C00B16A81F97BAB673084F4E2C22C333D433CA878B84F43419DC4AA894020E27CFD3F0070B2BCCA97717095A0C19AC9623E8A1068E0364A6ADAA5ACCF606ABED51BCBD28B80517806C3852D28933AA822C9E192C51B60059FCCA7A286F1AB1A414A623ECD22D1C58533E091BBA8B88E138ADC69464F3503E928B01785E3F6D74FB4AEA697B90F019FBEFEAE825610267A2DF6EE1693094F543741C36712E87A57ABEAFF792094AA94091AB2C28B33192BCD20E262EFC51DB20C01F5C44337296A0F0EAB73116FE4BCC9B3642869FA602C31D0654837E78DBFDAAD50B481301AA4005544575C5307885AC8C55D0C04540E29EB8CDE8FF76EF06389ACA945,
A57D3C490B1BB0D989DC3312293E7FB5ECB7B5175AE393C20C1E2F40AB500B75841B8F9327B2BCC7C4AED3E99B0AD4E9893C206FC0D00F03C00CE108A9DEADE0654B2B2FCA773104835738F77264738CA0F06A9AFB59D0E987C89422149951FB14B9FA664AA31E12B3EFDB65FBA1A0D8253B4FEA546D550A4F097D85D3FCC4E2AD925BE3BAFA9880CF3A3F329F55C39F96EC20DC48A8D6AB8EB74E311F991FA436A89E9F776012321F53B291CF55B3CFC52495AFEC24B7D1D45EA9B04C8BDE6D2C8510FC5547F76DC1ED72A74AE5F2ADABFDF54043A5E90261D0038F933FA302C27E09D0949A885E38976CFC6C225E5F1276308AE1C79BF351D8FC1AF2DE418C,
76E856C152E5035ADDCE2BAF8CDDFE1BBE7022D546BF6AFCAE9B2D48AC82707F5A2E9135A7A93116416C29A046C0BBF8D359FD010602B04788E94EF8B4DAD0B9C660191F473BE8C0187FD65BA4BF0A4BEBD229A9625812862AC02C64703D4E5C167D723F6A5D311742388C5221D82A1898809222E54F390D71DEF4AA723406FFEC3C302CDFCD537B8255CD3165E77980667DA422CE800507B10156662B7FCD5795C33FADAB858E545A791F9B2EBD22BB5DDFB96AA0EB23DBA2242713803AA191558A32805C9659CB8EC6FEEE44DDD69927E0917CAC501321676F85F6BAD03195C87CB2400A3F4EEFF84FCEC822986FFFA7B5233ECFABBC04829A462419E159B4,
05005B13F8F7F01B29D7AAD2B23BFC69DE42A7ED2F58E4839A1809A9F9FA52E947C5B4A4464F60C43B3635C2AA05D3D127E697D9FA8A0ED64CCC43284A4132735F0685F16A7DF5A4BEE723EBC8875DC586ACBCA2D457EC793CCFD3C54B11A3626B7D721CB744D18226173066D53B3A51068F67690B082A28578422D356D297DAF3CBCD29CB3F685FFC79F04BC675B842E981766E1570C7EB31684CB9C889A0F3A15D0E63E89D7CA7AE237B50485626590DA23736E99280EE11FE2DD34F3317A2B9C1BD115AA80F9C44319A994CB08453818E71127D31E6087BC1622A84A55351DC729949C7B2D3808791E95D354B6041CE8F27253B5DEB1E8366D314A4E9506E,
C4880C2F8654DF6042071589E54955FFC07A369F4DA5831AD624100C73B417A5BFC5C40A2833285C86F83C6D585CC23478E379C83CC53DCC6F3E71072058C55E7123F60FA53D1A97F1329438EC101C31573121641A400B92AA57274DDF1DBF744572DAA14A6102165E924B7A6DF171FA29EF2446179E71DE08651869FE091C0E07327F9D7563DBB8895610BAA700D8E4893E909FF0975767B0AFEE9E50A047514124BE7AF9D4F13C2BE647D5D813D3503BED88ABADF10126517047BF23C0AF4AF63973020C44B6CBAAB699342A8903AEF9A59994B46D39C4A2204413A390FABD7AD478D94C059DBC8B30F8662638D5726981EBFEC6B5584A69A9E9A6DC243AE1,
7BAA7D2DF774D52C00B84F739B92C52D41BDF15BFF6496BA064DA325923E5219AEB7008092A11368E5F5C9E15EBF50CAE474974FBC72406F83CF2D7A7BD5ECE17C1F56B3A397D9665ED484A85F12F3B81F90E7BD21A8A120732EA4264E9ABF44D0B5D441DB372BA7238F3E51AE413F84C26FD6D6F86BC8A6151A736861FA0517EA03311976335B5C70B89EC93B05F492C48195A9B483D336A83ECC0BA6FFFF9F219D3F376CE964999F65952FE53583374AFE825ED839A82AD8D278590A5141BF74253C4294CB5A32907AAE2194FD04FF220426F022FE9FDED6C80CE2096230AB9A2D29448068B1EE2577C3F5565F33E97AB86CA21C8BE5D88317407507763C18,
FA7391A8B9A7C1FCD099A3D837DB6D85D29196D625EB8E88ED97BCC46663D7CC9699BD152A767FEE4DE69159EC8DA62F71F5CB14FADDCDE4C3FCE784F2C679EE45825A4615B9614953CF2ADB4673FFB5AA91D4B1E5C974EC22AA70FE23791397E5695AF9175390BB44388A357340829155A16DC04EE63E960CDFFBE9F53878A1B54F73358F8702ACB1703C5D2546CFCE5A253A9A798544B170A05241B9219F31EF0A94D545BF6744C3C90E930AEE366653489C9A56B0B81F3E14FC4AA0E94D790CC33DD98194B361A0F5A40AD670AA5ADDE1E3B8DE07F2772109E1CEF9A1F8784493311FABCAF959BC7228F74B958CCC979F56E0395E01D6C3BE63C48447A11D,
B719CC9BB009EAC59A089322639AA93D886DB55266BD09E8FA3178EB8AEFEEDCC246845241BE646C79487648CA712E4546940A17DA35CC86CCE9830808513CB37E64D6D34D077DD27B9381F3F7BA1AD981DE08A6B7A12F3B8052D14356AF2EA0EF02CD416A2A452BA75189EC52C6AD66BAE92507FEA6CD61D9EE5A813ACB4EE82356F1B1C99A7E9626BD082B2FA1146609420CF41A01C0A5A07AA3B4DDD712A7E957EAF9F20B94A654CBE1ACCD42C23C4A95BD6E5CA9C4D64433FCE1874C0E182916D3983ED70B9B13BABEAEACBC1B4DB9A45E5F16B072C799125792619E00F22905BA233DA6CF92EF4A8FC9142BB264EC457B877DD73C872EA2FE1BCE8443D9,
CF3A34EDF2DD1BC59AB3B31A7104A9B6D8E85808154952310278ED145B88A21A0013130EE0CCB23F632B1CD3482B7722D8A22659527CDA1AF845FCDE7BA736F392A629642DACB879608C57B9864888B38AFAD2E8FE568A9ED61430A397D8EC820B776E3232EC895D6CAE2D705CCD5F73EE1BCD921E9220B62F90EE4D22DF8D5D1DFDDE4D4CB8BAAC691F7C3DB6A910D44D8AFC1A0EC3A33596C7A6F4D2879AFCC660C5BAFE07E32EA5583F7BC0F860240B291CCDF8DDC7B35C429F574FE70E409F0F0FF83951DBADAF9B4957D58A2384523487D91BC589A8995067FC3CBF195E57A26C158FADA160B4847E8021021B77A98FFCC9325B0F1B471E61CA08345697,
C245F6062483051B49C43A1BAAB29EA1E8BB558E7DDBB2014713A6E65D6085EEE594E3388D6516FBD8A413E679C27FCAD5D172E44BD61E15A9630D39196B3CB5B9A91506448BBFBF77C7B309A9F303C6A5EEAFE21F2E0AC64C6DBF40CB91AC490276C7A5EF1666A72F6584280B62D2AF58C1942C26CD81F1BC464F56836CF1ECEB890DC1A0EF0482BB4BDDF01702F2A63B9067368676C1C25EC78602911B151E056810AD033BD04D284FF50A20458C3A5A859B098190A43C5BC136DD43D01E807F4F9FD264E6D377B347C74F09036E06354145175A2FD93CC348B267872EC08A657B8E4088C0AB26C4F9CE7FC8BFB28BEF0AB4FC5164E4EFDF24A1EEE604ED02,
B412392A24742F3F7E61DC4C4391E99E9F59CA05A054252D37BE0AEF0653533763CD841EE4D38464B4D38DEAA9A77060978D3D9328F0CF072486CA93F237539E1651F916B5042D49232EABE28114CCDB052C825072D9C71C18BEA2EA6F8FE7F57C11EDC1139B67C81F908F9D326A908E1D77E67090F0994189ACFA17E425C6FBB6410D042F9B7DAE44F836029211414A6593E58D69BE59D359384492B7E78C488045858D5052AD69A37CA3FD498C05C2D26DF2BA490BEEF55A9AC47A49C5AA55CB673C8AA7B23C4879E48A12BD8C92B43D74CC97FED69964DDC6EE3E41D5FE354609501C62F9F23F5F5EEBE00C5AACEC4EB8393BCE651D6C0790A824FD403930,
0A266BFEE90EF9815F8191CDB897EB1292F63D6C32A24EE54EC488BC08B864943D9518A8BFA9F4882D0CF88746B2BEE37D6C4A1A752F6E8CBB86165E525160CDF429FB0AE09597A8A696675331590536B9CEA5560009710742ADDDB0860750B6F2F1F6AC771C39C5776D823D5CBEEE61CADF5CB51396772657F892384CA0B8B8FAF211C0776730D3E1BF25E56E3C64DB0CF041D29B4661FDACDF41D5ABB415CF4473512D4D5EE1BDC4EC2D271C2A854A466B29215AEEFD3479529E7469F230634084AD45420BB7E4E0B67F01D492F17830D3FCEC90E109E05E82754759B9E4BC0020224112B42228F5DACFC27CB8B84896F09F7D73418DF2A9453381E79D2846,
3B84B36A1D35A0D13392BDA44BA1A88ABD0FD395714FFE762B6A5488D431CCC98DC6F129705A94BB640E196440450FD4E2465DD3608B613D88758639DDABBF614CE645C8E57C0663468E5663D3B19FAC150A44F54A782AE8EFB7E86E25213A283D3C7D6FAD71D204D08D67A569F311498F1B283C662F844D745BF4749498214AEDAF494549180CF8E2BB5C391D0A3CA02E1ABB3E91EF4430D6B9F4795E16727E6297E55A0705E81A205DD6BD6FB20839D8C8BE5BE1D533B0864BCDEAE3AAAC4D7B42B86C8A2814E0512B9EF0104F98C706FAFC9C4CF7BCB0768F4B630E6AC4517D30BFF50FBF06FFAC91FF5F3F0A6BE19602ADE9200C1E28CBB9EE8F33141D09,
ACCEBF1A80A0FE36E23A3DA97FAE78E3B110942FFDFC7958FAB9117AB4A44DB2C160995AF2F1B58DE2490287A709AFF9F534FE6B14B324EF32504A42C877E39508F3AF976D189DAC20B9402ECA51CE9222AE114560D1417755A4CCBCDB4C43C13F1577D054CC89E5DA556B1720D333DDF06AA30E3C91577E966138F31D1F0F3B9795159710A9DC0138C70C593FB829722BB51C1C620A1D45E5C9B27B0549108C9E0B5E6262D6AE701FB0B41CBC00C1784350658767D82E7527B06000F09CD0CC1854DC9890D55410084828F9FD3891FC4A14CB9BB7E40381E67C51DBE8F07FBB7ADD5F3D8A97E146A8E94D14BEB08DEDB03811D1990135A3D9C771C6514F4481,
F2AE2C7249AA187F6861584FDAE5F81967278F52BDC91E44B0863CC5FDE59932032F3FD1BA98FDF982E57B786CAE25878AC4B116DD40D34EC21C83C3E67F16EE8A031AB2F37212D1AA291452B10ADA5535EAAECC8746CD8F27956CE5D341B7A9991B1C7139BBBEE79D054283E3BBFD67A6A30A3F6F1E9A86087B8DC28421D26C4C8A56D74251D9FF5BC4BF63D43FB032F7D567A2FE0BB81BD69C443274839F7C09972C381ADAFCF1F39ED618DED17C41F0F753A0DE5D089ADB5EAE632763BA3DEE890F66CB47D610D9576A39CCF257EA13FCE69932AB6002FEB6848DA71A06EA9FC3DDBDBE312EE9CEFFF8F3630EBA74C88A8A009BB9B53BDB20BF5A1D89CDB4,
6CD5046D911A1038D6B3500D7B95E2816BC4899E08C3207B06ABA29B46807DFA27BB2B09F9BDFC6CA2470FF5A4F5B6C9182DC9488A989B2BBB9B0EF1E81957345AF044F34C04D3D51023904A559C994B46BC5B445956A54A07474BAF6991B38E75D332C255F80B0875AFC754133C3B7E29E91F275ADCE7FD2F47B179EFB36451B668FB2C8F9F2CF9A9C7621E6610E6D9410B745E575DACF25BE8D480E9A3F1E1D8B0FA6724714D0073A7FD20189352309B359214E468F77E208ED50431D38EE346178AF604ECDB29D79850C23612522B548E86524617DAE97E42A06719ED0D12811D384B3FF032CECB71913280A1F34800BBCBCFA3D9BAD9B4B0C9B7B25F44A9,
957972BF4E4EF0589C78F0A10884887D161798E6B2F895BEBDFF04B12E241DFD5866BF877BB09E67B6C5A43B75D288BBD8FD9AAE4D062BCDD3DD5C9406EF2DE3F499C4DA783444966CC9A691372417BE9545BE7E11A24E72B50E9C05FEEDDFCFC9B5E3311D8468224D8D20EEE606A61E0A21B623ACCF491F9ACAB26B2CEC71E530E73E5056F8A0BB2CF66FEB91D6F2E713432BDBE00F0EBBA4399BECA6D2BA0F9A75A5274E61C7190F473D93668CD2C2100552F92137E38D5BB3B2E78C285BE44CB209B4D2574725D183DEC6CDD001965820DADFD69838EAF9827B49D01F3C3D6B546E27E1959FACF8EB3AC8ED549EBE4E469AF3C60CA7AB7F6E13550032089A,
BA252F134F5CD0779972871FB78EDC9DB6EBA4D62D555803E275CDD584869A4425D0C3343955AEAC3BD9AE5062DCE5CCA70A224C461D79A03CF0DE7A436A39ACD627ABDA021F5AB75E0999043A860BDAE33E52E09B171BF33775BDF314B7C146CB4D088300A4CB61CC457032D1334C22B844EDA7C634F79EB8B8CBD54E10B29B4F061D764E1196DDFBD2B9FB4DCEA42516C807C3C7A0D0D39B8F3CF9C9BC424203A9783B48DD9E52A9AEA5E7505C1214B7BB562BC2EBDBE982B017FB96CB1106F88752CB541D53EA3F848608ADB50BD60696CDF8689DA0C42FE709BBE71DF514B22A1682158532BBD6305B5D6A62C7EE12A02D67088CDCC1F3A120BB088F0112,
B9DB3780EC19A52465E21CF88B502E9FB9E92363E25FAC7842C16A5C647F7757D54B0F60E6E75D8E6C8D512ABE6F0E31E33B9B489F58253D0908AF32DCC70C8DA16BA276229AC9695889567AD19899F3603F7607F62A45ED588D096F5258B459DFD90C64B82E000BF0834DFA3E5AC6E55AA79664111BFC1CA6EB9FCDD57810D46CCF16490F68C081BBB30B7215F4FA0265D95F48562154B011BDED48C92D818202745EFD4F508C2A55BBC806DC1116BE7DD4465E625D691DB865A7EAD02947CC5FBFDA1B1DB2A335FA4552715A1F7CB0F4D2CB66C9AC47A1F0F2B2FF9F6999790DA488F091775ACE68473271DCAF85127AA9A6D0D4A5A1E4790ADCA682ADA639,
DB17FCED035E4556DB6A7081624A9DA6B90C0A55643A9487ECAB279AA74A802450D00227B086CD91964798629A9EF21799A9C7FDAE092DFB0F783AC78172287D204FA7B9FE61763BE5D6B1D093920C017CFDB483910BFBC4162528AADCDB8F8CE3EF936B50EA8B5B08421C5C95071E40EAB7538FF70A77C3052673CAAE7626A551D3417772693A06BEE38D153DB32FAB64355BF7B0D7BBDAAAE94D7EF12A39461D2BD56BA374A07B4F5B217DE2BEFCAC81D68DDFD784D00A1DF164C082D1C050EDE4CD5D0388A718BB3CCB50CD721AA7899C8E97120A657DAFA95643DD08DC3C9905A992C603A363B9D9361B794857B9BACD6455009535F9CA5FCB3832083AAE,
906ED79597AC56D7A7BCCA92B7D1C512714DC8B149EF6C3D78A9D4BEA6C729499E2F7B4F027E9B4E8669E260622FBB9AB0D3287108406663592C306B306AA1F43171354462BE625D44876B32141BAED9928D89993839CACC51D960550BC048C80F36E87E1DD2AE55FC4A3C9E7E618A96DF295A0D345E4907F807F47A7B2E0075D54F8DEBF8F17C1224BCDC93824F593BCB2EDD6B0357B1683022E2E9D77E23BB2004CD65DB83391AF02CFA1305BEF3702D58553894BA2AD36A4156FAE3214E4CC12B30EB6AB8E7FA57F3FF9FA50E8CFC02DFCADC42B877D84C4B7A128B378F8BB4952FAD6CE8CCB74293E4973D241AF6BA5B1EA2AE3DD6798137C5EE0327C13F,
372D14D7D4C4B3E38D5E714AC36FF865400B5F66BC6571212A6114FFC1ED8A234FD58E988C9FF6CFCBE5CDB903D437251B520A142BD7C9ADE1A913AB24E5C617C904C1575435939D055A893C30BF312E291D00DE6E5F7955A6CFD3027D157B98EB2B77E042C5DD8BDA8EE65BDD5ABF3FA40364423670B8234712C48CF6889E201A500CADEDF5D220BD66B8703E6171C23285117F2D7BE25EDEF88A9063B8ACC6658AB90B52A09BAEA26EC41BEA4775D27D77D20ACE46FC74577D3AC379232A1F6913EBA0382903355F70310B9B58AD53DC33D0A0EDC9C5FBB3ED295A6E0160CFA3D25EF799972AD36C4F6C3ED43A8E7C7E3D9AE126AAB7093C8C7822ACD534C7,
CBA0B9DBDE1CC36D948BAF07A4D9C3B3E40655A3308485F44B18886745427EC05DDFDA3414F80E7CE6524BCF32E25B38E2034A2694DF62B23635B2965A38A3D5D8FD7F9CFDEBD1EF9E770E24B033E1C31AD9C67A3691CEFB5665E6CA0AB963DF0DB159C0453F329D80090161218B50738D02B829C97ACCE2AF991700976E4F079E62FA9492DA4619C4398E5413D1703BE3355CBAA721C7901802366D167B14767261C51CAADB09C3DA4DEB25CF0C5AB25DC58DACBA15BBF54B1F8537A6BDB4A1175DDB3DFAA928E2932AB872741CFDC8A1AD27FF27E4203B0426407EFECDCF72250562E2E8B2FFDB5FDFE459DBB1CE340CA85943BE17D93B93C3AE4F8C6B0851,
78307E81B371761A7179D12B3C02F57ED3B6B7C56250F4A1F9AF52EAC3844D18697D383C390F37116682297A44AC1F9202C16B48D716BA24B6743B24C1837F7D612F7E0D074A076553D901AB77FE7686060FC1BF9A8A8EB2C2C2C033B5DCB6B4000AB221622503F66F7D636015B5D8FE08EB68D154A17D1EF172CE00D1AC0C6EB3A55A860DF43C88E97B6DE2576B3049F35A9C526795C53217A4BD1C528B7660E63A4487BDE48E2BC5FA8C5A3BA167A363ADE596A9FEEB55573930F6D0F4DA5C6ED49EA54F611F0CFAEEA7E005C11871C1DCE6E94136545B55261C6F1359EBAFE57C82BF6CA64569D93525EB941675A5DCED1B72CDD302B1E618DADD1D7855E5,
401413F8EB62ADE44E103A815FB9D86AEF361C7D59D54B419EFADE8290F2AD7A8629E5DCBEF37C0302CE9D04C6320D3D909E70AF2170AB8C8D59820AC3A435A7A251E83598076736A3467AD0B6D139D5365B1A936428547B62A22182479DA9C76C390D4615CA4ABA6FB84E81C58F6C082E1A36C9E10D1BD196DEC8CAEE67FCC609ABAB653B58A411E8C690C0F173E0410FD7BDF4107B451B282813AA9BA4424BD8F28331C8682F3DB00C64477B3E33EDF93416C4BA3E5025E9E4310A47713414457443301795DD86AC7CF40A92DA291CA8CEA498174DC82167F58BFD74E339D828434D56F62E2BC564675576CB86FA8832526269FD73449652622E481BFF077F,
46EEE4776FCE0D91513B15F6A902754FF27860ED10F08A8D24197C9E8F9B2D910EB9BB7562F51ADF0E8CD24EECCA8962EB3BDB1E928F66F91776BCE49F727D2B19F4135A52D5771312AF03E5FC814B6DE079F5F5A111237F719C440571CF282D09757AFC91C5E57920AA86A500D24F929F7AF0E6469B03B645A269CC4D8C584BA484778F3317347C2FDF18F37893246D68C144ECCACECA90B240E1377F2991E57504923048EC8DEBFBE87702EACF2E40DFE4DE78829DB711E7E1F869470CD4C7AACDD3FE67F147DB46EF603B2483399A7F96759E876006995F97A7B442B8A227C6374C984D0B1E76D2ED4158DBF362B05C94D2EEF65D5BB346640815AE1B9B0B,
D1091CFECF1988059765292F5D74A3C2F3AE0C69F051012218B7D2A2BC5632524DFE3998E640206D0D1492ED26B26FF94133524699FB2EF52921CD73E478ADFF3D747177D7618F0D9C45E5CDD563D1958F54EAF6704643EC75B535CC70DB326D11C57A007364529004DF671F4C9C05BE59A3F96FD597D541EC0E9609CB2445469EF40E4C5B3C505027DBABCA061838EAE701CFD9BA07253642FB7A7CEDC2AE37B8BAD3E0690F58A2FEDF3BD5AC9001EAF8BE64D56C8BACAADCA13A0357E6571E7530118E6FAF3FF749A5308679D51E2C42E2967EC645E40FEC8CCE59F500403A55993DC6D12B3680A4C612C2CF0AE3077B3D4743FA406A13B290A42F9F3762FC,
6342D167DE46FFEA0811F88FA08D8DDA19F27875A17C271EB4C6029821259A59EF2CDF0E86CAA6642C27BDF9CD40862889364DC28BCBAAA2C8AD148E42CC92FA9F9C1960020470DD8E9DB4C8E52542D949A0EF40ACD5E31282D8672C50CD5018E646B72ED15310A2B563D9A9D7652D9006455BA9C87F526791A36904F01102F3077A03746902EFB110F6326FCE0AD5C3B44CEFA95BED82E49A164FABD694EA81DAF83B091399B4DDDDEE7563E3ED682A11A91B4BE7794EAA541CA49E85D9820BDF86F81AEB28F70726D69B80DCEB2AA20CA05E0D7FF7FE60DE1EF8B1AB470AE80705BF1C9F3F959545C67AE1363F808F13FC5F0801198945DDB6A6C062E7B1F2,
A76D551540C52EECF6A70303DBC602421C9E844A4FAB4CF484EBE43A6B9E18A88BECF91591D625D4F316C64E59C121A8A3D9A01BB5796B5E808C8FCF0EDB07211BC325C1041A50657023D8086A567FDE30170BF8A4C82FF26EEA875F0A17E23854D896E0DE51D1DAD9F10D17852242AFD65022640C520D8B21A5D10455130712CA035DEFE42A45436C861A97566844DCD16665A9EA232720E12D97032C9A6E40AA21554C31C74B15F9B2BEB2C297E6F702E39BBB8EC5FE189535B9E2CA6DBED52C65B9CE6A8CE087D9BF54559913ED8950EF1858E66C9CFD2ACD5EED41DEFD0AD6C8DCFC0FE95EFA9781076FB7BB444627013955A19BBC4B5226A602C0B2DA00,
6918BFBBAA5A71F14775E27C47E23F1469DA00DB00C52E0D057AC575904711BC030C43FE498E2325469288DCBBCE420CA7DA5FD2CF1C6ADDB76F918F90B88C56716FDDC4A0C2B6CBDBF23B1364CE374A56737BE7DC9579D28E7A14E885B0B37C14751EC625404B8D89DBAF248738450599130C362AEC5619AED1855780DD9A92F9505DF65646276AB7E70C1B6DC37129410E7C84DA6CA399A333036A627D0457EDA6F1D90A00AE98C665AA570FECA133103F4D1A9B34D672CC596478B530B74CB5A9298F83C66768C72AAF842421FD38D62B7140A2E956A000859DB873761781560EAFBC0283E32F14FBDA988860E5ABE2C425404BDD51C04C97D8CA3BB98418,
F6A52C8FC3E724AEC14349FAC09D52EC13D358C6BB281AFE51F9C3EC8A0A79929D932FC05D5D0FF72B128F0B3301D2F01D9ACC7A5841195D80D27101F2828C116B509201988BA8C0FB6B7B0BA6F456EDD9EBE276254B391B34E4BACE51F164843AB092ED4A4E907E88F12227877C0D9F6328637CE5F06495FC7E6088C0DED64F9FC9626A5D7ACDE118CC502D4CBB76D2765752E95A69AE1E6B670B00DB001A442AD2F6D4B9CD42A658AE5A505EB0EC34F1F7EB4094388828E029036C6C9838EAE2802BF4DE7A772090992C2636E791C0F60C0E9679EFC245889D0A5D5E6DF7B9BD4439D36448B9ABFF938DA0620F8F8C1BAF3B783BCB7D56953C5FAB52175834,
BBC599ACF15A8D6E1149216A0CA942E3413033CDC7E8BF453E2BB0B58E957872FED1F98B0422B13BB278FA91B4CC7B1E55F76A90217A8B583802B97A64CCA022548EF45E05548DF94F17E49E0BA8CFAD1F2E37506951FEC905D5805CD9FB87A63EB99F9AC563A293E243BBB01DD4E32B5BEC691D0C14C0724BEB9CEB4F2A397AB9817D6837797B59EA294A3757C3CEA0F5551C7B17BED74511F9162F3FF3B540FE5B0A00E36A4F746D6EC3F3B72A535FB0EFFBB25AC3595287F168ADB15A74B2FC22F2996BF9ECA8E87399324B7D9275D47D39889303A5AC89C0E69736EAD8C795D73ACE7BB0A4D158E2ACC4E6CC7AE02345456A5230A76971FF7FC24050EB44,
11D37AFC4C200DB40A78A0C5D6FF1E223708005532FB93A9A8027AFB6E9145307FA7F84C248249AB4F88521EBE72B6568CF0D07C4D36E018F11D21B476A22F2116398F22B96A0096D59C05732E7A7533F325212894E4AFF6FAF6EAB982DF5ABDBE5DD851FABCEB91E308C73A094F5F1F74CA4816F252DCF7B9580CE0B05BC64538488EF939D8D76AECC0B40FDABB6538A31ADDC29D93E32E54AB25DC1A0136327CF8EAD726539366C2BBCA7F87339F2302BEA19590A90D7605C61948DF8CD49C0B026C2335089A6710C688305FAF8F7D402DA678C9B577797D4A92D0A3029377E0FBB9BD773E6BC7148A958429149E67FC78841A001BB0793B51BACCCD0486AC,
6DA961349A5ECA7AA0F27D971A150FC595C53BF1EFA42C55E1C4CC38B02D6DC90A6411162D83E3E2574E305BBAF11B82B477009116BC73DC6A6DAEB383D8EBDC525F4A18D7F8542DFBE4B5F1821C1C6E6678A713558EC226AEE048E40364FBBD27E4D65314EABD501598AAF7E46EA458BC9FD2791461C02290815809E9B37F21E6116F14F326241EAB9CC707D52F205E8DA4284EE0D7119D81B41724DD2ACA7CBF3AB2A71B773A7D19A3D5471502AE3949EF78A5550125547599DFAE2B8FB1EB40C89D9EE2AAE9A3252EEFFABF0B2E265FB9BFC18D099EEE980B81025E02A53A8EC1DBF3A6C5EA6AE8D6F68DBE10B4E3CFFFF894C2C31A6EE6E167FE2DD15041,
8E4E6C46DB7C127A71A424CDD614F2D145AAA46E016649C0CE15E1B969B064DA67583F5843E94A58F6C3262BCEC08091283FB30489077935DCE554C77B7BDDF7007DAAE27BA3AFF78BF4E459111FB8A742EE2079409DCF36EC2282E67C883DE6BA41E6A23EDBF2BB2F9B88ECAAEAE69F8387A0E81AD19DE190D475CEC2B3CB96E05232B9819B2F19EE801D5F84939D3D9719F8D408FB68F4C88347EF00B7DE91BFBD730A2740476CD5CEDFECB3E2DE2F7121FC167B63FE1CC244460E0E18719D48BFAF866BDF7A7011DA22B972009CD385CC0E71AE0938B05B43CD67E87F90821F5CF8127D7685C4D6F8BB492A3A2710D16D3C3B2818CB9659A42B1ECCA781E9,
49FC42B187F55A5328E36868C2DE20562CF969A367A9C478DACCED5AC6E663A766BAB1DA5000ACAEBD39585B5CF6E5520C247D274E80A44B50F40AFBC884AE083811A55DDE1E1E18A702E563ED22B09BAE2FB689041CE7101E08780BA1AE646F8BC4FBF19C6C9F5672A2A4D4FA3D8C986BAC8783DFE240FDEE2D509B3CFCA0084581D5A5A62D4827B5932D4CBE8DAC136D0F39664D8A62AE04913418B1B056672946F40229CC61723084FD21150AD6574618B18454FC84713BE52F1C590EBBF89CC5D21A5A7DADD36E86119B0FF3B96EFDE5D158D4E6B7BBB1EF3F8C45793AA073BE99296E0BE28B7A62020699B075D02E38A15C17132290319F049B6F3FA18B,
9902D659E6BF97FDE61C5F96E819DA079A9B2AC7E99296FCB929A9E87B2043F26D5C8618761D15A442DCDD6371DF1FDD35AC28E02A53FABC4D59B3FE4DBEB1F0C51E33026975039D100051F261F9C12B0763792DD44B983A1CE93ADA70B4410D6C5AA55D5F3EADADFCF63960343CAAB68C7276A9AE25C1AA6206D24083F57CDB5B58D8D334CEA88F027F941E3A666F274227823AC294446DFE7CEA5B84E4C2F47A7E55E24B82DF13677EDD55CB8223D82511481C14526A7CB38EC737AD6452B236772AFFFD35C288FD3710FD14A0CD25517A624EF03C7523AEF01AEFC458296A52C7ECD0EACE97BC323FB90417ECD01D78EEF25F8BE0A375EF87B9AE6EDFF1B3,
F718E6135CA521B610EF9F12F5A8C3C3F5EEBDEFD3B7A66560DFF7E3E09E1E0A5A14A0103AF21420E76EA28257A96653AC604373B680355127818190D0FB8AA31B82036D8B56F3BA75E97B1DE133DD416A9FD56712C63BFBF9F0A678B67F408123CDC05D50444F47FCB16C8BC7558B46683E77AE8462C25F8D9E4ECE97D8195B5E74DC4F7B7B912DC9569D02C1AB99002C04E2FD886D027233C1C43F37A6614953612DFB69EFD3FFEDD83B6C4AF63E3524069F4965F8BD9603DCF5ED9A824BA064AACDAEA3AF82E3C367049A44E823B8BF6ABAF644F91B8C61FB0AFF87C7923FA35118A25F2DE5CE65E48D41EA38C69B65F884305F6BA99514633CE8685BEC7E,
556FDF90A84A1D8E2D1E4AD1C2D0908CB3EC28614F9383735ED8E6C3AFA1E42F283ED7D7911CACCCFC4D896038A23B9D56A02302AF80BE98B791EEC75249FE3E3A851CF425DB96C6EA706D114D3B9C31A3441754191F107584E0E989B439241F7A8185EE3874ADC86B1AEF17F1217AF641092E67BB13288A637F61847686985109DD54774141396DDCF9E0DEA863C185F024B90F8641E1AD05198F7812F318E6B1AEC6235991BDB17EB85D89C779752F6FA374CA8B4D50CCA0B9123809B40E35A6423130BF17C625EE0E1D78E336784E05C481C48C453BBCBB0959F589D641736D845603DA54E3821C346C67CEAA294B8E11A8CBB920DE1807760B54B6DCE7B3,
42F464F0A5734153EE4371619D22DE53434B475CB5C5D52B89350538C9E8EE6C6333C7B5518024F3FB60C3DFDDBE869F796648F90302959522440FD283A98F866ABAD144CBDFDA347D05D534EB3CA95778EA03A83464F38236498362B7D3F9B48D70A869BF1485E845251A7A3EFAAF8B8AD9F51A0D40DA176A2E9F0DCFB50E7D005FF10EF791AEC8A6B87DE155C995BBBE2773F19B37C50A81D1DA83C8976B856E9EB0C944868542651D48BD32A3496AFFD3D0AB3822591BF9AF1CEC391BF848EEB3EAAB9C46E7402E38481D5161DD18D1F9A7835FBC25EE936561491B7689F0AB5F0BC8AB68384F99EF1B4B73CD017C206B9B0423D4A4FF0320BDA321A3B60E,
42604BD6FEF210577CBEF2D6DCD3F310D0DA317A8A837DB1FF56C0D6DBDFAB91EBC597A911C75BEC82D8889A173C6724964CEAE526C042D2C3B4A92BCF2653FAD1F796BB35912AE4BA9DB2307C79812941BC5B334CB9C4ABFB14362D1D5CFF43C0074CC927A70E36CDE46B29A511A63E2D5F0A374372B501027303AA46412B445A863DA0E6E74B40D86FCA7D3BC8EDD0865349F7729C57D27007AD3746796B1BEB363252B52D9B6C3ED7A9185BC3D7207ADCF1ED49D56F3C4DF8FB5CDD9B4315137B003E78A80066C67A5B992F8C209CA2C824B3556382335D3929FD6D81B701A555993F5E6DE2C4F6B36B67B1409A3C9E91A45D3FB0B88C7F1DAA58CBEF1125,
47196473AF7D2F5C57E49465B4AFF2C27261AF2A77AF5D8787FE9E8BD53744295DAF7BD96D352979CD4AA40AB7941B5CBC2FC698FBE6ABD8308BEFAF1C964B63DFB2EFC33C25CF71311CB674BC1C0FA8C1AE458A665EC0A464EBF850FC90949AD50F320ED494AE5BC14A6772B6A4EA63545A592F8B52072D2BB05F8F147C336D71F6F405286902AAF43B63BAFF8C2232B260E49545F16273BF3410D0D57A9720DAA5E91F29AF408911A225ED8CB26CA37A3E3E36AFC33094EC6C32AC344873080A882958CC33A56889D90DB7E3A9ED7AC1004A5DAAE97F5DC60255F1EEB29EDE16A53DED57E249DABDD1216FEC2B3F648BD11D04BF65E9E789EE72E34AD9ECC2,
1E2CBC3542EBDDD8EEF7DFC8E1FD39A319E146EDA490A2484F94A0D79C538D64D40A99349F062DD7669FC186D5E88B4F05A40556C971EA18922DBC754010A0CB174E4A2210763B44C749F3518447F0E19E4E8FE6ACA224B4EEA48D3B4EC239B68B69D67A3076884EFEDF5E94BB40614434716632C479041C0E99DB78F76A60C4E087E8022DF48BE9ACEA98851855E88DC0C61031998A13A9C7366A803C736ECEB75DD0498A9629E02726FB6CF3D8625AC1FD5A86AC5B1AE2BF22EE80451BC6CF0592F39C4303ADF6CF4BCF6DB4BCAC3F2A0CF124580CE3A44A323CBA1821851A5BC9B7A7569A1CF524D52DD7558D8D0FA33CA4CAB02F4DBD5FE54BA9EB596E0B,
479A4E98CBD7CA60817B878F7BE6C8C84F461A9B26A5709E6F9A279F926E9D5FFD8E13E82524B6DA112C5D09BD83DF8F8E265B8D3B9C001D7A6C851E20F03ADB95A5D5040DA1E3AA7EE3C3862D1F211282F5C684F1E99EFDD891C03F03C8AD53E5F762EC3CDAB9342AC43C21F45F2D658F23CD295D2F586DFDD08A0F299EFFAF4ECB112117D0CAB02373C287F4A1241FCB58E2FE0A0D540126D83926BB4E923A0C80ABA55A3DF798E68DD6ED3FEF3A88D79718A46C62DB64EABDD8B9B38F2D3269021649F3838E38C27893AB90EC9F192096EFD486549858513BE97C87FD5E496003FDE1AD4873B9FE6099C06E2EAB01CC2C836BDB125262DF6171819C182944,
54E3EDB2240B8FC9F3736568356119D4084E9D1B24F2966A392389E652C4CA8F14B4CA3DE9225EB3BB0A911D80217DD945C5F92440D8B4737EFCAF468B7125514C3FE4760BD2977D547E68B42D8DADFE1974F01C9032582191699DAB3FDE3985D84BAE9C457667B6232D33CBD82154E11AEEEBDEF349D8EF94D355E4FD15C7A0FCDDCF6B104398CB7EA49FE597527BB57A16F23F6A24AE2CD9BA799C2BA87951AE0FC1E687E06444E0B86EBDC39CAAF409276AEAD484CA3E558166874F71DB25160B05C1A58F7F9E4BDC6A1A8B1447BF57AA36F828F913DF9D7D4B325E2A6498E925B28E345B5DF57A6FC62602841F9EDD74A1E01EFCC80075C2BE8BAA1B3566,
0B140E4A9E780CAF497F55C0AFB6823E1D12CF68D3433342C717B715371AB94B6B74074CFA424401B8E2B19F669E9F99B64E2750D41084FE35673715A3AAD67ACA39040981555826C689A3D31D804D9F7A4C0A0F5B697F175C62CCF60EB0F68943B16029048D699062C119F49F5B0E240D6C82BBB321B220805E8CFCEC7788826852B31D5C87FAD47001BCC461253D9A8B4C4FFEC558CCC242E441C532D0D7876E9A43879D28C5E195369B28CDD6EB454027F05978F77575C0C8CC6C3541D22B8A307540AD4220A4A7D058653EE85FCE08F8E32F7DB7609D6378BF82E91B45F52952D03BC2AA94AA9A0275C23C321B38DC232AE852D9B6B53D21B9894B037B7F,
C7F80B75F8614C4B2FBBF65648307D4CE9761893046C34CDC5A95D6C8D2B3CDB0277A03C13684100787A4146B9E6FC69EAD46FF25FD1EA61CB3AD8BAAEE271B2F1DFD4E3D861BE2571AC1A5ACC3EF6D52E86E4978BBDC1DAB0A470234A8A481DF4DCC8E5ABEF9E43E21B3DE1A07FABB9D01A75DA6BAC7DE9951AE7297225BBF1A47F8670704E17C726691331C3AEBAFA6FCFD0731A41E7BED38C6B6C367B286816644BB848516D1D65613FE19C7064DED6DCE7B7B9C5757A3951AC3DE94C9415E1A27C46E04D8FCF425288B04B757E32BDAFE196E263C9B786C3D4972E7FC1B2269D6B637931EAF15D9A0BFA357DA51203F6CDE72796E3CF2486C0630B9441C6,
AEC9AFFE86C99F9932E51D93D615FA96A7F122B5EB1CD0055F942F38C599B93DA4AD1E7234197A8F47534F7CB06CD2DB1F3F2DF04E3ABCC4D4B3BD7CB50D25CB6A33BC257B42EFBE2BA0644C09C1DC093A4BBFB2851476B17B1BAF2FA1BBDB700C0FE9D8402B1150E6C0076153FDC59461ED4901F4BBBEC32264CA783B7B0940B7EF9994C7E920AE15F78B7F60C1C0A969350D1FDBAF98C6E3787E0B71B1EE17DF9ACE14B615B39C86B4FAA161C8D38EE724D4543302D79833ED0D8C567F1C427D4CCC1C3BB23F11AE8E65DBF3D4BA5379016707F33311BD6B20996CB96F3503E8A1684ADEF5CDA164466CBBFDB0E1308C7ED3B4444CCE8B4CC60DB5767104B6,
1F2C2BB2221F08B92D30DDB137A57B3C3BA7E04EF9F33CBB6E441846A91ABD0A5A31ECB9215D0535597F4FE1AA4FF56F19AAE0905239E50B07745E092A5F17956AE41DD9CD31630B938D205C8D10444707FC21AD49005EA0875C1A3DF6D4573B878BBE34C429E18E85C9A21849DE3D3D3E75949CA6F8701AE5A1624449363521E6A79E3F96BEC10B3808AE5E85435274D28608E4AE4C4BECAF8728ACBA2303A4584AA87DBB8969CA0943C40ACA430338C22533D43791C4A701A5DDC653CACF57284EB01174ACDABC424CEEEE3ED999DEEAF3439847FC5271E3597DA59BDCB891B803271AE76207803CF69E454E1647A0329401274850643350ACE808D2B52C4E,
AF37A7764A5D5C9A19A4F2E8FB7B4B2A4DDCAFDBB718E714D743AA68D1CAFA58039068762B7892CB19475535241267B9DE54D4356778EC4A3DF7314714E8F264AB6760BFA060BB52C852BF9A8975AC8FC47F98FBC802603604BFE7DCA4B68C258C3611EFA23C3F95F7E392EC5F93A1A443785CCD51373074040F36BCF8A8069EB25E5DC00F90149D74CF4E6166D8945CD726D092532866A016AD2376468C08BBB362FE9DC47B4D1B2BB379323458E2A2F5588EEDFD6CA4775BCA3F2FA6B496749278EAD3A1C97B75C376522A75F9441C61AE3C3D1E29D684A34B36C8D71449C2EB7305CC23CD2DC09B99569D9F501FE12028D97A4133082B086AAF8E8B597984,
0CE2A9148136932DC2142ED1E0BEC193B00B7BE2A3B0FF939C3219282254F913A5AB7E9A28A1A6D6B0ECC0DAC4DB70F6E6E52B9F4D0D4E40497A3F211F4992483D77CBB4FE621C351D87EE3382A5D26310518B8024485137D01A040971B981EAB3FF25D86A4B51897609E218E4A01F13D356EEC025E0571827B4C21965E25CB21429722272369AB33267D65D8A70F4655C9A4D9DBDCA02FA947D520175968A3FB80A41FA2E2D3C50E3A2F3D4D474CEAC5C33F55C65159A5EAB3520FB08FD19BFD268255B78D1F92C650F2F0AC30AF85C98A3709F2FC6AD4D32578397898AF7D3BB04A8DE2AA16E563694ACCDD17ED93F8AE6E49FDDA560936510E2FA25EF569E,
EDB488441093FB63118C0EEAF085E834A6AFF7644D6AB5AFD0F1E6817BB1BAE212B9291433E936503ECA83443556CD7C6F3158406764915C7008474C0D0DDE96590CC74645422707DF937CD6AA967DE02C6007A524EC83CC3953E5F3A0A85F61AE2C6A703920B9CFD43A6622DF1668DD0D2A3960546BDB9DA5950B27D1B47A91AF64479EE4F0A19FBAF10C86FBE191DD4F2517395865AAD571434512EE7890498703476808676B6AFD2C4F7F63EF08E189744F86EFABC3F2A77C91D807994B9AD777196FEE162E4D5BB6E63FC9994529B687108FF4781C0DB561299227B7854F5D049746F1C469735B88B08B663592ED7DCF249E622F9F2890CC1F58028D5331,
19A98093908E0272818478789C83BFF95FE74A34119907D6702D2FE8D136D254CCD4C4EA4785219B1BF167586AEDFFFA9373FEB5539F738A35537B77C3CDEC1A6175481BBEA9E58F3F3FA368E7F458526380E951D9629D07837598AB3212118CA29AAF68A5EA2495B9346D6931DE48F5B0963DAC18DE88FF79669269A84541DC55BDB90E26911D261B71CD3CFCF8041BFCF9E31BAF3C906FAC5AAD68AEE08797C6EBDB024ED349429EDF98FA82EACCCCFEA2BDD4492F3C1CD012AD7F380831112C061EDA86661509D6AAD759EC682FD89BC35A8A1D6B9DAE406DE612E84CC35E26DB8A9C5C6C58A59DE54F3229763337DBA30421E6EB940F9D2CB5551DED145F,
8B4F3FE01D7992281229558EA633B01438F067FACF183BCD7EC9AA9F4D9B427FC52C7A8AF687816120C6DE0648A13D17463DCFF8AEAFA69404666EAD12D50F5ED7824705D0AEC7190F93A594221497DE96BB092987421F06A655E4ADF8B34E87E5EF5572C3F0602383191CEA46D9E1CEB4B3BF7B0C5813AACD6FFB75BCFD6EF5EB55DA2E4FC0102E06FA9E29536C67253591ACD96055CE3B3625ACB37A41F6B2138842D147B6714AA408F7C85E1B054686D26FE57A450481DB6CF8AEC5EA0070BE5BCD0E05BC8B66330F74C811DFEFE6B2248AADB1575D8F665B14678187404B85F96918146B925ACF5DC0A45BEEAFE40BF4A7122CBEF85EC341B5BE98AA87F3,
6918D0BA81A002C3C9E7EBDDD2A7562315645517A035DF0C02C7AC13F4B0C9AD5FF460E1091268FEAF6BC50412056D12AAD678E5D58D0E8ED2A491C3A9185C81A4127393D8BF43EC3CE356414365BC3BBB4B0C9D5A70E79B8AA9A99830DB7B5633A4AFFC6611CE95ECA10673D1EC2F5E2F7BDF30208AD9DAE678BA06D62B7D79CC123A8F6DE803704152A3A7DC4BEF3F135EB6DAF6C6A6D2B2638712DEF43A401ECC046C738B9491C1C432BF6958056E6B5C2240F73E33AA530ADE167396A058039464FA10BA1177CB068E8A2AADEEBC214CA76C2DA873038AA2FB57E5752A6935571AA13F32CD087E15B58FBDA06FBA97C0571720DFA1127747DC13ED1E5EEF,
732589DBE87A5631A0928469BE108445977804FA26771FB9DD54B16B5ED267A9DD138307EFC6528DC3E4506ABE7DFA649A7ECDC45B0C31DC69660ECBFDFE65BD9934241908CBB30A001ABC89FF58E7C30FEB7E8E13D525BD19EA88ECE254A99E564904DE27D7911CD98D3C5EB06594562ADF3000DD8CABCCC66ABB663966B24A2F87D5997850E628CA3AFD16487BAA465E8087A3EDA988C539B5FAC85DF8ED79263B739DAB1DF25520954588DFA3416BBFF81CB9CF5661CA483F6CFF495AD27BAC04FE0FF480EE3F0324CA6BD45B0F16C7CCEF591E537F7A905121C769D11277A7B47C986A1B072209F304D7101C46C51E73B44A585F9C0B41F0A9710B884547,
AD6ECEFAA3631D8B982051099150339C2B29E145B2C8651EEA08061A75455D821797F3913FE477CEF47FE3148FA7171FF2D69CD267A2ADB3FE866660FA1C9E53462F0F6F14A450736CD20FB5B5E54039B2BDFC9D4E3960418206E12E961058F6617F18144275E2C11D78E50B568400E0197592B06734AC6403F34629431F74D0ADF2B50A0BD716A1E0FD1ED1F736C28735FF5E384ACDB8B2889389BD4D90FC238B4AE1E0F864BDC8BB763DD28500572A25B6D355094AF49F8848D14D11803016DF9BDBC1986C419E4AEFF178D353E59B7FD76CAAAD507660390F1A992F754676C2F9CCB98EFF86F8AF9AFEBF298B03D57DDD1FA434B67B21951B2DDE68612606,
1938B71E7D8CA385D617DB9F786582AB0D870D124C71FC2F121870DBED0FE2B1AA9C0C7F62154A8DDEE3B60D55EC586C99F3E47CDB0BB04CDE8A661B45B9462109DA8BD91DB4EEBBB717FF816AFAD6A6A0B631F1DCCD9AB756E6B28769576F802BB2E70CCA85C60E4B13E78F747896A2EFE076772DD00A34BD67B40A1F56EA40BCDDA98A2D1C1C5DA2AD367E5F29FD02B1C4B0B5844CCCB2F4B01877A8B40FA162B3F754CD7BC26CEE272A562ECB49A39B1D82702D6E8284D4B2A9D7C0A16B76C41CAC53F7FE275A9DE6B97B8AD8CC00C078C93EC4249E9334EA98F0983F8FE29A5EB8E78CCD1F274B5C3777C52F06DE4F64E93D2A9541E436FF8A0B2C798524,
23438F0D7D3C58A7BC2A3EBEF90154505A5A6607C9C7102F88D394226B3F1BBF0764ACDEA974F774988EE47F36BA9F4E8AB3344E2086B87E918544B0C23DA47D94FD46AD87012CE97AE88C8A0410DCDEA3E40D3215CBD187877608D5D0F9A2D1A7FB7DE5CA20D76C82F192B3F886413DF7FF6ADEF8764B8C291F82BA34B1DFFBEE5DC4C2F2C176E39A2C0F91094F1C591ED270B7D34FEAEA65276DFBA0689E1A1AE74723968A4807B42FCA18C80FC9A1C5CBEC34DE70322525CBD9822A1CA18E40FC2E808BB8299FE95388F356892D81B86BCCBF937D9C18F966E8C185672E4EA676666CD48DB716D9F8A5A011B86733913F3827696412B79C331B791A9BD00A,
E499BC2B8709E6882EBCFF8E564C7A65DE2A24FC47F15B5FEED979B0D0DD2787423C57B3B292470D0F8A739443441CCE9C1EBC7E89832BDA3E91710E73B8D3862254B46210414F94F3ECE78B330A7EB72B2510AB76C0CEDCFFFBF4BDEFFEA29EB5A98591300A51EED98D321944093934787D79AB3840BD4E3DFEEC7F0123666E46A2801C1673F0D50870621A8EC42F52FE3CDE70503822DE11FC96946AD3457EA8667EAAE4126DA8C10F67FF8AFAFB77DFF7BD2FBF384D1DB3E2503758FAFD49481DA39B29E23D0867B3E13F322908719DBBECF35D6209B656BFBB5DEC78D6E406BE2CFCBF53A8617E1EDCFD9939DCC16470DC4837B762E636308F22E3DFB4B1,
12750985E9DBB010800B48B0801E6F8559275DFC2D6A3517D082B67C60AF7CC294D1505FA17E0AEF8FD106E2A2AB1F9EF1184E697D80450202642B4190CBBF5F445F3E92DA17B4966F5AE36FBC65B85499C58BB66A107BE0BCFDAAE689F93FDE3395CC76EE477A8CE0A741F0F8F19FCE65583CEFF1ECB5AF8F70B98512F9BCFDDA1123E0D6CDC0F7A8DE3EAE834FA0770F216F21FF2E6C6192920DEE777BC36C64C9CCCD6C93668DBF61A651F0F2BB8B7D32B5AF96AA99E8E03743975E06B0B31451975E5E53334FC29E9FD4C6F124E14F34AB11417BE50DA3A217AB45DDB64A56B24D7F458ECF2B6576BC830B1AEB8E13D527ABC4A563D0FD7036BA4C1A383B,
8FA482FAF41DEE7DB1B45950B1BAD94E99ED9CED828D34249530A120D270EC2FF320CD39F461312F7BEF2660C2B14B466F19E5C0ABF27FC92AD7ECC9B4B7C4FECC2F9DEA9670FC684E0D5557460726A29DB41B7337632579C1CF6F48376D25811C440C6E7E3440D7A8CBF5E74067561C18E0CE0034DE5E4FC3A382B08074005E3BD1E2E2AC52C3FAEC1A8062900B38E4F03B68CF2BAA32DF85BE9BF802B04E6A7B045203089D1BFC91C8707A5368BB4D4DD832DC671BED807BF46893BA95B3582BB2582286A5712F1BE5530EB0EC4A5E8D05EC6E281C9200A91758CEDD6AC0B4AB441B5E7FE69512608411E06AB43B4790E253280F372226A0067DDEC39FEDCA,
7F18374829945A8BD83C637DD30436857D388C36EF91DB456BD980637D3924B87B529F6A14D8BF46C96D47547C6C53550A8485F1D097992C8917DC75F3041902BBFD76ED56417BE4FEC4B959F5562DF02A048D03BCC93206ECCE609562D03FCC99D7F30B2DC934634B317054FA9B82F7CFC4A67D9C25298F7C03E2EDE521018AB1A14F4BFB4F068CCF65B54C3529DC4DCFC4123BECD70AF928C5252B04B1B55C4BD542C5E3F3D27DC744E5E968B77C1E28020CB4AFCA4B75651BFA59BB705D81D713BCFA5A01893D608A3396721EB354367208A65BE20CC02A59C62D72C348C250F5D908770481A9554555D713DF489333EAC94E14915846D93BD7F03E50D6D4,
4077F1371185D2E809AEA8356C3788493EF17C3D77CFC4CCC1F75CA0D786B7927637EA8B3AB35042E3AB716A692634292C94F67101127659DE994E87F2CDDE44C8A287AAA11B827D418E42FA538609B98EC9C8B88FFBD41BB86EED6EE98F38FB195052617A46E0A4E73214E456D2D78A9F466350A9DAF8ECB4AEC768E37727D197038AF78502A712B77FBDEC0EF6F765B5097ECE9AA516B6174B4C21ECCA3436A3E652A4E564456E437D64B3574D4B7F94AC131F5598E01B7B5CFFCFA57D26ECF23B156863285414FADDD329D79CF50DA5D04284E39F8056504522F328643A72E6DC941F3ADA586A4AC531D1ABF59AF95E8940C64206516FBE44FE25AE683EB2,
914D9682BF0706E9F8F01B76B78F187B7C6CCB935F11AFC5E11FB2F14619379F23B3135D62EC682D41913C4DECF8D006AC592A72A70F6FE4D66E224266CCA6D30DC46DCD0F4B499E9280A7A6693B6812E54036BFD307C78B750D42308DABDFCFA30F1987922F02C004372376589F38FB366A01273523D013F9B4BD082E07F4DEF92209F7EC4746D689133D1B4C90FA48D8196C1714D02768F3A5204F86573E473309BD44A294C8CB86E7B8575282A85AF3D966901A994C305C55190A6C2D61783D23000A61FDC02D29F1E6DED0213068EE772A1E29830AAE11B40E5B0A3E4B4F74CE0288CD0ED2A0808B40788E77756925ED3C34347095F8A1386735C4E9891E,
B1C2BD3833370C93C216B16BC5D6FCE93E55E2C908DED1BC6117879FD3769C1CF203A000AA4E53301AFCE9142B5CBFF4E0E09C585B8FC49D3FA1F9025F30FE252F7F111D2AACC12267A3CCB0D26A44527E34143A43A929ADDA457168CF94197A189D043FAA1DF549FC1AE0D8A1322ABCE42E071AF96776C83571800C33B9CE3483C5A38EFFA9F56694D2CF7790DBDA28EBCD83B9DB7EA740A4D001B9E1E539B38FF0D58A96CF5423E0BE0A12401E8576D89E95FDD945F2665C01875FAD216842450071617181AD4790E481C9468DF0F20858CC54273FDBDAED0F070ACE8A84360E80EDD8661250DA749AC446DCC48760B96E6550F0F4295FDA0E5A85FCBAD950,
CFC1FAC5C9895559F012869B5B258F62C27D169E2878AAB72E16479DA1E63D47FE35F4D051B665C7EDB523088206F8E2F8EC4A66CEE3174C8B8F15F02752050CC5FBB792BD61A63750916AB7945F13D7BD8C9D786D44F4294D98D6878973D52793B8130742B1618D9B96645DDB94D82C5EAE75D456CB7D95C6BA6443D8B4473C669DEC218EFB1FDF6F4198B876099A6B3C2F1F1A4AEC9869CE0B1C5DD4F90FDA7440BE96F0CA8D89DC52B4AFAEDE6A0D54F7A67D7A574FF669E4BD61340394614780517AFBE610131BFB94911805AB93FD3ADDDF404E2F0654697873162DAF472A77072364F13434B2E51D327200F84AD952B5BB71BC5834AFEDE2E14D01D763,
3610D225748A81E0137EC5DA6C633EE41E32EAC673CDA536E04AB49CB2824339027C2D890528CE547FA38458A43F3EC70EB3CEBB7A471B10AF374C6AF9F0AFF486D6A1F5DB585332C4C7B0ABE319613EB5E44F35180F21C01B059A1ABC3F7D69207D93A9FC0B42530BD8C619350B7CFFD9FFE8717C06EEC5CDB2AEC7F6BF540AAF8449160D81A59B09D7C0E81C73E13606447A69180F1F3972F40730C356231AAF49152F2305D939049695B81FF0BE261ECEA88E903F89488A54E920518F1013A4E9FB702F226654F755D3B9C71F5C6AB830FB723F9634ABC60F6263E6F1EF50FD287496BEC2FC81F55294C94303E1F8B120D7BF46A0073F51B121960D111729,
C0E14361C0E44C40D50C4A2252825FF15F2E2BD5E802AE4D98ADB12CC16EDEA757CA1A12B40B08C2E9B8039EF4D84F7EFC896468A0F9D3F6B355905DCFAE5BFBB4235149A6D1AD6B2BFAD057C6B3E02AF2CFD31B66F60694E3880CA10CE156ACF718D588D67A2E1A9E67FFA81776D94B08B1A9AB8A92D39F1C8AA6B0506118BFADCB67AD5D58A108B7F089EFD5DCB09C190D2BEABCF0A4A6C8CCE0DDD44EC65D019CDB556F1B3ED28DB5284086279F24410774FBDAA38F5746696E6E61E70E0BB97A0EC740620788BCFE015E6E435788CBB37B7AB473D2DE723A47DFC63053A2BE1055CC504C448625C7DF70B1BFAD4EFD431595E5D49A429E3D5BC3377BE27F,
AFB9E57B2BF18195CD5394F36A9347A660B3755F7CF9973C0D06AA6A57EAFC8093119CB2A5F0DCBF2AC0CB9A3F71030C778FD2FA782A4F4AE8E1DA871370C39A5FB1E21FC9F2550233A90CBDB10C8D3595C90B5776CC37F90C7CD8439BD90EA23515363D966D25D21347680D81366EA8B98C4F3F3BFEEB5FB08561582A066484CD53284618A76A1C4BEB471E3BF67B05854265B158F51FC17B387B5576503E1D00B771303C43396CF19D390F51DC968E32D450DD40667241AD9D00CAF42E0EDB5145042B76059E28C405CB69F4275699374845AE5A70633A639F0A5C31DA025BE24CBC4588C1D8E6408F202F54825DF305ECA85452ADE9EA3546BE5DA0DC7159,
AED53A554D4C07B85CFF2DA1E3E8F370ECC1ECBBCBB34F3CA7C12045D592A2A34EDC93E599E998EF4F2F17A8F1E795E3D5B98F7FE20BA529DC8706D66EAF5016C063D9283779FFF8DF661884D404E96719E79EF87FB33147C734E80D2F5F9DCC92094DC50A1392D60F42E698DA8F3F9A5F54DB5B379EC8C56BC7D700CEA9F20D37415C4A6ED6AD1AF40BB180D89A03D8F0354FBBA91A69845F348BB70241C76A59DC2E3C81ED0A0F7B1909590BB9CA425CC876FCED0A82AE1F0A7B97590E684777CD1950F603AB5969D3F1FE5EC6B4E209DC24FC69889819C516DBBF3F2331A0D94CC965A96A62B418FDB8D27F7A52AB4CA8ABBA49D0901FA839A69C9430A459,
07236B2AF2AA2B55F14D6472F57C71D35ED8C69A09BEF1EBB52962EC27CE504002A3EAC2DB592E8CCC1FF5D6409CAA1F232E14270314DA6E2CADFB2BAA3443458DD8FD559EB0F5E16DE514509874792018F6CCC44C1571988505CEE9351BD3EA89EFEAA5FEC9AE3D314E6CF4190BBEE864242270B02297A98232CBA29938C32A04A9E43885691FC8ADA546A83347B1389235A1E108774EC3C474FD105DB05FE248E4254107B013C97C7E9F9B056803CB0DA9751AA42AF2072DB8E2EFCC3D2820DD8FF0F11EF4F54C79AF895EE84D698C281B7C7BC8C8B37F87193F16C69C3FE7E736BF825DB5ED7BA0F42EA95626DB9DA7DE598D2935DC665B01E97D3F044D69,
65CBB147D5FE1F583BC88027AB8B6F78B40E22F7C46B3B862B350094A8C63D0FAD58C3F73A42B3AE190C7E5535EFCB8FD9E8F6421A5573EB6E20D9E93B2A5B60F0E4B2DE0FCF304D831DD5BC083C4BB689277DC3BED195977D32E09D56D4721F95BE9239BFDB8C90C5AFE86AAF12BC26190CE8B71758F5FCC11E083CF0F2FF4313FA49934B2FD8037F6D1323CD98CAA912BAE31AFCEF169794D42D7B21DC66D1D849C4FB1E80F7EFA127967C113AEE8581D9E34B33B34C178659B2501481BAD009A2E0CE956B55A266D491D299CE10FFB524C59596C26B80140F0F91CCFA7D9D313DAE36F8CD60F8F8BC6DB527ED4943488A2E83D8AB66D1184521D69CB383BF,
D290AD828EA12E103EF088E5F758EF8CAAD306F0ABDD998BB56D2F3129EBCA969045F1A02CC3A91CD73B16652663560E1BFB5A927294378E8F056EE2AB1F6A266F070EE6729C6182BE97CC9D198BB2F78E875BAA610438C7F1A1AC11CD85585694F20DC8AF198402B272337A1C5EA1A9633C0CA7A2B03EF6BA292489BA3238AF2D7EA2F3B34402F2587F107E606E24FD488D43FFD157FF5F283B279F1063FC1795C78B3EE3DAA3E548A2F150F4E7470994DDEC4DF568CB536BFAFB0045C54EDD6E0588466097BF333F68FE2034863327CEAB90F2869E6A151AAC03A6BFAE32B7F71DEAC726ABEE04E3A87EF4FCE45014C0708E34002382C972E9D14A2D06D501,
BAA2AFF07AFAF673ADF97F875801A97907449A940518047A55BD58F94DCA87474F60EEDA4DEC4ADFB3B1F5149596CFED1B7A6F95764E8C2A5A00BBF4CA08AF31BC973F9A81CD9E30DF0052C0CFE9CC156188EF18D66BAC00C0D0769E257DB89FD58EA6387525AB1E94E1E2FBE742D69E2FAA67FF7C5D3BAC9ADE35BC2D7EC4D29FFEA0219DF4A3140057AFED593004F4E1917998937A3D3D5CB34AFE1B3832703D94F0238649D49C064A52FD169C96F837C9A2AE44DBE3D1F2DD4A74E8DA00E8663A03CA92F0222591A00C3F28689D37EC2A65D1DD82F83B3FFB0B760F44F8E269C69E1D84E9E7F7E32CF89587444F4D8DD6C31081C0009DD6158D231B442AD9,
2F62700FEA9CEC2150A9350A95AE0C1A3ACFD46965DA56CF970719FA1E17A679352A4172EF053E793EA51C11B55AE473081A8861ED0F53D1116429C9A0C387941BDB919AC2520C7EE168520CF21953F64B31F68B776EFAD681C2D7D9CA61B4A7B431793D4A02CD157ECF5AE0B090C5A992EE685B7DFEAC849ED058B22E0045C504D8C6A73A054DAEFCE38648CAC5891B8D1BA1A9EBD1D7F4A6A49B2CC01B169F84A47F13802A11ACB8B6D34D6949946B6FE4AF723B9DADA374439E1CDACAC5A958C848C8B3E190191F8A6DBAC5524ED704DF67D7691B836E6D80E0CD0CE7C97F6E9355EA5FD36C351657DEA08920B25A411D30C46A78423469649A524413903E,
4E2636888E8BCDF8AEEB64BE372656F511FB6CEE5723ED6F5EF78AC03DED0E6243DDB75D5C0B7313EF97682409985BD95D7807372A4C9D4EF6B58B9D24A7F78433F2443BC010F86636E793289A3199FB70D7D0B593569E3419AF346978B61467980859864B2A32A7D53F099AB9FDF1316A19904ACD2F65996327B425CFF4B1C8FA9F3D54B69AF55B175DE6B5351C5256BB85FDFA7AD845180942C4FCBFA3816438BEA95E3086F2CF286A6485701847FEB9BB9DED01E07BCF780E612ADFD93276D99F215850AB189CD2FD3FE9FD2E71FA45FF4EE458C432B67479A6EA7C019353BEEBD1362E0ABFA81EEAF92894BB5244A847160F721C22D147A15EE5E67833E4,
97C3351DC71B30439A225893C66C68DC8ECA04443A8F33F7B4CA42EBE83650EDA3E2A6A16F33508E0181864C865BC953BE330B7426AE8A10A32BC4014D89925A54F64023385A8A7238F40D2EECDC485D52AC5EDF36C688F3B9368535B0B12969C5E7B7129FA55CC5075FAD08953CBFADF59528E3AB08EBE0E5CB41F52BE4444657CCD18CE9121565EBCFBB912CFA6E8E976BF113D9897B43837325400A4D58B6BFC2E35DEE77494420935ECB543CCC308675FBC16E02D0916645788A18BC0D8F278CEB6B0F6313A34E5C74C57770519A5CF31A4E7EC28B310669E896EDE89EFD5D9F192B002D589C799C94ED6971A11696FCFFE6BFA8EC2501261E89F0D8A4B0,
8A50736EB88ADA56D141B6302F6B85AECF1114E796FE02C4BD6EAF09F17F6231D7F03CAEC2270212CCD30F1E372B1CB643B9B1F87F6510AE60AE6D2FEC0AC7F090A6CE49DBA97CCEA0FC3AF36F68101AADE8A96E6255F43499BF914CDFB0D625E32A496A99A7D86E88528F6F1C3286444C4D2C0891D1668E48035A5E5EAE3CC574195CB753D18F952B37B8D33A1D0F70338569B936DF39C612C6EFDE77D0736D19D72D53D88A69EBA055DA7E09625ABE48B99F255AAAE38742F785D634F57EBF735A36A2CC1C2B2E500A8595192DF047CC61797B8053BDCE4F959DA690654DA30E42BE37BCAE71666D858421B2AB70233C7A5010FB6A811829F5DE2CF5BD0546,
F80C4C676F17B45545F948DCB824A425776F57C8E919359568D832E05658042D37024D8B41968A8487AFF79E994DA423E1A71E94C2FB7EAA307BFB8CB0B3D2BA1ABE58147CC387CF4580D1FA3875C8D26C00C0A7185D0498EE8421CD5BD1FDD907554B82C829746E90DA4B0A68C308A6C5F65330053C7FFB8EE6C2E313011ABEEFA356E36456EB66CE9F7D34A3E70E3BA14EA7DA142195127251807EA78907455268C19BD44EF822AF4D4F1D12F42798B042768CFA4C856D4A08C65E77D2B105E3C2EC7CD8B49033FA8E1777EF61C3DAE06CBD74063DC2D96F9FE12DA062609F95FF6793A47D66462728E327B994E850751AA1834459343D1F092601195D9AE9,
94950B141B815DA4A2B634D20C0629DE6DF51B1BA03F32D681117EEF7B55D79E67CC158EC268EA1D1A7232DD09936195C74D38E8EF5476F4F89E051F4C02AF6530F50265930784AA11FB56725DE87C9F2B4285F60F6E083BF2E1E10ADAFB9E1EAFDE2E096D5C908FE5F51CC82C5162A7EE41BC49F77153373F71A12D74C9FD6D9CB73BF8497BB8EBF89576801BB9E928A3CA2CDD851278DF7F0A07650939C4CFEE074B25376F6617F78603842835143635C7D4FB1DCE0C8FC3991AA74D9A8D8464F34595F01EA9AF8067FB863E37F68E9C0DDB61C719FB2944D20535C339F2EF07E337879AC5612D271531B731C1C393AAB6E67AF1EC99C77D5FBE1B459B5DA0,
2F3709667E35EB61555524519FB0BA21A817661E41E775C2DF2211B8C9A8229A19544DAB19481403DB81AFD4654398E3D341D5653FDA7E5D3B12FAB8D405146B962AF53AA51066A4BF0305E2C34663B0D0E0ACA9A45D431AEE1029605F4F6981E763155861930885C99992D68E5938B10C2AFA08C07ECE1F24F0AF4D6A8039FFF2F0B8190362E3C76326A112825AEA4C8772E0069A90416BDB120C888A1AF8272648D93D405D49345E62B5963076C8BD31203510C142E854B6DF36D71BF394DA7D59AE7F9CE3C9B4FD1A3E553C9DCF6CD08233A4300C06F2416E6B972E6EEDD95DAA455CCBE784688B1E5F80F1B347C89659779CA6CBA5D5CE67E60AFF76FA59,
BC66408DE23E5E5450C9ED68FAA61EAD87770EE5622CAF8E5F54A2774A4F0ED28FE91558A6B2936E6D924DD38CA8E85D5C8836A51E4287877BD6502638D9518654FF8A75D38C3742C10FE30B8E21F5C8B08D5806322E314DD5455F95794645A4811A053464CD4F16C4339151340E679676E8C14799003E60376979FB1E1E896A5FF8703DD28D9AE06EB9090EFC3F63E3D58742611463E61F2AA68EE1EBD79D6A9658ADDC0209FDDDBB719385D59B2656FBD6BF2C5A660FB9CBA16379E847C8D65A8D7BFEE7A280B08617BC5E7A6BA8959191894F81709AA56DB0F57F0DC1BB25737F670AD872F92F234D8FFFE5C39E926B43DB1131E63E4DA2DAEF8E5EEE87C9,
1CEB7B45229B387AC05FE65A4F6606BCAD0185F2AB546036B294049CC99566D704D07354BF7AADB62B87E9E53F7EE9FE4CBC1F760BE815AB4D7F950E9E3F75ADF184ECDE24DBA83DEDC75D8AE5944F68E7EA52023B4E2087311B3A41CEA93DE8DC908C82D11618EFA50597A349367002E308DF1A3390839BDAA73B18701BFA586E4F249D852B470DFCD736DD5AC44AAD2D56E4B09798F8B1AD7C87283F774A5397043D70BDF5C0B15D77BADC40AE683472F875D804334EA45504BF30F72E09EFCC3CB437988214C55952A169A3DF00D88A65FF356A44563D6CC13FF8E13BAE55AF47710F66BE8F85DE2ABD5B9E3C6499B04EE4804FBAFFCBF57971EC7EE07D07,
858F65F1D0195CAA1DA8A57EC1C33A2937492CF1776A860355026F64F78CB7B42BDD90A3DBAD38CBC8DAD7247899681FCA0FC256DE684023D55D3FE74F73F61846024711795F17626C3B1E0A6DC4572F150C4DA7FE452E14C5E57581EBF3040DD0DBF5194AA7B3C6C4FB0D0F35D988E2DF7C9B6FC2CAC1E397889ACBB81AFCC865BCA50B104FFA70566B2920EA8FE84838EFFD754563D71709671986B1E529F01DFA257B901A20FB9414E1D3EE8002E3460A50B2BB00CB6ED90EA4ED4EF024CA2129AAA1C3A7941FD2C8ECCBAE562DAAD5142F6FCD6EF84650FB9E6762310BBBEBDFDB95CE1AD201A20E4864424E159C126CC4151604C03731099609B102A5CF,
0CAEFF49DF5F3116FC257752A6B12499FC177C12239B209C21C1A4BB98CDC781E724DA2E2D1F66161F7409307B997285FC876B44A733115F16C48354B9D117E293966D1E44E8B59D49D341EB08450714BD9CEB4259F993D5C3412BA9428BC1BB823D969A8642B3E1354065F57260EE3D6F0E4F0CE72B5CB731ABB5FA1B1079468C3541E19FA048689BD733901CF64F3EA1F9A611FADDA62773123CC8BE64E7A4FF3CCFBA474FE4A15AC40583A844BDB5A0534951630BC63AD773A35DA2128D03178EC6D35D1ED038B0B40B38ECA55622697247CC3C9F869E68A37E51A73BCD812F52EAE412DCBD5EF2255B629716BB3A8672DB74D17BE1915BEACB0E95BB7CF8,
C84C1E34D8D19BAC97E23C1ED3625551C7B5F9E296EF78DB64461ED272E575235B07CD9BCA3A1D5B9AE5CF4A79B9699B5B75368A6E2398EF14DC08F60F601B2DABAEACC42491A70C1D01B1868DFE5082761AE44A383D7A42255521BA43FA93050BAE143FD5804495F8470218B371E773A3DDF918A092DAFCF67B532E631AC908E83D895F313AC4503385C56825B8D2540BEB0618EA4FCD73B06D6308308480E828A9AC42A1D4F8D189E8559187AB428318AD91639C090062C5BC131F272FB6B0A25CC8EF6264EA90F2BCB5CC99FCAAF3044E65A09A2AC98D79D33473BCB9812A3D5661763565CC483623A9A053341B962C6428C2DF0869E1161EA75B0CC1C729,
6399B61E98DE937FEB92AA797E0AA4BE50C3E53462D8E369608B0D2794B523E262F57336253D849D60AE90972646E2620850694DFCE93BFB051E6104D5CB3EDF1FB537426454F22E4799A69366AEF6FB4D3D3052C74F8500CB2E00ABD88F355358D8E69B95A743EFD7D00A5369283323A28F577A4014E6D326E6D47C136AC2DB0DC8FC00B64A1E6F8CDDFCA179CF1637062A785BAAF091F4A6DBA5B1B00187D9F0044D0D6BF275DBB38E933836B95B3939B76EF963DA1B74CE01C9ADB11F48E876FD2A25D45C00E9BA87372B8BE9E4C09357F4DDEBB05C59A3B92A386049524B6738CD1F3917207A140433C45DCAAB5D90268EB9BE9E7B92B69993A50D6095B6,
7DF93BCBCFD3293B60F7DC6EC8210F8E957FC42E0F5ACF843BCE57D7C5A78799C18E6BCD2046995BF46DC02DCCB77D427C517054DFFE7641F993C0F778BEB5607435AFFAE9A0ED608147FD19E8F3D02946041D65847B926E85F8A4C2B7FC540B96BE4C3E8D0BE4718FAEA3D1D4E1EED9CB8AFFE72623BA623104640F8D0836C3CCF3AB5163F2F9FA4360514729E902E7471F37FE33AB68B9F52B9C901F0AC44B9431F0E95B2F111799FC8071E7D3A828AE007CE1B4966072D9158B69C92235AE71447AC00549E788D9EB9141AE5EC2A81AD3F01A85AD1DC951B769767B618CD54B9BC5593D9756FAB34BF0E5757BF2E076148DAC1FC969F0018646977AB53A1F,
C16F67742099A19C0D8077063DF822AF1B62B5202F8942A9F6AFACC83C84D5CBBD04110FFF413107226AD1267F195C4E3111388CC2C003A54489D7B498E8D916260BB294A90195B5F8CD98EEABA56B60B7A1DC6CCDA7D7378BAECC045F129CA25FFB1F68B2DA729612E147342BA9AAAF062BB7D5EE57F94EDE5F753130A68BAC331EDF661A854AE18166D2F25D22D8E3F3199B71C434D3ACD540DD0AE79EAEB56594D7E09E8AA7109B351CFD5A40A1DFE4732EE2D7481FA000E11638D8055E922BB287639A48C278B165E745D116DE0B800CBBE7242E12630ADFE33C0285FD7A4DE2F911A4F668226F01CA25CF27EE9C96C25A4736BBC7EB175F61ED72D724F8,
A5597E8BEC6ED9284A7990D08DFA76F28D1A7B613706E3219E642840C49BD26B5948730CB0EF91A0327E8D5D4290BBECB5E30A2B13DCA5ACBFF86918B5A3E74826978CB55D0CCC395DF9ECC2CD80790DB80E00CE31E6AAF61A02CABF113C1A7D33F9E581C00B8BCCC408D578A44869803D1A2A225C5CFBE80DA330F18577C47C9AEB8A580F3A88443F330ED3BF0D104938A11F14DF7B5873B7F37259E9B7127084CEC2B0BDAE2788E438C1D46AF9886C0D45FA806C9780FB93AE6CE54F64304ED6129CF3FB6ABC16989D4573D06F0FDE1F5835F399318531DB8B191C219AA87EA56C8282AA8C8CEF32B733B66E2F98A0247507835ABA030D950EC82F12DE7092,
056CC761DE53AA9CB665F85C811C02A140DE11CF9288FA227D9EE8F1644D49193C20FE9ABA0B8558463B3C779C0B73A3B8FD41905D4A0DB5C4883EC92C9001B65504779AE1423B04D76C1DAA3C5B1DC14138800B5EA70BC450962899A1A96194ED70F479D66E65DBC6C3157EB3E9570EA390D919060FFDD4404C5FB28CCBAA2319B7518BE219ABBDAD2A39ABE562889ED792CA225C4FBE55DE87A4C57A9F9F7708CE4AADABC0E13F402C554749CD11A77403320476444DF6EC328B5EF82A5397823A2193904968231FFB2B6386519D0C0C55A699357D2E69180C2151EC9090998C9D0C4B99C731276E2FE29F5A9D3389E02F07B44B59F2718C643519BAF57F56,
59E3BAE455C7D6C21C65D9BCC7D5C63BF28D5D58C2CF9E27CFA6B6766AB8FEB17C21979916102C1FD8EC50389D6C5A91EF67D070F9BF3A47892C8642285BC191DDAA5142547B284E3FCA5700423B0306E8140720E2DEBCF2A68DC137A05DC4CF278649CEE89BB3677116E6772DE8111A8B495C52EE5483F794E5A964D77DA4EBC17B79C28C3395606A9E62B098987A71BCE2D9E14D6BD114A9750044996B40E21268A1D6F0C02686984FD067D55A1A4726E9A75AC8F5C3841A206FCD77ADF7F4F8C07AC259072F8F8D8B98AAF83851FC089E4E4670F336AEC9794D7C3F47ACEE75745D16F44FB0288F44503ED49F80AF3AC8EB513344D2A20B535A1237736F54,
7BA34273D389A7281C6CB2A5EE54D2CD7DD90675B3D6170CFC75ECE20641FA66A6F56C878A73773005A77825231EA63115CB64B1383FCA6647BC6AEECF863C91141FFD67159161300003DC9CE63AE8DC2FE4A2A590BFDF826FACFAAED0AB6649712E074A89691CEFC8D6EBE8BB63EF461E538AAC065C62ADDFAC8D216FB490AE60DF0B5FC16C4AC9DB0C2FB86C81361FFDB86E5DEE5DBCF9775FA33A26A21DB5C3F56B4480A09B4EDB09082AFC759DD7D78E5FFDD40D15F20278EF53D0D770932FD47D54EEAD43A706BA8DCFB44AE6839ABE8E22C8982979C9C09430B3C74BE2C10701679C53FA0BED8F43605B2E2F365D71D7AC119979A5846636652296C927,
1A963AB0361643DE405C6BE65CC031022F69F79BE4EAB8DDEE1CBC7D766E3F2D8B0B79F95E2F0A5C0665C8D7BDE06D20E7F0C54E9A44A6A396DEF281106C8BA2F3CB7017524A06B62B23F2F72EC32135242EF2FBCEBFC497FB794EEBB1EEF931C21E8C4581E447B994419CA6CFD859D994414457CD2E24965213D182A81CEF5282D760183544F32430835BEF12FD235AB88813CF89324A6A4C82B4718AFA46F27568005E8AB3AD1F93F3673388EBC06EFF98221C8E89B06A0A1E8E2DFFCB56E268BE8BA979EA24B43B6042338173B9AF3FC8CC3CEF92875F3CBC1DBE3B60B4B80463B5BB4D30D384E20775EFF3AE79CFF5F3CDF5073C259D066D5A8740B26A40,
75609AEFAC6F20388B48532DF9637A402568F7ABDAB8D677D72AD400425E361DD8C493032CE3CA4E7AF606F7BD09B434A693CB1D7B2C2E072FF76CF40CB660530412CFD31BC37BEEDF16498B8E62AF8E32E8FB7C1CF222B76ED8078FB00A18E9B611066F72E77EC46E97B1630FCE1FCFCBE112E62F0E44AF6B87EADBC08C2566C35AD0CB4BD7C73EF2BA66D7EEB2248595A003EA2E617A8B14DA45A7D903B02FF5271F9B5199AEB5B0D5CB6E2362C94C897E09A77D4FCDC8597C6AC551DA40366965C6AC611915EC23E3A09AA0BCDC835518F8E14628EC26F1C8980FDB20E165EBDEEDF1EA59017659DC2A3001C4C73AB190956567EBD2D70A3DEE51B95ACDD8,
3753693E91D49B9C3DD58DFCF17B7BCDF8D107046A0B8C0E296D17FADA8FDD45D0310402972C67764F5EB8EDE7B9B7489840671137E30FDFB74728EF11E66DB7E884192542CD0D20DEA2E6FECC80428482F82B4C8028461FAA68757AD5FDB53712FAFB5B917BC727622CF80C7D176322B21152368A9A24B11AA0E7E5DFEC5FA3406695562A729D8CCEE42B7B9A9BB8D25299FB5ACD160465E4B3BE4A6A206E3D5AC4DBA98E0875FE07D35089A82FB84D6E95F1FB42452A7CF4128D0B2DB90637F5CCFA8319AEDA81E5C27D24E4AA782BF3E9849E074AECACE30BC66BAF25D103B4A69265895E27148CD51898AFE271710DD1963F8005BC093510A3F8B84CAA19,
FBE28710DBA136C19E4B7D2C2C3A61889A942EF8D93BAAACEB17EB375242764FD256A0398B12F108C33C549613AFBDB012C5458A79823ACACCAD4F3889ACF3B5343446E4008A3B0A2AF06E677C912DF4D33B3BAE620A7F815ACC8A5EBE5E1AC1236FFB8820182C25580F0422DB507D6B3555DB7F35AFBCA7285E880E6E1742458DB7BD47549239F448566F9733F3BAC18822544C9EF012362C8F4C5808C3895D7B176CF89B54E286D2E555251305EDA3A651817DC49EA404C1DA177C337491357EBDB99968736061C2E9DB1A36CC03B6C260539B5892598C830CC3789E2E7770417006A5ECF5ACAD732788EAC729D72C070BB795691714A524C87765F95004EC,
82D1E822B7BF443B7465ED2FD367719BB5914F373A8E9C0468B895457857B668744DC13B97937AC8A772531CBB4CFFCE052F93474E32750BB7C5D552C1BAC1072978769959B828718D6CBC36BF1FFC7AA984B74C6747001E25D2000E1C2A1C1A8B50B1E2324A8F7FFAAD13A93164530E8F008E4E51190F2B554327596428210134FBAAD443855F3AE0200FBA0217EB6AB43A30EA0C1FE7FF46A570C676C06EC15632CF144C42DC363F7367E001C253E72D71C739537DDB5A53942E6FBB27C0C2B00147D1DFBC01F98926EC24B6CF270B76F9E74E603833FB8B81C89A99FF013CF18C8DACE4F410F31DEA313B73F1EA8F7E3B574187E62EA8CEB7C37AD45D42FF,
E69D80B81CD028031F2D82D6379BAA48002B8D4BA56D4C65D5D9E3D1F36BD2F31A95857BDC12932D961639C5062986E4464FEEB2F20A49737BCE8CE099762A171E6CC7D404DAECD316D71BA7E8EC7D5C2293E8CC0614943408D74908B2AB52D52A049C4156DA1EB45B530C9A1DC38F82B4D3E8E931C74B008147695154016191770C9E19563E33BC0B4D394EF3E12985818386EC07A271564A7D49EDAE568E9D355866B9DA60E4FB2AF15230551D0AA22AAE44CCAB62659F31B9665E36814394A74122CB94DB112C453836E7F3DF3C22A5C96A33EA9DCF5D030AB13CCFF9B5071F354923121680553D647CFF979A8F54AA7FB2B8E6F83166969FD08E3145259C,
EF57BA890BDB9E4D94F85F77BFFF4BC2002B5D72C514ED37342C4F7CC5A465A83E8FAD8738FF7B4A8476587343CD05DE7CA7247065A9417A0F4FE6AFA6AE17AD5C14B2E5491F968EA905C483945759937DEB8633913BC33096DDBF6EA2C6BEDB2BFAFE2447E841370B037C0461E526E06A58F535ABA1D1F71D49E6613DC346BAD20C4C9F3FE22DEE89B91087A497D0E87EE2561DFE2132CD879F91B363C19EE38BBD23D03E83C7D3EDDAC7A936661B76AA7FCA3B1B8DBDC0B5659DE7A8AEB6241891B35A3EA7714569C84E27BC3592F5C87270EE4D61F30B59250A05FC4111B177CE54FA9385117610C59000E216ACB1CD476B4E5BF4A89DB1E7BD292D360A25,
11037010BEE2FABEB10F0A7303CAFB5733DC5C144C716351150BB3A54D73236868FDD5AEA8C317DF4D003438CD4DA73C91C2FFA4CB1F02C70E8E8A5C5822E18C3A3EA296498B68D86CA63EA0C6749183D779863CDED00E0C6ABC4FE5E39D479326B6512C12356FE72F8210FF6721470703153AC2A55C4441CDB2E56ED4787BA440940122E8CEA3B2AA2FD79355368AE6820000E1DF505CAA5ACF6FF4C3D639A99CA320E2210BD7DE5E6F5EE71E14027463DEFE662BCE139A881645120992D9E7E7D4C0DDE99A71773699938C99922512A5ED22AD761F8263FFCCD4290B4FD282C281C28F9A30571A032EB407389EF886F01AABD816BC5ECB960D0258DC55FF60,
3A39EBCE9F1DAA9FFED8657E30AE35466B46486F33F9B9358C5E86015DC6E3D344F61B302CCC6370D0C40CBD025E4D181274A55C506BFD9B9C95ACA40EF77F2D43970D4A804BB3B65A533368C06DC4235E33E5E73B9A053C49C3544214DC876CB00CC4D753163B98C0FE519748568A02E14181409210FD5D69E6A5644FAC3E0C567496B5B8A28086E9506352DC879C5ED10672FFFEFB4285A3EDE62BBD685BAFFC28803E900AC181886A6537988718141A9302FDE898D7F2D4231F36A4A9C98E9A62348F0CE914B24DC76871BFD88611FB05628320D74C428F355D0899BF722BB9231CB917AB42367A1FB456B2D4AD075EF2ED69435B81CA3D5635AED242BCF9,
6338658009226D0B09F6B35A9C29544E9A0713A5EB94F5AC43AEB2A16D8F3D01825056D7A7C144D5AA57DD4F13A4155A341C6435F017E1C97FD872FB2513711C502522936FA24AD6C22481EEDDB95093CDD4EC7705448F805F097884C321ED4C1E932C1E1BA90B932432E0FBE5ED9FBD81F249BAFF996206E7860B4FE00F989B5D96EF7B92C983FB8A69018FAF79D2D92126940B3C8DFC4125D1E0B00C9D1A207641B2B291EA6E83DB48EE10811AD8A959976DDCC1DE3029659AE3F0CA4C5CF1AD236612CADB4C1A0E6902EB3D1865F7F6DC989F23362B042C0E9C42B104DAA0C092C7ACF93B80761537434342C2E3955E1ED7A6EF164221C54615BD24BC2013,
FDF17B2C7D29D518ECBA295B5D835612ECE9BE7A6DAFDFE096D94CBECE048382F9149DC7450CD2280651DFD4A38910E6C5B4612E375479DCF17ADF41732E2D54ECC4EAB5F99721EBDFCB9D83A3257BC881247A5E9EAB4A0DAD42261D250ACD4F1B026099F680E8E9A9FE1C52F47EFEBD26115573DD2F40D484D0515865752EE0A1AA7F645DDF7FD54B2CF25D8D6510C114394CAC84612A0F5A8AE426F53722582B79F3C69C20B00EA97C1C09D8B627200234776F2D282C7A83D3E4E31732CC0C07C9328AB0B77F9E7B8F7474E76CE305399F41E27707B100C27D60F052166F3ABE8A60D4B90D6F0E172001FF262E2EF792943E2EAFD03E67543B24AD2D61AF94,
9A012EAF8C6E8B98D6CC45DF93101F720BA106D589CE9E0EE59E4173E7DD951A7F9712A790C94E7A861CD33DDB4911E05E3736AFF3C07F4FCD08AC4BFF6A785378CD64D862ABD30A43A2061C5EF32BC15938E8C9946AF58A6313BE10CC0902B12E65CC749C655B96626AE83422F48798A4B8549A9B8A55B352D90E6353E26F16ADCE7BC9B1C3AEC3AEF1FF1AC7D74454D457B4D27F7FFEFDFF61221763D82D4E353615B553863957A2A36253818DD0BF07C2F6DDCDBA9171A1078008B1AC95AD310F74A04D479B512ED39D5D447519C85A0C7355B3D6BE2F102532315D7826029F5276FEAF6854235687A72402CFF61ABB1202FD98D58E796CCC2E3F7868A1B9,
BCB9E9CC08FF9A2DC28BCDE9198EB382BA9A437A88B4F836556280C3BED8EB5F8D0279A867E989EF1BA53FD33AD4B9DEC1FC261FA36E48FF0FEC2F3FC1C17283107D257462177EC97798E7A7B546CEC519D955CE45DB03611103CC67EB2E3F5B95C96C690370331FAA388E61BA8BCCA31FFF6A29C885D4C031796660D430E9C6F302C33BA73BD60CC201826BAC0AB0F312654A7897C85694575A388A017A0DC9F11101F88564C04F7A60FDF508B7BC68F1B56835EF3208B563B421AA2805F6324D541C4726A43628685870D9C2F8D71F2C35AE7115D8EC0F3A3D3DDD9C733C5F6765AA0B6B50510468E617B9B92CBF0739D0BBAA9EF03CBBCC664B11D41475A2,
FF906148751D8825858A573FA706408CA85760D7550AEE84F506C54ADFEA81611CACBCBED7A52DCD2EBF6D737BCFB13BE17249A96C3D5E3CDF60770CC541589F8F026092FAA523033BFC908990EB8BB6B4D64E9000C571E1E07A1EBF2DE7CAA954E7193FC6CD3994637EDE37C19BD76AB158DD2D6B9D1D19C4B80A7CF7D054EA04C109D78BD26A573313A5BF6BEF411497A9E053C350E6F83701363685A6E4BC256E4A65429612E8F1399DF98606D435BB2FBBFC1391966F8FBFA3217B4DA3365C5F3479EBBFC780FF1D0392BC86DA922119F6D399E4E5630A9C1130ADF88E6D2294AB1E10E9E9F812F65026157B2BD9DA7C0FABD7557F4F92F7F98ADAF06E5F,
D754D9981A2BCDF3881DB5C257C4B3B7FADDBACBA1F09A55EFF1660955A7BAC27FB35A08D424C7F03934A325F6E2E51B7D66EBFD1B968F40E6EDCB26CA13B63569A5D84DDDA577117CF88A1AF5158EFD95713B3619FD2940C046C1FAC8747F24CF18D185E132F4F7A79FCD727414FE86B568FAC060F59F76B0FAAD900876E6D31E260976E0F280E979110CC332FB4200C49B83973508D720C77A3ED9C10DDA3CD20B3A12EE33C27D43484BF49D08ED622F22B8F03AD83D11E2364B1CE0E6EBB4085F821A8C26ECD10BF3067C8CD8B394A7AECB6C425ABBD8A436302734DA32FAD2C6B8A3EB349D631DC0CA4CD881A89C799CD551A6E4857061EFC6A3624C46E2,
6725CF5D9B7E2EBE5B82CBAD8F938AD9CB9F68A503E89592FA1D46B580FE44038938FA08E2A50764FA37D327975CD08ABDDCF7B0B6D933EE519923DE46EA0CD7902CAC18554E3127634E5DD39D6FF1A6496A226D9980220281FD7EA84E9C2DC0D73135E278436D71F7C082E5129955C3A6AA73BFAD4A36CB052619DFD88A3B0844AFB87994A79DF6142BFF2270F6257066BA1C6E947DD323DE250EB8F653E94AF494D01CD25D5A0E1928D43C104BCE9304D13A14860664784C76C5F531058FB60516F7198D366EEFFB0F6B964071DFDFA663A6F7E7635178002C32A7392319A96DD7141E370FD10825AA7A07FC5263761CAFE8A1EB685AD80BDA95A4FD8666FE,
