546E772F9333323499BB7DB010D382F49F4E9B6AD9CD8E63854D209DC1A0832042FC579B6E5EB60C301F37B106B4D4E07BD76B0F79269A5A259BDD459D1A0C5C5DE116759EAA565131706659E6BC9B733BFF3D54C64F29F3AE4DC1028F18559642B6FE3BDDE8A9AFBF77C06CEAF1EC8698946BB50911DEEC2C717424CB71A9C2E580040291E9EE9A505E586B806451839E2948E8A44B2384C3D00B4E810D3334CC610C892387712A7614259A2AF12EDC18A3212E91D734BB84C22E4F4D2C8BEC30B55027D1A9E8595144C5B491683CF267FA09A5A4517C92831266AABF7A20F947AB1CC4633BCD06B6BABCDFD1F7858D90C77977B7CF8062EA89320F5BC234CA1608A64C0C0CC706C8FC665599599230C40C57B618FE040BEABA0188D50E4BC41922AFDEB8B8F93F9158BEB538F1B08697B085A7502E289C3B95D9D006CBF62541C0F5775AFA87939BB6BCC4E9293A415C3966CCFF48F3B043F25DB3775A0BAFE1E4F835925D706D8E31A8C737115EF8587EEE1B44612CCD8E07CC4C215BAED1808AD049CADC3DBF8255E27411C9AAC482F19C79FC5F954AE920A4255E4CC127E714370C975C1C4F22E994CA66FC72BDC007E0C11BA80E15306B621713404B5ABFA62E34FC45AF6EEDC73E072A28D11CC5266CC3530BBA4BD9ACB693DF05D98013D55BFA305EFF1CBF37772E45D9CD34B7D76D591A6B488C31C6B790E300C261D2E427EE378B6AFFAC459D1E39839764C0AFFC07B3CB5C82669B19702FC4B7C70283D87BF2474AAFE94508A5E86C55B8C53248AEAE5AB223630F6E119731BB5932A45FC1B7B4ACBABFCC491549AD9484E05E7C4240102CA18792AC0C79BD435BB4D316A0C4CB8B2AD4E9D193AD18756A2C06BA811D77043C96C9598B6D0A09E922D442554118A0E5887EC9A79581B486E415243B4C2C26F4ECF95DC2A3CCB80B5A02B223422ACD290E624745C8391CC78A084747A80FF56F911CFD05D212B356343C5C80E1B29E323E5D2288ABCF3B2BECD3C7C98196C66E18CDF7D01DFC938D35615100BAC8BCD7D6417DC3B8B9F767D7F1673E6A16DA0AE86E23AC96C52A4B1E2ECC338E6EA1605785D17547B4ED66BF7B746505B0BA820F9BBEB60879C6C9A657D156CADBC5BDE8587261E3B2920028C9C27C59D4CBB1302BA37EB99806A9464BB382E4D705068F7D9BC8D73EB80D2E0CFFDDE22DFC654BDBBD954722D74F49178F681F72270547CE6953082111F29477848A3CFED7EF1C39F73ABB665E5F9BF4074FA385C7C7AC787AB808D6B313886EC00450E3F0BC30FB613FDD0650CE38BD91832F358170EF1909BA3C100A6E0EB003C81DD033A0AD4A7914E7110AEDDCC523D08E309C3939243A618D652F18DEA083AECB2CAA97D6158E94FC3B33DAEBB53D8D7073ADE3CB1D15B17B999187BF8369B48DFDD7F0CC186E9F87E967F5F8B5FD6C95C8897BA8A6ED74FF0479C47DDA07EDD6211152A7FF33FA8BA9B9B73460585E2A93621E1CE177F68D7E6A67C3329254616E50FEFCC8BA39558C0E195A2CBBB7A3EE3BFF0AE6A4DE635904A37034AD5B23187E89ABD8585ECEA5E0755BED44C49B4F922F445C314A1AF291B1099695BAE56DE0F7D11F9F584227167E196D320A27FE56EAF0C9C895DE620DB6DA76FD52B92B2193845DE48CEEA7D8346C4D855F0810F8E54B8715B290E8F4C02E86981C73F96535DAB80E0CADCCCBEB679F398E5671DC3307B60B7E0B5D0560A624113323D12D5FF10A8BB549AF5D061606C90059B428A0CEBB831B1F3C956B3D8EBAD60EA46EA5F85D593A52287841AEAFE8B80C034E2FF51E7E283D23C6C3835693261DDA27B7698C9CCFBE5FEFF7F9F2D843932D1ADC23F35AFAF537D8E3E6D7BE60CF129E438D64A43DB273563CD0E137BD6BE427E1D30E14AE541221E0878B0C15DC09B7BCE151E373DA0B5F37A119F6269BF4F0A294B68E3BCFD9730B8C0468B2E1338A1EACBE21B802902757B3BD947E881237A1DB875D1F885A84C2AE74B15829A5E7E31DA6B9D5AB78EA3889C15AF4B2893E0604654FE2B73BC05CCF8066599F754B619A5D777C835C588E0796FA9A5094B9BEA8C6CEA7F0B1FCCC70F84C6CD99EFCAAC08CC1FB3D6A8AE3414AB9EC5DE96387045A0AF7F4881D2FA382EAAFDD082960C0D98AFB54946EE24AAE977BC1C16A88F646BD96D01E15B62889889D68E29B2A33C868E091DA1D1A167D544D21961957D8001554A4BDA582F6648F43858BF40E4395EF3043F451E17725A6293660E912C63C5617329C110B9AD776CC06F8D2AC2EE5CDC80FBCAA3C532F8AB7182C1DAD8F5BC31F136955CE081059BF4D7071A00C4445E0C3E36D49C7F2C1D4FF38D8CF8AAD09B9120084BD387C68CAE9949F591ADE693B2F992FF2BF7ED36640761E1AE297D6F9022858FCE0FDE80F7132E94BA9E65B62F19F4CD8513785055323CE2F4AD62169C0E69A48659496DB0ACC79600B4777128EE5C3663268C532F9A325FF541D82F85804B38EE213B5987C73D5220C7840E3FE12BA1E4FF3442CCA86F46BC37A51AA0A6A210452CFA473D7DE4A77162FCA90ECABA97AB0B7415E8F81067DC59DE9564D1083DF530998195BD558DAA1D60CC210A3A12D5D047BDC3BA2F775185AA29314E8133B49F02CE5C26FCD4313D245DE10009A8EC8EC68BAD501ED5B6FA3C15EF8679192FEBD07711B18C183481F433F069963806796C966EE1D50188B4D2B1641CF9A723CE62DB9EB7D9336B961533233BDFDAF4D32869D7969A1508808AD5EB31D326D0590E8C21B362353E034AD26459F56FB5BEDFBCB05AAB27801F749274E16392AEB16609A72FC677E829E66D053AEC51242E87680BF28847885AC25C66DECE42E96BB92737B18105BC92A8E5CB274F35902CA31B35AFC8071B2655F69AE4EE51EF0576B3749DC8EB89066F4B1B1F573AFBE2F00A86609BE9A4A64B16E63109F9858AA7E7597376EC647BD5D09A8D301E538D773125E365DB24F0006F25716D34756459952002D6E9D65001ED53999D0EEFC27527671AC4DC8806DD850B60D663EEDEE5300683237552736D5F9C89C36DA454303D101D86047969981ED9334AD53B89A3593B0D749F9117404566EB1F35CFBC4E307398E04803232F997D83D4664EA683C0E8376AA5CA4D5F472A3F5943AEEA5856FFAB0AD710998C7CBB3A79FB02F1CFCE3D31F9DBD7BCC000DF08F27A8A3F9108305A9AE63BE98DBB0F4C5C78FDAACE929D98F120F642CDDDF9F48E68859CC9271D9DCDB102E36A2156F9502D546462A841E7BF663BD6C83C0B7323067E07C55B9FA2D887094A682C9C1BA28F5751DC591D31568B9208D0A8C99653DD9A60C1467BD288D82C8859C1F83569A3D9A28FD9EB43AE961759209F1C89AA1D81BD91F4D61CE7DD4DEEF608262F6185312B904BEC3443E949B150FB1768F7B6F46E63C276F6776BDE710F26CFD6CF61EC2EAC0F791BEC680ACFDCC338869103E529361463AC42390D842FB5184C606190DCD9577422BBF0021530F76C30E37859BEFC3F28EBFAF01E10684D0270142CD1E53420505DD91622EC3CE79E3BB950F6BBAB5DDDE235D492D8B87C5E6686555C63BD879FE8FC86FFCBED8C7AD30BD43D029A0E7A55F8DB35C225E4C6E4E38EEB3EFC1BE34EEA1CF760E8B6F1C8D936A31141B9D108611DDB585F749888E8C215E4A628F1A5016E2946D4D68F79BE63991872A7555675D14B90C5DCC2E9C4559E77B3F3F98AECC9955D8E46650908A7AC554C67B4CA50EEB53156AF9750DBF3F075B0E611C77DCFF9E04208E47ABADA2DA6DA22A439531095CFD9E62E7171F8E3E7D5BD7E49DD4F86B32C7D9D511D5C9B690C5FF4AE3B890A5286212275872BD287292A21015A09F5D47FDCA062C0461C4DF5273E9810F3EC18B60A4F540FD2E93FD51045E0292E780499D4E05D6C53953ABFDE8C7E307B5DB462D3773B93F7D459A2E5EFEC9DC18D649088818BE37FA39C2D6A5E7D2074322FBFF17C7B94C139B845F619BF3552E9C2A6C31C6BDE353273F42779CEFB81AFF112E84EAB27840B2391331383329708C1C37E3619976B163AF53290327A1A121889DEBF96C67D66E044CD8557383C7AD204DBB512A1CFC8BAA0FAA8B51CA9C41BD1FDD88D71C06D43F6467E0E2AD293B7E64FAF672446D77967964A89C1F32ED569008966E905144327E3C60FEC113F61B9D61B57BC8B461B9D09453C044372393343604642A50C5882D5595EBA1AFA9337B5B974BFCD7A496668095298309F62FA42945B03FA4D92BC285479BF57EA4BF69E75FABF840E3F9F459C491CEADBBB95BBDC733F78411336ED86165647D995E24550FA29105058558B2C09F143315429730C97251A585FD5E01B1C3442654A578714E2F8CFACAF8C7B5A8D586CD6A342E9FE2585CCF0EA2E2DDF06A953EB2BA592ED76CE5A2A3EC4AB5CE4A5FF29C084FE9A0D5A0A80DFE88683F1760DA1CA8B64FABC973DD7C1F9EC678C751B56B4A2A519C55FE124ED4C2BA11121E896DB91D492D71FDA8C56A297CECEF1ADB7E3A9F328E78866B0D778A600807E74018185795C3D7F1BF1E039EF4CE0D3177C643BA0F752B476D2FD560B9809253FFCD7EEEEB837A040EACDF28AA89D91184838C170BC2BD3BF72EA60B9072E68DF36A6DA0A73EC53EB6011942DCBBD8CFCEC55A52F9070357364FA0CFA7342884E6E9BD93E02FF46AEDE49416ACEADE2129D58C69CE3F9D15D9D6DD11C1F7688D3F059C6D411697D2AA300BBB30F68C5C2525CEE94B96ACC08F69998568B9F3FDA86B0F3FE9FF75C6A493B0ED16401844DA3D832E04D668EBE7B15D2F5D6207A82AD73454F97EB537C92B865BF9252D0F5DCA817B66348F686C449FC6FDA490A10CB0E483BB3EE10CB58CA40111BD432F56A632B14222CFF4AD56FFA341838F29036EBD7A2A1532E51D48BE46FC1257C480629BFD6A56B3ECA7913EB09E657EF72432EC5A80B3547B60CACD71F46C1855454FC350B335A1A6C1A56A1B37CBFC3DAFE33E86BE542CE4446ED170E46960B4CA5133C52A90D784A3EFC05E94FF935DBAF6FD54BE54EA71212C237A48AD7DEB14F1BFE8536447AE857B6AF1FE09026B628B7531608B0EF5A361D60F0DD2A046202C28336316219332615E2AD48A6A7E3E46CEAA81273111C30450A140F1095C9740F539BA02849501F9B035054AFFA39EB714309CE7BACB59BBACD0612589D92B3EE10837D75B0295CB3A23F124E42BEFAA65CDF8C1835F0F81819F59DF4D6831AA82141CF88DF0667DBF1A43B99250C793E5278CFD9872635ED36EDB6A1DE5AFB7038A6A281EB3F6F5D2F15F8433895F9922AB09477A5B74726AFF5AC9DE76E1E6CE10E07425F4488CEBC8FC2C582F7B5524E6C8CCEA8AA9E7C765AD6F2DB1B41252A16C5DF6270DE3156B74B560C6760B77BA8189FD8829B76ECAFAE4050F2C9F4BA41E66C4ACFB510D935EE490BE817012FB63019BB44CFF39BA61664E8D0521661815E1BEB31CD9076CB2920B4811EB7A8D07E8E0C74035A38F883BAC34B3E32FD2415F5232E278EDC6D365C2DABCF3B6609CEABD5F2FE4202A2D3F145129EE21E4B7F38101ACBD2EF6CB36D7B111B379DF44BD748C1CC2F58914C37EFB3825B587C635C3537EEA071347623636416E7D4A1B57CE5F15F976941D24936396A045D7CF1A35746ACA8C54A045334888F08A1A2B1B045A78418B078B87C5BBEB4E2054DA6B6866B1211069573C9C79AF838B552013260EE67BC2616641E03609FC794CCD5CF206A5DA41F489656705A54B74F4CB12C02A9F5DA07E77108E5D18F000E231ACCF0B2BA366F04C8A86A6FD61B33C3E9681CDCB11A3036930301DCD6BAC378A55FA7E38B5463F4EB53E7AB790AB9A975B2251282E78C3303A8DF12C3319622A132C7BC73F5626BF2D2C1F44CC32342738E0E75C6F0DDAF8A814D6F71AE363F37B9B74C2F4E087E434A4D565A41E55081B1D5F6E99C78242F0D365DA8C994615F8D3BA7AC7AEABE79711A0DF8F822A08F59B1F91FE05F48679A0BEAAB2CC269352093FC463EBF1BB78D8C18A85D91918AC010D5144078ED9993D3A88E51140B710E0B2C6F151B17A192742517AB9750A5B16654299D1A42D76D0631E4B5D7D6623DBDA3FD017D3E0B43936ADD2525DF1FA43FFDD30DA960374E6E5CF7EADD9D61747ECB33370CB3E50DB20C2360E81F7DE212D5B14E55E7B6206BCCDDFEDDAA2E446944304F7F6C86B701E4ED093BD72177AB22628B177E20A34AD2A9083A16B75E232C2A331F3A4B35F204103A20E45048B8EAB8166FA8DBF5542DE4040E424E3D7BE33139209162A40C0D52FC242BE8C70807B1D3374AEAD91AA355F7E9B237E94DDF5C75256BA9FAFB524116AEF576AF171F4DB55DE75543805FE62AE9E36D7B005E2DF1D83C07BAAD2629DD4244F03C5C11D48EA49BAA7041BF574F861B365F9BF0E4CADFA72E3B9EBEAFD735E8F13E2D734F63F242E21B5638DA8BD8992540A9A8997129D0D4573E11EC1F2329D992BABC68FE58481DCB7369858C14205E3360E5016271F09CDE8200537293B2EEF490FD7013F6DB7C17A9AC4F9EFC92BBD0C2A6AD67B695A1389A21F4F38018037DA9B7B4D8780AB0F54ABC0B84F8F27E8E78294451F662DB39A05E709D8EE3E74D3EA0FF92BBD97598F82A91E1B2AE8A2FBF7CEC3AC77643A94927D2E8517DF342219D93D18113CA15A2D88880A15B5D1FB0AF3C632884897089C1E2CBB97D44AA76C1020815602BB96538AE05698DF273A099D809B4506F5FB5DD43C9A9BA723D1FFE1EB0AE64E375EAE5BF9D5E7D39E6FF358EF2EE01A76B8093B7795C66BF4BAE467DF1450CF80870BCB3180ADB839FE2EC9A98CE05172E559F68A5E4C9B34D0282FB3CE44F12E23F16F7D10627093D14C8499421001898B51B945C0A25EC470EDAD97E84B4208FE706C430303204CE3541E9E0A82FD9D13C7B6861B3FAE5547B43D7CCE8107AFF0C0CC54BB9A06F8FDD6B434E0B9523489A2DDCEF76CE525A2FD5D6585BB92DAC5F7EF975F229158C8B791A428F0F4B4ABECA9F38085509B12524FF8B01336F1657040276047494A62A01CE70878A8438B388493673B315D1FEF30B98A7EF9172EEF9E4EBE1FBA6E666A6D1C47DD817C4D72A4F0F65BF90858E5B67E47EB11B6395201B4C52D4B51587E7073AB68AFC78DBD19543F955927A7E520D4F3F94FD6F429362499979E38C699D8E6CEBB1170E9F2D2C6B3850689351EF9657A1B58378C299C33C324E9B77A3D959DA54FE91D17E561BA46A2D61EB0559DD0A22665E73DF45AE9F5D0FEC0A5899906D009C5406B081D604BC66B7D72281FBDF0CC3CE687F6F5A3B231704A06B0580E0FD78B24E290C9D9EFB0D1C5923E5ECF169E3F6221A9E7C46299139B27008E925406AF7E671FDE1E857EC0AF355146DF56F535584C7CE07A9D771D696D6EFB427DCC6CAC22A10A9B1F837AD87480D7BB5BD59E2D6148666E58FB97DBE8EF54CB3C99266218497C06936376B450C3B4E96E1E417C4F8677DCD60627647710E863D0066EAE4D9EF5172AB7D624B07E72FF905E66C0FCB05A398C76DF04250B7BD0FAFD50B1566CF14F13C8D89BB1206020A7321AE05DC9E936C88282C1B1FAFBFA37210E372CA1AB376B789389B23BACDFE8F55AAC03A40741ACE1580AE6A105F35968AB8813FBF03CE1CE29E91EEE53E31A0730A2C1B8B259DDF0A64E9DB59783AB03BB933A5756F3A04AB671E657D1A6BB5260D535260E11E35B74B674842E657E2DAFC72A81E3D4AF06D4ED9B531288C4159540F15410344A1048E3F67557D698B47EEFC733AC82E7A46D2D6D06957D1130DC6EACA755C932457D812467896190FFCFD76198231B65C79E88ECD5431E8BAB5431DBC34471D48B2ACC6C1699DC22E292FED0F70AD0F8CEA5BD40DC558AEA8D39844647A47A073FDE903B94C4D6808B8100688B4559A678210D3A540A8BAA2F934F40124137B0BC03C938176B4504D65004C310D21D64B39E54770F2FC3EE7D0C8DB1363D8F5D2293879883F07BD541545100AEA751B4084324AADD73379F231B7A8B49355FA081BD97161FCAF18300F2F7F466012651BDEACCBC3973E81DD12110BC7BD953820AB519452D104E8D10B6B75B5193A08B76AC799E2DEE7225E886FC0F25E245FC954B54A348F5A27227F7914EC8A870CC55718362D3F2E5AE737A25D3C0A22F7EC0F1C0AB2D78C874C6DDC8EE9DD9336A7870202CDD057485942BE732DAB3D9557AA2600CE7F52581906343A413F57E0010A7B61D9F1F7914EEACD3820DFC7CC7668E8E7440A6605CC8776EFCF027312E0100BEEF0C87F096AAB90D2C81317BDC9A3849D465D0468BD46336456139746A6F610FE6EA6975AC1D22F75AC81D3FE36B2E7002C77C723A3117C8BD75E05234A3E8630D23998DF2EABFF19E12E28F654A1A03C5C2BB7604DA873FDE286323C6E5A2E0DCAAAFD5D86E35105E7B425CC58AD9AB09FD7800B092EC3B64526D41F8836752345A8D364A339D71DCB32A5D972EBEA036148116BE7EDCF14A6F67FD171C98D1B7C2F01DBE315204A608C452C0193A8133EB81BD69AC95398E33E7F6ADB2A2692054AC097DB16F81673922A069AC26A6297B3D6034EB683B6F3C9FEC1C594E367B050FA7AD9C281DDCDF1FA33363470070DCE9F6ADBA519654C444A1CAE0FA9FFBF6FDAA5ACDFD75D155C5B33525CE574939612EBED1DD6C1E8BDF7B8F0A9C8B1743D7C952212BC6C57C1970D4B108ABC8848A6FB89FC9ED53CEE24487854C92BCCD7A70127473A31B945360E040230AEC638D21A4EB5F5E37E6FAF6952E80C15B554B206AE140D3374FBD3BB7F5E874C14BE9A449A1B76C8A70706749B233304702C52C4E8BCF4ED7FCCE1431FF61C88EA2372C18A8A608F5FB968A118F3A210255A9E3A94E0F16D4147A64D5C3D36EA917E1B8E08AD2E6434B77359895688E76E59673E19CF254601D9B6FA56C2BDB1A8C28ED7C91C12F2344271F94613F99109F2CB41778C72B008B7AE77C3A86D19C0C62900EF4DAEDD58800A397F7991AF8770666A1C5AE78EBBB07BD2B114F548060AF98971419AD582518EF677584DB1E303D90F929ADD45BE61116DD1168173B6CDD0C52040B97DDBB98375CF331625EA996129010CB3EAA880B426D7A3FEA870D57FA0E4F587B23DFAFC73C58A0755C9EC28C3D158650CEC1103C18AC548582FA48642B15F20F3B54FA02EC2A8634FA9F58DF6ED7ECF2AF4A36C4B2C4B8AC12F8BCD20D1901EF13082D9A1488B52DBDE0034150F1760B8CBE38D3EF01C919CA19F886BFC0AA8C74B7492EE71FFF1ADE343DC933B8CE2D0FC093B027B4BC81DEF18A8D38D5F87E970F4CE92B2362461C938B43502DED94E92539536ED19ED73BEA202F09F9C15B009A64DCCDA86203948F8E6696B1940F8C3FD6DB1EEAEF5879E92225380EC545C4E1D0E6258D24583C13BA0A578DCF68639A492F8068E7F5B8A64C6CED106D319DDCBEE55CE700E6B252D987C936052EF106BE191BBFE6F6B560D159F7CC79FE0A7C11A7C32F0278CCB410179F7989D1B02B24198BAC47D98F13C552EA35E1111214C3B5B3D111040234683464E172B11625268D604882ED743C3C890BB7276A716E2C3CD2921FAF1624739BD5E9908CD3509E9BD486F07587CA220593642FCEBD53FEDD4CEC19F3770DFBF3E4095392F434561FC1AFD0EF64A26501C50BE1E01A6878A48AEC0AAD8B5FABA77D1EE3BDC362485CA6351E2A78627ADA561DB41E2F7CCED1CB11733CC4A649B9CB8293A353CC1FF14C0E29626E20ABADDF490DD4F3A3A22FCA242994F79C82EF33E283F143C884F3B0EB8FE91873317A99E393B9DBEA10D2ED8416E276B4304FB973D802ADEF95ED94510E6C870C0B04BD21D61CB4266D8252985BF076F634EBB08AB63F3387A38C11B887FB9DFDD853A5D6C5846ACA8A3D3494364C94D4C32C47817A23897623C152436D291251F7A2A32490BC58845F5490280837D132A628E78D501DF8A5AEAD46390174002DE5213BAB51D5B97E7209E9C1702A4915F869828041CEF00F84153ADD5267EE1D8CC1A83859E8615C87FBA2D6F717B0FE444E167ED30E8F880FD89CD82365554CF5662396EB3855D42DD50D9B31FA0CE466E84BFE49CB26D1456E49CA3536C642D96C67484965DD844343F8094EACCBC4D64B82C6B8AE20D3D9F39BCAF1E4A2A816F070B9072C6326F7FECFDBDE34670E6216266FE204AAE72408FC03ED1BAFBA5F823039E53AF04501A8B70AE5BAA104AEE3703FB7B94BB785547CFC1C974687F03C50B1FE7D9A978CC7863487E1CA8E207A3251F4A19D46D417175F83B8D9DEF36F8E7D63DC9E45A38F269A55CD2A230C49F2DC07F7D18E0B9E38F87269E0D0281F5E6741EA05222E53D222DF27E634F9446CD83A521A1871043F01FD4F169EDB4F0A588FA4B649A3474682D849C495A00B8F8B4AC488ADB2BAAB1C8562024AD8C86375DAF4F89267DD3ABB45F594A9C2BDC489EBDEE9E9214207D9531F78631C10A54375C0EDE07783924CDB885BCC2C5FE44691901F1B862026A7E4121045F6C5FB933660CF19C18C19F53A908E58D57C65BEB3CC15DCF732758D595B0DAD5FE8A5DE04CA88BF5E044910A2B88DF698071A3CFA83AD2E2C203C53C3B2364083FD2842B4CFC425739E8C20F66A75B512BFF4E4DEDC5908AA8E7246340A2D075B38E7C6F358ED06C374D1ECFAF8FC71E6D0283A258BBDEAF3068028BB4281141F30892899B83587B5A6F516CAF5A0AC84655BC208138932CE7A048495F940C821CF567A710A06AF1F56FC64D44FC3E710F82B2F45C24866DC5781FAD364D300BA54F27EA77119D795D7E4583645FD2062FCC09BC7841B4087B44C7182DD60ECFC433140B6EA8610C204ACC958D9AE506D1FB3AEB293CB512F69716E4FBF101959D1B895661AF1650FA31F16D6D8B660F9050DA7827366BBB272C5F44B08A9D78AFC1F2D72F9EFB23E1D1E68AF81E002188228102F0DDB957B6F0CAF384209129BA1EC53F39E0FA44951FB7B5078031F0D870D8E602E9EACA106CFDA0A9B8B290E04A87CFC309EDF56DCB1AE8CBE62BDE41B88944F3C1A832524C2F989238C70B250141CE7174801FACE7C13286B57E12CE458CBF952AE9A921058B95E97483C52DA1FC00C108EBD73EF01CCE212EE2E8C5DD03EE3363E4D88F8545AD22EFA6C87D0B5102EA12C4ECD2D1BF3D6159F2F62E26FE266CAC5EA563E7836513B679C3E22D8FBAC5327D580FAE6CFB59938911A49B7A95594F74FE0286F5F5FECD91DE831EBF329730A1EA31FC383A2E5E00A8EF66BC9C8FDB44EAFF4BD67B07AC6BE962AB43EC7919A46025B08A69D26BCF72555C7960D01BDA513EE55969E0629B0F8C3491C58FEDCF0E9CAB83F0356D1E2E3DF6EEC3565D824F9D2DA0687E3A8AB53F4AF2F6A44D04204C95B31C911AB43F2E4A46F9DCA2614C70730F7D5BE128BB7003BA088BE6504581F34342B977005D9824F6C68BAA73FB1DDFDB999D333EB9E980C19E00669C77A56163115A2ABB3382D699C5EAB149CBA68F2D52E87570554E70FB7BDA0BD46B7E065EC3D8695D625CFE386A1B1B89800FE247056BC29A13199346FF902BA6E0D87023E930B73AEA8225709FB519CF3F333D5964E29E7EF18ADDEBC25E9A7CEDC57A46F1BBA06121802CCA53DBF20F1D6FA44BB3199366A38F58152A8825892353A9329E062ACBCCC11A62B0EADEED91EF7DD5AA5333F710E74C0CA4447D5BE66A43C7D121CBE5F215AE42590D03FDE2FA1F1322E3E9FA46D870000A83EEB18CFEB3FA62B6964CEC20EC25DBA1C5D1A5B5E73B31AE3930D76B971BCF3F091950EB8FFE7299CB7B97AB1C69AE512F67271ABA409C38B38DF97F48EB5FFAB59A6AAE6AC5933D74BD3D43DE651588B0D3D848C2572B58DDC1D6A84D40EF5132CC6E6EA8B345C79A993A73D7BDD64DB48719767F4086454462511A1BD8581EEB80373085E8CF6998A0D9690177BA68E6AD62A6FFF7B750DA03CE53AA8389861F3EC41DE095CAB7AF51513CF96A0E21B24A006E6A99780C4C926FDC167EF60657DE6E6A4B01FB32D7DE005308148527906B129831BC4CDEDB26DAE2F459500E0A1B811E05D98DC662E2B623EDE9D6C29AC7D43523ADC26012A2064141A4CD63EB1EFAD645DDC1C02EFC7E55039FBC17D736AA61F3BC20E8360E1EFA701A6476170A3240875DAD21B46AA848953B0F9349DD38DE00F8773736B82792EDFFA46F9CC81EB8AE90F58E66915D7990FE3D0FF53B2330432662D08519A7AA130D32817B8A95329EFF4563D68349D48F6DDDCE2AAE0F03B243B498C813331F7BD05C881AA9CA7CB48DF1ACEE7AE48DA285D7BBC57935D7E2AAD8487DC6E8E4DCF8038CA6875A4270F61CC33880472E4A2F448F09D757B3EE67B3D860CF4A753B0394CD32E9C6DCDE0F85C6B25BE7E4381667422369107F079F9D4A67674A15165EDB76C308659959B819B6C8AFF8E4953916C365806320A9655F282471BD296CCB991FC1373BEE358B3CAFF513B097D951D0ACF8E1B557159E14BB4E4AC22523D79EFA9A4822D64A7BC693EC8A5025484C832AB333A4056E1518E67FFBE58D396E6CD59DCB15E3F1601BF156CD6FB71CAC9D78E99230DB40E0323CA2870473674875F0AAE9501B42F03311939FAD0A28A0B7D43B9F88CC303148BB66503D9D6F1F9C5EA8E66CF59B25A18124CFF7EC8E237A7231C025D77ACF22F72C9DDAD06607D0CACF93C51ABB269E71DC2E581358D06FE42A0A9A8DB9AFF23A02EF6817A37E78CB49800C7AFED067947BE8B6F7337B726BB17FE6D0D804C6FEBA9E23D942768B0E97C472EBA8BF296EEE14E58778052ECC04978520D18CAB0CDB4B80EDB75520BE4F0FB4007FBC6D9A2DEC8C548ABA66AA1B037E955426135BE4E95B2FDF2D4CDB7AEB185B4DAC313C905F65EB1E0BAC116B3714F840B6F181E1EE520A6260FCE567D61AD47C1EC25A91DCD1548506042E697AE85E6F88116360754067393D34FCE28EBEF95B0EC5969A61A4B8C2C56390B854AFD34BA3119CEDC4EE2C73613EBA9871AE58CB38AB53FEEC143027C04858E34CBA41AB84D44E8316A3B304287E83694F6F71E4472378217D5836D1A368FF476C827E6ACE6E6D2909C53FD5E5268B184D340A868C59143A96923C8B09737256ACBC1614400A0226C5099A176BC6B91634575EEC383C837792B26D84520B45766ED7A5A999A9C38CAF0A5A6C9717630CDD926A982A6CC3E75DF4746154CE214628A355F73F85A479DC754BE63A6FD5E52CFD72EFA0B09A848132FE5FF835C03A958A64B13DF94F190B8C49145EACE7CCF6B62853E3A2F645068EF4C4ACD2D615F11709677DD4E5DE4167D6712EACD99E8DEEBA5729D6555D8D38436F94302096AB107EE4F5933317AC275EFB25AAE12B82A9B18B2C0A02832B85ED0FC9045B009746F318506129BF8E3189D55946B7BAB006891CD20F8CD23476BECBC03B31A930B9D35F7ADEF8F6DAEE6E8567EB742B2700538916649F029957C68BA6B7B47424E70BAD1488D380678EBB660E97ACF10C6873046422028B519AB8011870A800564B1D97D59F911436D29EC49CFE480547B16192D369250F1C62CCE6A31CFB028EBF41CAD68FED2C6836CC7D31796216829161B4DDBE9332F37E290589D30190424DEB9AB896DF8530D6CF7DF705B6797BD2404B08A6E80998F7CA84F90D48B3D88FF2A2630DEAE4B84235C2FAA19AA1CC91295B906E03C118CF46540D632FC5115FEDEAF9039A24354BD9C62DA9D5E74A6E398BF2D5772EDF30A5561B023310C4FE66EC3F34021FDCEEBD90FF789E8D1C8EB67F5876F0AA49C58DA74329C2920127A6F60BC5BEA86D240F21A5A5532E5567D412B284DEE9D57690C515536B0576A5EE50550CCB317FBF26060E6AA2A4CCB41071E91FE5A848ACFFB7B2E3717F05AA9F3E242B6B717DE6061C1616E77AE1A08414C673EF948EBCD0FFDAD49E995973F1120B3E224923DFC2F4C36B22E0D532D1587B62F4938B9AC71E7F856A4772F0AACC00E2ED34809EB6B24C612729FB332B11A73E5D97167A9209CB869550A3C505567E66A15AC58F5A6A8D0AD78F94A9FD1D5F4B192BC52706C764D9D04084BFF52EBC211C5CBC142434071926A9F7BDEE6DEB09148EEE919DE165CF3953775134DBBE554E9180F2E7DF5C964FC193891923F475BE1A59DCB50EE8FFDD7E24F1C55DDF5E00021F211B64548F43DCFBA744E48390115031EC23D19F3AE23D71ED7D768DBFE6591670F5478757E7ADA8724749A8B98660FE363CFCF0D1BDB3CBDDDC0E2C2EDA45C2942E5B66B70E475ECABDF3F625CE66251CDFEFFA4E3C3239DFC00D5B9D2A32D8D63C14980577C4F44B6223CC7C5DBA635C9F9575AFBEC18FEDC5E8A4B0591AF3A598E1026ABE88CC1E3C3E2F9483C4E2E768D6C848F028957612E1F443CA55F406EF13AE62442C5D898429AD07458911F29A767233645B74D7CE11D64F2AA8203F7A2D34EDD00C59D8A7E234D4414D4FCB710CE5CB7C6204F7DB5010115C37C91089ACC9216EEE2926BE1C43EB369753F41CC1E62D50D885F522997C3284C9EFE02C76D543265FAAB467A1DD3E9785070905DD75D5221A5412B87064529C1401F74555797382E28F55EBC4854A8B92BC64B53DDF8B6D74CF060607ECC51CCD3F646AE369AE496F1D0BA14ED919ED4D248323746274D80EAABDE33BFA7097D7DD859BC45FC72E199B5F70EFFCAEF5D27AC34A5715ED9B8E9040029A73760779755C3934644ABF69E09856C6EB3C6AC92EF703C4A4DB86AE4812F4B0A6F9911715DB011EC42FAA8B7BFA8038266EB742816429AC95DFFEB196F498E121D3954580462CA53932692B42421F5E8DDB0A5700F86233AE92D310586D5540A2EECAB0294E52469BE8735138CCDBC1CCE57128752C2165964D1EFD72B25AD3FB0C854A85D5711BBC1BAFC92E360A568191C2AF9E0F4936ABFC96B7B309B776EA0C9E00B44F56367C78C704A9171C1B4C294C1D6998836BDA14957CC74DC1FB268D71A5E4581C47EC480530C1C491F8BEAEE6C6D76B4B525E5322F3D28D834BB4E2E0A81B9F5134D22952D76BFE74A25A4DD6EB22C55281E0C79AFDD1B060C170B36E59EE012F5C85E4AD467FACE67598D56D11A4BEE582BF38F8F793A6BD89E84D7678155EBA486E1114942FA427BA8D365C487023CC0DF0E35AB912094286AFD4A38C64ABD531E01A474C1A0FFF434313D26DA04117D5DED4D7EED6D07B7B942ACB0913CF69F553E4616F1887C9A6B2C6D5B22A070C1FDFF13A2F2511A96D0EC4B46DE8960C61219B11B892C62EED46E7602181CE0652422B01EC50A78BDFA4D96D1F227F0DDFA0F26C3748A43B18EBEA58B3E052A867ED88C8CB93CE579CE8BF6B7243FEDCFD8439103EAB0656C0BFEE683AC8655B9F272D4E695D863A6EEE9D9D898B542DF206631672507C93B09CDB0009BFB39C5CAE39F3200698C1FA459E3BDEEA14D9E809A9E14D21DB109CA35197BD316DAFDA8A3A09259FF861D6CB500BFE55A0D799232790B2BDC2DEC5F27E51947B4A2826E8C7BD90E24AA705BA46CF261D765379D5FDD99B4F2062F13CFF7D1FF71178490F9F4F06131DAB9AB3C5D54AFD46BF32382E72910356C18C5FF4618517DDF2F86E8B430E9C4E795143DB314EC65D62F122000100581A0A122324E32AC581ED998E8F11CF1CF7E39FB4395628B3236E9D376BCD9B2AD3D84DED5A023FAD8D5C08128077A2A0F0661CDB270595C56493B872F38BDC6C90043EA22A65E3B54FE6DE452AF9CCD3041329CEEB434F2CA68169E7570B6453A7C4E94653404E02460C541F76B30ACBB620D4EEECC0BF10874AE2717E02ADB1C9AC35154CFC3E6E4D4B09219E11BF5636346370FF30D9E552EFE9EDB884AC3EB385A08D36726D011ACF7E2EDA71B9FC66F4FF8700885349A84B2F9E7A812448C118D2DDB1CEB2613FE122B1530FEE954735DD413C75DE65A5C32CBDDD2C7BA6CD1FDF7845AB3F481286CA9A1B2FAFA54BFAD6648F666EFFC5C34E0D1ABA9FE94745A9ECB058AB12DCF053D494E5DA044E8FF3A50475A44F4CFFF0095C27C08EC34728D3C83F92EFA4501957E81B844C4253A993191B38307DD44FE0E129056E40F2A8ED52045711DCDA07C5F35AA33B90994CF59DDEA6420D48635BF166A151F360D6196CFBCD927FB0E03DF15EC6658342BE73E1F107810E5AA1B37EDCD340CB0934ED5060567D85DF4EC3CF1A23DE696F2F8D5E9C9FCAD113B67183BA2F25CDDF6DD68A9913ED6BBC01673AE0C03CC1ED4C7B4B4423B425EEEAE2E382E0A5CD5873076859CDCD7866647B02913DB45A5BC3917034ABCA707F10E1392517E012ABB99B05BF8155683B543A04409E856924EA8FCF6F9B63D21A0E7CFF2F1C0F72752650C43816280B6E0CF44FD25AED330A02C32A4319CCFE871328452626CB44323DEB403167987B8CFEAB3BB6020160D99C858F3E4C20D66411047B45BC8571375B99AAE0F4BA5142719A36BF99D6526DD406AE88A4FBAC2A441D3C8864277B92592401754A867087C9B3636BD21ADEACD4292497EFEF434D6159B65D2253F795547AB99AD3FD1E860411A79BDDD7CE56D907752FC78ACEFCD8899FA2497DDA1D8363155CBF9E10E0EF23CEF4B53464F4FAE176BAE35658F195BFB18E3DCF2F3508A7223F51F407DB98C3AD95E9AB39A733C6CE087BFF79FD64F3708FFEF6136ED1AA25485E65639F59E88BF8439F47001EEEA43F587A7D51F5CF6DF571590A8BB2F2EC9130B177743296E675992E74655CE2374CD289D08136BB300B1B3240F919C389038B4B574C0EC356BCF631E17E5C1D7EB1D7CADA85163D2C3FE86336A64849470FA3AC43DBE11012256740E05505DF98F7AF7375E1826841B8AE06A3A752ABF62683C9737AF8F4C13568BF3C9860903AEFDC21C4335A0AA80F3D64BBA40E490869D3205FD6DCC2DDD153DE59FB39E8EA98820E1BB29BB91CAF38CA46CE1502707A9D50320723A8689331D29BB1927CBABDA19F989334A8063294063AACBB621A7389B13D143B607DC723FBE5AFEC54671CF3BB32DCD260D82E6D6206391BA9A3FADB35ADA1AE7D6A0E75D7747E20B3376A64DEF39C55352985638346C310CE3554FF0716269127533E01F71EF70C3192CE840BC2814C5F9A92CB3FD32E78CF1E0E40F4A7E5381D3451F7CB18B7656E998FBA1401B74B095EF481B649CCFE255E81094EA6C488D08486C2EAC5225C1FB44E609F45ED63C1078ABBBFFCBCB9AA499B9513016E9B0F9E83DA7E78639B7149B188571E519ED366EE3C6CB0909396C8E61ACDB974E2DA3FB3BFD8A863B6802C8E9C5F4F52234F953632B164898EDC6531269FC38DE5CE1F3C5FEE6393B5508CF3DEDB4D8F8C026ECBBC239DA03D098DC66F3DF7982A04A48A3FA4AFE361432F7D65207081AF863703A77B315A3A67BAE4DFB91E732B3375FA516D298E51E666774E4892A32A67EBCE9D58BE170C8F96F18A1580342FF46899399EE52E8228F91C3BF21BE83344E148C5364EC022E2A718FEBBFE0274900864451B70DF10FA7D013C9879C9952DA29C781BA484E1BE94AEFB34ADA0F9CEEB2D0059D11C8A49912DA415CC83C1AB3AE1A8235C1D5E5E7A3BDBB84A6B7600615D68051C6AA2B92BF3A751D01574514F4C062A8FECAAA4186346611D5721E12AA1DD2B98DE6D4DF277754CEAB0231683A12A4F341EF92D576FF04972361272617AC4619D4526BEBC59CF5CAA437A3E7C25D5D8B7E4F662041CF4296B7B06ECC663A428FFF69FB05A4EE234F0394912070F519C48B35D9C227D38339D7DAA00A0D78EF70BEE3C7D4334C1FB621061E870BC43437B238A92895C8E14E7B5C25B3B8E6C25011505E0DEE66E924395A39ADCDC995845BEECA404B379566D0315E4FCD2D833D33C53F77ABF9A1DEE49680CC884E58325770E601C9C0EF3DC8F29C1CEDBBB2743179C239AD9450E0C5924B9D605C91FC978F84604746801FA9721B2A8AB0F690BB258C006401A2B2EC67CD7B3CE405F865767A4574127A5D4D3BF3A6D488A3B14688EA3C1E4D4956BE7A154019984CBD7E0363951BC2C0512C134F7EE54DF2838A0F54622916E046104C45BFAF9E7456E6D5DF5F43D00CD584D2D40A610D0E66721333684FA59C332685D764A001B9D3AD5E6B9BB156B0B1CECF9DA54178697EAB439BCDA711C3DD259B31FAC0B7859C17D6BFACAA42B1CA2718709BD1AB615A43E8A58E84717D828FE59C25C3059DBE797BEFD5B025D960A534A3086449A4B4D88D0DDA14E3976CC2F7A7FF53ABDA2F99AEC3CDD96CBC9B09228FDD3121491AC5D43E25353E7AED3BBAB1DF26F22703E00F6B9C0B0274DDFE3C702E0CCAAA1FCD7B93EC5C281C11A0445E42EF190C6B70D1F32EB784A7AA6B852A8D90270AF1DCF3AC5FD134F1A0F08E7CD37CE351BC9306A2A586CC15D83E188E313903A53F6C530180FD5A102FDB00DFB0F61AA74E50A2B7BA1FD65A164A90814006CA2746BC6A114CF336DAB575D557621C8DF4FC99586D284BDC788C3E891B6C1128CB7D6D69DE4480F46C9871AF2765B9D8EDC88D3578C4CC8677B501EEDC1F098A82F7EC1A41E47C7DD2DABF46296B52E659F37B4E3456AF36F9295DF42B1EF985410E03DAB7F1B5F8FEABDBC7994181FFD496629B44B7ED54B7225527252D1FABD29B0B4A2D02FA7B96178E880F8E102D51578D442339B7C6631F83779F807A584DB6D63188CDB751E749F41F0C30DD4F6A918515A5987E1FCCB44837F711CF7DD37571D6A24E8B29309713B9C717F0950F23929E72C53C64BAD48B26C1638C9142425DE63ADFD779B84F5979D65D2FEE93D5E06C848195AE56E1E0B8DC2087D0A8C0D1225890002D20A98880F9B74A97A164911E94EC15E22683DC0857269EB65B4A62D651FE5A787D908FFA1687A3061CF050DB0648B091B870767B3512F9E107CAF7EFF823C929E8FD2790AFA53BEE347AFE087C60E1E37222DD69E990174139F9F0E6B691C74C3F17CB814CB0BCB7071B655E1AA186A3EB14778C162FC4ADDF7CE7F65C636C1DB42F6DFE0955B4ED980D89A9FB5FE48178DE1BB74870959D523648F44353DAB1A0F9B9CC26D36E176D02B23605E094DAC79AA957E9FA925FE9D121FE97213ABE8A69579AB8749234F3A6B1630400A543E4BC64CC340C4FF6BB838917677040D62216B6B08000B958324DE1DC60C1FF94B447EC107DDEC372A75EA18DEF6F4AC3092B55BB46D7BA6E5CDD7132574678BDDE48F56854D3871F1DEDD88BCEAC1E737AFC237BA30957BC8CB19BA8B08C47F10A3DD24070634E45AED3B4CEB5D032115F3944EE69093F11753D4B3EC95426C029355FA5BB50736F97EAF22854090B96DB4FC3406872A06932E2C86D4CDB8CCDD7444652E43A4B66E88ACD7C1B327E96F554CFD7094BBE51A70AE182EBDF11C9DB33AEDEDA06D487EB00C97564440561703E342E28F9F8E12DA78F5D63E395182FC00F8A89A086994E20310CE6CA5B209BC79825CE8D4CE4F24111FD85AE4C3A1FA53A942537849C039D28FAF307BA620A084E55E048E3CB2DAFE9F0C871016A640FB2F0664CAD5E4F7D7DBA61C1399245F1AA9AC2479709D0F48DC0D73C832D0A1582F37CA55BD4675D25E68116514290DE49FDA5347A29910A5E98C02D07DCC9112FB81ECE4FE73DC174D6F80720E6B180E49FBEBAAAA8D35C0C04C0A46355DB4FE126148B3CCD0D299663811BFFE448DEDDD50312AA298C8B2129C9410C658C28DA124F6307EB6E51BB5E8333FC3E44E016867AE900B792AF33836E846A2C41973410812AF6C7400EC986CA87E6177DC22F1A430A1E2B58F9C220F41619D36DFB5C8938F46F6446CB8E37239912C1691D6E78085399E4C47B5A19AA4E8DC9BC9CAEADDDA729E7A5FE56729936BDF3DE23C34D4C4F119415072C562274F2C69CF4C4E0FF7C5DDCE397F57375F2F2B492AF7563163B27D8941FBF0FCC3057270FE9A6221B5DD861FB74BF2431C98AFCA4240697FF0B2363102954D92DC52BBC0E21903B2340B6E1C6EAA7296656914FFD3044B21C6D4FED101F3423C4999E96B5D411F65E8C1F0969BD8AE912ED6EF4C9C73CC61120264A1012E515AD544470D302CC244B67745B2DA6C9248B85F13AE5E6AF6445998CD4591D462AABA89AF1A042AA9EC4060929EB473240C6D9083BD769EF64BE50217028B22695DF5157F2EFF708BCB6FC47FABB52C91F3E59AC0F0470A9A60E375D7E3804E2BB8F67DA5F9D2CEC7637DE2D50CD1640CDDB0511785D8016F5F759561213CC6553454212825B14F4330D6A3087B87849BDB834DE9433F89F7931015FF0B395E4220A6003AEC9BAEA36224450794A80E14DEED1A1B1D963D5FDEEEF1BA03F9D5AB466D0EE40693D11A75B06FA6904E4A6D433B07061389933DDCACD60D07A31528EFAD3D855B2748BF3B391CAE7E049C4EF51281FC2EA5B1BBA95AECFCD657EA50CF05F6FBA65A9A7A6A74B3F87C5807DE24812B0D367BEE50CB3F6D2ED5A266F133DD701150DCD8F7A95AFED7B3CB979FE0B19CC9AF75638BD48724C811843A709EA083BA408972E394BE2BF1B075E0F3E169B0BE81694E45EB4AE61531D8465D2D3C54102F64B5C1A40C43CEF76E48C24B2B5336B106901B928B9FBBC40F5238467C48B822034CDC118CC52DC76EA92D85C1DBD375E19E99C124D1DE45A9D3B61F6A6C0EF02BB9602FCF6F35B9BDFB8E5A2E830059A1EB5A89199E20BA781FC734E98B8E5497D46C3D60C5E4CB0C84F951514B6A2B478BCBC5873229B66DB942469BC83B6F5DB0D3E23F6E01F0514D516100CACB62EA54E6BDF392ECC41E49DC93CD1B39E43C7BB740CC2FBD575DBE3EA01E3395592D1784CE41791B33597561E5717C61E754CD632D0621196B1F735BBE2AF214EF913E3EB8C6BD64EA1D1599BE33B08CE02A73E97EFCDDD7AF06AB76F31D2A73FE58FFC58BA2B7490DFF2719C9B1413EE9EB0192599F46415D20A42DBE7ED9493545B889FEC2CEE53E5D5441763493E83DEB7326944914AA83D04E18C85E2B2D0A65A385A1106630AC536B9DE132D847CFE836C8965454E7EE9859A95E4E86C5ABDFC721B275C4EF5F0AEE60A81B800A22AE5B7B3E84425274D8E44BD07B80E4F9C32FBA25703A335B59E4CA20DB2B1339A865E106A6F0F4A40CFBF85D780F3A227C1C9F48D77AF006614BF360C2E444DA57B876E510DE508ED3651BB636C6D250D4FF270AB8C98AB72685FF1338A0F06B7E9418C15D62BD1EAACB66E73F521FB77E9A46206876B5AF7B576112F9655C88D4FF9AD063550AED9D2ED8E8DDDE55FFA7059600B9CA8432737D3201FC619BB34177A27C5640B94E5CF558CFBD50A366C3E75E662B1BEF53BD399B4641668F3D03B01063D8A12FBEE9CA9D5CB4C0DC6C8F4B937B484D0311AD5B60982C1E669E82320B21275E85B67DC0006370C60A94ED22ADF015DC63AC55F431E8E441230773E575F3966B33BE943A60CCD6F341413590F5BA532754DC0C15696D991019C0589D34568081CF8BAD731D11B053556D600D95DD887F2D582F8A509A985D8F294F1048E49FD95EAE514A6FD30AA169E204F8AA91ECB8852F7534A631CC09BF58483F9411AB5DDE01179CE8949A1AB9BBBC8D5BEE4F945D5FDB5091621275BCF7E8240BD78E4449A1258C616968BFFC48266A8E3B17458E57B42D9894629CD33EF300F2637C43307E3D2C6CB68A2990F08C8A1D8E5CC39ED86D0753C3277FEE471F874C8659052AB111F3CFACFF5204AE62ADAC34CE4D6801FEFE44C0B57AC654DDB453B1B42E92609DB2EECAD455780FBA44DA3543B03545D9FCBE7EEA51A2BBA25B2CC59EBB7D4C92FF8EFCE00FB4A5D0D47ED7024115EDB243B750B5DD88F3FD8DF525C1210B76B180B6D0381BB0887AB7B047663E0449AA1FB111ED98ACE3B16024C4015E99550143BAF19DF1B2A8CE00979D5CEF010C2BD43E7EE233F463CF603E13E8FF2B87E492E12C4DCE0A461E8D12713B5FD025416461BA7D81AA19FD4C84FEF25A7AAF37E3CD8B7FA7B61E44155370C5C4D3A8694E959E6B7DCFD7E536C518D09684D2E99993A1681152226F6F1A8356AB546EB0C9B2C704CE522D227D8926D88FC85C0920FC9F658F9870FB0205D54323195F075750D22E521BA64D49BA1AFFC96934E229C948FC1B10A82D71AF19CB67E89E530685F13671974F35F76131682A29A4B659421E2EF22D6310EA7439674F4859D8DF9225A7B918BD03475446ACD155C11DB65BE08D6C2D4008B966CC0217955F4D9C6555CB1F06965AF395ACF625ECD2FA60584FB22FD9D52637487BD8C5D6EDA51FB6FEB00A439D74F8FB92CE10E49180ED6E3A39BBA7D3970194DE4848F22D5824312E97DD723162B6A52B63737C75BE854D24B84A9DA2C969EB6DFFA6E036897722F1515A6942EDAE0BA07EED3A9AD4C437BC0A2B16E9BDBE9DC086625F8C023C9107DF9D7F5392245D9FFB7B689E4F5B990A9C7DD7581889A5CA98B111F9C5B861FB89D85A5D9F2625F158374C29DC19A03592E31C880F8F03E1A0B8C5A0955AE9E9080B47C6FD1A6F3C5D9E2842D4D747EA68C2E7B1F9DCD43230C8F91098F2F5F7A60A1D8B3D955F49754BCBE0B2A026764130B4A71CB488A551A7CD5224991987B78E924F71F5A5779C171671BC67A039F658CF0FC3DD643FBC0A740481DEF8277242C750D61664295F72F8B5EAFB83154B34251E109F4363807E1ADD96AB4CF26CE5F7732FF65CF0F7DF3BE766267AF493C88585CD7647D4E0522646D446F044617248C649B22ADC48DD4D4A1D96F93F9D185CF79DD8542B8D0813A0CEDB2865244C502F6450D09115CCB0C5A9486D35E64ACF104A26BEFB7E8DA2B96D52ABD49721F43797B61DA4C239281C6CB9277B27A03D53764293A1DD534CE4FE5E421AF60F7ABB364582A0251C4DC269F4191CFDDA5515D9E51EFB261EE71FA8BD9232F67E193FAB6048705F82C0D1C4A986E44F6403FD458FD17641D75C70C4417E9C3F4538C25E3F0215017B4B2EF6CABEEA912E896151F3B9E050784F8DAD3E946C9BEA8C61EEDE4DD85680C87FC17F275D627072861ED2C25EA30F9C0790FBC27C89D749DB2370EB176ADC77C4FB87D5215451A8EDF3273E0D04A9BCD9115883C8027B2C2D40ABEAE2A45CFA36DFFF82E68CC2CF02EE9DE332C06E61A5096D92E572ED585F5F649B0C5648FC96FB20395D5E9963ED72691F05246C1B0D13CF3FA64864C8798234C8A1754CDF697CABABAF4573E4EEFA8F211C9E1EA083DF09B18D23FC2AA652BC0B7529FA22CA77AAB8D599FA56289F3E48FF41C2C6FA2C3822562AB80D8FC730CB0BBF217E19E20DC54E423CD6A438FB04A663996796B9398331C9E10FCF0ABDE0183593BA405A0A2E01AE779D698CB60FB6A82D4E5B6610998C232D5EC1A407AA441B200E1B74666F7388407A1E7182E022F40D682F5A969FD6A369E9CEDF95B17F32C495A948F7D19BD0C4A75BA9F2A5D2EF002ECBADD1C3D72A88C6FCB3D1C4E60CFB5E18EAFF565407471C016DBB319D6EB8A3293DA89F13715ADA317BAE9CBDED40CA02A5A6E5E44C98449E9E2D9D1DD607AD26ADA092A7C7E67CD321444F7CF8AC9EB6AA6C8D5ABC8ADF819F3B73A22A54ECF1835CB8978E7BE685DD4EB874C066B292DB050A2754C92E0A6DEF74AD7DEB33EB3FD01B741E3905D97DA3FA9E479C20998732E8B97B6E6A0AD40F0D755D4368DC05CC7413993305330C00D28EF5E892D8CE7A84AE57978D00009F78AF5A7BE196442E335BB17DBE5E9C2E1AE643F197AA04D19C92D1EEBA41FF628DE026483B3836B8A46565EB342A81F9AFA58C0541DDB883AF67C3EBBD514EB487A9B508650EF5CE32A44699181EBD2C81BF213473B152B7C4BDF13FF01121D5D121DB094F735905EC083A004F96C1ACB0522FCF86F0654536A07D7AD4D3CC188374A563A1E4C6E22A1F9DD5A2CDC22CC385CDC0640026B69791C5E61D77A6F0B5CDBA1A8B78EBE36529408A7FE585E75D5C812E4AFDD6F086834C758C3E53936BC9EA08ED9DF48FAE1F24F50F4ED84E52D811CEC15DF2AE34DFB076556A29DC0778B7C27B5ECE603598B5A3B545CF17533058963EE527B676D8509EE837CA5524B44A270AC2570BABDB011707A6DD881318013421492ACD105665134050A0315D9583132C4CB7AB6E3DB9AE449D2A75CD19C3F0A7384D35259912B50925D53C831DF932C75B7898F43A867A14609F76AA36F1FEC8E97E211DA20AE7B27F9D109E1CF26561156942D71147E46574284F0B4666D78717BEB0B01E24C7364E7B5796E99D2A7B506E034818CCED38BCA65CA30E4F158ABB59EFA2197603FBB98B388782E287D676E08040DABA2A6432AE50ACF39E910231E088E172CAE3EE5384A174DC3CE000267BCB3C13278DA5D4C3B78BD62D27844355E0245B3FC190A5447E9B9AAB4161B4B2D1CDBDD0650B8B1B08FEF65AE27B49766521D3AC9E47532D6E3C232538CA9AE0F7D339395B02AE74460A5242F4E5E4EF385C1E95DC5BB6997ED3FD6BB6CF76247D2032F857718C5EEB2D425641387D62D4317C74EB920428936A1A27A5FEFD0D34DBF1CF3B1C469BBDAE03419853DBD620CDA41D9D248AFD2FD10332462ED03988B3037D3E5A7180D937C40890AE792E1B6531913AC38543F09A0B3B46DB2734C8B4049924EA60C2F101D8D8D9856A690DD7721142FB22310FB9A422E8DB9781A16FEB589D9D7467818831FFCE9A4C306EE3172FA6007FD4FC43C97473124451F8F1C6173BB4EB5E89DD7549EF0E98415D8EA2BF7CEFCB7039B3F44784F19973E87B9C723B02E442DA9B8321C5366609CCE54DCE7D23B1C6967125866D0CF6BAEB331553E2E7C99A8D28175A395C1524CA923F1AF3B9BE482AD5065C4CDD5C543D0785CC545D0B92D5A908B1454862BBD30487931E4451FC4789884E3BF3D5355BFA311A62C99E4B1AC4B87D5CEB07CF9AA503408D8EE1D099C18AC9C42446FEC4A59D9AED86ACED3BD8D1344B7836F91DF0ADE4D8AE553377DF00085F4DD85B0809164B02571FA9490EA85062A30402AA6B7EA3BCCAC794696FC656D7E91E65C0A58B1B348AEDD736723AF12E84D9074FEEE98B7308C78FDDFDF3BCB1A099180B063185408ECD8AD71E5906F55B6CC36BB674A1F71EAEBF3A32F70BEE0C0CB4C1A5E32F3BA6215DF8C0687B45A93DB4EB747B4EE6E54F6E50F95981488D24485B16BF74F6AE1537BE7DD0EC2A039D75E2167AB6BE0620F0E3A0C083576AC8A68B411618C8776267A91078AE20BE141D47E85DE90846CF62A10009A8F00DC67670DA1BC51B09493CD0448818E854ADCCCC9D287BCB1B377DD7DBAFE96F2597895E48BC7997866C388ADB1B65B7B8D520D7CE02DAE9CEE80EC34A260F3C320E0ADB9601A7D9D0AE8C0384E0150525796CCE061133D3407474FDE072F9FDF90EB78C3C865A099069F247EB4EF97FD5DEB4B1A60DB7A781CF4CFC4B4D69054F3F8F658D68F856696BA2D0712421B8530D8DFF794A2B84BF6E8EBEA25554C427C22ABBC001C9DB9FD83E001C14765C1FBB6B29545549F37A08729082CCB3A552EA3B4B5CFF8A9646B3EF6806BF691A0AB63AC3D3394DFCE878ABF93FF4A786E67A53C12C5306D2219FF0288A967084F641B1BD99C0F7E9EC42FE674791FFE4C252D6AE39780ADEDFE3BFA7BB702471E3507C2F80C5D1F8A69173261D5B587CE93FA340406EA18D6F4F67ECB90A56DA26471C83A2A2020FA3071B7722071A31D8B5D2205F526D6807100629BD8BA1CB11339AEC369F2354E38CE18827D4A847EF8C96CB7D88EBBEFF85C7D7E2B5A8B29BB0210E190B9A5BE6D008D4DD66078B41889083E1647FD5A886D7EF0F1AF5BFCC6D0CE34C93431223DE37370281658DF7AE43A9EA5B873AABCAAE809D268F4BBDB687DE4197679546DD77A1A85B3F851EACCF16264655A8FE2299733FED30F8B7A9254C2CFFD848BD7027C26AFE2211225E2036A52273C4190A8114A9E14785577954FE45AB2C6A62F1CF1E0ADDD00CA4BC1BA2BD4FABD01057C38D4282C9B2B1D3B90C392644845B775FF81B4C7D5E96DA3F86969BC834638B558567DDD3796B822BEAC8BFDD431AB517AB85DFF4F2C1D39CE68815616E8E2F0CF090311BF58EDCE2993976B338EF05A3E34278B20388B68F822F580B246CDFB9F8DEB38267C3D08876D1607CF4BAC6A9FE0F25D41AC6329C1FD30A187C5F8F0CEECABFB5EDAA75BE2A6BCE66D69501E6DB3BA05BE0E2253BF003DDB708A92895C146185D5A37B3211CC03849C4361E3160677D76350CF0C88DFA16909DC0A5AE1943EE23B7AD987E50E31F2D438AE874131D01DCDE5B1F8898B5EDFE9C0715D8BF4C47A820ABA0EEB20E495E5911FC0E901CB0E3A8BFDF52D730FF04E1EA2AB359908EDF271EBB99569BB2A81FE6934BD413161D647299381D3081BF36937912A7AE07BDAAC85BE8C62CBD480465794A0C5EB87235365F86AB1DC4307C564FBD1FE3EBE3F4AAD93F87783D54238AB1F8ECD39522E0EB9A34099B08753E9553958D84215805ED1E166086005000FAA3DF9CA6EFBABDFC2EC356BE77B1B66266A5C781F58AFE45EB5D01578853BA96512959DE29A0F0A3085D8FB4BB9D5F4649433D5D49A751F69AFB038700094668ED5BD0B271C07D375A006EB3E0B9354258B25126B121AC18D0868301D907EBC2A69DC70117D72EC676FABFEEFF1617891CB21EA632192C97B5E008030DB9CC04BE38E4A972A714DCEE52C8A88A13F4CFB3C514642B65DFD30E923354936546DA78D7576A8C9695088B5F001A2AB082FCA4315A44F49EE86F790E81F5E73232BD2D63F78463CAE018B53E8C5AB182734586C046C462ED25C72BDB32B40D1590883F4BE96B6159FE84F8A37B35AC53E08D4B537B37062658FB3390BA08895A95844AA43A4A8188536C0EF6002D8241537B773416F6A7548511DC441580B2E3057B3038930974622FBCDA95F4B7229907A1E65CB24F937DB1FA4E8A75CB61AC47C72A559CFA52F391F8AB5A438A3859001502763A07B364E0803B589519B9AEC19AE0118A71B6B48CAC8D304D9C1C82B4C5431E4E3B09E0B034325DB7017775EE83A713CA0F790087E07766BC931A553986A69FB0AB0DEBCDFF4DEB6E2E306D09AB38CE66B77341B1527A7E21CF49216F9A0DDE5F07D5A31B40C2080901FFA05ACCCE56D3FC3FA296AAD7D6E15117DECA39B93EDA127334632BA5C6D874CFCB90E12FF43CCDD4BEAF47EAA708E5AF89F94B1AA254B8404B0C68D36AF07AEC80DF5B65BB1FA62C9923DCB2BDB3A621AC0E9C841CF8E73D95C3C3D0D1A1194DEB86B9F129F46801A09D7108876EB8C3A4CF3DFB3A26898A3D8109303444367A461FAA3C8466FE1E3F3E714EB0D7DBEEBB1841614EA0561D9110CDAF24702184752E63965800B7A42C26D3221909F18C0F89187AA35BBD82EF8C6294DD00A1E511DB3CD91F0764CE03B03F36AE93C197A6522D9991A8201B72B009485B051BBD121D52BBDC8E77DA97954E369CC1F7EE6E8352A71CAE09D17DE5F0C83A3D384D5595CF66BFA8D3035734D115EEA0CEB78B2CCFB928A19107CBCEC2795C8AC1C54CE532EF244118F29D0993EDC5E8AD6A1571909AEE05E04541AA0A19B44DA1979E2F494FDDFDF8681E952E7F24675CBBF973A6F60C5228D1A59487DD1361FCA059FFE8B6027B959B3D092B3036FD65633F24684F126F3F8033AC8E74F4E0D295D5F0BF2CEFF74566D784D5752D4622492513FF94D04031FDDFDEFB1F44E33B24C9CFDA58D291770DF40232D6A506E27DF889DC31820E4CE13514CF7D23A589D84CE7CB8A1577808E46291C477F7811601F7A55ADC9550C404464E3BC5E828F2E6260E2145CF5558E08EC67294933254C63B851FB106EB0E0384E236718902D2D7C22A8F30FFF90903626A6BAD2859EED26FF0553BEA736466EE9050773F7A52F7907B53A0685ECC9481F6F1F2E980B49762DB52F3492E4F3B4E24272D284D77B6DCE41590E0C7511796CFC847C6EC767792CB13C58C430985E71234DBAE01400C6C6CB3C3D789A584B1C353FD9213132144C42A71E0F3AEEF05ACC73B9A61434E4C403E85C1D62FBA77C8D2F3CFD53AD8816BA43CF130EC760AEDC85C9855C01D3423DD3DB582743C917B67499CC657BD7844A3B7C628FBA5974081BBDD9880D823B9951750DCEA80E3BA8C803EC812739557B1CBA26B7A7840D7BE3031A89FB063FB9BECF28F248A16910945D22CF18EC535D5D81558DB3C8B9E0948BB263E39F4730E3C1CC395FA2982F48F5C2B97A3F93E147D17F91C927E8AE7E3BEEDC0B6D60C20307D34EB97B7776D175235E3E01792422C6F77C19D70CE6DA037990EF17224E0A8E4A6C0296753130F9CF30B4677DAC9A0459577D03F2E9C823701E854BD294E29D3CEB9C3A47D51B47DF00CCC5C5B3C54D41F0467E3C34BA5C169F8F18677A92C11444F970206E80087C070D55BBC2B850E3C2F5C0F2C669316C011F3620514619418D72086388CE6EBE53E5277D18DC9BA659F6CEF0C0DFD133772A93EDC0D0D0DC68B69339E93769358BFFF6BBF9B9E2C465C1DB7D6D1C49132FF75B641D62FA74A9DC07E53C9D7625A3365936FF661F1448E0EA4680FE0DE91B4E52489BCD42CE3245DDEC9CA1DFC5BABE55037389B7412EBCCCB1C7DB3379935DB5C4D8BD893927DA4E6CB07CD9687909DC9427597A82D8682F6D3495861BDC15C01944D16B6ACE1E42737399663EACBE73672EC370C9CD79B4BCAE1E258D3532DDE781B2AE16D71C37A603BFF2EC5BC21542B7EEF1C2216DBBF8E02F9F9EC0B43EE3105CD2727459BDDE1280A45393850CEB9C919C2581B98D2A327ADF8ABA02FC6EE5C6346E8CB54BEAB11EC32F4651A69C7FB08EEF26697E791846C5CB479D9F76175BCFC069B22CC0456A0BF11833D9DA7636587049BD8F4B12D3CECE0029FCD6787669750257B6418427C5152B9A20D9937A35B4E60342300D79679363D46B83A8A24628DDAC1CF99479DFD15B8C8C18DA9493540B88048ED8BAF47F61362A0C5BE422725C4C140CBF0CD5F861380A50E6814A0A3DC585CF983C4092DE47885F6FBBBF7106C383C8E3507EB3D87FAF12D5353A205D5ADF740260B02B93FD8A999D309A84281C5948BDA3467FE81CB9F8FCF4E3A2E2E2F8D314D5AF2C3867360117B473884F8AA92B5FC58325FC0DE25E0BFD77E876BE0F71D1363DC39BC0B58483568BF68B6D690CB8D3396564B45EF486B83AB5165310F112B75A595ECE500D603D7F85DED2699391E18CCE8121750BCDFF1FBBBA6A968E3AC399BBDEE32ABCEAABD59A11117CEC0CABE2CAC2588A65EA6B55FEDAF3FCD9A33971FBFCFED7E85270A04DB2BDA5EE5EDD11DBF5166C2DC4BBCDC16C40416DDBC34A1894A65392C7BA116157E55EB45E20D506DD54968D992AFD9D9979FA3729016A403F2C81B0DB405404E72C8E409D2B45EE7DCA25FE11FF345D5E5AB3EA46D6C2E9C02572CB4449AA8D171F32EFE2F8DCF2744A2DC8E0FE065FEAC44E1F182A2AA449F796ACEF6A58A8463CE1299A89815EEB35B965508B8AC98F95DA242450117AE786513F6E039A8C2EEF7329EFA46C96CA1C05B05389D9F4FCAB62DE839345D41E115E9B04198DF62DC7B5065CF6EFC9224B56E35B2D05EB2354279C245ADFA6165C631B84E623C67FF4BEE9CC29570AD8D9BC0C237D2CD43F90238A84D5FEBD731DC71E3F3389A0BEDFFE482E327DAF12D03BD7BAE1A7C5A2372577099CFD57BD93D58D2BD6ACC1DEE6EBDCFB69D15AC26B7D04783EE4BCAAD74E6D96DB7E4BBEC5CDE385C5C7CBCCD0F33A92047F905DD0400DB57C5A78525F630BDE5A89DB4AF5C0406693C66FA166FEAEE6C405020032A6175F6F1D63B40772891BC6A2C2A9A11342EBBD1B2506373E127459D901C72C3A45C4B1CB13618AE884432B185B6CF61CE6E31FC0054B518E367AAED4C641E3BB4B39EB14AE4DD8457B42650BE3FF8AE42CED3EC633028F110943DEBA4F0143D43C50C9BFAA81157F151AA7DC2C7D6765360555AB7E1D6C2429E84E640545A79458403C73FA39AE4B50A557DA8FEA4946CAEA86013783943324A1F444BE89F9275EF553393C4C00FF4EAE11A70F90F7DD3D5072A629A9B3E367CEE8824E2B61CB3EA6E7B4898A1BD49D61EB09DA299B48B179500FBE733E247BF056BC6CBF27261F38C101889A62B7523BF5CA6BF2D22F0D76EEB26EFBA9FECCE98666560583806457D1B6220F5EF8545951BDBEF5F5B33319919A7BE495DD5B6CEEB27FE67C31CE897D8CA3A824F0DEEF24044B446D3E6E29A5D3E139EBA017C339C2090A4F8623734CDA2B970AE0BF0691A007263EF9BB9541372D6231C1EE1A2074972AAA94DF9119912BE63E6DCB3F40E63E195E22075D9916CEB65583AD44F056FCE121A8F436F57034445584A532CD20AE365C278DB69CF7C6795F429C83540714C773A85204990FA3B25CB8930D3CF5A00246B4A01091DE879DA3350895CD4CA1C3B6EB4389F80F8F258535B120388DA6213B7945539D9978C1324390BEE254A08AE9E9829BB6AB1C336A26731AFCA69279E2BC008DF82B469946E7D6CCD2FC4CA223E67D20B7CA56DDD981C029A68EA699AA409E4E58E5148BC861D32B72445D3898845DDEDFC6D47EB985BAB9F83F9601148D5B322C39C3692489A38A8A73E3C8756CAD08729F54C52C0104A44259AAC298AA30D09477BA08916F47C5816CDC0B6EA47E7EB74D34C5A9C9DB357F013C6553EA26CB7A690D911292B2CB69579BAE61BC33A536813FB54768073BFF30CB8FFDD7A6EDC1763F4FF840F47AE7C7AB5FC61354E37FD86244646B2A78BC2803757689F9744A919E06C303CE3F78F43100ADA54484A2851FF6D0C0B8909C745DA9C90586E562EF4A5B03F0BBDB4623545F1AD6D82F3DBCAE58C1FD792BF401C3F040DE4EEC22879EBC1188586583CC4F88E51A8F9BAEBCF8FE4D3F562B6A1A8D7E4B7DBE90CBB775AF5F0BBA25B6286FB19260F95363C931D83705BE06E6179655FA2C105FB826D3DDA2BE18982B3AE2695DD271F93EF98B669439AEE346D201E5301CC659F754ED5D1CD30D0414CF14DF5A8768E7959E0D253430096E58B5622E0F7A708014E9B246DA612D1C000B81311E65A94A4485BBA5E5331BFB85293A7FD08E7F6AEA093E1540DD8B87510A49578B978004EF4DD9452EBB09CA7D988A3C112DB4433F1D4CB6AAEFF5D5506063046972951C9DB6F85AD5E3AC7A35CA4A23DDDA725F2A81CCFBA38B842D50027B07D19D6B2BE8546880C9697CDA6831297D070970288BF9A10963914EB3C8F41D25430B92F1D75DB3A0C6321C09C428EDE8ABF2B4F912EA2D0C70A93FB8E27046B6F552895296C5EA4D3D19F946A54BD523B4F29422C003B9BEA971AFF100A4D33275E487E5CE09AB0059DDB283A3A4C67F9A492ED1E14F16B4332DDA4904307F82ACAD112B86429CE5EB1EDC78F562CD2E7B6287E660A9E99FC61BB99C3249B1320AE721D873ECF54D77C047D9279635D14FD3CDD52DE9EC9BC3B998E0045236BF294CF4C22E71691B56102DCD48FD15CDF55CEF9688A00CA9B3B06CB764E35BDF99B67DC5B4680FF0AF5873E63F98850DACF8ECD39BC9B2821DD04C9D602F2861D1D9E7B784834359D1E4DD0D6DFA1C6CE5D0C50A5B64D4DE37EB3BDADAF1210E8BE0DC0D63A702D1830355A6A9F2292153850932B4150074F82B119FDE292207837518E4A1A30EA2662BE75B301FD49164254610D09470E387D1253826A748D06BC7B7506427C00A741BE398BCB2CBE2215C084F432F3AEC834151F839A28B44F95C60657F91E0648394A4759A934D7B095EF0AA8163935C7DED97495684DEA1F91AE02374A9096EFBCB497B4D9CDC49AD479B3E723EA6F4F6A88D83E6A0525BB9CEE75C65E3F2E55480CD809394F332A095A49FC6A413DC2BC38D9750872C47BBD5439DFBC2A60C4D5179E5034CCFE45F0EDC63DDF940DEA43234EA9BB3F0C2CF6DE0FC82020B1FC61112C1F32E9CCAA94AFFEF5859E3C5247C371EEFBD9EE9B66C37515C5459D177145AD8292618222D23BC6BC4DA6EAD642C122827808310BB30C43B9E594C53A8D5366CAC7BAEEBD4F921611099ED51068B107048ADFE77179B75CC3BED5B4C4FB3E1329E541DF34604A0FA2B8290C3D5E86D05BE544B475C43201595EC912D7BF97C48AC289FE75523CE4F55FE529D5176F31A2195790B8D4775ABD8D5931730B22703730C9F828077D720BAB4DACE263169F7D810F41A3371C5C40EDC47E351A2F848D18BA7DA1223DB39C21A09A2B20CB513D81F100181E6330780AC9785E5B42BB0A9BC7AF9349CDAC478E2F04A601BB03AEE72EF2D75B376C764DFEC96973ED2E2F5D0679769EC8C156A0EB0B808630E0318C7D45B343F129C89C6A8AD844A632EB745B4AC03B301994AA7AE59CCFD5F5BEE92CEEAFB631C161EFAA527C512756046450EF9BBEF2DD86DDB96DCD65A9251572956D0B36DCA67C035D081EC026CB112D659846F634C20785EE4652151F986A6E9450F189635E43C5D500C14413B4E4AFF8E5F7A6786345C5707887599C87A753BA504764056D069CACF1E5A658F2E6B32DC9F1D2A63F70399ECD583D0D8A9FB0523852754126B575370EF123F08A4B0DEA1819A3602F8A06594658036084C1734E0162328B49BD888FC4FDD14674FFECF29F21258B7B208534343449BCE2FCA01ABB5EA7CDE3095936B6D7C357894AB23FBDAB4CDCF70D6E0E1E81D047BEEBF12983159A69383C1A2F22E935D9199C0ACB303917EB93CA9F637868B6DA2DDB2B10A7A0EF40A3593DF9B4560996FE1ECCC2E80F5A4FB50F8346AB587C6B456A4CC72708AC83E4CF2A8414EC433D62AB1003997BC390824FE8B9BA85E8C18C825401678AF5515FE65C6BC29251BC96B252036436BF7E27437B1BADDBC2A89CB96DD061E3B6EB4FD1DDF46A74B6F3F77395F698E6063823558171B51C3C3180ACD48CD4DE8F1AB977A1153907FEAC0D04B448353C5D9B96B6047726A3574F6D566AA1DE4832244FA816176CDD45353EBA72160B2CEC6949D466F12A6DF30B815934DEF5A6A55C06F052C9EFB41654C67146FFFCB347926ACE9C2FB5F378CDDF07F973E1F675A2C6000564A6609574C90A57380CD3F07135BB69ED510F53CA43776DC13875C075135B7D0CB3CCFB44BF352FC606A818B8D6F39C31FFAE910DA71791B74C9EE9BD69A043275EBA1094D2B415806227CD587D2DA93D1C869E741BCB159B112EC9080D079A197B125CAC437DDBD78FA27813B1A16CDA78680AA4E2E55D474A6510941172BA785D1F2680F4118DF9B6A25F9AE72FBD18B308362FBCF42876D997572AD2E11977D0829EA54C3FCF5C7BD9299D6816BF47B099B20ACEB41EF8D3BE1CF0072E65FBE879A3C5A79DF2DE9F8E555A4592CE756A62E684F7BAA9AFDBDE1A1C3815D268D6F9D75B848772CCB0DA95EC5968A57C4A6C716361556EA016A35C583A4CC510FD13C462CF21B712DDCF51A9C308C3B08CDF55EF52CFF099560F5B33E1513B98E63BBE299F3FA8107EB704BF6A74321625864A339696EEAFED58FD8A80F28E090B04A5DE86BAEC208AAAF93FC5C46CDFF2FC4012574C5EA37E448F0853E6C075A7FB4023DBBC71D1CF838094DBF8BED60E3307D5138787D75A01F6C5B8FA2BBCF653F98F659E8C8C655193798861CED36F943081876A9B0A4039BBFEE902792CBC4ACAD48083ACEF630D805C3C4B11F9AD7461F33B5B6A0210A8E24CE16888024A1486890B56ED95662124916B8875233C3333351C1AC55F49FE5733B0E9A63D22718D6EBA047E148940F7ACA6E6A9B08880D65B5A2D0179B8621622966DBF9A4CF6CDEF774CABDB2FBFE98EA7A072C9B04EF904992D5571CEFEC96825812B38613C5FB006B250D97361612EDBEAA8BC22B12A6580C98AB71D5ECB52AEF34D3C4F3C5E782ED75B1DABD7D400CBAF654CDAF4231CB22B4695DC0A8598FF167D49174DC229A8905CBACC97DF48268724D877EBF048E862A77A47F4D970D2E3332F36D442A7306B4666AE1F36C2FEC23DFC795A16B85B10ACD9C160D37A3C1CBD12A77C220571E2B3598F7E50E86DC3993FF96AB6BCC8ACCE416B4CC8EC49AB047DFD34B2AA288CD07C953911E0FC33B5D6DBA774396436620F39796BF2322C96B9438C3F6355E60E4D59A0345FC2F641DCDE8ECF3647356DFFB69E69D11661093FF02E16B4EEF109104017E0BF4C3A2D6ADBB135A42AB36284C1D74065EC3A6D4962C6F4AAFD9A3A8928A0C8D7560977732C728DF8B628910C84BF263D4F1C670DC66129D3888288EA9F2C104DCBE73BC450D4FB83D8AE62107C5CA4CFC920253D82602A2529C6D01E5C52D7DFB4EB4D91CEF1CADC4E1B44B2C94D3215BAAAC1354C8D2D8B38E97BAF1A4E51D4E15B189D3FAB0A9A8A218AA32444231A5CBC09191236D917588AD83E51F3A2B18D3E2ED485EBF96AA13BE574450B1789D66AFBF1639B307C3095DB5A0174AC767433E02D593B85A0411E8D644871E692E282232258DB720652044AB0DB8DF4EA9F27C4C38C6F9F58F97C719FAE1D4E0C41A211FF4E6315CF0C991DF60B0AA33F59658EE78C15D0A5C361EDB2B0C54968F305839236990709B33442622E63D4BC4F81085B81F89AE2B48B98F765F37A9C01E54175C7459014D785484B3E4D4B8C1C231393B21D87A9AF3A79E246FB08166C0EB2D01D9D1FE346C39D0570AE6F9113A9BDB9CA07533520BB0CFEF2AF20C1996414F7CBD0DEA51BE96D723B75DD37AAE8E6858E03D1ACEFACB8BC73FF4916C6D1CF517C1F7661001324EC1047F3B9EFA0FBB433F9074F5434ABD9FD541F83523C7062ECFD1F122D9032AD0AB0DF3536672B2F920D5C90A562C16939EBD14E31B0E4B5EF907264A0DD23E2C4C4FE94477BB625F291D8E583F21ABE44DF48943EFC780605C291A54465E839F523934CE506BC57B0B2B708C338C575A056BF747AA84B719598B443D18FF55BE52C41C7A9671709E4A734C7602A411E767CA18D61A00D6CF8ED4C8F70C9CF634BE3E067B26997F6C8B0F22FAFEB36E78914DB45807B137A76941FD73093660713FB7725E1F305AE1BB1505A24EFEC283ECC427623C8B9CE7C448AF095CA910C993758636C5B69B869A21D8E59154A7A60C6907811373BDC5374298EE4975ADAC23BF31438C82DC4879E8BF57C19EA12C3E4B142770D59269E11CCBC0320C1BD8C005D11767623C711805EC5548CC265B3736A4DA6EE6E324A9A36D4B7F4544AD396BE9E030927E9B5C55CF3DD8F6436F017040BDF36614B1DA8856A0E199A889E14BF87828B450002738AE31157534DBD4A32DC58ECAC808700E4156F93BCBF277908BC071027EDF3FC64D6498A14A566224FDCEBB9D82B5186A2E7C2F751C44DBBE0928049057CF804307D969C38E2D642487293EF465D462DB49A099BF9ADB34A720E5DD1A3C9B82F04D5A6CE7E06467B429E44D23E579B16FCC0BC20581B6181FB3899F89512A802D784A1C2511F7A350EDD7A05480F2B87E8B9F232E22CC8D9F4C11D387CB0DE86D256B0CEFFB0AC654BE471DC2C35E221A28AC5DCA8406638BE096CAE0921BE2067A28FD0C542978C58299DC4148D541D6653457EE6C8F3276478888BBA82375A6047C740A451A50E9B5B6BD414AE19A26631C384E3626E866899C00F515E8F5E18BB1BA1C2A83BA4822693952473CB0FA5853DAFA574371EF112C496989114BF1658E25C3D9B87226DD9888E2E3ED08A957B2AB273B84A8600FD6A5B325E283F02F52301B28424AE7BDC4953A431FF518F3CBE581B8629C6A5C771C1890F03E2F792BC1C43C6ADC91C69E910193A540BCD7075E0CD00AB102BBF5D1F303A073FCC117D40B88C253F732C1B63E4A1E1B8C3EB4B4621F582A8DE478BDA3928FBAF5515434533785B0CDEADB0732A9F6D112F3C4BCBCB56CE8A0E2D8FD8065E8288DDD7F3505842AA3F77BB582A5F170FB9D0CBA9D9B5DD8685E5C137AF7D78D845A2D01D18CA3B26D84B45E825359998886AE8CC86B203E0EBD033F053D60AA24E3DCF56C930EA87293C90AEF78726942D5DCF1D918BA2D4CB2A9CA45D09405D28076C8F5CD81E7A8C57740333A00ABC5D20303633E59359165524FD8E1D92C076E465A70C68EE04AAA764D8FC635C095C0C272741DC4949B527D715ADA5905ED58B5B9F5C6681A9DB976493D4C7F028F6B21DF5F6A9BE86B08CD3CBF6847AE1FD812E2779ECD9F139BBECFA28A61426C52D5BE2A0AC1CD2FE02B00D69DED6F07016262877FCA405BCC68DAB8BEEDA47621C1551DD488697E443B1955F4541FC5FCD77CF7845BFBEDF98EF5441C022D3A73BA9132E85800D9659B30E935A1D83C2DE50868EDA8CB269852A58F9E579BD2F6BE3DA536A0BFAAC5DD3F5CEE38BC39836D083732F3559C4E1EBCDAFE98675663A90E1205096A30B8250FB10FDB1305B5FA199E136B1D62A6E10B18E7ADAA7009528334F0791C8C30390C6CADBCCBEECD1D0ADAFD05BB6E43D0254D7D69E1AC4CD85EB843167286E8BA801A5A3FB88A1B7BE956BEE4A0917FB39BE67049A6D1538F8AEB25E44B651CE77281A72FD4257095EC161E8D5972CF3C20905E0AC7B6542E782C8E70D1663A9D3C2C389DD2C6E5B6ABB989B55B6788ACF63AB60A62C3882A85E72A1548FEAF2B82A485151803829509AB44E5E56B33BC44C8FEB4E0C54FD288CDD1DC8B48BA04BE74074B8908E56D5190BDD858871AA1CD371BE5B163E139E4286EE314C40A6C2B42C99F81DA61250652398B7B3969E5A755AC39E075F2D76302F45CBA58E6D3076CA38ABB82EFC0824F58F0E1932A663D44385D36F13E7012662651DE14F55D43522697B926A6D85EA35D785A149F40CF348F51A46FE014DF06D9A2D691B07C786D21A7DE8E187934189FCDEA125ABAA428A57497B5709C72BF26FBE2D17FB321C722099F22F3F724353D22AA95308C9C47C4E16ACD830D3443C7799DCC073490DBBA93FF95778F8B4F22B9566CCFDBAB6024EC1FF022AA56378F66BAB015599453E56DCC635277451AC69D6FBA902BC64D7BF464E02EB232ADE8950CBC377EB0CFE826C57371AE54111419B2424CA160EEA27AE9FE14B4E9455C9495D1A929ADA6DB5AECC599D5262E8C89D360659C1C2F793BB080F27CA6CE83C6D8B766CAFA27B290E650987ABF38132C7BBD2C0FC49A45A5400B9D8C0B2249472704BCF2E4853760F25260F5A1DFA54B9A13F84CEE2FF8A45700EC5DFB061EEF10BA84F1EBB46F14365000C17A7B17D798C31F4A2E4F0E0C773C37379A7F92F2FBA4759C00C4A1CC997F7855AB54D0338B1EDA3C267323FEB518B7829A43DB4B8CB6E2A9490B0B6959FBCAB2F03FC85EE17E1335291A7FE48C4C2E01F01582CD803DD315C8C2E91739D33F0B8208F6BBAFA6C56BD91F7622457F9EC669AA4B249186BB043BB1FAEE921356653E7E6578ACD38598CA54318D3885E57B14328CDDA41538235127C7033396853A1C2B4A592703FABC6FA73A6B46625AD5E3371C24B2289132306C01320979B981AD5743CD60E23CD4C03DBA8B66D6DF5A20ECE5A3C12795634474EC9F2443D2776C64983B03EA2E101F1B1D195877C032D9960DB7C11E8D43835A229326F2611429F97C58A6E584FD46D3A751C696A5ED31EE9FC1A41BB54A315058068C73D6FA5A5B30E38003C7D68C0165B5DE5B565AD2BB9CED9B6CBEB78421AE81826AB4A73B08036A758FD0C7600B8978AE93396F604E2AD9D19C0D5243239ACE80D02630CA15A8D4CC768908EED34EB29FB662EC0286E0889A3656D6B3ECD2817F332FEE772C2F6207BB1E35054E16DB8D58F6DC557DEFD0CFB8A6A215262D075325A660FDC7C4A897AE444E8B9226634DF3C07BE7DFE3F8DB53B14926CD7608ED30456ADB20438D751FDE537AFD56D211F1EB23CB1891AA24306C03D764BD16332AD2D8FDA1F5A47F8E10F1DDB355D453FFD5A03DC82C092A0D2BFE86897DC1E841BB6AA27748AF75100A30A26A4178BA5D6F6B1E8B3C926972419EDF9C2574882F893B88666A204E343138185FD21AAF08D018C2B7C73A0A5C983C82DA0131388717751F7DCA4310B0E9A0DCDAB0162B67C65CA34E77513D0BA8527A6C0953823F247426928A933D889AAA3E34CE300D3626B848FC3781FA0F8DB605F3D36C93C9D8689F06F40482B1C0CFD4CDC66A8609909EAC34FF014AD79CB938836E3A0B02DC9E7B8BEBAA3308FEB0CDFCC920AA873D42A55DD38ABF207A0C6036BEE72FC89FDE66E50FB8D84468E4A60C3B62451AB4ED1CB7651EF3FF0209AA29D9E4B161B5B6130B4FE9C7BBD62BD94A0E1E4FFFD0823E6BFAD54CDB4C4FAA01987297A107177FC4547185635B4FC32BF187B2CA06D8EE55BFCBC1A289E0B046E24C643ED841DF3E2765D3CEF7BA95E0B14CB288182EFD485A81F527814172ECB7D8FE23821374D6C0365D1A0BEB3A7530111116EC0A36DC8F4D55ED0FFF2182B4E8C17474270FC063A9754C9BA062166E9FEEB01F53F6868D8426A0E16F357ACAA9F18F3BC0DA1D3275E5D45DCB31BE107BC953A7B2ACFC60083292353BE00EDB02FB51BB6635B6634BEF30A018AC4E81ED417545B72EAB81920EC3539018C143C41BA2DB820E94E7C0F6FC067D76053A7C9E9ADDEEC14B4BD512A2C80A9ADC3CE44408B25105D899BC7BD285727CCA12305FA0564149BBD9494267BB9B0C4DBEAFB9381A2BA4893C599E006F6D754F6742A8E42B30E7ED29FBA22895DEB69E3B045E064BD9DD3746131C3521407326E05FECF275319C82034478F21CDBA8123BE43BE799DD3C1B2008788460B0F993473308162AE3538F1B5C0F7050AB4678B15A673839F79CCE0A9BDCBAF9AC8D33BB40BF28E5E7559594A4EC70DFD1D39880CA836DC533C00B49606E06869BCE130B058A15F5B1EB3511BE2BE0A4751DA1AB5BBBA1817F02FD0430205CA61DC00E35C10FA68E76F77EE54577A15BF65B5FFE9AE38CECF8B054AF17881D4CD342E870D1B6A76F7D90DD00AA580F99FDCD07DAD0442F2E9B9810B9CF813431E9F0BD8E63F52DC6086C476D41C66CDEB0089000E3305518C1D08F7D33C426F2508B39824DEDCAF89F121136E30E1F3D5A3C304F3E3F2FCF500AB9D680E1714DAEB01929A1F50D7C868F1466CEE98CE17856B755BD30AE5D69B58E7FEFD9D7CFE26F34E0EE161D8C45052561ECF2BDA557E37D4671CA0E09CFA2F852CAA4703FDA9248CA3139C5E5BAA9C3CFACC3EA018EFC0DD41B6E8005DD84709D60F7A8E11699B032E7006A9C5246046C97CA3D10FC42E94041CF6B3068CDDAC7B17AB01093196BCD2E3119A5C1BBDC95B38A3ADFDF7B693B36FB48D5F36D49430D0A70424E6BCD21B9B1123999304AD16E604103AEE31EB437EC14A1AE6D3965A5DE699D047067CBB2EB3186383420A98F3B711B36F1B66CA48F0039A50FC1D50637E73F64BA99D24DFF9FFD75BFE98CC126B8B7691BAA61AFA7E9341265C456587CD69AC40C2CE4A7E920D33B9B8A46EF8DE3E52B6413413923504E850B7387982C0F70665B91F5F4C9261EDE224572FC082569E82D9741D58E1610F510E295B80E2A1C6B4790552CDB5F909FF855F95326EC0DF72F71E19D8EE71461B2B77DD6FAD4992E0CD598296F17ED0B43BC787893BB139D9F9B3CC6A0AD744ED2F337733B38BE5958A2E5D430A5ECEA730CB74BFA4BF5DEBEA1214C99682DF995454D027391BD0474A6C57CA9EABB18E188817E40D6B14D06D3C603257C4EE7C4AE8C56F28068095B54E3AA13503883D0EB31B77C6F6D4E12D11009BD7D8A178C4756AF78BD5B9EDD835174289762FBAC6144DA82D39829EC0D9FE24B4E9D896BFE5250882F77E6D98BD935D77C80794FE6DBEA7DCED16D37AE49C007718E326295F672AF0DB5FAB176DCF17056377B5B08F4125EEA5C16AB66BE8782D32721A20BE48808676AEED912848A65C14BF4BEAD7A3EF0BEC41AC8E65698BA6CC59051E69DCAB99DE55BBEE650C66EEDD56AF39EBF3E6E5FB2127D0140DA58DF68FCFA2956AF8549151CC4E23EF192D3352C047E689894221E08808E981CCC440FFE776367432EA8417109554DDB156BCD29A09E4819B95ACA73AC263A58C2BF02945DB1179816B3931BDA3B1E147A811140D66AC99A2CC1C4C40A9DE4CA45B72A0E13B6C4A506B8FE4371F3AA6D7096DFCA68753486FABEE04143127DB0424F18275B1E0C17DE5F23CBFB1D0587A42DC26E153DA86F5F66A373AC13B5F889FD00F91C7BE8D3290E2D97BE38B06B31E6891079607BB9D957436091C05675422F64127AFEB1093535A662D97B1AF3710C5AD880FE8185AE93F99291E0723C600FAB420FACCE73861F706E26CF2A004E18DC1B7A6B83DAD989294F4C721DB8590FAE977E64EAA9E6CBAF545B9926A9D781934937D7CAA5B22BFE2CE8F5839B81169C12941D2F8A5DB74ED0BE9BAAF534BF6E86BF13BF3A690FB976255E271D1B753BA6E1E485A70BF3E9D1BECEAABDB1BE7586462C0926F5F537E6FC5D0BC3FEF836BC814563E9ECC50BCC2F7C4F19CDEB1F818636AF695FC83A5E37372EB5BBDC4F35BF31323FCC422CAEA598AAAE7DB5A545447560DB0FBD5918A6085E1E1A769A97652F4562C54AF6DCC93FDE6C142A776EE7DE313880C9DDA5385AB0E8A9D449AC11875412B96221BDD213CA8EAAAEE17F0B0D644FDC8CA46A936A3C560B5E19E86987DC6F65E5BFA2DD6448E1EF5CBD5FE89114534B99200174132F50DEFAD9A8B38B305033729F15D99ECBF192AC5C3EE22B8FA436C8EB1DD3DC690991801699CFAA26D8940AED531B072C9C9047E3251822E1103C6A022CD35D6B684BB2F1358374A0AEC7A32567CBD142FEFAEA50DB646AE975709A42BE4334A29134883EBFDBF6E62DC4AB7B5AD84C5E6826D856BDF770E7DE004EB859E98A3713F192E70172572BF86B38FA589566983E7D6F78126BF7E9B95BCE6B0883F2572A02DF5FFC50E09D670E7D068FAA64E1B4584A060C7A114F4DD054D5C1965684AE9C9407E184F60AB54B2CE1AC4E4F2C0241817F742CAE71CD5E5023B72F8F2DF1E833D92A7D97ACC435EDF8CB74281824B4DAD8D525F8BAB9BD183BEC7E614418FFD6B2145DAD66AD8E47D448260ED81A65AE819722A6784DA99E9429F42EDCD8E019695BAB9DECB457314C6F9AFB759A981CB584F9BF01116348564C76DA19D34C35A886BAA9F5518DDF63B60DBCFBF3D35AD8EA7F8DED3267DEABCF4FDB7F99BB032BBE933F2ADCD19195297C5981B32F73972F96A720D05834E49AC4FB6D5971203EBE6F62F03532DC5ACF1BAC0F09877C4A33BE52391CD0043A0DB11BC55EC8277966057B9DF232150750C15F8E3E78546725E0A580B79F7B32D6F31D8F6983002010308AC6E77A14C11C841EA0EEE0029DE3F79DA71D3380D1C6329343F32629DF7D14F3ACDA7452C2D0D0EF983AE019E48221299C9FB299CDC9C6F3052311D6F5A08A707F518BE5F8B053AF63D61DCF3F0CE515013A29E503CC37845FED6DC90D41871606615FF5998A64EDCDEC9297709E1AD7CEE7876A091958F26E65FAA56C36E10878A5C49D467AC16D5F0B31DA65499212FA907ACB611B60A8F5405464BC1DEB5968AC863FC7D0CAD6229E78029F8EB478D8A7E0F3283FE8455EBC32CB19B2FC240E8B680EA892EFA864FC296CDBA259866CB0818097CC5AD7771DC7CE29605EAAA33C445418D7134EE03E5A7DFA87630E4A4058D2A035F62D2CC71E6310945585C99BF7978EB960887A2707E9242718C5246B3D21FBB375C3EFC37176F0FA805EC7D6C5D173B158248F2BE23EEBBD3E7F65B3249F29814B5F488C5FC4F0BDA59152D8CEE4E17840917BB5D3E846A6D7482F16D9DF16B47809AD9649FA9CDBB469B34F2B78FA9F020193B4EC6CD6088C59C82561C52FFEF9AFCDF4029ABA6BC9A9FB0C7D27D12A2FC24586A299AADA6B8E87DCF701B9CFAA2281CDCEF96DDD6C7A60AA7946AC56CD7A13D577A48EDE80CDA630F5080C79DA6FCB3704D06465A13A0866C2A939797D25FD24C848CA4F31C9AEBA943CD3E991BF2B7AEF08FD64FCE3C7474EB459E1B687204461145174F2CCE5362C0DDF9A68A69F8487D2738F6E36E31719D752419DD779E7EF82AD3496EAF8A1B0A03A22C94359E1DFE7D9F48E6FCC62553A8DA1E092A3463259486907C47F288014D974F052FE28D5E78B948D9F761BAC3C96ADDAC86010AE6C25F7D812A3B19FD956C3CE4581557E35C91DADC3A7B9DA2D0F5E3759B2C99299607A2A441B4B950B5F444F4523DB7E4475E451DE56783826CDE942AEA03569CB56561DD87EC4B497B6768B5F19D21109BC09E90D04242170115E898067D563C5FBC0431501FCB8ADD105BD0E6192E5B04C2BA2A4DCD0CF479C9ED38550E400FE1B216B791E88A9E810DBBDC2DF30969967C26C41AAF93ADFA3E45116822FD53088B2D87341A67FC2C61F91E7E1DA19730B9D2F778F71C69E36AD193C398BA63D0D62967E4752B7A11E4EF726CEADFD2013403DB5F2A4D39EA0AA066333036DDCAFA68475877187773F9770A036804F26A2366705E0D5E4D47298019EE93D5DFD1E13E2C5CED34CE1FD4CCFFD83C7725C5D68A25C490571D9B6EC1034CD91B64150143FF98116BD9CC0FAD19D1062A2B4EC99C08B367C93497460654E958B79AF04622FF1B50E997F82052A55371E34DCAC44BD151E623270981BEC865BFC3136C6C96F1BBC5E05279B0EEAE5CEC01450B9862A130B6DD73DEFAF5ABF8D70F6FF957D4E390290F441A1612C1D2131513CE16A39A5C0050B804610467C453019558D154B8482FFC99D4CDD4202104CB04E50B1360A31A4C7A99252A23D50F47F1419BDE1B1531262B26DD97C10F3572A548ACDF556ABEC315C622543E997C924FEA70EC939DE8DF96BAAD56BB414D4175BD2AAE273EF551ACDAD6298049C7630DE032D7E41F9DF4EC5071A9D704D101BD4BE438F823C1F139511DBC2F3B06FA0749A6FC9D299A88E0DFF730EDAEF5782294DECFAA4887CC4A91AB61191790C9DC303B7D85496288DE723F3769DCA5ACFF3B3C8A919FAF353E4706196CEFF1EFADB17B278EE294879D0809B092A82CFFC6D64F0BC3450F11EDE58A6B017AFF609558AC3C582D3C2BA2E1872BBF027B60D4A39FF0FFCD2BE4E1110A53F8A8D1460BAB57D446BC266F58000618F28F0F5721F4A8091FC050C5B9910DE08BE95BE4087B99E0EDD551E4E2DCEFC2D3D4F6ED799A714438F0213F1B8B109B933A7D9FCDAAD8E03916BCE6C60D12A88291C2F3F204FDDDAD605F7D6D48452FA65AB1A6EE142FAEF2A2B355F644CBD9DC7A08286BAB549F3D6BD243A87E7A3C0F6017B07D1EE945FB13ABA6DBDE7851137E1ECF5477F635B068C03E2B0A02D0F8614CF7862D25567C2B7E0499209AC71F9D9500409A94E1EC4FDD787367EF75E299BC3615181AB2A0B3690A3F77A6FE7E872E33B3E0C05F9881A23816CCA1E4048F21F69AF3422DA99D18E0D623CA11BABE3A93137C51B16845C947AAB226E1E488BB132E4B28E56C911FAC357A31505C26C946B13B49BA55A11920CC7414CEDD60B3BFB08FCF4A7E39F7FB87E64FA34229BD2BBB0F6D85CC3AE9BC42E0CC9223FE3A10EACE5A68F110CFEBE05698CC0B0ED66E7467CCC33D4373C1C24F5F8B9CDB5F692DBD7A824D6715FD2A59BFB85EC995871FA16BEFEFD9A18C3B3F5BAB3666CF1BD6048016356D259259819EFEBE0F05879D790939D8D6397EE6FD5777D1A5A8901B7662AFF001460E5E98C0EE064FE2D8FACE85F8FF1B41172AAB133AD60AA044D9945E4619E43C7054BE776C3E3A3D1A905A074F6B0FCD52FE2AB80AA7F579139805A222F4D224E0EF0D9E0D1B14806A6C846CD4405FCDFE9C117867E3E215418CC68205C093EDF1A557B0196F10BC22F8C93DD6E2BADD35A753E05FE17EB8B418AB935A43977D8FB109DC4E7E1821DBDC9C41B18BD3CDE5A2F9CEC61991A4A508C3F1D980BC2E87639382AF4512D7EFEB6AF6541D1D697C8DCBC08F81BF14F1AC00681583FDEC77850B8D04875797C6EBC21974F4E18EC7E8607A02A2CCA144B32E1DDA89ED9010365EC9D0303371909C5EF20E14311B76F4FA744058439A9D3628C4D9705C807C4AFE90979DEBAA3D3A62A50E187450B6714D64776EF879A454ABC5F8FECD6A1F219598D6896720B636CAF329561C5CF0F654289DBB533475DE84A3DB7D7203D1A59B37A8862ECC24FF4A257A0778672E4B53486C8B44FDD21D29593FB7013DBE4C6B8BC16574F912828FC54A83E2285ACB363EB549174C00F3EE9576ACDDC048C22DA7992F89E7E311DF0040057A180E25E490053C23049AE4DCDD8D9B752FA4F3408C6F6038DD85EAE15CF72AF9F915BB2DBBC225F6A3C7FFC70646BD8FD1E073A9B244FCE6851D186BFC78EC01698BA9A33306232422F3464C614D33AA2DCCF9157056A0349FF8E863FCEF82CCF4B60142B0C3CD9C2821EBE39B87EF689C51B29F65F9BE38A7D5B8B14AEBED17E67D2E6EAC027B130D556C0C87495EDC05C553AC7950F0DD8E2D242A5BD1124D7D98361B00FA3D5083B55100652201CA419EF51BC6123525FC1E6845FDA7BC7A288CD2E935E3C7BE01388F85D4878D0CA7D435817C65354170873ABB66EA576BF7D633047496D98FE2BC0DC9256EA263A2084DA4ADC5260C4C63F45EFBA7C4EE9C6FAD9099E1BF8B4D144FECBBB5505C5ECD2DB07656DDD74A9270B9D86D3E2D0AE7959FE14D09086D099C6B7740B05A78B42BDE7720858B579B00FBBEF010A9623FC896B4ADC12DDDED5C30661683FE1E35E1035143B57D8DCC4B5666C058F71354184E990420B42F030B35BD80A3FFFEF1CBB735985A6E5247D09FF0DE8705A9587271F7DEB3A8322F40FBFABF036003BACF542112E164D038F051E716708F794761C73A5E3E62336A5030B2574EAA693CE04948B27BDC0103042922007779F3622CA5E28AC61F4D5B9C9FFC13B376AA8CF335AB310CE3E8E1BF14EC31ECAAB56290481D4179ACF0E1F2BB6586C938DBA3A849B2DC1396CC6F3A3AA6DB72578E310085573A99BE7E0BED75967DCB2304E6763249AF8AB7CFBFDB29E8112B4C02774CAF5C3C5042F471C93CD2648E5913BE76CDCFDA2D1D82F27E0E5C568976D2CEB38FEB167A0AD8E30025AAF94072D00027E03FA94533B63DC4DBAF65D1809EA5C5351075E3CD55FD86C10870BCD7296A94B22DF38DEDB9BAF5CC58B8631EACEC6FB057720FCD8E493224D9882E6F342AAD8F748AE4C25F1896D401BFF021F75884DA854584CC79157CA3CBF87C7EFDB011B8B67935731AF633C39A969BAB405F36B35EAD9B83C0ED97E147B1A724704CCAB55FC6C1616661F4213C5B711FD5AC3C8E8DF0C1AA330D8E58BDEBC4FA38D8F4E82CA8CA7397C61C3DE179AF603FA039783084B74B4A2AE1A6AF16C5D98EC2A4BB35A7C890CDFEB4FB957593AE8C4B19069CF608A4CCAEE813D7180505B6D4A35BB365E9EC95ADF8D7ECB4594E8E384F5E39B458527A2E8FE3D5D7FB374607A623AE1BDA063E3E5114BC661AEE654A0012BAF21C13D0EDBC988C9B65D879486F6D753C8C550CD0DAF472AF8770BA4A649B594888A3D76195DBCD1BCA7070B769E89C67D92B6BEE6DF6D2EBED9B05C6F25BD8C3157BEEDA87EF9CFCAC30555288F02A04EF724D727E881278F3E54C568927BBCF4D0F65A359F700BCB528F4D925047412AB0837493AF32779D572DFFA4B0BEFABECE3BE582B4B3667211E9488B9AB19822F544FB84E488FF8472B4166C969E55D8D2A8706F5E48D6EAED2E7228A4941B062117858FFD775605FAF06D34C974F53B167E0425FE659D3D7D3D48443C148E8F04EBF01E2ECEFFB417AEC244BE85B21B181ABFB12A02659EFD96AE326CC047DF10785F39C88C0D3BD5512477336B74E32301E713CCC0BE4F37E5FF8329816688E87566DCAC3788B67CDDF7A5407F05209AB096427774D68E209FBD7E45CF26AFDFFAD42CCB15374FCAA9A05AD1BC43FD2F8CB1C69A7E004983AA9D8BF35E5F4E18D6FB27BD91A7C8991DF5C6E333FC2FF87ABD0BE724EDC4CF91F7BE78401C34F6C57916B4DDDBD31426CBDF2E7FC0112F1FE06452488AE4A48B4689E908A2E23E7F434A0F2E52B39E568A1E38CF6FCA1C07BC63CF2EAD91EC4D14472F17CC9C6AA1D37F2143605A6203FE25119C023086ED5339C145710F3669A6E57938AA957CC01E9FF2A241722170D44368C361F36E55230026869ADF6E9C05409777A42AB37C122D4354432E08B4C2E6D2A6546C19109614BE18FB0F602EADA74C33689A97CBCDD323ACB6C8145298978417EB014A74C6FF7AE3E0C3B08D14490722A75F965F2E03954D23CBCCC4AC2174EA6381773A017AD9F328FC3BB65A0893E9FC26811569C01460D11E0D852E94ED2FA56F9DA80655DEB49EE90F88B32FCFFA6E4A5DA0C0ABED9EB28C1E42E63C7A336F47A97DFEF1C960234728A0EC800D8B2B3015880EB9D2672FE4A3F8E3E16FCC20810BF0946801F4F3ED2E92BF3A6A49338F1BDCA259CDC82A23592690D9CD8655B902C1C3BF4FD0195D06F2B6E8541F2A4A79723A60F09FCAE0700E38B3ACF47396CFC3C0DB416BDE045323FE14221DC4BAD1251C2677461701E47A426C03008FBDCF48473E7632C8921F96BC29C0BF8AD3D35A95586E304B3E6EADFC6FDE983AEA9BA5F5BF0245F98F8CC70A9A86FE31A4B04874AEDC232588B03EC5BD253B82B5B9A9724E4B1FAD5A9CC67B3C5E065536BD6D8A45A06A8A14C0E521C382D992A6F35841DC7C7CAC7729CB5EE58B778B7BBBED8768A2C37021993BF6FDD257ADEB682BAF790C4717B39FE105B0359694AA40588B930D27445E276979E9102393D355469F4BC070A140C8FCC98E1C17A5A54F78CC8C163480AE0ACE88AA4B93B4AD94D4CB9D3EF8973EDF67BC8E2CDB6B4CF850571F002BAA53F817E215619CD4405E45A36099D2CB1BD7101AC04F3293033883F4DC9F196E74ACD462F9212E8D36CBE9CA084E315CE83027D6DCD4972C046A2E4225F3E6673480695A06A9B5A13DB4585CFA762E5B77D2EE5B42CDC6F27F149C96134CFA10FEC4EF7949971558D4FEF88122BE6D90D0C745EFCF27086442B462FD9E530574C3D077E6F515CF115A955C44EC4CCA688704EF2462F5304394065AAA9B5D482FC341E3D8682A3BC93B6DFEBF9C2500499DCAABDFE93E9D19C89346A6531E2B2CCBB5151B6BB0FC34FE701A438B4D391B0F68291ABCD5D9C426ABA80B0EA06B837BDF3C121AEE32F44EE0A05473D1B3E8D3AA39FBDFE280C001EEF0471C21158209630E5E36B72CA56A5EC21D95022CA1ACF9EC13082785050CA9FF94E285C5CB54D161F4EE543260518DB59CFACE02A2340F0346D52A92F10C4F9CE391BFCC7086EB4761500FCEC6FF093D6A55B44BF57F13A6CAACDF7DA86276DB144E63D43A027373EB2A011D0BB355D49A686654091477CA7EEF2BCE4CCE12900B04B35AAA90BD7AF72F527D295E4FF4F3CA7123714B6414D159C24907E11232445891209C0817334AE5BF1A08077FCB99C6A109C450D36F48E62DB487589394F9A1FED8600D03885245483F3B6096135D32AB00D8A45B3F0E3E4E834DD33C558A843E37D9C099D12EA6A5884FE3CFF4BCF15981E9D72637D64F730E5B22BA06334D6E36E6FAA9D137D14277633D3E2FD5BF7907639106FE5F269CE7178A6C60E645901BCC9811AC874B34ACED1F3545E796596721119CC4B7E6D92CC6D01C2F97B56106D19EE5DD7E57ACDB89934B1B81CCC31B51722A56B58D937AF9539FB3B56755075081BB26CA84E768EA72D7B1F953754484BE8BD422221D45EDBF09F04C6EB0F6815EFF44DC282525BFCD33E7101EBE2237CDCA973811638711FB8FC44C1EA6B955B0CABFE4B7C287A53213EE5432BE9470D2E8F1A78299F67866EED2002D61A0E878C22EE4EA65AD236FB1393C1E99FEBF0678FDC2C2E8BE13E6FACB687881E2E0A719ED18BC6120301962BE8EF1068DCAD56B4845445945B2B7E188B8D6C9C49E38E2D62BA942C939EBDBF46DCF6A17D1BAFA6C87439B955E60137754A66CC0719EAA2EE986DD951798499FE3DF39A5ED83BCA2EAD5D73556479189164A0FD3E1E7D2C0F97A18DDD24844071CFC95C9074F69675B1AD49FD6D1D97C31FD5B61616A08D19309B45E77D1A0137A8985A4E94D9DB3FF854B91344D3CFC46F2DA19BD3BDF76FC742C4B3A3C614657C19275D903F5AB3B1A4259EFDA534410B0BA1C11872C1C46E0233F30646F0FFD86A9F33204BA4E6A276AC72BC06B63592D375360727B11B44A7F570992EBCC02349D2EA0D4B38A3F1AC50028647C4F9AB9E9273972B0BB300D34917F2607B035AD8A55DF1AAF3E328A8476491A837273414145AF7E30A930B79FDA592B97472051792E693FE8520704231EA5AD61ED54A9245DC3413B487EFAF50696E178BF3D399B742302BCC31333E6D0FE986DB97F135DF028CB766E922CBFB57E2BD6FC6C10DD7FE33D98519D487E73553604F3EE82342E740B5EA15F6404CDECAB8D58017E4E334E2921347D004E20C8BB167BB9DEB5B7D17E8AC2B492C7237CDE1D084AB9518B80711E3C71C1F9A3E59EE571C33A30B48AF6F671419D2798B5270559CD4BF560CD947FF28A129C7766E7D48827C6205AFF71F97147C1916BFD494DCFF225AC9FE242B626D110EFF515F50ED7045D8718993E9AA5E3A08F9B5FC0737C4533B572FAE81B7355B59AE84BBA9B21D45E32DD4C3F9E31F6E4C556A88E05DC6A72542CA28B9784D3CA801B23449D5120B528EB02F2B093BDB46921763E7EEE50EA8DEEEA9E36E6FB01D9B6517E60B719ACAF81F908062EB96F3F93F7BB6670A556E657ABB100D10B156B76577D0BD08E22197CDC2A6F06BCC080E2FE6CA13E74FF736FE7BD147A6F3EC9F4785AB4A99C23C49E71B082B6C18F8FA459021CA14F82109CC1691E827A9FCB27831722F85B7CCF3430FF86600EB300ABBB317EF99867A74B11AD648615E3EBC97478F962AF1C727C3458912EB491E054759FC7C1141D448CCFE8959A3D21BB3D9EF20DEE539EC1F3842BC10F5844D3D0FB0F19F3A3DFCD697915D114513AA32F1FB432333FB855FD0A0BE0C774281CC6A5AC724D4ED3CD29FF765AA433F43E7C5E1B742C39DED047A09902B351F3024453DCF02FC9D56F4CED594801E65381B0F064D1A7BEF45025B12854F76385E9AA5F6257248F5F7D4096137BDC426D7CBA8ED5929E7D11680E78DDB178AD2C2D6B9A1CCAAEE0A847D25D046083A88A8D208B5CB019ADC9B27FFE32E8F17B7F1BF4F28D3D432CB6F712D70E0BFDBA11CA7DE7E5D4DB614D4804F7874623BDD0C9187B0FF4FC12A2F2CFAA3F7FBCC525475E0FD4763A8BE9E5216FE44E276E2D4E2BB05EC89B5DF78EBA6E4BB92CA7CAEF712FB973302F5E35835F5622A0E23C97ACA6DC9B45EBCC8E8205CCC92AE955C60032249A3EC9EC9055640D57B789A902DE2FDAB1C8B3F079D553DB92FDA58481D1FE8EC270DB74329BA8B52165A003D99F0D5AFF696CF80078363688B120967219F66DD9E06DBB6BBD69636E318B6F34B5B8AB24555CE50559D49C3E4D82071D8A9FBF84B411DE368B614802356F075CE89BBF48F84BD513C4452CC931D7E3F682F7DEC2F85DA1C5D0A8DEEA77AD6672F80AE83DB532A71AABD63E80FACFAFB48EE291341A8579B01203B1C4C923728E6462FF94F0D1E9692BF2135B19D3127C425026C14417EFBB7EB5B8AD6E4B344B0B550B35FE6DFA1EC4BF8850427405493F9C1A66A774FE6586C09D2EF6409982214C4F88553DC7DFCFA39104CE6F293BF05B30D936CED35F82E3E4196BC0A3E6F7A5FAAB3DE0AF2A5D2B2BC65F96ABE052D0887F9A39692BAE04F58F0D150F625B868124FE053DD70A06EF0BF09D4CC8E1F527AE7307D8332317DB385EBE544259002BE471DC4C321D01177CE3CFB620C1A6096BB8183047C45A09952652C8E373A13DB2E61E7F8D11CA1DED2895E602ED1C804C6921BFAA7497C677EC7DE2A181F40861C4B6278F26159DE93B69F9A877D0589AC675993875358C05CCBE1696C7DB225941383291BFE0AD721ACDF9D6D2978F98280E4546F2208A3B8AB56EF66BC28CB4BCAA7DA7E5DE1C1C9F9186FD23802287AC28E63BA54F67414F848B919BA8B9FADBB76328E76EA9BD12C6339F4C255CAFCA94F9196706366F568B0E85E13142AD1E6329E8064D735E1007EF2CF5AEB384A95A93845871CFC404EAD8373E355B9233506E95660460C852ADB28963DE9B3A501A505341D396E23E33C995583248E0EF3326BFFAC12EDCC5BA043689F87F5DDFC8A599D10A66BD7544BD0E001C80D041227D0A6F69CDB80D18F16A5C1FF10A728EAE3C59E29867C5176B8ECAFC07EDF51CC237EE716241149E526AF9FA9B6799C3AEA432738D3313D82AA89EC42F60D9216DC02A213BDBB92D54BCD566DE00BBD40200946F21A86976A11A95EF6C17ECA54FC54D6D8100A0D4600C833EFF20F627D6C6270408D9616BBC9ADC682995C5F6547720980D5E90001EC8787FD1AB396AE869E32BCA8CDA1DD355A43A22EC8A6A9C94C277118DAF3BEF530646D4821DBA12FED5DC8AC4F9FA64EC664866CA2A0571D4B873AF09EA3D65B30A41AD57EDE66B4AEDCD1ADD46426FE9536183B05F3AF970889051E0ED12FA6B695F9C36AC7A506FCFD76EDB7BBF8ED2F49CC92407CBC610397158301692DA0B69CDE75A5BDC0DBA922B15AAF2BEF7C69DC77B61D046BBEA2DB77101C5262F5753790B611A84E8C0CF35C950D24C2A2FB9426D5A58B1B967B53BF23ED31C96B4BDC339F61BCA61B80D6D1991CD361FD727AD7B3CC49C0AF2AEB048C00408612F2BB48DF047BE5D7D65DB5381BAED641AEB418435D27853CB12A750EA8681023244209A2F2368CE37B294CF3BE866D6EA112BF5EE9CEC44336262E09488136F283C6AA2F33215B88BC4893D8111EEF57A14262BC594037BDBE67765ABFB7573457705C045CD32E2DB4316CC973E60B1E9105EB482DF01E5A5D8D5BDA7E145FA0DF74FF00FEA90A6F7D3BDE8978777A576C6F6B1C2A23BC7C8D39C955DD8888F34A56C82E0C6FC93478D6D28E09FC1442688306BEF36A1D92E0A03F475DBDBE7A8D83E4D3A4FC547A2794C5EDD2290B80A2F6241251ECA2CBDF85B42BE96421B59D1DD0EA26DEFDEFE3CC71DA826EC1C3E367F941451C3AFCC095C21FD33D89247A27CC60E86D9D4B15F3E135A75657C76ADAF6C6F1C454B9B741542CD096331E4EE813AF21AE839DD82F83107D3A367B147DF1B76829FC65587092486474842B6AD9F8E1659926D1C567E62CA4FFB9861F9C38B7ED936FB3472ADDD2979BFC2698E34EC1347EDC6624C3834481FD468D6D28DABF3A26FFDBBCA7ED2B904D6E77ABBBF32B75E969EFD4C0104B635C37D9B88F5F244BC4F09604D776E291F49686122B6EE3685CF0CE31B217F8B5C8EB048BDC3BE80FE80C5E39450DA4E0DD731B1C0AFE6F013384CC8AF750A8DED412775E2D5A629221B2A99E373EEE478B0E5F16FF55DE186F6854C839AB46B9E43F6942ECAA275099FAE0806A3A7BB7C05EDDA2EFA719E4F3FB15C6FFAB51354AFC5FABB995E2DA7B523A725324FB29ACB6327900E8FBCB77D09CEB852EF6EDF9F405EF2DEDB422C9C32CEF45ED5F99E70E978B4906F51EF36C1BC5DE54EA588DA0E38F3278E618D846823DEDF6937D0EBC5607DD4E56820B198423DC8D689B3358268AC9DE3132556215E3987EF404B68BC3F79A4653E7C1DF83DB9A291327F0FD9CA69B7C06C9F4430FC44B6D75D568E775A0FDACB9B728114E097112A99C6F152A0503E7662B27E836C0AC17EE4CECB6F6C5CD87674174940796499B4E301959647A87EB8419FE975D5125B33C26C9EB42EC707B6F365BA630D3D5E4BB41F6D98FA4BC382B8929DF316D95244933BDEEF2F7F43A0473DCCF129431E411430D0F5B1D2AE6068E45A18A017D507B8E384BA91ECC0A7CAFAAF9A2025255E922A3D876BE362E968F7AA9BC7D5ED33C2EC74BB5FA954648DC0A146A279049F90FD161309DFCA65805FE4981E6C96B488085C24232B2E2184E038084363DE73B4EF2D7DC39838344328193460AB312F91C2CB94EE1F8806D1EE9BD1672D80A8A987A8C5A7DC617F792F9210A3D2AC82AC63F0ED58EFAFA578E238BAD1ECF84F946EDB988BE0B8D31E570DC420364BE62777880746E8962F15EBB808A71A4154337E1E168DEDF54CE75339DB3CB3746937EE1EFF8035F00B190B5D98D8D5601B758F633302A2082BABC0CF9BA85FE7C511EBDB37E34D6BBAB3CEBB5F3FFA2B227A9BB97497ADC7570B978CF9BBB940DD123316DE224601B1048B27D4784FCC3DB5F66DC4D16FD7B55D436B2CFF92584226EBDF66684D23D81B651944DAF546965752918A9361424143019D742C9A985D117EF4F3750CD8739F5D0D06709E57C801DE881C847F288DFB6CFEA4B638B4FFF569DB9506D0A2575B92854F1A7F38972B8AA2DD4BC759D5CE5C341E270F61AA6BC2082B6672D28ECB225201EDC914A8733F18C3C1401B24FA8489E74ADB70AF312D0E591813B392526AA7D804BCDBC223B3B88F156D295DEAF48C340B99BAFF6D62ED7D9A2CDE3CC438C3A52CAFC498ED20D519B444457DC1E93AD94138FB445C42C7967E83787CA77029600FE30D82706D8E4C68F46FDFE6BDCC85ED7513C377C0F16ADB93E0E4B4C26C6361D3C2D8AC7E32726A1154239B6EB369C620343EC56C4B3840DA717EBC69028506D25DDE86AA2D83CFE943FB2B6F59F24DBF7EF8B42E82BFFB08A5C6A836210BAA9AE81EB4996E4346F27781CD5CD195C6B7B8EB6AFA282C37D6276DE6B2044C3E1B672033E8BF348398A874494068FEEE56B545362F123891A4B3B45DFF8A0C1032A74626C55000FD912B60AECD2E619DBC52406E14BB59932687572AD01CCDD4976618FD1FFCE207617793A41F87EC2687D625171C07B4907DD19579E0666DEA09BE3B359691C94D020B6C923E0656C6F3587681B54B22D36E159B0F8D695EDC0B4B16E3D942AA93A6EDAA64DF03C7382FD8BB2B8DB52C0633FEC81C11D1542369EC88ABAFEFE9B204E8ACB7A23D6EB5D5B2E9152674981BCB1FD7771C8C9216A4B9E389E8A973D694C87DCAC66A4493C9912056C63B11BE5871F64C86CC16B92E59D9B51C4898829BE3DBE462E94F2C23B964199F18ABA76897032FC3B29F05A57F4F30917FA5B90C480E3DD13371CE0F5C235ADA9A24376E01D2BF08E74A9E016D7181D1E9CE4E6C4FD8B1A4820F7EB0C5FF21B3D94A5F7DFB8D55E806017FC3DBEC7B008CFAEE81ACC840E68D6CF1FB36E2E37B611BF3E0B65F395BB1AEBFBF2705B2CD19DB96D08BF29EC66C80E8E90EBBAF4F2E78443A2531B7092563CECD2A10CE38C687115EA5D956A774E2E360C602076E9B5BF83FF2611731C0796AE92E0F609C4A69C20E149137A85EB10D16779834029DE87640D002460828E676AADFBEABBC06FA52241531A8C0C884B524E0A2D7409E4DF9B6F21EBFECD6D49DD0BB0E9405778A16D8835D732172C587264497BB0F2A60CEE9716F941B9517324FF3B8C1AA49D616A37A70D8B362C5DE8C985CF82B57EF31C140772F2A8E4511A68035945BA850D639047F610A171F20CF033C7A9DEAB5E45205FD04E4A2442AD6C06D4A90DF15A7B9933E00704F3292C91D008B5640FB5A6E3B592DD2B255DD8DFC28ED2348DECF771133386599F486AD33448CAC95F29FB5C22B8CF0344311482B9FFAC73257BD8CFC642B29AC330546FA83AD243E912101005B3298357AD0415EC35999FB50BB1E0FD8C69830E69DCAE3F265B6D83B74B79F6445E1F4C9BBBC5B56BA223DB53946AED7ABBB7B2237870AEA6BC444F0A5FE8B4CB491F83CE096AD65A292C87510E71BC2C9DCA3299B2804FC8FB230C07AD579D0456C14745B44D8CFE3865D8D58022E4D3F923D49C040119B15EFF10228EFF6C6E5C3D24D8B9BF30DDDD42FCC1F39EA96F667ECBEEEBE2DE07E437FA0499ADF1102C3D7BAEBE4BE61031546838B6138B77976BB57D6BE2BF6BE95719CA30E13C655C27122C06FF3783036BE7D9D2C615FC342132B0FEC48A7160993590BBD4CBB0918E71ACAD00C71ADE5EFC74CE818CEEC8CEEC592B2AB6CAB8CDCF66B715982D462A08680ED7B7924B43EF8C8C5F71A1D7DBFD6EFC0DFB9DFF4F9CE03FC5B6346892CD01AEEA8A8C4B78B61629EEE4C6E5AEDC5016D1893F7B722FF563CA2F01065570A34058E9E0B363F662711A21CC54FF04E058BDB8240FADE5E88B2E720FE159598CD3C914CD8B36E80E81254A83FC868B11EF08353DD325E6AFE802276EC76905378DCE658E1E81C81568200978B3DB716236C7DED92FDD04F5656C906ADFCC1317326FEE2FE0D37A6D5FDDA59B34ED886489DF9E2460DAA16A82C45446CD1F71690AC9044DC1B21E96F289EBF7322883847CC2F7ACCB345D5730B44C8B7809174020E59312BA5B0ACF46B55DEB8054CE4151D0D79B90161711E414DD3CCDF01FE7C48C281BF453BF7CD5C3169626E940602CC961F43C6D0AF0B544E2CD1B6FF059F5951FDB541E30090AFCFBCCEC24834050F46D4568FC52C5ABCF320D782CFC3A73620E07B7DD5D69268A35D34FEE3E5E3B7CA396EFF944659C084C058B0B7C66CB77E2DCCA69A1EB1B56DEBA715F6C016A26DF02B0C08E791C604237CCA669D1A8A0B503D66416688775F44DD13DE6779D487943D15FD3F0DF336EBE9D006968DEE8071BBB855467853B66DE7C9A2F4274D53C229C6D6A4A732CE513F7ECBB0BCA749A1084A1D422FDA60CD6AD8724DDC93763259FD309345C91299B6DD7F88732D0BDC8370F945DF156D09C68EAF7948861EE04C61AE23B4B0AEF8DD8CD481BF449909E0988D0C25200E1ADEDA77D62BB10749022C6AF403BE45D576485F60F2DC403F9E36645712232849BE7FA1AD3F2823BFDCC86FEAE7E0983B1E530F744E3ABA367FDE156FADA247AF5215A06D61AC5340E710202F8E8E3DCE184CDAE7CB4A18AEF8E19F8C5C656E785E5FFF76F789986A8B77AB9867B28343312C2495979F647FBA1AF3B378F00ED2EDA3B92225FBBFE6BDE042CA2D5579637765DF68A23CEC3D0EE11D3D6024149667796ED080FF6F4F9203BD15660595BD70D3F92C5C4F28FEFEC2DA9655541C8F02C5BFA9D8AB8517B97D36F72CE986B64A74524A5E3545DF80F4900AFAEAAEA81FABFC29D2DE9B185699C7C843DBEF2991A268EF9ED8CD0620F0E6B151DD8EFB460FA3C9E65B226372EB0FCFFBAA8046482EA76BC9B081B8CFCB9AFB4F6091771BDF8BC57096DA37326567C490BCBB80AFBFD055430DA41CFB5AA42B97200EC895A745B22425C13E6617D75E6F79A782A0F642C7167FAF89E3B8DA70F7B0CCDA9E7D13F0EFD5C1D1F8824517C07FE3CF0E815BF998BFBCF1CC2010878D9B29B1E0A54ED5E61D40F9CC25B3F530968166E195C0E8DD27DFB2BFB03BDB68A4990AE4C8F228A3DC746C5E863E010998189D2AA6412082FAFEE55A134D3248B3C7987DC7E2B8E5976C07E465E92131356ED4F967060053CE1592249B36BFAC9036E8CAB0113BF220A1FA52D393577D922CFF56D444DB3180403CC77AB27C1FBC63A1C04481CF265D55742DD4A4EC4C4331E44CD434E61F24B572305E06942368A05B71A25A72F5E428A4B4971EF61A97A4D498DF2B3EBD29A394212BDA6A48F71F9184F5289776F9F87A02183646C1051AA3793154C50B59D7840B0F9AC0965DC389C42E250BFD4E6CCD3BF1E442E6B37D844D3888CFBE5FCF524082A2A7A78DE955D33DEB64DA85D24FE94112238907C7EFE276CE2ADADC2F0E735E7C2515A01CF70400B0CB3CF7B945BBF30E21FE77638A26423408E1A0D36A4E960BF032C970922840C49B23FE0874F61CC340F965B5F2E5E405BE6DA01C35EFFFDABCE25CB6EF2A1F99A975C81A7249BDC48395CEB14C5832C94EDAE17AD0ABFA0ABF48C37A5F338936BA02FE0FFD0B2EEAE0D9DE414E24FCD5031F885EF85C4E6DEC77AA2EE2B0212CBDFFB207B833C801A35A54C58A609D2B34CFE82C1B8DE506F920B0B62E117BC009C8C34D8F925A118C31205C8EFB6268BC1A025C07DE64CDB2B03D6D9FDCD0A24391731404B56AB5BD7E4228A69B8069A0FA04C57F43C065655A579725275F42119D6A96A32F559E706EC169846B1EE2CDC10A0C8DEB8824877118C826EA28686074E28563A2AC07CC320BC482DBA1DC69AB710638AAF06640B8B16EF599BC7E1A521995FE18C566E527C723FFED9153B1901EFA3A420E163F3B68559FF4D0BF063A771C04B8C8C8F1436D36DE9709AF76ECBB0859BF36CFE191EE2AE6361C8D8F0D19227C0416AD8A890B7F45E4F1E3FE83D7E3CF68CA4AEF0B4B38CCAFEF814F75216EECB1C72330A9ED8DAFFF5D1F6B1685E92887D48569EA44AE83BFA48F8304FB77B23FC8ABB89E0A109CE7AC459E8E7DA3A5A5A41703BE8C2F99109D020403CF29070DE49508364CAAD69B8F286748B5B581787B9F23FA074C34C9878262D8D60688A214C66F59C479697CB03729DFF9C6525C810C6E7B8C435F8B8C98F7C7126DE9D1EE315839859F664A519C6E47487732C55581DC6A8E73F8AD0D1F45E01888C487D858FA073FE48FDAAA49CAB070CD6A0441695299D37A27BDD84D5CAB7984FD8E27A2239A446AD2478872C847BB59BD30F9E2ABB18D7710B72A0F9C88808C87EDCBFE076A9326AE5AE3B2D378556F0ED3482974B17D1B22B711C1F283E731049E109DA6ABEDAECCAFD35687493B7CE90CA462E5D784487201290D96EA5D6208282BEDA8E7E7D7B09FB7A2607053B8B42AA5CF7ACE5F1E24ECCD36249C49AD14E829235145ABBF943272538C93FC407B88A10ED0B1BB3ED5DA00687CA39CFCACDA928F7C4F867FBFD76F308CFD3BC212D63EEC30983332E6D1D7630677122CA5BC664064654D4D04E08657CBCAC2DB520AB2E3B662AB23AF36DB7BF1175BF956F92F1339605E02FD4DB8C75C610F39ECD8ECF365B61AF1735B194560C3482839A307048B198EAFEDF391BC9B30ACFC6C46EB2CBC12F1F27422B803F5FC9630ADC3A36543DACA404D67AF504A7938B217C75F1E1390F359BC37A7941A5D55B19CDB463F5D36620A447B5ABF9655ACE57DAF7B9ED56441649D8F69EE7468BA18062D46DCF048E46E0E8FA23A3B53B1A07EE2F4AB8955EA330D171B5865EC9B034695CBFFCD58BC1112E75777116DAA1D2DFED1C739A2D39409E740ED042B23D6378D72F97361711599323D6E1EAA9FAF5667ACA039172A7FBCF085E82821D4A70AA4A1CA55D099E9BF4551FD287B3EE8F914C0F81F903D6E101BA615E34379A32B3FBBFEF036C5735B4244AC481312B45AC28E068C2A68493FC588B63E0CB4272ADC38A4B5DD1AB57A614ED7181439E26B088B2E62BE196C9CFEC4B896054C2F4DAEFBF0D00BBEA9F7189DB52B899C5A4A4E6A5060B549964FB11415FBAE88E626C2F03BD3CE7AAD11D27C6E4429EC6EEA7F4888B13FF056FCE730DC9040A873BCBAE9DBEA80FAF98FBD61FE390769787B74710FCB3283D7CFC9B080DBF4F7ECC779DEE80D4ACD39C0DDD028463C062AE9820CD1B076A8C8980A1DAF1ECECE0EFCA27082F2D4CBF2C9A79B07561B054254FBDCCC6FD2C46ABC2779C9D1FF4649D3853CF7004AF48A56F196C585EC0CBB1F8F1EBB98EB708A300A48B4B51808C6F7BA91BF1F2817E0AB0D36312FC6E2F2C88A3F3A7BFCACB8735E0708581270E6D9F425E313F00692665443B1CF3529D864F35E38F5B782959FC181A7E37CB85E2D84DF01E481D9AEC7929F720B1B18C97B18785D83132D8DF338BBF12E83F9E3060238A02A7CFB100D94967016F313A8B6B9C470591AE9CA04EDDC5D9D94BDF85623CB17058FE1AF31ED8742A53DB245F7CB68BF24DAA2F0D845A87736C4003ED59336282340D07387496EFBDF480E0844EE452F9CFB110C284FB8B67CE113022008F4025AF0FF2A78384821DCFBCF108D703587C056453835BF7A24D3DD4252787CD2F6A5D7DD9AC0C1268F223159568AD204AD65DF3912E62D754E18487021010D30572488A9EC8792742DEE6F801E3667C2E6FA731D17597FFE3D8EF00CC3A3335AC0C3D95FB06F088DDF18B46F378F652A5C192898783FFA258DA47A3CB1C732C180B292C72F1E1A9E827BCE83789C2DE49581119E563AE47BDEBF2DE6CDD679DFBEC4F84C27EF78C4BD78FBE44C53031F2BB358A7C5D99447C26B299170A50C8C82CC42EF1405DF7875FB2BD102A4CB43B2A03AF37F95AFA28CA1A8348AD756549CFBD18FF225A6A7670FD1FAD7AAD51877343AF80CDEDED8A79700A3F2503AD015645E15D5E3F5BA92954DB56F78AB536A8C9940C4D4842C0239FEAEE907485C15E82CECD20A3CD33A75B702D4C5AC3F31E649A60BE86C912D33543FFCDE84AA4C63287F4960EBA421C24D6202BAF8DB20EB0FBEDE51C3B0F5AAFC77167DB5D63A7AA0356073F47AFD8031F3BCA88477C8FAF381CB56B097661618BCEFB5845F44FC7C3AB8BBBE2D52CE0A656E793B6E537B14E1B4F72205325DFCB919AC8929F801C76D7257A56472C22DF585CF2A9FD8BA0103B12DA1FEF885E09C7CC5460B469C636246F9BB0FDA1781CE26535E3C2DFE65CF8AEFBB10EA3AD6C083FF521A3250B1580C730497CAA32CABFED11BB22AF2713FDFB3721CA2F06DA74BA1753708DFEE8951627054231BD27862CF6F0812382896C6AFD200371FDBECF2560ED2C896ADEA22A03971505603AB625A9D5F1FA796FA81C08A0A21161B667049B05BFE63F4122329ADCB0E2B43AD3C33B522B0C6223E60FA86B721AE7F3A1938A851D59EBAFBB9063B9DB3EF98D5F8BD625E7038C8E6671FF9C7199DC7A44ECDBEC9DA79F3D19BBE5059684F5B8B152A09D32203862BC851D252EDD16FC6AD21D315591274CE3D31BB7C18190ADC8207DC1EB8FB96F8F67879A86CCE5406BE9CE65BE396BF367956559802A5C9808AB43ED51346FEE1F5DAEAFDF152491AE33123B8873D308031908D49C8AB364DF3B9411EEEB9062FA5495437BFCE56C129C1958053BDF1F2BC04625D8DCCE86CB08CBF06DA7768B60309EDBD9195E4FD090108EABFA3476BB2B106C2ADE3B77BFBCA4EB33406209BA2ECD833350E091AE2869D8437708CA900E47B9BAA18FD564827A91E234C89F30A158390A421219CAC097806E87B42BF31C0D00E604CD423ED5C4AACBC2DF41647E7EE4CA5FB22D0F6966AE683F03CB95AC33387069A31DC6EB42F66C8432EF5A780C26C6ED1EBDA2BED2C24C5624A0AC4DE9996056FE12F4194E43859647D4CDDF98DC0CB77A19AF426CE5F5316C1BCDB0B88638646EF14B0433861EBEB2B8332D2CCC5D8C73BF40DD17C553F8979DCF212A241C62A3721BFA623B92FEF4F722F50123F3CB5DA3D04B4E33CBD5B1A92CD4E2BB676AD32F898B41BC72A3EB85239FA78735636AA490787AC9821A728567FC520CC256D54EFE22B0DDFAD3440CEF04378C85A73B2352521C8D52F4F493CCA3AC3C21BCAED78660497182BC0E5ACE6CA699A8E8895E846179A8B868043AD9F43DFBACFF996E89BA7595E27885606E457600C4F63649E35EF23865AA122230FAD8CDE6BB913B29FC5B9F24C100F62167E220B743EAA520E63753E4855CFA3E393ACF7D26E341C9E483B4C75161161FA0C169C082A2DB3CBDFD69D1C38103645317198A05334B63F4C7D13535CD942385A2383BB82DEF577A278074222ACA8353BDA58C6747531C6F8046FAE195315FDF17C0776EFA3A5721394B34C8575B41384B81975963CE280A323804FDCDB10C6334EFB6FA6CB3C17C012F406B551BD9677E98BC7A3C04A309FCAE4AA4DDC568E515F6077151DEE430317E80E04D606E3E6764428DDF23D8CDEFBE50D3807CF8B404A3739775A601078821A536345FEECD232935D91F7C4F9AA462C4C14C082F521982FD942D21E39C6E350021D25EF7EE28D43DF1D992FF9E531C2B7AAD274944B0C58D86882E11A28F5167EE8ED64FEEF4869EFD64418649B9EAFAE8E7F08E11C6FD811446E595DF2E8D61ECC50A2FFE9AD31EA4166A3FBECD96FC8BB65BF1398956E29D73B081443EA60909628D6C859361EB0127F0B1021286D1BAE10B22B77DCA5BE566430239A6B78F458F671CE533B63C0E36CB8386368E4F1730F1A172F25C8531B89C7AEE5E89D4694753BE7AC6AFD05BE3E1C6DA9E40E1D3824EF247F7ABB9F92B9396DC98D9EF730B4FC01BB03BEA4BA59EC9BCE5565DF0D5C98B82AE164019FCBE461DE50CAD9FDDF5C928E3FD470350846870559061678CE3D1A6F298F78A63265EAB5D8221459CB87E4DE04F4C069461484DC17906B89101D710D843127B91716EA2D1E48AF983DBB8E662C5DE8E23B1BAC22B1949EDF635B50E2D3DDC195DC46DAA008B3E1F7A125718A404E0C72EE3787D4D09F74C3292E5C62932539D48071513EED5A669E06650627623A9587A62704A2099E6DCBC863FD6A1D62F0425ED775BE2E532F320D8744AEDFA8A978C590415527C6CAC16EA4715330DC3780A6FBAA2D9E03FF4AC7380EA89355FE9E30BB30925F63425264A9DE328B40A1668D2394D302A7E83BC8253859BEE8255E21CED41A74B5D00F8DACD73B01592992F5E1DB1C60BD11817EA14ECAA4E50E488872D76618A7E3AE8C0F9D3F6445B3A7DB348863177D4DCEBE7CBE983CDAA08C1680B889D73B34D290D2D943A2A6EB7F6390AF2E7AC31E7A3354C71E7EEC0545BFB457B1610030E92C04A8A1E2B09F8C5781C9C53A5C2B10C9115B39C57EC87AA4AE1E2C60D5C3C8518FEF1E751178E71BC3B208F5148EC177511FD837D4BCEABA8C24A28674CEFB043F65A7C96C0FE43008B4029AC5DB40EEB6E073417F113292A0E18EB22F044D08F7A886226FC170E7E07A9B37ABE6A5AA3A18717B4DB8615446C4139453B5B7D0243BCBED8714966E65E68CFB4AEB2D40356D959C4D2244E6098AF0ED2D8498A02C4F587ECAD723D3927C198BB4C1669164AE77C0091635B7B232C7DCA150CBFEBE18BB3E0FE07699E67FAF4E62197B6980C1E2F4EB5340754BEF77ED5C387662B324A2FA77BAD9F4570D66B93982D98CBC436840D52AFD79D7A202E146AA5156CBA3AC4694644AAC7E114A43A61EA99594E6AA30583DA9EC5CBED1405932900F92B6BE1FD1CE577D812FB6645D366808F7C48353C257383776BC76E30CD238C8AD16BEA70AA5863609B8D37CFD1A56B7604E9F6792631F2D972B9B22EA99D633DB31CD25365D50AAD8456AC7764321048B6197B7A588FDFBB0D9C6B5C2B22C706370CF105DA29655DF17797368F4C3F858F3B7C572ED0B8D4FF980592A2C57EA26BBDECAAABE5E3591F1198C3A41416C803E7184864B3C12BED30F5D032B61357063AFC98647BD2BA1C2F0F408F6A9E78B6207AA090769724EFDE614F31721BAADC099EDEE33B232E4AB1E6F71D3B3DA04F1C8B66CF40B097A6470064484F8E9EFF29E541C3DA73D92B2BDBE58FBAFA1CB8B609AE6ED84D439D8CE143D4CB8EE463666A2FA87B75BC13BF19E9F7BC9B4D47EC038285CA85D43EDFFA6FF99F318F994027B9450E2F1E393D9B0B49362B14B8AF142316651187A626F763598329C2C99DFA68AF6D33FBCBFBDCC5B5005C3C8B6BBDDAD63AF781776B88EC7574823FDAEC07EEEB8934804797C678BFAAD381B4FA95BB2F55DDE07A1BAFBDFE23503CBFF61933895BF8D87ED8132278855928051668781B93AE67E081686EDC6377BAD4F23B0A80F4924C2217C4F26FB2B43E8B24B8DB8B0A82BB1B22109BFC3276FB76A4326E79CE77E261DBB04833364CAFFD7661FC029CFB3990D26764BF03B7C09BA7F8C37599B1ED0A40E68346290761807435AFE83B9D9C3A074748DE4800F57B1A5319AE7AC13FC6AE1BA25A135B8EB4E3D110E803FCEFE1AAB0A8C05A094659E2E1599AC057F0145500F8C24AFF1CBED006794D918D94520958AE0224F19929F9D4B8C8C88DD870DF2AE7225A9218E75600565C9768FD59B871F4B19BDC52C42B00159B81ED48F2626F818E0E300A0DCA362F8CA2D0D74614DD0428B1C0AC925BCA28FCE76A2D75BA6B9A4782B54DB357119837011D749947874F55A3CE1734AD095530FAF4C450ADC9B4476A5EDAE0922FC1B88A3DEE9088E10CB37781ED34F73718B5C15C13E91146366AC092B91C038D0D3FD835AA29DF9AB145BEE49B069E88297B28D06947CF9A880E13A6E276C47EA766CFB739D365FD632702BF5771633091E11CF2FAC7100C7052B7EDD1860D6555F61676DBDCCD11AE9C6A8B6D03E610DD71C8C09EA70C215D3A54DEBE894267B75C2DCFBCF371E76B2F32DB82CB2CEBE9EF183CD5DDB216E6D44062690ACE0D01310B2D68DDFE76ABAD9F13840538F998C4CF8A6DB50726D774C4F9549A0D5497DA39596CD0ED97B0A3F818A0FB4CE1F277D171CDF84DE899590741B70B5723A1729E6CF4A4EDB0CA9C7C73E9C57155468E8B6D0434983CBA463764849ABEDF97C1BC811DA7D7B60F9E907BB2590A5F2DBF649C923332D17B1ED9319351C6FCD2260E8C72F3372C08A210D496B60432EEEF0E771179C85A17B41CC020D186CCB6199EEAA9978A31EC1396F6BF4B07F03E3E94C36EC3F10E8E9DCC9AAC2D2ED6AB62E59279486662E858B94465BFC88FB7DB2ABF0EEFB10899C7C74E63E2F0037698470CBB67A3C5038B304309CCB92E4508AFF1FEBE89B9EBBE77EAE14864BDA60DE84018AF8E8C06D7DA74B12F5DB1BD92EDA55C21721B8350EC3A3EC3878966E06141A69039E56962260E3790017BDF90040B1FE0F3EE507B7BF997BCBED3CD0E1B1ABB65E3F4B811ED23252C38B073E5E5F4D219F7EE234792361CB602B12B8BBD9EF549C611658C4ACA69A53C832D37C688271DA30198330B68EC4B867C42F90CD82CACA6313FF6830F83F9C5367EA5ABD370592826399746FF8E170346A36253C869D975BDBD9CFE1E45C96B0958B8504885837DB44FA814C4FFADA11D30E8030CB78056B677FC9B3ADFC099798D7C75EA6F6481B349159B5DB799466D9B5A1BBDF0C751BB065C59D22919005DEB17CC712F77C8413D9CE8061381D6FA7873A993285E8D2D0A16B174A3E784DBD7B54B28103D08479B1E652AC42DB845A5BE2E8EA070F7C677E316AC05F0C9F481B5FC7956D934EAF3BED0DBB3A5ADAA652B7BEA270501EAE3EC5826686165408A266833C6A092EC1E0A5FA3E74D8289626DEDD0CFAB28524E90C84F0437E05ED90B01C294399A8BF4AF1AD226C09FB4F7924C63FB69D94CCD2CDC1B3F08A864EC2C3297E64700FD48FB8E677835F3CFB86A0F20AED5CF520902399BAE1DF1D8009A878BD8FF94215B49756646E96D5D88EF51DC40AE6E3EDFC5AFECB466C21C66BF380623692F0E7A8E53A0D751772ED6AB4AA356C2932895F8B8799D8D163E16D0939620265127B082C9A464AEDC7B5DA219D07EC78FA2BA25F38B9D3936661F866CC36941134DA300F86186D4CEAD5D1B669FD1FC49C2FBBFD5DBC3AE21255FD25AE6AB7999585890707983BBB03041937119965ABF6F359D7207B93EDF48870FDDE124C63474B34A6C648EA61BA5FAC388B208579B04285D6F97ED49AE908C2FC679D206AEF557D76D12A3A2B40D67D55381AD77FBDCB76BAB492046AB1F0DDE976502A84E69E50CE33EBD4BDC0382AC165F63C153370A4C074154A473DA68950FACA50419A4995C6B147A2D022156A066CAF5418225B2A5ECB31E0FD81D654F976C30C9A4FA902025512417A6D9016B7D5D73B5CC72C9655875A7458A1FE95678B5620480E0EC434F67E53F653CAD77A6BA01462DBB50D38C66893AA26E00BF0100C7FC6072D8EDD39B7633E70572A29C6DD41B6A64652C881FA95DD975AF6245782065BDC4CA739706EA992EA789A834F4D3D87C92EA4AF3D87D54789D3BC6CC90618F23AE249561C53B4CA022375A9E8931A17819BA745BB609137C31DD46F7BE4B76CE9632B4AA4379A704BB6CC61367C26D5CFC486F69FDF47E85619F9C3FD9D572AE61172ED2E3A93E9B3D4D70AFF82938AD65EF1AB132A814594D1C5B87C5AC1A4243BC0D7D0AF43799A9163F1CC4EA412BDB1CFEF3AB456B39B6AEFC84014988060E740295BA993AF2A04E57C0B4A997F116059F0DDE66845BE346E69E82C6F9A7FE0A08707EA741536A06CE68610FB56E6B41366778CF54121E4300BC4877F634E6304A76A0B521A0243889C819BCD2074EAB02341D82A39C25591225775E911D926E7CA592B1A2C64D85756053E9357E4466CADD1420073B2C2BE833CB5FE1BD9A78CA5538FF37B5BDAF49606A5DBC6947FA07D6D8259BEDE8F8926BE84E48C385F200AA922F4D889079FF90829C70D2A5E46DC171245F6C39274C4EB5680FB1FC85670D5AEACE7D4E8E781BE7813440183BEE7B49623963D16FA4C4AE34DF6C4CCBA6D51A23A2DC114AB624EEC1E5C4E371420AFE611DC3E92A34713CEC1C473584C9AF7A333C15F63FE6F96BDFE314EA6A0BCF0DA72D0CA22D3A75028C96B0BA27D17DC5F73D78A03374A2A441EF1F7D4AD34AC1B541B340CB2E919A948E281C22F05AC70C06C445EA0D66202DD6C1CF4465C94EDEAF49990E3B50239845953D04EDC194BBBEC33F21306DF3141F39525C38682A1046C8B1EB491F9A23946F6C9689921A88C2D98F67BB60EC3347E53BE42F13DEC426CF593A62A25AB918A37A88C477157D841EA78EAE762A92B96BC51DF048AC2F9B9066FD6840940D102506E96BB6DDC3DB9EB94FA39AC1F59C6CBC6683D3A91F202AF463A811DF6D2F4F314BDD2E0A87F6E1DC7EE9D7294A11C76752E5283ED45A69601B4C41E4E39E2111DAC93F4BC89D414ED6354CEED9BC44A5CC977191D9FBFC6BDAB7FEBDBD4D0B5888E22434A9D473D48B96F64BC24CD45BACF6B7635D9A7CDC8227BD46DEFAC7A2401343A5C017214C768D4B882662B340ACC147882EB279BE5F46F147F0A49F93F305D7D680B937EE64F0E044BFB8006523D7D7CEF9F8412671975B409A74A732F2CA969742B8FDDCE30B430D9741F1749E2BA95805372BAE8C18E4E5BE6A4308EE7BC5542FB99C7BD2D70849ABFE309867A891FD4BC5D3230E5216E63E8BACE6F2218B31009909C92D9B2FE5D57D32B88381648C0F30F8328F05A7729D617387D7267817949B8AEBE6397013424563CF235F847BA45BE0354E49BA06BAF51F90DC3350657B823E63F740BBBF579C63F6ED4ACE0A7AC6CA540A9103C847EAEB31F81975B2C6292FC474736FA6ABB1E2F627C5535CACC7F8A488263AD276D3821449B7026328172480B5231D0631E714797ADE2C277DC30D8AF1100BFFE870BD57856A8557969F6820FFE4586EBD5F80E3BD4F9DE31A3D69323091C145446C063F6F26103A238CF5EE61F6E51D6CAE5102E043D9F92C1B731A614A9FB169C53F6AE0B40A58BAB01DE995711E6815D9428C4317D50F1EC1459B048F36AE28494A899B8E27D5C27D6FAEC904553124D6B9CB7D53DCDDC136B594147DF2E93017875CA73D8778BA111D4404C93A796526050B65243EB4F44B1D3DFD6D262E8C9C86CC826E038A53569C817638567235598E65369BCAC686536AE5B4B2024DFF869F8E1B549CBBE2EFC78C3842F45349C9566493A91250D12C2D6282C0CD6E1BA56267B50A5B43680084E3409EBD167BE5B84755044A0C831D553856F2608149D2DE3728361D2A23F4672D80CBA72F079F8912558F1CAC474BE1191E2886B8BA41F6B06B8E4F378A288A827CB56A0196DE14A2E3F2ADC5DF49098B6D1BADF17706D44899227DD4D55C976039EC44EC70FD27E59892204194B8FEB0C554965D4A7338D5CA24B6D8AAA69FE8D725A8E3897B404CB5A3DE3603875280ECDF5D8E8BA11772C9CAA9811B4007ED31F0F3A797F5FE5582A130F680A5925C206DBE4E14E773BED842E756BEF4B42635E2A1B420A4467781651A3101B617F5FE6D0C0BC56770293FAA19C129184CEA5531A83BC1623B03A9A3528812F0E0BEC66B8B69CC96B74560BF868E606D4789428943F1EF21E2E7E7AEFB02D567754DFF40C86846AA6E2BB52A2994EA58208DD51623BEBAAB81D50110994B742EAA50C5CD7B1BAB9959477EA11F3F6E53821362531D5E5F7923DB6BAADA69C4BE462C53E3CDAA15E29103ACFDFE645C281A0DBB06A2B0ADC2B0B017994160FAACD561920608D729BA728CF3CFE274EBABA414B62B78FC789FF8BB324BAD59A3EF12B0259A5FC32486F14590891A7B86DECF54AC62309DB070C697AB6486F9EC9860764C387E93A9E23AEA2154FAFC69786792B5F01B48C9A66B07F9B11FB08D464B549376ECA602B9655024C0049B7793C2952C016C33940602477ED76020AA8B098813DB805554664F9C1D6E3C19566750B56FB1F8A2F09711568C3ABEE7E0292C9D34F2E1DB503F448AEA32135459807063176CB4998DCCD9FA00DD234BB691D7B67AFDB8F636AB54F401B658F4162379ACD4BA4176301909EA16C5AE2C4260747EC4940E982E4034A08E0E41A19620B48AC43179FA0854DD0B072E76C797B5BEA569563051BEE9126BD72DF438D1FC2599EC555BE900BC3522B996686993D08ACC4E4250D058EC1CDDCA7BFBE5C48031517B39201174122AC5D99F605E26C47524DB4BD303EDA39F06F3D2CC30162C30243457448D3A9AAD4BBCD443D50C9AD6B69A368E7D08BA010BF0665160F291E8160D08936950C89D46885743A560804484EB1594BA8E7ED9E50BAE61DCBF78384847A62BEE3DF0F69DEBAED27EA16643F148F8EBA86539B83000DCA74E95C26241F475FE9951A1238A914F50495F31FFA2C801C65602EDD172E50AF982EFA49EEBC45AED60B6881FC52F8408AFE5C37AC9E5C9935E5803439C34C3747D2680500390D4884AE4681E1F8BF7B0678F719071533BFC03CCF62EA2DC40B5DE66F69855ED36AA00AD17EB17035F3515D9AE960FD55B37171AA3A324D87C3A2B6063573DD306A8147C94BF2A04421DDAC242623ECD77F9775532526A92491D2620FE4DDCD8BCECA2C732FEAB3CF6F46CCC22AF46EE5608BFDBEEF505CFEDB2C9E89A34798DB391E20EA43E250835F2997D1786414F3CB0287EC0AA9ECE57EE0301A86488FD2DE6120C23AC0385A1BD9272F3715A16D18FB6C543E605F93CC0F1B09AFDA788CC1249BAE47D32A3CAC7300E9D6D3EB74236B5DF15AABC4589506B5DDAADBDB6B0B903F4A56EDF3CA4E1A889AC5CB820DEDBC1170553EB5D24E24A9AD8D460A39DB1BAFCAE267D0D2AF3AC0BF7A6A11563E0498BFB64B049EFE39F2F1E1D2A242EA2F40B32AF6559326ED66060B680A13B938B9ED6436EAA1B9BCD6EF1557EFFE3D9D215C6B5F4622F0B0CCDE3CCCB99F4A81717ABD2EDAF5EBA5181278729C9C7E77805ACF6059CAE65FDE37A20AF900513F41B6810492DB858D2485976EFC3A4FFD9AAFF3CE43FB9C3912A19787AB7AAE15BE89D8EA2B0B422E75730BE3E361C30D2FD5F315ABCB0840AE5021A00D59046F6C43DEEE384911D47557402A1305CEF41EC4C2778F199BF8E60921CE47663D49E0F42EB88B4570A1B0A5C0EF0C7A84FA014D38696F8DCCDFF95F0D3AB20D6F190C3FA51C63A5FFD1A2F3F597A2AB9A00F343C374B4BAE1B2AE533E8E43D2406FCBD0AC2E2B73F29CD4ACBA1A24C5A312F0C220275D3641E32563A162F9AEDE1EB15B6232DC782805DD0EDE55FA3A1696ABAE0862D8B507B54492F751F1694965A31A042C62904F86952950B395BD6A235AA4B5E24FDB3EBE98D6BFBBAEAD7B67706AFA3B6DEA230936DF3C15B2276662F613B9F148B03227DE33B5FAB60E2939FB1F6222B0882AC63FC1872D19EF8D755DCCC9E8FD897419275F4C9CF45C185D3B925E3BF51F631FF3D50F8ACD6A0500C85209DB06C6B80B13D65306007D66ACCED6E4A305A7E1C4A82D843E07ADA07ABE6F8E1E46F651AAF19F702E5D58EBA3A7C8CE29A805332630123DA5066F630D2119FBD4B07925EE06E25A957FFDB0FB72E0869C7ECB5072550B7C312C0A8AE877B9050448015195A66095E125CE4B8A4F25B86DA2247B35F08F7B9ED4EAAF7C99FC27E753BB1A90788E1A69AE5674BCCFFE9531DEB5E684E0EC94D1C9EAC73CE7ECAB1FC06EF134105CCDEBD995E77B0CF1DF23B136C27034342E937C52BA119D4CA63AA0BF0D6D5C5B0D9F07BFA6B6F1BB9D125CD4077B3C198B0CA03D111863D698499FC8566A863DF1F507D1526641219BCFB1107F5C194EAF334E17A1EF34AC11D081232B912371A29BF7BD0C2C1099F47FF0F4364172C254E0FC9764EB20B70D488D8636D385A303773936F12641C8A1EFB1CA54402A601505BB2CCAE9D772889D6C9B783130AE7B042468EB78416576179768FE13F931622A8FFE264DB3C42F8BB4416C5BA3DD431F3D7C30FE2CE30E61B42C3E2D1B8A82EABAC39EA4D1C3277125906E96680275F8E1753BD5839283DBDC73D0A0F48528B12D9721331F66B2D23DCF89F923579C8E4B152658A714D393E45C4A1953D6EB0FEAD94A2B2724CE4C63AB83FDCF4CBE892085935B6DCC1DF0AAD6233BAA99C39763EE3467DB3B5D5127389F9C957526FE4F03F79781A9D841A2126FFD03FFE37CE1A19A03753C238B80DA31C51413A7EACFD282F235D50D017BB5B0C2D571C05225C650106682A0708C64E10AA4B5AD652D537C4C1A5D4AA4365E0DA3977A5C1D48C1DEC275EC92D3E64AD21A0620DCF380215ED03D770A5B7F96E1BB2331C3B30B837B760B05E420237DFD733DE809EFACF322DFADE82FDB2092A578B9A6E9F172EE0E30A675DD9D6EB44E8119DFF0D010C25A775EDF8C875494566465AB45AA64B82253008D87C76169EF979D3E0822F32BFCA271EAC5954C30B29FBA88AA98C14939618E3FE82D74DA4EF96A8E4F87B25E5A69EF8BDCDD376FD1B776DEA17E456605534306DC88FC070CB8D37A8F5E9912AC0A6CB17F370DB57FB930FA25D432C5A42BDE93F371B70F611D964C5C22D10F5886DB81EF8484A7A9F472A84F81A3ADE0ADCBBE5BF7AC391C78CD0391205CEA718DF2809D08D28B2C1D8FC85281606565CDAEA06345FF3A0B9F1FE6755BED536A87E948080547552546DBBFAF3FEC91CE7C8AB5F4B13AA4957A437D69CE4CDB069F4F9A27A2EDDCEDAED43F062ED6DE142FBE623603780ECC30753090F7AAD73E47D4B0BDB25BE17C7D61DD113E433E729826085C50295B642EC567212F43A80DF6BF6B57510DE046423E5FF7CCF79BE78727897DF4E66B0E4AE662399792A6C9F9E60B0B575C7BDF6E70913AD69CA749E8BADBF52FD9EAD287D86EEF44FF3B0FAA9573EB412B72678D407B5190D35F97338578D945E14DD2577B6583A7E45E4B63B2FC87BCD763A04E956C849935DCE2893D1BF9A1E9EC3A5338FB0F45E2B27F1695995BD095ECE0FEA6CF19749434CFCB4BBF618568B46614ABDC037526A5C284DE56CCDE46218B57C1845D1CF440FF7CE78C618F52D94F4678EB3C2466EFCF7D559F106060A1766FAD925F7116D29899BF98E340977AE2AEB322165E54BEC9066A2F0982257E8B31895DE8E0BB89AE33B3134A81EB257C5A3F7F26BFDE4909B2643431FD7B8291910F1547EBB3E740D05DD743FA25E91CC7C9AAF61A73082F7128325645A04862A3F4BB0CC99D7E9D03CBB915B564BBBC73D31497A46C162EA8FDA29F893C795A8E2A44EAB5EB0856986665483A1511103416F1D4C21BF630423C2E6E1D520E2B0BDC46A4A763015655DD33C3C6DFE939D2C13A5B74B4EC7F7E4F743422D34F369FB5519EA3EB0CE183D052E89DAEB01F38289D74D9AB971553905C9D2A7573F569B87812577AB80B4EF089BEDAD94B8D15DCC6DDD2E70C05625C93D540450D3BAB8836FF3A32879A4B74E9A275CC3D90E1003F576A157CEE0708442DDAC7807CAC2113A9630A03507DA63EEEE45DD93B1EA59FA3A1C4C8490757B96294C5FEF8524AD4494461B77741BF8B780C14A50108EDEF60270D5F77E884BF59CD5D1C8BA7D07BAD823F4AE9E459F3DAFB4D9DFC72FC9C47AC1E3B1CACF299AA7A00D6D66E8CC6A7E3670A5888D18AC5B57A7190CC9B5DCA2590A6A1C31099EB2AB1429D22308380BDEFF9A50717D41B60FAAFB89F1E06F5345EA1C38C6CCDDFB9AB4EB38797AB4D8EC460515014EDEDFF4CAF5BD8310CCEA7EAC29268F7CCF85ABDE99D5AC13E9E20EA78AF1AF0BBC9CDF603C8D07F4B97DB433ECFAF57C4E63238CB4C03C35360435CC889A67621FEA8FB596FAC68CD2F31851DC9249EC07B4A1121709CA6492112D49EC1B1E0DFD4259140F08E14CA99BF0E3507DDDD4B1C5BA88AB27B2FC183A64CF0111E02C9C44B8EDC1A7F6EE903EA171DC1D040AAB5B0FD632795A5A5FF7BED012418B993F14A911589EAB46FF6F6F737E0CD62CA8ADC3FA1B09F0F9760EA59C33E3C862F32E88D7BF4D8CD34E97FEBE832604A2C5738F8403C56EDE9A84A72DFACCF8009BB1F781BB4F51C913F3C1813020C8541F41F2A18B45E7FD257277DD88D76B24B169A67A14660454460F8523F9B33BDE0E1A2076723CB045289B5905E1CA6C99875A6B49C9EB9147F1F49767652B218CBEF83BAA44C0E4282219471D6C140F