 42CE84E123FF9402107EA006593C0B2A750A60B81F0C2E14AD742FBA7E63BFB892050DE48493178905A881002A2DAA4B3242082753755A746FAABFAC8AA3141E005E4B819CD8652099AE9899E0FF3D9C164B80754F81C6742B193DE54F68E545646D5FEA7847333EBBC1B67BFD70E54A18888BA3688DA5730B1D3039D22763CBD2B652F1E9CDD43022CC74FCC3F422A8836F800DEE3FA9E776A12D104BA4AF886A46E512BCE2BAB8CE2D41AE0927F9C36D5540AEA492A818CB432017637845C0C29A8DFBB8E4539523329E23E14D8E995AE6366A7A98758C8AAEB716097E0C779E8B98DA18475991C7C0FA0379B4D5FC1D8E26B49C4F095A1492BA541D8A282C CBD13E2EA8C8D1AEB1917D6F30F5F1A2C5F8F9E778D1263AB42F4C29B3B232BD59C20069889E9BD76466C5819A1435605975CA4B810ACE7C32490BE7CD1EEE66D1C1011E83A9DAE46A80E10E6C74CEE28815A2DAD9DA6EC8880920A1B64ABF0CC86C3CA7EAA4A68A2327675B7A5CE9A648F29D0F54056D786D64BB6871546D476A19D0AE5D88FCD551434848F5F72681493C07698C9674EEB0462D023D84A020619AAF621F1A8FA099FCE6CC87905BF67E8A1F141BE7C01B7B00EE976D9E1EE0CD1955C229755393DC178E8079D7BE59F6E7596621E9C7083D4F039E33A481BF09906AABD440E56F83E69A85B5C4CD93497D0D0EB07ACAD577F5C195B44F16D8 5CCB22C8A27E761720374EC4C863B574D44F29126064B8279B5922527C5C657EDC5B12082C37C27E4E76F350862168833A999B195703E8CE3D108C2DF2F7390C33199493580A7252304F8100FEC593C2582F14FC3DA8161D7166FCDE6F1685CE18643300235A996CB97E6985077675B0EBDC1ED861F69871CBE74E69D953D4E25BA2B419B6AEB913EAA09AA2B10442536CD1A9FAD7865A2CF3F716523BD3D0E310610861C9FE9FA8E965D7E979BC7EBD7108EA0B4873E7FB1D6F60F73ADB66ECD1E7A06095D8F8A26B7BC0278C5A3E758285A8ECEF981A1826E8854D4D4A0D2F816CE37DFCBBB46A21E986912B1E208A3863C53372CB584FED09C77B0456EA59 D8823A97874C0E309C1B6BA9923C3AF579B93F2EC126192E170DBA3CF56CF56A5259BB89FBEB7A943A931CCDB6C760EEF9484E2CA4EFD27781259997E677685FEBC366ED284EE195999846F8C89881AEDE93EF6E6E5D292EB7969438E4F7D11CE042E3F2195384D53DC442018B940329DAA5C21A066E666DB391A7791A4BB893CE1498AC28F5F60A72629DDA012AB42EFC15AD6F2C2940C5B9622D8A414B9C1AD66CC7596433C5B0D92D688EAF16929998D8E19F5AE11B839407FE90C7A0F979BE125B6D235C157B8721D44A4FC28B2D929E9978B47A959F777CA8F6BFCCFAF7B088ECA643073B1F2835A189737492CC4DEF027CDEA33D5102DCCDAAD4EF120B A06361A6D4D4055969E5D2F1787D6FB3E08DC5BAF38253D0A743B10B40F40839032FB578DD5B8523211A784A10773F88CC32D1AFFD360D07D9105FD1A3CD63455C98EC2BA9D75FDCFC8F84EF5F3117517445204FB77E04243961EC96E294D8C5595DE5A03A15FC96E9CCBC111C26195E81ADB12E52A34F02835971848ADEF2D118C16D9580097A6278EBA58280951AC63A976FFDE7B9BD1FB8BA26377D85E632EF4A2B65FC9D1D017B6A8CA58DF65B579FFA16E22B97AE66287B7455AC390194A8A0EC2D45E4FC3955F7900EC548F372DB11C0E7AD3888204F806206DFAB0A6F1AAADAD3856EA3A76A65373FC99873240D38678D5DB12E52E3AB4C2380EE871E F0C8E24507E2A77913B078A0FACCDE9345266A390919163E39BE812F188AEBB5D962AE88E81C7DAD76CFEC94805BE483072D9CA1B32488802FD38AEA8B9B4D56798D62F082569257930408BF16136436949066A341CD3C8A215E5348BC57F60BC69D9AF1E537BE20719109CF30931A0954E839E9C1C5DFB8CDB7FDC926435F61B4CCD432DE07521F1F82ED1AC7EB6BB76ACE7DDDBBC28A0B56E65127B05710AC6AD35B13765E7E1A1266D15D5BE2A6600667B2B09AB5754E1C4041102570E3704838DBAFE26A141BBC15498B21DEB5AA61CA4E5B2991184A34C10B074FCD94A3C4B94210F3FFBF98842DEA3B9DB20AB91A6A4A606C0EA999413B9890F6B2D30E 42C0D1141FE68CB9A672A2EFD32F6C424E083BDEFC401BE744AE8A13BBF7FA8DC9F1A86C31F7F3CE379CDFA3718A587995BF2AEF764149B84C20BCE81322A741D6AA2A76010ACBC0513B5ADD8C434B2D7E8B26F6C1159C3D34CFC3FD08FF5AEF6BC197B502F7D9DE0E8AF3ADF4760A83A0DAD7131871DD0794DCEFA0F09BE88F674A40AC2ADDA68BEA182719BDEF98C37C331319F013030423D258E8BA14C91A037182A0734A47F6A7D8CBA6CCBFDAED1553538CAE1FE1B007C5E241F2EC411B20AB58A6684FEA395E3C2C12D9A66FC178839E06A379B5339BE2236D0DCFBE6FEB320364475CA46AB55C2DC7854F1DF841F5D0DBAFDBBBF1BCBA6638E59CC8A9 95F4F9E79A130AFC0BEB44618EF04575D33CBDB3FBE259008B54B71DFCA3F17411C2E00DD4701616C56DF28D4A16FBCEEB7BB26781654ACD1638F494091802BBB24665623256AF05EC6971ABA870B07D59DAF8AE31B6FF527E06A963FAE045EB30A126F8769CD6FADBBF80E787E0262E173A5403F7433FAB2CC4895CB96D42D3183854861440392A1504806C0AF02DF1AF902C826D662C1E7EB2B6E6C9E2E788E4208278D7A4AC5074C4BEA23E487461422BC767EE1A4CFA626B94E9D0DE0AE1DDC54240B01FDA112F348D9C9FD78AD1A5841EFF477013A18BEF2BB49613140A4513A0AFCD4A41624897FDBC89DB7EC60E83782ABF505AB67708DC5D4DE1E6B5 2D506D5DDC52A89BDA66B49160F4F091FB897D67AC26F38967B9ADDC113506784D150EAB27E209D5E469222DF3B5BFBC29F81DD85262634D78B8021965E8EC24356AFB491E0C38B60E403569A847233179B2EA3C64A32A6E86412D5D06D80A95DC614E60333A88EE57175A8F85B22A727DF5F9A94A91725CE13D90F651A0A4F64ED8E22F69E89B2115507C2C3795EF1D14FFD8565ED8D2755E73D8DEFA0301D10046C995FE04F557B58722151A2C4B69F899B11BF56F1F28D11BB90B55F81989D5D025B2EDBB0FBBD57E762E57A3A8F95144EF3C47E756A4F2B3DE7AD5E06DEAA1D16201C1246B3AD365B483E2B171FCABC7D943304C9178511F775C8F408AF7 D704AE5B04AA19DB2B6C54E25EF7E78395391D920A3B5072B10AE8FC20EBD17961D5EC1B375FAE986367822CFBF8D7A3C79661FF2079A607029C5DCB96E194B0A89B107570D2B5A3D5DDEBCB8D4F0F3B7297E91DDAA9DE549157ADCD225DD6874E78931D8B84A6B2E2D81E6E4F5D46E5271B489486216C23C05CD238D03B1CFF328DB5D4DBCF17996D63E61CCC2C9EE8ED53ABFF2539831F18E06407824B0E5CDAEED142CAEB3330127B35D7C7DDD921A86A3271B5AFAE74D4C55D8143B79DE02F71E0FC15B2069E03E26B4B89966947D1074D1FB37437B8B2F925825109A83681118633D3351A6F2CD1AFA99F3F390E744936723BB9C375163AC039B1D76CCE 86FA65875BFF28FD4DBDC02EC465B052B229F90909E75B9AD9ACCD819D5D7CC6528E84D8C9120BE2F486BF62FD8C0D4434F4C85391B5125B0FED8E26124D58CFB37A65C1EF77FE213E29C9E3D9089EE7B6523B127EC2E17AEE0DA1434BD58E203DA4675AF20234BA19239AC25943600EB2A59DD0F4F9E345C9287A2454AF691EBD4D377B5A19C2B5019AF8C1F795E8981F90F3676E6FF7E33063D094D5C616628001A4474734807C7A3B56564FD547E9F4E9CA685B373D4D130D79A152237CB9F7338920C1627703D72B9661213AB6B939128B28B9867C37E634AF20F5AA1DDDAAAA6EEEE0AF918C529C3BF77ED1346C8B1F753DDF4F08A5C41B985E485E3B55 96680755E9BABB05AD00FBC4E82DA643BB044B5C3D473D327C42CACB9F43D80574ACA5E23C462966E2D055F115508B8C785842B8323FE015E8B20B1EE2DF9251E8E817C5E3E44F25A9FD069B8B133D70B272F922C8416A10BB7AD494E0B0E608B3A000E52F6C2DC9BE176805E0A12609D30BE542373A267E6F74FFD21C12C897B389612DE9FF3AEA53447811851E37BD159BCACFEF033AAA0A56EDDE1F6939CA0C96BA8FBC9B9ED8D989BA1711D8F57EFD08002689759AC93DB3B31058EB348544B34FF71E5A6EE49DBFBC15BD885F67874532D4A2768C27F26D32338EDB689BEAD4CBF3A9F9D58552DE5260A8A313E5C7D9780505BA6B0C547346E5A1265676 179342CEAAF72DD8C8F683A43E642E533B2E280C0057574E89AD6AA1F52E57AB0A401DE33C0A98C624C725F950888B96E59354EDBFABA4AEDE9A83BC50D592C0C5541FC54B5C14141B68E0497BCDC1394D193CAA0EBC826695D849EF7B9706DEED0DEB84757299B1C21531CCBF562AC96E2B7D8B884BAA05BBEF2538DF1F0BC12D62114D7288257E2873C42B6BE6D62C11E534A0D3CAB5463E3002E63589DDBF05BD891CD6933967FC7EFEE829A565D818437479A7B95ED7A2FAA59AA9B14C98BDC860B1AF0E44B1440702A4C2FE348F976BD1768D25D823483CCF1679DD18B623AC0BD383AFDEE15305362647A3EE20E5D874AE046A9E40444FBE8527D94D8E 63B2790A12F0B961F5E433A92EE12821081AB2712CE7E29A375A5A3B551700E7D3E596539E721F9411844711DF87ADADF21A9C89FD4F6FE272DA4D4E3EAC096F17917E4B0193506077F2D94CF23C6B3C05ADB6EF731C6D77915EC2436356DEE2A3DA3992F3A8DCBEA34D1BB01E83396ECD9D55C7A99D4AC16038EB085B1F5EE1719E32A78EE10A61D628D44076AD6E994C984CD2DCA112C49789920636F595EC3B7EDAB0211C9B879AD4DC0499FAFA87F90DA2E81F1A688CDBC12AA34AD206F6F6907ED8DB520FD9DD5D75F4679089282FDBBED15B6C648317B1985A6ED21E27D75E1B5D34367ED0251361510E3554DD789DB467589ABB4DDB5EAC699667A4FB 074EDD088C6AB2328C35F24AA9249618C1D493A8A4DF66ADADCA9CFCBF83CAD01EE9609ECB374CA9DF3F8F69A6DAB81F06AEF5537948CEB3C42FE91B9ACDF9DDCFD1E51446795320333706BF3702F411078D260FF1185686FECD2DC0586005743FBB15D3E07678484E770487BFD13D90F7465BD92C31887724C30B812FFD813DA896974B2D888DFE0ED931208D4952D60C9A0CE2223720E7E60811A64686F1A4F0C37A987B3A5087B5A0C723E7741FBF9FA01982E1B2BE9DEB91836FDE11DCB20729C97E6A47AA05C033513F82CA090DFE161C69154ED51717EF29D0FD76695C456456AAD4BFD73A338B7D699EF99A961FE52C6E3C0D1FD89A4D459882DC3F30 6EEB4CE950DFD6E5370D3656891439E7B8819A11C2DBC3AC9D41B44C6ACFEE063A1EEA8E6277E12E3544C9FA4869D48F062075B15B8DB6DE8F9D3D77CDD3AE3746E32189D032DCD9BB67A22926AB9713D7DB4E91A3DBAD5396058107230841F8679062539B03AA401630B61FCA296FA9271C8B350791A19C18B7922FDC36985D25C19FBCB036DE2C20EB785039C186A5F08A84D47662ADFAC6A9B7528E9F74B979A3F8E7A03F3C0F6D2C3A1C08EF94B053DF9061B9AAE15268B873045C2EDBA4E28BA3E0FF529238399C5AC149C5AEB161E44D0689EC65D81A32AFC4E0E20DC13727D4FFAAEDD8DB7193E3850A71C51CCCCF492E8A90545137A83D48E2C9807E BA95525CD47931851DA5CB67ABDBAE684C2F465FC6B4B6573BD0DA6E5F5BA8712FF9CF7E7856805379E6D71D2D3BD36692E599A427CE57CCB29093283AF33198B87D2714D6CAE7964CF103B514C4F14AC19FCE77F2A11D0B26D876F382E01834FD1833657D1A8C9F35C4EA515B2A5A727E6A032D865D753B77B25F739FAAB1A0CC8858A6BE1649C6BE5D6F6AC321FDE4C3922283435F6CD30C8DF468B56909CFC18852B06379E3FD9211887510DAB6B7BA422303499C4FC9C5D4AFEB087E85769EC1231408DBAF40CF62E021406DF987F586831889F3FED42F2F24F09B431472DBBC6D0A623E77AA28FFA3748F0ACFA8DEE66B0A4C831A0F119B991F59E183CB CEE15A3E1600AE93F0D763D1BDD179DB6D350F36CF5AC67E4984980AC4C1C16D441A18AF3EEE4F42B96C031E73D570BC7243328F98249C55D963CC80C82506BE5E065DF29A570B03504360DBBE55A6BAC23FBDD5756B03C9F5FFC9D81168898A9CAC6BAD3FCC6E702242E0ACFE50EE6E751B11B2B848B5A6D0AEF8DBE91C8B750295C802D09AED992EB6E940DD3E9B576C55EFFEEBC3461C445491FBCBD1138A43C791BF280017BB9B7D98337E8DBF2AED965B050FB1E5F74152779830E219CE098656DA0FA11640C18E7E5FF4BA141E05B98E62C32FA12DC9E4CB75EC0916FDFAFF061088B876862573576F2421659C355F37470598EAA6348E25F0E5A76A6B 951A0B31FCD5E3BA7B60C022A205C9E16C70604F20387624F2C1EFBCA9EC0B0D0687813D08D7C27E950E41966317A4DA8EDDFF2CB22634DFE2A864D721D71771806F2BA7CC4596FFFC8ED7EEC4B328C002FE4502561694566DA3496BB62B013ABB8750120AC24D654E8F7322BECE0EDB6E50852DA50E4A0FB7A013F81D33A99D28C649FDD386B4C0960982873F929CB9F043561F85B76474EE6F5ACDF1088F596327BCECFFE5BFDF6BDD63BDDC8AC3C7E8F543112454CBE1A24D0351F248FA6DD31FEC4C92FE862B10456846A43676461E97FA1F7AB54047F16E82D1441612518D20D64AF23EB3FB80839F9198279F745F165D488A714D4792A351EFA7F2FA88 43DABC2E82C3595022D93C4B21161B02F65A215E9CD2C0D3ECB413EF31933B7E6036684F4E5B9181BFA24A6C5FF28144268D41365B58300B3F502A2B7A20F9C1459D2DDDCC8CA86F799F560415DFBE98650CE6033BFFF9B1DBCFAE34145F872387A43A8E31AFEA7BE2626DFC8D02AE650E3E0E79BD250A8FA2F83252543CDC9D2CB9D984D270656003D813E3362E9953976F5E2F0628E0B3DB17A3280C10939A78A5189998600EC8367B84F3D8CBA2789F30839864BAA49A15EC6EA85629568D80E920110D965F22AB4653C95BD8DDAD12BEB56268F18BD48F010B8C86A9A83E409846AFF6DC5B7BAD9DF34D1064070C5FC63AE20FDB2A91054BA8EB518678E9 F2ABFB7E4D719407FE1BFAEFA5FEB975F6CCDB130821450436C4B1E79B40BC3299C5013F8BFEF4EEE8653576E22D6C228D2174C08E1EF6EAEF6525CD11E463F1C54E7B113674852DBE7359C34FA963B441DADD5445ABE076E50A4D39A930476FFAC9B375A833A3008E0FC6387D1D8811C07E11DF6B0D1EB8666CB7AEDC5C26B311971D480351C577194524562C65F4240ACBC61B0C262C16D98323C2F865D5562AD955C8540A4D99F284D959F7A569F83FBF50952BE1D46D54D7CD178664CD2E8A9248627023321F00D54E6CE45553AC0DF3B679167C995E5DA9958CA2E837EF33B72ADE06834E2AF830828E641AA50C58B765A927519CC42FEE238F1DD056CC E2F2A5764358125B1D32F75D657EB5EFB5E44944F80AE30A271274B29548E21DB7794E44D7B311B46CF00B1CFFED13A2CA45F3F7C69BE8991AEBC0952AF2D1EFA792F5581A6FD35BCF26ECB4AE80970CDB9A17B69A8AE459525DED3EBCDCA8C2EC9274EE05818D469E19B1B209578CFB7BE86C7E029CEBEA982ACD743EF39C50A51C30CFB4D093BEB6535FD4388C7870BD48D4389712EFC22BB4EABFA0AD5A5123AD3FED7876F10D9345A2E72E9470A39A4972362FA50FE793004904FD21BCEA294A811ADC7003B7C0A991EDBAB421BBECFC03E0DD194A8BFB6DDDA934EBFAD35AEC2EF7A971925A8D196570F8C420A3DC3272BBE9F95F64CAC3226C46118D42 AAB495D566F95F480A8777E4010D9E7B41E5ECB62231305973FFA2ED2C1812BFAB369BB96F87791404455B2F721E79E6DC4AF42F5FF6C9A57B9C84D6F3EE180235D9052475BFBA28C16F0AA15F4B96711DEF046F6A67D1162F4454D0562A8C5B091ABE7718891CFCC54A6D7D1F76406F64EDC20B069D20F32462BBFD938390D7FB19A50BDE8CD4132A6E6C1B5AD830C012092313D07B967D79254792570F2504733301C7F28479A5A9B2D92E1B02D4C0346905E3BE32919E8B3EFFA705A815DFBE4A5647F4520A0C7875DF905232CC9514868211FF9C1A2B4389A62826B25B0F1595A98DE839071FA728783D11C1F808373AD8F7756F533227BE646ABB2ADF0D 4FA2AE28FBD22F7234C42FEEC19E14D9517ABE011E290D3A25573FB83E680C5304547432A255A4A15F4B23E90639CF4AF6825FCAE6F463520AEC8C0F0F2045416F1309C09CFEECBA44C8F6E8E539CCC4D19A23A22BBD778CE2C6F8E84F07DB58E52251C746684566CA2EBC1B5AB2B6AC21B36FF847734DE2F4A31FDAA13E685D6A75169AB3E13C73C584C831B4993C6D695DEFC0B6B89757BFACF3EB3FC2C4AEEAAE22CF592AFCAC8B5B3D62AAB27EF6406647CDB379960CECF858BF75EA71B08B23592ECF8000E66285EE533E9BAF2EA57EAD2329D68626F52C39E784C9198D56423B6AD6EA117A1FF6E29FF9519B5FDDB25E7579967808AEB713C35DB610B9 33662BB581EC3266D98B8DCB973A7E28AAF2E3139170A3A54CA2E09ACE46AE16E41B6D2B142690F07BC5BDB0496ED2B36A75ABE9AAB3F9B3EECB6AA081AB4C4F44F51E993AFC1F7A0D82ECEFC8D881C931E88661CA59C84765AF6E583798B656ACF0D84C680DBDB2BD41BC084C6431D2E6F9965DEDDAFEA5EE1D1D6AF1333835019BA8DB097650459A0D49B056777A4E031935AFAE42C39DD7D35D155359C8E6221FB481D6B35FD55955FFC57DE59E0B51008E82849BDAE84B2F3765311C2C5AC10C5CE549D27039907A00166C01EC70E25391B68C6F105673A850930CD35E601C4CF7D10ED639387361434300087030CA9410CD5BFFC18B2FEC543D053A400F FFF3B2F8871C8BEC56EF8051DBDF44F039EF82BBB3D7B0925407C445ECA681D67C32092B7A6D558C94C8417B9634304F9513AE15118530B11E35AE9142D0B42AAC1629D43B761AA791FB15A99DBF63E43AD058BF6C51ACBACD13209C2D9DCAB5CBB14A97120D13C919DF56D39011E2EA33FAACAC1697D423EB26257EF4CC62384C1A54972DA9C25E8BCE1D81804B6C1F8F59944D18A8D9ED5205EBA9EFAA1404ABF6189BA515FB8F6EC6108620B8473C0F87F976F0B30A7AC9EBDA5CFB2F1D18E3CF50E5B7DDC77D4E4EEC01A43C6C127004035B80134111502A2F6B0573801F7A5ACB6D9F9649D0D0662540106E15B0D1D9195B6E48D7865969727120FC5CD2 608B289192D8360485861690DEED625D1AED8537834DADB67C8B990880243A0DBDF900BDB2A52816421EEB26DFD7E24899E3BF58F42D0D5DAEA03F42F4EDBBC67571A90F8B5B33462F5C65C5313A932D21D7480377A91C40351EF4E3E3F0E1038E11FAF8146323FB22A9E477EEABF0939095E97CF85A929A1F870437C2CA3059B2A046114DE0EF87953FB08369286924E3A148402F96C7D958934541948ACD7DCEB888598F5355BCA5FD361BCA0F799513994DE1C90BABC320B7E9533763087075F60DE7FA3FCCA5400954B43C19D635F27D5F5B82E30A9CDCD537B2B9F25750953FFA1A9AEE5E9EEEF6DD036786CC1E14E987E7E5E474B5F784E79E09B96938 D8949C68EC23D9FB2EBDC6135A30FFFB6DD7CD8EF829710671CACE51D678898AEC61101D2D7E06BE0149E3BF55529C5E22CF324BA95F92AD20552F1FEE13C6D1AA7CB766A1B9F4FE68BAAF0741B10E00BFD84E11E50F38CDD1B94704BC241D06CE89DE3824589E87EF824B26F15382FA540CA881399719FFCF0EBFB1F22E5C17522A352470D78A092D0C19D4E1F8A4E7179379D10700EA33E6A15C7EE9FF4C699B5397E75C3C1C079743A913B9372A13544D0ECBB00537940AF5811AB8DE61A87025E5655C06120225CE341C22CD74E840D9B3FFAD6EC443FDB927CD4E5E904D67C58BDCABA371D38E02AB0A1F4A1159B02174EF7EAF2FBDA96DFF26067739A8 71AA02571D6CF3EED01A86E33A31776A34914B190ED79720D9EB861DCFAF8AFF66A4B8A188F452C6886581C13D74A20631C6F5BCDD98B271FF4526F5CA32F6A8F03EAB9E8E34C304F9A952FA3B129100457BC570F0475CE6B76E66C1E534926F8D2C9AF1FB5477B17307B86100A0EEE514A0FB53434DD85C88A21C7E7C0355373ABE6F9914FE71A3A8DDB6FF4B4DFFD80493DAD682A13E4AEF9ACC5CE7E5D4A50C6471EE8A476F5A226CCC706456C8204D41EF6051281618FBD6F05B4469D908653CB35E73190882519C272E4727B45A9D985FF91D060AAE211B21630BD5E0AA7C7C5602B46CC9AF6FCDA844AD43B0A7147962DCE798A190A9B64DBE99399FF8 BB0BE1C7F35DFA65C183A87E7A2F9D1474C0990A820E670CB8EBDCD870685EF82162ECC2F513FAD3C4BD54EC9BF350F9A5F14F3F8EBA48320E5E64EE81B84F417B53AF7595D73A526493304B1AA3724358812079445839BE6CC36B7CE312FF04000C110CBF178EFA863A778CACD2B375C6DE7630BD1BF2572996BF8794E84CA0FE1FF5A0FD283F3A13A5FF5CC27E0F81D75CA1E9184969D641F2435C0907AEB869930369FC72D0FBCA9D39447366C135EDBCD9203571497D585BEAEF7C4D4821755973898FB689889AE3A159AADD9A89C14880E619A2B6879348DD94C7ADFEA144CE9B06EFEAD655F921D0F7709658A7F514D1E24C1C338C5668D9B8E24AF32A 9110C70B1D8E0481602AD00134DE0BD835F129B70A7D0F92029BF6F415FF34A8905F1FDE376CF34F167E48FFE5E64FDF3CB0740CBFE8BAD22C1080EF615CC86DFB5658C4D59EE56D2AABFF771A08357EB5210CEBBEC2BE01173C7C0322A462F1C4A3BFA4EAA4147C7691CE21BDDE1A06B9332CF14962E9BFEEFA3EDE6F7B0BD76B759200BC34FF6ED53CA83D69D84AF87346E4D1E69DF770EC47486F1BED800BDBBF235EB98C6FB7B66C6D9E42D98992C95A66C4F474A5082CE882AFB1AAE9D619893825BD88EE14B5EF996B00B97ABC7BF27679C75553D6B9E905A0558AB5420AC3D3E3F8076B97BA2278247108A6DE2AF5ECA3D54148CD93C3EE662AB4E2F5 9BCF3B32C41D402B2CE26A9F1190DC425ED59436CE5057FB137E6D2B75EE8953BDED9A036698FE5B7D84D428037E5ADE0AC140EBE940C57720CD08F3D5FA36403F4493BD4F23762025183042CF505597F0CC203D57B53153AA4C1B251ADB7108A7473746E9F459DF98BFD5C1D89B339CBA201AB8C7082428265C5C5193B9F926C5705E7D93EF5BDFB5D8169D5D3244014B00B48CB53B66A27812582EF0E5798CFCCB73AA4FAAFEE4056F0BB1088ADE421A88234760B41280D1F137BDE8AE7838505BB98A299EB2F9F19456EA8F7595395C6280F6987455802E832B13805BE483E8626165C52DD37580A48DC97669F6694BCFF047F0E7EAC01E02F6B4C1EB495A 7E918FA6C50895EDBD7E25ED8997F8BCE504834D25F90D9A61B86984FFA332362AF493B096A8E4DE31C641E667C79C8B782FF486EFB6B5DB456EF1001DA235E4BA8B7282246F0CEC2F807E351AA949B8EB28A79B282D1084E3F6049B7CB95AE5E9A6C12082EAFFA008B7BA3CD63D8C38A668705AAF3B85050163041542B491A0380A55E1EBC6D0A7592D4C25F99B89C5E9A029CF2FC0EA0F9247EA84AE0573775966948D6AB3F780A976088CA381634BE022661CA6723939BA9D36FB5B07811DC9BE1AA343C381FCD8436705E7189C8D2B04D3007018E014BC5F3994A812CA338446CAD0E5736E6F7BD9B9D874B1C4115F7164001792C5802D7886F9D2669B2D 18F770C71D1C35FC749323C3F474C2A41EE8D3080C135D873518A1D8BA9C987369325260BDAE97CAB14EE70679DD72E870D1EC876087E6B3960B2AC5F06404DE61405580DBC60B1AFB672321CAE07C607C7567BB501D7A81CCF1C6F47286F1A7AF5EB2F8614F3A6608056D31314B81E3647E3F00D9E84ADFB514A4A67AB04C4663C9072A22F33E4282C343F88741AD11F36EE9EFB92E089C43EB55225B49CC718A5212F9C01C86C92078C0EFDDBCCB2D3F51490E8A7C67FDCD17A419287B7EBDB6C654F16FE3CF293F1B5B49616712271B7AAA281048F71D59DF754F1DD40198F216E50978D9F6E79FD7D525E5D3ACD35045F9D6CD8F530974C1B40B5CFB31A7 A6087E1AE4D9F7B394C74E7577331CEDA986D62C02B8EF76DDFD182D260E298306676B3520A558A078BCA3BB6668F098230F5F8DFEB60F4A98B87E95027825D9E1A46F03A86B3CEAD8BB6F9EFBBCAFC11BF2B04F2AE339A735EAAEC5E4611A3E6D0F2A445B1E67F3C4F177A2A6081259F1AD3EEB3BE64383F3722984ED9EFA5F2BA5F95F08E591306DF5D0B3399EC50EA2A4525B38D2A471E32FCDEE9EDDAB25BFFA1CD5B9395515C9D0A0EACDBBBE91E89D69EC71B6D48D2666989367E4F7065D7676E89DE4C5D67131B164AA89E0AFCD797CCEC8AC356021116C88E2B705FF05A79E3245FBD4522FBF5D160E809952E8229C4323EBBA476175AE793CCD0511 93B2057CDEE50923E0355F8E2B3393D7ECC0B083AF1D6B3043EFF70E61E14D363D624ADF0786634B736CEBA19811234FF3953E35E1C1EAF13304947C678ACB4D11AD120FEC95B28EAD3D090BD106D5A4DA777A64B559602BD07CB24F70DD269B3C0A7A466D8C5DCCA7035619FD4635C52AA9BA21EBD27CC9DCF872EB1AD61E47F090349EEFF38D1B32FC7C9DAD68C512BF94308D2081913B167E43DDF1E5205DAD04B9A87EAEAD954DCC7055E0BBFD7903C040DCAAC012E679EBD226CEC613816CC8E919A3434D30FA17D7CAA6FA2E321C3F41D12CDCF3066125BA287A7550F9A589595A2D37E23604922A6D1A9E67B1DFBE1B6B6D518AE71D484C01AB3A571D 46229334BBD86A53CC67AC863564F8BFDDF4B3D7B9A949FC8DA247140030A75556352BDB19E03B507C8D1D4B77692987535A978E54A5049991759B3DB4A01268CD87CD9431F7F5BCDF5694AEC973C6894375FC8897FA0B53C7926C51B24BDDEA51BBCC8518D8BAAC729A69372F19825C80B74C106FF0F656918B56A20299B28C8B493690259C6441A1F298849DF86EAE45B7FAA4C449158B52C0FCF0FD16094D48307C225CFA0C3AFAC3A9E953E3A4D166685906E10B8BC43F5073EFCF7E472E4A855F42E66192BA7725778C7CA3BDF74E805369AE7CF422587B29DF62EA64AFA3509A71BA7AD63D8FB7E73EB9CDADF81544CC25B61D36AAB8108E6676E6C326 B57AC80195A669B351BFE642DCEDFB3394FAC89E96D066E102DC7DFB6288931FDDD07D03B82093C919FE97ACAEECC002A29D399FA6A32401AF82724949C1365643A0CA3A6A5278592735D386D6750F50ED7C35524BB40378DF6A9C9BF9CB7747873386A3AEE3D75929A7392895B42A9956F7E97AB0E27D6AD33D8CA4BC03644EDF392E8F3C3DCC52E084D483046E5069F87C5BD3E47686F62BB886E2F5D8F35050338457F95A9B7441720804B9685FC9090C91A583D36B7319AB0B4B121C852F839177CE9FEF06BE593F11B87AA3B66FB4DC0AFFF98CCAF9DB08FC469E9DD7A73EDD864B27E5239F550726AD5C62EB84756F502E1FEEA0B9DB8BE6594A1333D3 2EA20B0D530B00CB195D08A891574B9347FB43D203956343B16C1FE58EF0D5A1E377FEF9841C90DD9F29AA8E8683462B510213570BD90E5E10A8430596023BA05C0669935BB7C7A4DD5398B7780721A96B2813AD603655FED767C56D8E50FAAB852B252DD58A695B10DD8BAA24F01044416841A6DC845D925D1983042C14CBC9013A69408BA99948AB417132FD682F724C6D89DC6DE50DD2B65F7B81DBA0E9DD3971DC123B2455CAE54E91ADCC8813E89AB5C7106269B26227F77712FB5D4634471D0947C1823F6EDF0D04C7E49D51658C9995FC119A39C031A6CF370D0FBA7D23B8C06ADCE21D656DCAE8BF9EC891332DDC23B4C3D41AC008360EE3DBE12B0A D852DC0CB4DF91BA80409345EED9230DD3D6FA775DF99E4D018637ECF70628121AC4685D074C5C7369277CF1E274EF9B6E820A871AF8AA82CF5E069B85B551A59816EB84A2B10AE2FFDFA9535C61EDDB60451B38B3AAAF25859E1FF8662B7BC9DA05F83A643A2B18640E9389124F87F4E578F3CC711C57EF9B828A4E0A552BFD5BF559B75C5F6252E9EE14932AD5D599E9F7ACFE071C65CA45FE60D8EC8E77C39560BA2DAA334DD6004DF4DFFFD1666DB206A1F6B8E5C1C657674BBC749759337650090988B3A9CA99E786FDB2B7308E8C4A7DC8A5A8B11BC23360217E8E9C140371E58BB32FCAA3756D10E41073AD9EED24D5D8C1522D9C0C9B7B7CCDA9B979 222BE9D6D62479A249C8438D7CAB0985BA35511A666DE51E58A841D4DF4840CCE7A822DD5FC8548CD2C5E8C20393B352630DD040E65A5E6B86E8761ABCBE385F3281A2381FA02059588F8CEF2361EA098CDDC55AA8F4F58177183C8CA6AE8896E1C50A9C321A794355349B79685761FC7D4D4FB47A7CC780F8086ACC4C1875AA3CFEC0FB0F00C0A7F441B34C260A17FA953A78286C10429C657A58E56502A83242E9CD4EA928E90F78D716E0FF2F65D7A15164BACD2CE68E003D3A911B7BEDD8DFA5A5AD1D4302CE8CFC8F161D095FC6133C8FE5F32EDC6DE7C21A2833E7EC11CB476EE63F6016BF8EABB0583C05001790AD8B773875E7CF69EF8E40971F0672 36FBEF39684300E2D4DFA730F42C4D4076930FB971D56DE69FA3F02C8E18006B579BD464D83D2E432737D87865022D66D186F315CEA4BD4A58706F4CF1871983645AD95E6C6784712D79E279A35D59040ACEAAD1EE94D8E9C26539412F397DA20C50C742625550165CCD9C0DF4397EAD49D98C51DB5D5ED6AE40B3D93500C9CFFCA0C2C168EB0A230824F43331F31899A5C42A3A0E36CF56AA2511EF14104DC83A8FB46A3FA7B915BEB8A5F3E4A2F9458CB741683F33336D19393685FA4AF0DE0F272D8F73EF19343A39AF64B510AFB32D51DC867184D95666A433A167F6827647235313CA0B33399D9E73B3A61E063D5EDF14A86CDE753610727CD0A8CE609F 7148590CA5153FA9528FB5C2C1AA3F1BEACF79352362FBC4976252F7FA41EAAC3FD50FDDA4B68CE1ACCDA955370F98E5EB172749A61F3F67FB0761E0F6078275CC66D7E5EC49928E06B322B1B3B5AD79B057DC16E6166A0DD490C659C44AD31B7E5FD3D727A8701DA6FBEA1056D698946EB2DE69B18C175844650E3BA8BED044AFA942F6AF4914E00A466E62279A8B398815A3274D39E76104477B4B58EDCE5F356D5A72C97CBFC0D25ABD7C20C6095ECFA8932E2D89AB65D2CBBF2389CFDE3DD2D2B0D94570E6733444594E63A06C52248507161115DB4F80B86C0CA68614013A655BA9C73FE78BC89F84C7E0E1E02F4E8844FC6834F217CC3D4379290DD5E9 7A82BFDC37F88C5FD137BB40C0105CEE04CFF571AB92688A59B7B93A4ED211D462295D665B1FC4C4A1C4BD34EF3D3C9954E2FCF72141B6FB6DF79CA6236CF765C0F91F0B5AE090804F8BF051E107067689AE469CD6F65DF3D3358200FAFA3AA84A5E5CDFC63C8E52823560015B61008D5409FAA09D376A14B37262FC4693D1FF590466B2EEF86D72D7AF929BAC4D9176697D2A8821BC4229DD9410B653E05354396DE5C46C1410343647B4360A770B78D425CDB42C773B9DDB6E72FBD331256935307801301B5B0D5ACFFFA0094FAB43603B3A43AC7D6149830F2D047560962FFB1C15B4B0E8084B72CEF2CCDF9A3E963E9B5ECF8161155AC9CD878BFCDC1867 5CFD3F3E7ED856111DF4628FA3DDF720C91BBEC37CD5954E43C2759D761EDA31DB05F1118934929FD3DAF48C04B7675FA2D57BCB55473D296CAFF3EDC8F9173F35B615143A4F82293FF9C50EB55986EB52428D06C5EDE2D9D56EB481F6C31E44FBB78DA00AF50C8256AB71B4E8AA752415B04AA4C1E69EDAA248AC2CF1D6183692FB42D3DA73695C8C17390E04029993198D6C82921830F185F138AA8E91E4B706C50AE563773E4C57F553F137FB2E4D3A2A042BF0D59A0FE79B9990C1E199173E46EE055B872B74BA18C64A2BC3CB12651F20D1EF8811F165F3E33C184F0159DE2D46FADAA210A65EA5E31E065999802FCABD6E49D70A3A898A29F1F843B000 C0096E2D35A416BE870CD0F9CCA18CBA0A9DBB4C415FA2A349098FE242E83A262DDD8683CE5CC478C926A4C4CE998B54B5D799A3D1DB08D90A4880AC5A124F35BC7DEB6E7C668497B50A33FA05D38CAA50F4C7ED329DA15CBC541F92319333559350F466D817196EEB128A494D13D45897D4EB85CFEEA5B9049A80679AAA0BD345237B8AEBCA3E0970C5308250AFA4C08A6333F358D6ADC4623DDC83966F2FC1D10AAB04F1C40CEAEEEDF2FB7CC062E737D52F66ACAB3372F50C08A62096B49A4D7B022E101136F3991E242DC2E8DBD7084CBA70CB46BB5ACA70DE86AAF4D4C8265D3F20DA0C0C7012B369FA0E7760F0D0E2246DDC395E68557181DB79F75A28 CC7AAAA9A5E20B0234E77871B43E45F257262959D5A2DCBA337EC88E9DAB1BE3636F90846841A9166CAE16242C27FF1881C4E341B7AC9AB05AB80A82A592F767951810FF4CBD03D716E13BC2A4686FC45E77B760F2F9FDDC554DF62B405A6FD8751E3072520A1A76A5CCB92A1B36D4CA458580DDB8B995B28729249959731A3FA2A1058F03173D7CC21F117CC60CE44A1E6C387D6A24F3B06CC4C9B4326DDD26A455C82AB0721F4002975CEBB50649530C8A8535FB093A78460A72671FE531C943B5FDABBF5156DF10D2476748B56F2C09C15BDC2B12BD807B8F6937F7539AFE400F38502C5197364BA342DC1BB8BFE5E5893AD7D6E0D3A325DC9A5D73B21457 636372CDD1CC47794C5A15C565EA2A4445CAB9CA98C5A1A6471E851B707D20D7FA3E45C02DFB62F6A30DED3CE8B9D8730FD23C55EADD247B8F9E27E271E684321B455A4890D0A12A7A9AD85FE8EB112B413021401281DF53CE502A2E1AF60333BA19127A018DD5F76C2500BBF18BDF117C792639242FCDF7A644D422ED3138358CA82E67A183A7B0D388476B0481A62728458645D6A42492B412EBD0CDCBBDA9F768BCA32AD161848ECECFDE71E46E9CD05363D87EFA0E04C189FEABEBD327568806F355068A2DC3FB84CD9096A79F47BB44BC69F564C54A2D651CDAA0411E34218A7AF20294C5A696EE50BAAFFFFDE695B9A166452865793B95493C414C6B73 47D114DF84441BE48367E740F64BB3236AD66298BA6834E98E27084EC46B4D998CBE61BFC7228E338BCF1E25CEA490636DE202D48788FD20991C0441FB8BF50588EE8D4ED367F4A60F5CFB139A0545D4F522DB9CED99B043E47DCD63E743A5A56195A681BFFD273D6FE89921555C0C1DD2BF196DD83BD8E7BC0BF0DA326B64686AF227A7E12059A94BD045DC9C5EED22D03239C92DF1B9B36710294FD4EA5D403198109DA663FE68E1F1DF7A8B14F43D1FB4B78F71D9FAC7F67476A6A212AD081273C0FFD2E5CA194384F36AA88A176D88733F173F0DE5F85F3FB99221E63056EA577242759BF17100F571A6FFC0867452129878E47308D7D29EF1A695CA0847 FED9192FF16DADF939F627C08AA7FD7E75A14AA09515FF81B6F4491477D7C220896D18E7AFCEFE23DDC7BBE8A2114E598B7235616F204A1CA7BB2CE4AB6D5FD1043F8D5D169C338AA22586F532171CD53CCAEB99605AF9505E2B46EF68CB1108A4CF806AA959C5E1D1B9B3B1B266EE976D997B871F20A66A1892A457EE4F386B6702424D814733368873C03644E7A4DA0447272CD700C54657ED880530C4CC447A599F00938EF7A57967A2E4AD6469E8B1F61D2D6E3B784D9FBA2BC6CDEB7039EFF81C57A815EDEEE1B266B872DF8D4A2F2E736D8DD0F8CDFDC8A0EB0CD51B96DEC036A22EBCFC79B3D905CFC7EF73CB3BB5595334AD34D4D6BB534B7AA2FB72 8D06E875A12EA7DAAFE6EDF6CAC217AB9976E4921196D0E1AB1CFAD8DAC4D2DF6C4582523D67B566552601ADB48A03C41E345D0631A17EEE8266A07860A4197881A06B0993E6DADD719E07F5429BAF8A81B3B9824195E00E356A1FCA185BD599CBC8F5A17B3A49506E3880F54A14A7F0C5C3DB4AD9496E0AF3B0AFFEB30C0B40FFC6046D096949687C47EDB41380245CA55F7CA4673FD5C967376CBCB5923DAB391458D9EA07091AF21546EB2E2311387EA8B79410A57B194191CC31898DACB02D3F0B938A51571B5DB0EF02C41BA374B1A4A69E6E6618DDA6A1BAF048DAE99951D99BF6BF416017CF323314F1B41FC13B3B7297C2825D3F47A5B7D989FCD611 B0AA61701A382C4C9D7D6D66ECB4531D3CC25668A1959DE980CD6C796B05EF718BB57E7A86D48AA8984B67DD66EFA6EBF7222C2B548EE64CF78DEC7869DE8A18BE321B12B02FDA5745329F6E961D78BEC226BD819B1BDD00166FEF7E7AAE5264B64B18DBFD2792A2D3FE80241BEAE3E141663914C4ABB1FA3CCCC2325D97933924260A11E3F8FCF0A16DB580B30E964CDDAC2D8A1238C1801FDED76DA41374D983BD702C121F5D38BD9E823BCE8E626D8D084DB9F80D35B08E70999B70356ECECD6B059EDC3DF591B5D095576AF352DFFC5193064F32666038DC90CF0DDD44A6D6819423C85025B6B452683F2366DDF5BA4360F599F180C89AD24D979C9F8829 BD8A6B04456E6224AB566F16D0A967757300D3EC2A28F0AF71C1E5F3F4CD6251A5C8424116C6F300D6A5F09B35F3B53D313E4D06D2F8616182CEC501D8E8655C96B56E55AC20B93BEF9E4943A44F17BB9C0A803B6574B3FE6463E61F6A489E2855FA9AE230267953C3D67DE733D190C43A6FF61D5F0005D361341D9BF403AA7D2A8231357DC31CEECAC4BD8F009D8BA97BEC3BD7C844AE0786E7208BC3E1D70CF14829B9E8D26B609AAEE0C7908AEA4AB483E9AA57FB5F1DD742632540B371516DB19C6990C1B82A50D8DD18AD14114FB26C12BE811ACD75FDC000624A69BE27BE8A47F32105EA8AA23077786EF2ECE4143D5C5F8EB8365A39D02D1F9AD4D126 8372EADB69D55B195DBB1B6312DD9B17E2E4C8083F3F2849246DC226D8753C8DACF93352D065CC5855DD85A4FBB327A0D9F85F9F25167608DDE157327B008C656F288BED0B51DE9724F924BBF11AE812CA40D9ECE442D4A5D925B15FCB5E8ADFE7A6B9DEF44711E3373109A20437836E71193DF7F7762D9CF8F41049B75044830E29A222D5C3144935676832B1906C0A4C2E0E8B6165302EE185565CD67A2466B4755F901E6EE36DA5ACF5F597ACA6411240226A68DA68312ED0B85D219EC15ABB0B9C0AEE9198BD6A4BC64F6AED93758C7AE815A7D34055EE27F8E9C092B0A7F8C7D039C21521D57D83BF89A24AAE24B4054B11F1DDBD65B5335C5F000705B1 D947FE5E6CFEC558D862CE6DD44613312BFFD57D9AF3F91EEAFDBE4098F34BFC7A4E38156E726BE01CD9242FCFE9F6CF1F55D05F0BDEDFD17D1067D37C95D5771C61C8D92429A2E667787D470FCB041D0A4825E72EB42456BB8CBE06B44C5622BA01881253AE6CAA7B83613268FC7EDFE0C1A8494F5B752AE53C72981F9AB71EC51AFA6A0751FB4EDEFE759278713327FD6087EE3C09BD6554B7FA6CF10288E42E3C827B35DD5E368AC2DBAD3FEC82A0185B1A2B09F4FFD9D563FCCC0320B86CDC0166D62BAC1D5AC90C881CFF546E49AE840D1A77D2DBFB8EA26B2BC034FA62DC8E98AA4323623DFF87D0350096B193239AF8BCC332EBA3B0FF5ADC49BE2303 D9616B12FB4F869DFAF3ECF40A6BE346FBDF45FB270184D554E488C6DBE89FE59B48FADF3E1AB620C81C2CBF2A9848F7B6BBCD4EC278696A54034BC9992E279476D01E6FE642D32F08D2120C7EEE7A3D3B9DC43DF77C64D8A55C1489371A525201806BA22AFEDCC9F55ED7E37D30431D688EA85B9EB53B11AF2460A30F1D1136594516BC09C0D515481AF21FFCB331CCA66418125FA8EBFFB23BC3ABFAB25B3AA870458DFC21338514E54D71D6B27296E0AAA92F7D5FFBA9DBBDBCEBF66C07FEC33BF1D514BA9FCCAC464525106F621EE6F3F9374F126B8DB18072300DEAF692647C4B88B2C4FF70B82B27D29B2BC3ED3B94631714B0A07E04F5464660A4ED81 D6F5F096058F2B3FB9143F8B3D29E0B1AF173D8D54BB6CB848B0BC41FCFE8E76AA030F24F91A1EB0472DEFF43B511C2160DF76315ED911B9E90903EB463F8541311A7B66D82EB49B5B832451CCFE96F8F780BBD6035ED0289CBC7A1B33B6CADB6097CE4098DC6B5ED511007925A007A7B3DB5CFB55804331F06BF8DB55CE24B30671D5B770C32B4BF6B3EE150FC5B49C133708DAB881C7F2EF310794F193D1431505F2AB7B627772D430CD24EFDC6056070803842FA60D40E11FD79772849358467BF776440EEB17204A6BAC8457ED8773376930093E8333D89BD440F45C2AA2C47A6EEEB117A8319FAAFAFE3D6179B7032220DF100C504A570DF18D37C2FA5C 455209F047B06F37C234B535179A5944213DA913E0805EA6FF2602A951BB642139493B16800E613F251880998A423F4EFDD841A84484A8D288BC9604798700FEF55314173228D03E3EA17AFA6FFE0D716D11567E93127EA276B9AC925CC577B65EB1564355E3C81588A0EFA7AA6210E0F758B0869E150F401943F053EAA9D59DB1C6D38FF887635554359EE6D5465996060A3B5F68AB2979D8C26B53EF95FE13D7F8E919539B67724BE7EE90547D9B514F414B6075C99EE0E59B4E75DED8B32FC379CDC6AB74B93F8631BFC2B8EC5A572B7AEAE76B40F19D479AF8B6DD3CF555E2DC4643FAA309965663089925FC4CDA5577985654570B25236BB1A02AA4342D D953D512116CC026DC32F00EE41CD2BF2D4DCF2B6D5AE030640F8F31681C89947BB06251777B78DACC9F259CEB69F4312341891459171CBD48AF410219711B78FDAC61EBAA22C81AB425EA9C69D9453FA616CD332A1B6BC9982ECD4470F495DEB5AB9DF76F744719EC2687D882B5828C68DA99EB3B215FC668BFE783753B78F8305C6872A4D7ADE478E88D6B1B743A90601830F9F0A34664AC4EB9B936C94EDBB705DC184778A5B425886BCE1D01620E0D0E0797E66AE8FD26DB4F91CE4BBD685C772EC96727ED81B1DDE71046F36F06798AA7F5A3CE49A290BB304EB9C7F14AA2564E9E036137A0E4003033F6483115D0F09D0C1980514A7C6139AAB59E15F3 9F9157A403266EDE38B1E86C1A27102BD0EFBB1AA246328FA7E7574D8995D2A9811A7D0917B0BA704ECB08D6EB7E6D18CFB4136C10796B5BEC31563BE2E5FF4E510F8013BBC6402AADFB6A17C948DB2509E497004EB0FE0815B039DAD90B53EE841CBDC3F9DADF3C3E68CB93F67AEA576BB886D863A1F3BB37A235CC7AEF442E23E456E93498E91458E1396DC5190A001A78647D6A806D43A23124B67418E28001ED10B08E5EF2EE705529CC38F21BD7416EBCF307172C343369E379BCD594C6EA907B30D169F015C27955179DFBCDE55723F6F314BE8531CDB0FD6042FAD34C72D223227329D21BA7AF75F8E235061FEFD96392AFF8794A2628DADA8AD1F1CE 327ACFAE67DB0455E986C7BA206E70050C8B9019A1F26162CBFA0BA5F5591711C10B63594A300877C1EE7B40E4DFBDDDFCF920E8765A90B19F0EB2AF36E739A131BC9100796E0F1551CBEDA1B6DEF1EF5D037204B637F383F2F1425D534B1119DF7DF69239939F2208302DC2E9C05D432CEFE593E273814D320FF659A63A4FDC36EE9693339F16112495FCD94A4E1583DDF214C64BA29EB38A31E85DA17DCFBBCE8F8CBC84EDB2BFCFAAD4A437D7A0E54D067A3EFE1DD0F16494891A7CE9E678140CE65BC9812AA328DBED04086CF6979AC3C74354F0639EEF57C57B2B1246061A3269C3C6630307B37B4D184C47B45CB2B84214126D4D3D701A2A344F754776 5A1865C1B733B2C7A28CA4369F9E99110586EB655A429D11BD596A65A02E0ECDDA095175833B648820C2AFDC0A9BD3516D38614FD952FE1DEEC6376EA1B2AD3392C67C64945CA4B559C8402B25ACB17CB39AA21CDD75C1563400FF4FA35C962B4066CD6F455F8707E0AA8398CABEDA0DADF95BF6F433E26714F225D8CFD7EB634A74475E6FE2A91F2A2F5E3A75CB24A2C109E4C8AADD5B970FE8C81B05988F2B6A838A535EB865503D345D4E176CC47176C1B48065CA80ADDCA9264FBBB4C9EEDD4CA7058FD08A509653B132A8F4C39A21FB6FB079A5FF2724CA11388B8F3B927D6EFF348121E70DBD30CE40C8461B4A7B7B1247DB3D11BC5228E9A951434EB9 A0C7E56D6A8EA8FFE609BBE56968C385B969FD8DBF02F90E43F9E9A831EE2773ED9975D4D89571345E2C3ECE8A9F526C77BAEF70172F49B8544D1845604CCADCDA303B3DE74FEE5AF21E008025085D3DBE632AAAC52398B34133131845696104EBC58FD09FEE49E4087A7CB1E2B9AAE73EF11885E5614108A4BC29BFD18CBD77CFDC84A3933FCE458EB0A38689C7F1C3E43F9A63DB9ACF5584110D9D2876E9402EE329B5BABF9C00FDEBFEBC1E66B848F6E75422DE5679569A19357BB617B0D9FEBA1EC6C84013FDC4942BAB1ED484F2F3011C011CB3C7758D8EDE13887245F6B8DE73147D4876EE4D715326A2B4F370FB61846BD08B8B3DD108D9F47A413282 1EDD347898E1B4BE58B6CD83BBAE07ABDFB592A28C0B9B0ECF5ED59738AFB8657132FDB249D88BD78FA68FC03D8587BA1DB597F0D6365A483DBB3B958294B0D451752CB980DD36467E203E4CEE0A19B63B7371130EC4A988388C1A78C4AD76F9DC0BA4FF4339104E06EEC53C5FB25964B9D8D386042DAB723D09C3803077123DA0752D1D576F852CF5DAC3E28A990E7564C0E9E02E4E88837C4EFD23FDE28EC4A519B9D32395244670A081EAC84828F387606B4C9E6EFCCCD46A3D6BFACE117A1337341FE1F2627D9B2A038D2DFBC2E9FDD0EB29F3084F45E92BD66419C3C7B4C8A8E456C61CD6E0A203324174E9909347BE68B0686F8C80CB2643F428090117 CAB0E53E548313FCCAAA292D3B237A791BC930C7886EC6F2DA3F3B45C0C42415C3BE71D33CC4A2411F2D27721BD7BDDBAF3C6EB2C8C0863135F7BE106D620EAEE380AC40E49AB3302E38246261287783FF3F8B3A22D7856DD4EB21E9D9DCFDE7CDACD2937076F48E4068AC03D9A0E10F3F7211C3EC8C20091344070F2951BCE9D16BE95B1FB9628BAB3EF971D67175413E8574E3AEC2617B3A923B7EA40EB2C4E8848A8B6CF79CA479AABAC8AF30B8AC769498C1A0B68F082BEB28DD3EBF6EC7CA12E1ABC45FB21479DF6BB7C619D178559ACE23FF0A26E71A3EBEDE6EE8AF1518C3D71CFA9006AAC79FC294D49E422649FCF6E97133548DF5113E64C8762587 CBBCF38DA99DF88F62DB3EDCB39379F1C0595A72C5AA591E4979F4DE8B6A9EB4ABBD35A8E8889315364CA29035EBFCCAB9C2B91CCCF490CB190D4B79BC6E9E833E080ADACC28D85CACA5E7286C55194220D137510B59F9512C2E575B055E72F1D9B9521F00C365E76BA42001EAA6C751E4A6D0FC7016DA279FB605E756D827232CCEC32E0218A59027C91DC0A9FDDAFC18631915C1470B86145AB4248012B920199118E60F82BC9BBC7839BD5306529EA46D94EB845103EABCD11416712345E105CAEFAE5C7A8965D93C5B6C4C5D6B246EF5AD6572AEF68ABCA3DD1C687C9E59469FD5FD93705704D5E2A20C3DA54885DC76BB0C47508B3A09B1C3B94654CCFE C7114B38C5331A1FBE16B82131E2894113E83E5B4008723DB8A6B600FBDC470BA9CFDEAF56F5FB1C329E388C72DA2A77C70EF352779A3CD6169214E5CC73430D3EA6ED4E43485DF3E89ED9BAF2DDB9CCE7425D8DF4D5367E9DCF1D2A07E797451493703F87BD314F997C3773A4539B82EA749AC599F36A26B50BCBCBC7DD78667164448D4CA7B8D9675FDF3EE685937610BC570C8FB5E48B3BA75C566665F53B6698F92F1B213EAFE23EE7487EE66927F2EDD2E5018F79893CC051F711979F45F9B8ACB3A66EEC3F2D776D76205065320E3683BC2BE250ACB5DE48F4F1E5BB382F432C5D738458A4501E6AA469A98A121AB07050EEDAFC5A0A3C4E69984AD5D8 E25FC57A65E8AEB0A9049B87A2083BE4028D53A00C50314FBA571CFB4E657ACD278B2D80236EC9FD1FB54712E00342306BCA4FA64267DDD5605F8EEBC89CE9AF28E408FA9740638C017D72C2455952C0D6108AA63CB9A9345315A6E662F543B0EB6AE04970227EB86C7E1CC27E685F01F5D526AF2E0933765BFCA5DB76C58BBDD7A54D622154389280AB39D4A2D848F0F5FE6D5A2FF4AF28B98A74DB486158B7E8C728D10043ED01A9B8D287FD5422069057F17E03877072E22EFAAAE3A2324D35FEDF7E51EC32D6CDB730EF9CA98CFD96EA7DC16A6021A7C04EDE2A28201C7453888D16991CB376A28D2240E20488B336515CAAE2882D26F9BC9A9325EBBF6F 5D98898B9F067A5F8C73014F4D190C59A79F32A83226B7016DBCCD4405257DD49C2E8687394D8F50BCA425B10EC13E100E7ED1BFF04260BD6787C4EDFE5817CEF2CFFB2C76BAF955E7AB0403EB08C7EF5B160F11BBC7F68A376D649FE9184AC9B3B70C435BDE8A2161395CEB03D8E2EC3BE50678D26EBD607316D23B3746393B70CD640609EF31A893366E6BD7EE40E70E764601C264A56AA3E42F9C6E8C9492496CEDDA47E8685C253E85186CAEB274D00A81A0F4C2B5C5A0031169D3AE823A5311507A59261C036CA652B5CE5EC6BE5BC609770D5A23F2C22D43B8939D13F145392762AAE77819D769091A3FD6508B76227984BE9DC259A4D6B6B42D01DED0 EB2072EFA4F50866605EC54688414C0312B6E20D60BF1A2D8E19AD27F82F792CB7C5AA3F5468E8E050B4A0EDBE83BF3DF986EA01AFE2A11DCA8C19E8D44FA77E4B4147F4F879C3358CEF3D56052C67DC181E1536B7AA745B2377BC9EC9AE9D53C18AB65EBC255CE0AE47BF1C38D7718BF4CBD4B0FE906636697343BE575A1E3AB635BA67DE5ACF7D6EE80E353D2408E3EF43849DAF0732C921E4F1E5D5BD35FF896595A9C40418DB2020F9EB245EBD1FBD8EB9904FDE6B2732245BB198F04BE1C392E5A938A3ED6D566E12F16EE1AA43AF309071F5CB6D17BFBFD08FDC7D622A53B7A280840E470825A05685396346F5A80CED14129754B3A37B4C1207C56A9E 6A04C3707E9D3D530B4732335F07FCB8C02DF272E5BC1627FCA649C00878895F96D582EFCE619F97497EBF72F35095A46CA8EFF0A4B777E848B14400C0821620DB43936DAD5DAD79F3D3AC83A90988134D38C2049B718D54D5B7AF3367D4E9F9674681BE32D4688E68A562F21F22308F208B0F39DB459A9C06D044D0157500712D83D8AEF60601EF5F55F3BEFB160A1803D5A6CBAD41069C9F2659A6B6FC9F2FA95053D993C89851A3072FCAD4DEB30583DC21503E2B4917BFCD21F1B9F62B16A88C446841A1EFA51B6969E225AE10521E81F1D9C4BBCBB20D142128A0A716F2BFE8DA8FE89CDE9446B3CF3559BDA18EA960EA74351AACE2C508C992784336F3 810FFD2E265DCBFBED24D423C4F2102DDE21ACBB90AD22712698B65504BBD5E89C5E87CFB944F908C79FB1948CFF60A0F87ACF12D3C862A55F21F0978DFE65A05B17A7BFE71C9D7008FA6C3AD6C5F71E94038F58210D201A08DC7C6A4B7DBE65C05137E2DF3318372C36D15303F0B8A96CD493363337BB1370C57797CE213020396185C5F8C2EB15B3AA541681C807CACAE378FE1E7E9FFC54552A6C6975AE2B6ADE3C40E18185BE2A7066D4839F86C6CA4A05D4AF734E71C469A53C537109FD50A6EF80A9520D0237CC58576120334932948B6377E3A31513CF84F991F8EA93E5DDE7AAA4E88824DA160BDC591D8CB2FF3230383C65E9D4750B94077A324B5C 8463491BCC10FB5338A63882D7C67DB774CD6C6D0FFF6D700F078E2292B4815BB0B15CB8A11A848EF2E4975A646F869F8208D5422440AD747CC67EE4C925484F86FB1F6F0E5773706038C1CBDA04E1F1052D9FB74C9372F35AEDE2EC14ABAE9F8FC08E99530FE8D2954EE1AEA3D81A3352E83398E54B48D2890D8182627056E24D1975CCF8FF3C299DFB0E87AB35C5615414354DC3E2026F07867912AF8B80D25DEC95CEBB500509CF39CFD2D67A8D7C2D4E44C1FC04F2FC5187FE4D75ADB6C0B48CC2413BF32987C12A98E96158E452DB96AAADE3D2DB352C5C49AA63FA98E83C64C33DA9E603BA3800E80D36AA8914EB11938E763D041A6BCDF509556B7BFA AC00E3173530AFC00D8A5B8CC29975A3D3FF94466791A3A4FC6F454ECD9A1F1A5518FE989DF3DD052FBDD06DBF19D5EBA7B871C84A388E22B0EF0C6838275B4E521C1F64595E8B4B0E68F325E7DC365C8769E39365D5E147F4397DD36E62D26311CBD66ABDD297F0A3A75DD8D7B258C6376B681B6384198859C135CBABF30BD7AFA3741B25BA6025ED78A8249C5063865C9388DAFBD24375794DA4F63AF964CE8E1AAA7E4803F8A4B4875552504070902A2CFB242018F0FBA05CFC71C8E464F44EFE0F8C7E15FC5CDBD2B0FFF7F4AC18FEAC4B2F88C8140BC4B60004DF0D9D8D65DED137218F592AECF40FC94EE7BE8CE4F68B12F1D7293846D23550C57D904A 2E029267A034CFCE29242333D266358A5EDB1F512F9D6F325CB7B3599ACEF31C94C71E11F12D3CD1B5E12BE410E3B1EAAFC27C07689A355C56697C7D03EA28224E3D403685412B94500EBCA40E2F0EA10DE0701BFF47B3B662696929F33B0618E8D8484801736C87178670F4A9F9729040A069520E09A1310FD5F72D75F3902DA5A2763D33F03BA857D437D7B34F7405020E61AB6A8075E2129F03079F658FC067B029FDDA835648899F835DBD5FC3238C3B64F1C3DFF7AB055EC7192452EF4832F8F9B1F5D575F09AB5357E7225262CC14F808D91CD8CC0875F7D1D5BC6DB7B4D7AC1180A9F038239090A1AFD95C073778DFF298753A1774D69AB6EA6B1D461 CB5AA027B2FE74BD1F6CF7CBE4BFB54F227ECCBBD4E70655C1D2DAE665FE296F936E53D86AE6FCACD6D5D81432CF0B6D2A92E6FEF7AF7A0C52C094C429461C03CE8C2190012DB6CFD64F988290FFDE15A5FD03C615D77AECC6C749B0FE4091D5438F08AD06C194BDC067A1E8CBB95EE1A19BDE1044F04E07C69F50994D1FA854F0D2BED2668B2A607CEED2D9328C1C1D136A8429746C1FCB2850063F5CE619A8CF31C746FCF5788E64D6FB7B05C1ED0931FB642E183D76FB8877933545463AFAD29F9B0D9097E06BDEE10A9D245F51834E0689CD82A4AB227AC3802505DDE94CAD99DD23A5E532FD3D0638035166292A3B67467A937837C6E131449A1B4C75A7 C249EDA30CD6A30547DC33FB00B0952F071B903C5E70640698A68E8401399135EA809D1A5D3E070ADDACE06427CEA5D254AA1D53B23D2BB631DD73A6193EE522FEA33A3BA4ECD461239D5A547D34805DA567E601E9564B9F8F5C885361C2846788D176B287A56CA2780932EF3043F867398EF26B9B44D47B4BF5023709FFBE29D7CBD832A76D2F5D06929E75C1EA18C729C50F8C303810AFF0DB2E1E9232E84B26B6CECB7CC78A1A22A3DB3CC3FB53B953FB2FA8C91D4271AEAE6CFFC639211D65B8D5FED9016D90D3E34814A18EF81A37CBE13B61E7C775409B5A30E338D358C00E6D6C578E7B10FF1D614D2893CC69BA42023F835E4FB386CE4E8BB50C14D5 0326B1608D511E5A046B326C45B15C151E57E4891DC2EE4F81A8713D10054880D864C227D4D8B2752D936FEAC93F349C1BF72D6C51BFA6A7CA6A8536157A0969FFD48013593D964FCDEE3456A11BF65E0410339F30E4269159054508120E858D52B0FAFBC552B55014F004C44C0D7699469CF964177CA751E168966E9548752DE7BC15E86575E42579F907CC33DF473366CD3876C7982C451A82F9496F8C64A5791C12644EF4AC80521EC7F9F03D0186DBDF2EBEE7AB8995C6E1A83C19A8A3CACAF4529F4D6B6F32ECF85C19AAF92CCEBAD79AB71B98C455DAD642F496E122EA22E7369E951280331F2A7642823DDB2E9A0B399361BA5F80BE467A6310C153DF 01EC7926CF9FAE7EFE863B0ECF6B3D26EB200E0C94AD6F9CD21CF9B490CC9792AC71F0B827B78AEA67EA1385D14CFEA5633CE6A354E72CD028319825DFDF31AE10232A9B32419B1AB0D974CF6709E89D59CA040FCA22F2341826C61CF56F8C36429658B693068D45A04A30BB4A10EC2BA65692C68B577D35D9AC4E5FC5724BBBC96B71307887677018909A425E3D6B9CA3F33C5B9BADB073291BC83892864F85600A2B31E81827D007744F8FDC37C045463FBCA16C1A0A97E120692FB3789A67983857BD81422685C3CD9A1838E2194EF2032F997B1DDE8CEBD94B75569FC20F117B055F9E0DFCB02F0EBFB7DF15D0D7BEBDCE0E9888A48DBD488D6CE918991D DFFBC2EEECDF8CFF09FD9B36BEA34647E9D98A4545268FB70BA0A1E1973CDDFB38DBB21B866B2CF7FABA00D811508C04962DAC9E6B6671EEF817D56CE77C0D8B6F43ACE676271659813FBF6B7CF47890009F4A5CE76B5DF42498946DFC06E921304922ADE0B879A05747CB0868AF3EE394AAECE76BE1AEB371AB057C26F44D9C9C5EE79CE98782693C6B550378569768FF746AEE6BF0E8DB069E499D6DB345994D1294B5555C699081E06F9EDAFF694505ABCAF02B7EF1C6BA48763201505D40670F921EA8B00C6C67FFF546982059F54D9C196F8D17B3BC0DF37E2708BB1EA1BB040D0D6D3E6968CAD1B6B5B78AACDF548227490B7CB575408D601EFD74FC3C EE561A8E0EDA5AB0071091044CD2EA9D360F9126355ED8ACC34D5BC1876C8F426A08A73A2FB177B37A0926EDEE7EDCE231EC823558B4F25D3E09AA11E616336BD57764EA650C196581FD3DEF38F4E9B01C1E297725A58FF64B80205BBD976E75801C995063C364DCD2B5C876C2BF1C49DD1C2E7DA7C42E7147DB3C7C002079DD40BA893B9006522A018F9F50510F2263838D110013D085698B0B8FCC12628E61C7AF773784DA9916AE36D7FEE663AA6674C9C7D099641BE64CE8BF69CF90833E65C2A8079BCDC800C8219130784496D3700AFC03E2581FD3E8D95618769DFE13029B3105D84EC7984C830C2DDE91CE7DBAD238FACD58766152D6CF9C261C7573 8C33219CA592F508C09DE37E8842FE1A45ECD5C0392AA2BC068F666346DFDA6B1A7D15B51EDA9788453962BE3CE9C596163689866814F1416B78FC4CCDFDFF1A30A2A6EEE4A2CB503CC5746A79800947AECDEA5845A3C7616CD854F96E6BAA68EF588C9E17CBE6B4DCB337A1921B3B80C4F5328B4DB8685D1850DB033601D5DF65D0FB64D039C44A5EAFF0F7220FE07ACF36E48C8874306E4E34C92708C82233CD0EE7B1C0F93C5F81C321BC0A9BDABA1D671C077A872C5C38DE62A7826A355E303FAA513BE339637D31F647A7AFAA3EDE1FB5D0CC820A779E011AD79330C5CB29FA3DA72BDFFC6A22C0ED2D9843F9D706DBE58845329C54E28F2E4C051B7A35 807CB422B907271C395D2BBBDB9F2344779400D7A0793E9B10EA54EF3F9BBDCA10C4A7E124AC5A5B1B1D8110FAA95B21658E22A214E3FD5A2F3BAE0506A89249CE02DAB41F7DF94EC9C340870D2F1C284DFB81A6C9051CAA91D49EBD6D42438ACCFB9CADAFCFB7EE2B0ADCC7A8CD7CB6AB6196CB3CA36EA135B25B0FEC7A2A32829B88A156D81B558B262079C3A5FECE17CCC6422C0B70CDCF037ACB7DB37AE95D769B51449F28EB8D6148F19D29A1313708DE496417C0A703CEFE3533C6C89860C7A61684E7709B2288F515CB955A7D1AC28960309E5D5B14EA0C054189A6D27A51C5C3C4AFCB4CFB6EEEE098297DC9236A7891548B572D4E589A1D7D2CB5FF C02C2C79A4DB2161F226A8223EDA7D1AF3DBD5D5459A89F9D9EF1F8460672B0D041ED4D4D5ADC7F5CBB54E941189029BCC94DF3472E3C6F34E777C03E52F5A58C70B27A175D227DC42742EB833AFE1ED1CD702E84A60833EC00C9D5BB54067FFF720406203BE0A85960E1EFA2E028EA79BE9CC7AEE33E9B70C07B21A8CC47698D45F03D42799EFF5C5E26ADD5532A5D60BD06ECB79E8F1A6AF5C6C9C2EBAE0128F53B4D9312879F0ED31A56A225C07C711B633853BA9B6A0E669E49E81599FA9F1CC8C63DAA95378998088378273D8F5B258B0753D8E0C6F9001BB381149964A42A2E014C744E479B1BA167C0AD3C2B342E3553325BD8928EB9479C72D0DE938 DC77694742189C2027476FEEFD6BE698D54741155B07FC2A2C5965122BC06A0A016CC5F81E52BB38D67B6466389919596159D89C768DD8B863587C3E872753B5FED995B21CAB05CCD47321F9CBDCAAACA42B1ADCEE463364BA89FBB7F007EF882991769D6262463AAEB829633C81EA2843C84047E7D156D84BF547BA3C3D73CF04EA6449DD0481F4165E66893C47BD3ACE6619A7C3CFEBF549E686CAE7B0B773EA4E1C9C0C450A0FD880808AD9493FC8B8B64E00F4DC7DF462DCDF648B18E828191C091DD0A352B456022EF5EC326D19618DD2C4083D887E8F9330CFD67B9E31669CE2171EF1ED5C86CA62D21F5683578954B0786326420C36AF335672CF245D BB580D91745383C0C6F8A6BC187BF5BD94D2EDD4B7CF1FEA8FE8373980DBC5FE8145D2DAD33C6BCE87AD9C7B680F84B5000C126E1313F923F7163826AF7E691DACBF655EB2B3402EA47EE5F33AEA45378A676D12CEAD9CC0FC7AEFBFE518A7188612765B2C2E63213118E0D479762130194ECE75CD0BBE9C49CD8139D4834C46A97817DCC21982733B30A0B2454C8A978C807276EA5F90F94C793B9562BCD897FCC93D3C0D666F61B46D10DCB0A1F99931AC04C69B3F12CE7D19BCDA53925B5161FADCAF846E20EC639349EDE07611C4BF4EB54303F58430DE8DE48184C3998F99FCC40675F19C463612E542D3B0A536723F0CD68F69AFA6C607E3C13A7E1518 4C2CA20ED3EE9EBDADF66A9DBB2B8068C9FBB785FEC476816447D28B34B8B8F11888146C3D558FB56E940E741276EE39ED4262747187C5BC1C5058044F0CD352ED87F086C266C24C4A445A56AFE44242F9F8B237D9E554B09B191C6221A210E8C382B871D7DFCD3DD0E4E426278F17A2543082AE84E927E9C9B3D62B58F1A54F000F728A19D5F0B7DC5F52DFEB005AA277EBE4C49C48CF29B9AA35ADB060D71107BFFDCBFDA8ACB788DAE6970A7AF57DF4E1F6B909D6124A7114E84B5652EBAE418143DBD865D284BB683CD31C2BF1D0A00EE62DB469F607CF055A84A781A1292A7C3354D6F0A1253D0636E98F46C1C6EC081AB55C3DEE46062789AF0635538E 0D7247C5E0C969750B41E261BE37E2960A2EF4089AC15926BB88CB17105664925FC7F1B4972483004047C309B326D1571E422C3124C9422E391333539D22A84AF73C8D90440C0D14737823AA32CBE296B6C784E3E8FD78D91D9897923063A042927DE970980A3AB52A676E4871781E90A3B0082BD56C219077C27BE12F92BFF12BBDAD69CDC4B0023376B7C3DA2CD37368BB58B7FE84EF1BCBBCB0CCDC948DC809A362533758220EFCCDC149FF1B476FBB30E211EE03DABBA0F197B78BB63E7DFCE814C89DCD3D0B99048E21A2934630B386B5F3839B08E293B4A9A6AB629683547EDA0E9EBE3EF87D6FABA77EB05403250783561133C63179A94101A5C29390 287CDE1F7C53ED5CB0AD5A0476C26F24527033F9C9381E0FB70BE9AD268CD310B238FA7A5A8B636AADC9D3EB4343DEF66CB756A95E7764B6F5FCCCBF4AD8A7DAE6600074B5CF19ABB8A3CC1028684FF440F94CAD2810478DB14CFE47C98AACC7F273CCB39998ABB44B0889F6E3296EDB03545C014F02064E9CF6B4216031B0CFB2FFA702272A8928F7436620054BC7DD2FC9938DF1513D379E1BA326EC2420A6E7CADA659F913AA44CD31565C956EFD746021327DE60899C1E79180C40B09D63BFBC60430D9F9E24667340C2D61A85461FAD2DB39A5249A4C6DE6C5C924E2573539F8F14AB5ACFDEFFB5FB2F0CD4C1120B2A96AEA37D6680457CE78330D59D07 3FB309B538E23FCA5B198FF354324DB701D95BB5E7114E51C853F77D675D148AC5DF59B0D2EF9AE91F43CCC2BDD76BA3A21A276EF080268516F6425949D6967D8C2D2CC8E1B2EAE135FCA84F3450AAABBFBFE8B7302A9315EE8184C6C76CDCA9966FE3398691C77E6F765521AFD79A6F9971134AC9274922A5631F9CDB292FB5E68DE089028353B5372EDE12FCE78D9EE740B4232580833A05DBB19EE5E20E51DAA5460632298F1FB7E5AA188C4428FDC776A78B7B3949674969FBCADCF19F22F9353F6EB5FC68FDD996E430EA746F2A2683FAFE06B7FB75915E3BC7B414CA5BC66DBB09BFA93CF0E5BD43DAC384F2E82BA4D1F4EBB6805D319F818277F2A17B 6F05622D68E2CD099854D561C2B088ABB9A5D0C1C19D6DAC5DF7063F5098222016DB334E75377AFC16D0AE4039F3A4E3ACA3AEDEE0E5FBC9B51B4B056B88613D6BB281B8E5184D2072C2FC092D9F861C422E34939C45C44A8EB4900A1FB1F636495548E7F0CB755DA18EC8339508359486B2F38C76A994CD10099E503F2E8CC6648006ECEB8BDE92B3F0D31F812342594D3E742714929FE3686A267C5D72C99E3BA0EB5A06CDE6D88C766355FB4DC01C2F0D667A9372E0E8D82D817A5650A74BF63937DABEDEFC97A3B381AB254441CAB5D4E8493D72E5EC1061B0A6E000C195881B8ED6B04D5671A9948762FF1FE9284E0DCA3912ED24E4E3DF83ECDB0E8FAF E4FDA2F78275CCA10B5EF5F2DC56E4EC1F93D286425DD2F9917190A4016A8F01C032BC7E263DFE8A9EBD8232D532FD2DB9501B04A2245AE1A9B88281645197B41A035C8820B57938256EE3991084D5B02A185A55232FBD031016037BCFF6D24CBABF56A007B58B5F6BA361C8D3305E0392952850AEE50EAA7C9DDA734065D31664089A1B9B775358636F9259B7DC0F2C1477988236BCDBCA27684A632BFE49306A11CF402FD515AC362A1D3FFFE73C0E706A317272FC3B4030D6A5B1C7489F46563E95F892B1CCA6796AAE485B124FF1A33B5343FE57E6FCB3A3E20E8E7CE1B31D4E52FDC9561355A3A1643554C1E099ED7109B9966C0B3BC4CB09CDDF6C8DA7 22388C4A6138DAFB9785204C0A1D3AE8699DB778B03AB86E5E5AEC11BB39D4DDFB834C38D32A6817EC63633C8282D482330E38100942EC451F9E45B382EF2947974E7AF69F6BCFFB79B4D690CBBC3A210A07142A5E137CACD6B1BB77ED7E9B3AEC9CD4058FC3A6A95826DAEA650891785E68CB7E477BF8CAA780B149BC67CC2EF7594B7223CBFE9990132B6ADE711B098F77AAB667A317045121D98361302AB21B71140996076AAB2F5BDCC6AA4EC6D3A3359FAB4E489ED8F133B03D766C90FEA107DE3E4A413083CE32B685F8694F7140A2E61392D4BEF697F5B318BB5B6D1B811605126E03DB2668E4C818C7A422255FCA4DE3E0F2611320BC761489FFD356 1E144FD68F0E4A998C3D3B76FD604ACDB03FBB141A77CD213765F64FC0A3C2BDE4344FD6F6F24C33BDED9A9E3E1EB96EA53C49620DF061CA4337E2B80DF63263100D22AD8B3C1496ABC65DC474B1D3D49D4F3548CDABFB7BD5DF6957E9A06D92A618A2E0C7B209269C916522639639BCC47940963D8B2F391DF3991701F8CC2034D766A293161AC6D424261BAA8A5A73B910972375509A28B5EAD220F5B14A982E6BBD18D47ABCBDEB6D190D77B4D7155F642E43D9C7252AF30308F577186CF8F36DA82032B41B06D10A88F40752EF3A2D90C0E8512FE69D29AF9AEBE5BF881499A9CF1E2FB5AA453883F5AC058CCFB7FA80296A5362434F66F11091D7B02E43 FC52922AC0421104CFCA29DE22713F28D0B11F50AEB96A312D16EDCEE88FC51C78ADA52016A8D0C1C4423A8B0F1EEE5BECC50D647E58C56E797C79FED557B51B079023B15D4FC114271F30D90847556BA1F9D009DF91C2F6C04FCEB76AA8D1675E6D13B66C8DD1F9FB2A07FABA7D56D8EB9805441251B0CC1899CCD083352EFFE04544B706F8FCB96F8E1602630A362A27C56E18DFEABC76FBCADEE7829432AB9FF053A3FB630BA162C5FF628DB4A13FCA772192A18A7A9D9DB1EAB48731C9542C85681317E6039C0E81F7F4297D25E5218ED7F12361EC496DA9620830ED126EED93148D5584C7D98C3118BC528142F9F71FF8008EAAEE85581C1175D959C850 5E7470C9F0D853A9E441CE1F8B8E21C570B924CE7D00BE7400AF2F61A288A9C3B5F42A52D64229D4FBAF65A028D5635DE003736CA4D4AF7A2A97B7585D151657795AC60AEECFC5D18BC592451CBB0EFEB5C088DD6589ABE4C130714EBD0E84F5DBCA0AD81DCF47F00CE778D0304E9FBA52C52205F213B95BE21EFBED21CADD3FB8F5A3D40C82404FA92F32D01BBF8FF30C9F56FC63E1116F1E54F4FE55DFC50CD6CDC56492ED92E9E56269F559393801D7BEC228DDA85321CE4B2EC3FBC2615F4D30382AC2A190D9109275715D209A4B206162A2F67954FE04A8A9A038ECC294B28E604D2093BE3BE271BC2226A3A16B25E912048DAAC19CDAF51D35F0A0849B 2D9FF5AAD13D9C694DF855479584ECAE336551270C3973BF08C245486180F4837C582EC6C6407AA0DD5322E71F23178B7D9FA3E9E562173F4F5307F1280BADDE124C420A58D939669DFA0D4592C778577ED594840D43F81CFA746CA52C4567BBE03B86BDC550751866A0579AB7F249556F9379C80D01A9FEF163121B1F9402D09FEFF2630C5FD7C7B9D9AE0CAC8C41D6F6F25AA00DA96D095CA4C0790C3CA598AEF55B0B43DEF222C1D002B2F66A37BC4377589495B92B6BCEF4D28621325FBDA8DF9011066BA86F26F634BEA545284E1208F4EB4F5EFE3149F347062699201D6026580DF636379F56FEE206F385D8E24ADD685100A733BAA90484794CDAF86C CA2835050EBAE9A92E3F5D7617185B79404881CAA7B296531658ACB8B0E1523B01420A21329F53387396F843F86F74615A5670B2784AFBDBD3DF90D877BA54266F90499C9319A6A181ACEB40B4A9BD5926C6C714666929D078C59EE344DC75E6024D180F10452EABE5C5AF7396DBD2A85806B2D3D0221A996835AF07ACA4A14D99997EBC875AAE2E86E5BD0691C70E403FEC9323785F5D4AC7C169BFCF659D44063094A5A7429A3D1E872E1FB3AFE90AB0D0FED94D6C015FB922972B74F90B0C8484F15DB5E2C106863D4DA50626AC2D1D149831771BEE4460C87362C67E64E3DFB6BDF67C55975CFD929497E7A5CECFE4ABB3ABA5BF67D0CF3FBAB0C8CE1623 034F2FFF53CAE8DEBC814141CC15C739704EF622741B8108A4A1A2CF7060BA65C589D9C6D2D25A655DA1D1458BFB901837F69A4714A27C139E7C22D29E9686DF7BBB8C6B9690D4ADB5CCE7221D62B8EBCD4E574EA8673016E5FC6161F0E7D727FF55A3DFFC685544A6876F38AC2F432E0650CE11B2E92C6DDF397585494A8B46E9CF1ED31F1A4DEC733D564030A05E66FFF291F863A5B1144CCCFD47EFF79B0D95DE07057144E5D2967548D42B25BD2DA58C56B7C83FFF59BE93240D735A8CA8588A7C1B5A89A19BBB1E40D7A5E5BE0AE9500B53BAF00C15B59153451BF53E9977B91DF3CC5C7B9E5AB5F9CC21AC62D3496B4FD4EA60C9254B03D61FA2D3F110 C9E9B6FCE508D3F550E35B44F5BA0AB703BCFD7B38132639FAD75FAEC0AFAAE06E5AAC33555A7AAD50408D3F4A6D8F0111BAE89660F1C2062593395DEA2176EDE3ABF85185792FE62B387E3EFE3BF86FDA741F341EAF340CC35DDFE058CFA1E9E3DF93FDCF85FEF466D3C0D4863FEDAC1F463280CA1DEE092FE145023A86F86A14DF0DBF19436C69EB678BF2BE644117837D1B4172593000F3DFD5AD7BA9E791E2DC3C23FB8A57C78164E6BB56CF79037358644C71EA8FE459679FA82130E9E6BFF7A4B4859620EA9C3B6EFF84A620DE07FD0477A6AF65C8957834FFBE01BB94BD451FF061BA09183CD4B5156825CFC4BF2A9400A9131E39884805DCFB9F5E4C CE3FAB2D9047EBBEF607A6DDF360023C9F37357BC033E34649B8B4BBA9D506F2D5D89C14151C05433364831C4507B317E279C65EA1B56DC3C23F35140AE85A830A3B7C99968F0242E9A642B033FD996B7D6DDF1208137602570CCFA33ED89E277929492D175AB26E026EA354B1F32C9C5FE74947ACF4C1D826CD50E222B5D1F95FC319462E20B760CFCC00C4F07432DB355E696A55FC8B53BC4DBE76F6818D877B404997D8D9CFDC6CA8577AE4F5111910F00371AF7C8314306D16DD5F439500E3AAA4D029C0E0F4EFEBF1C086D4E14677FCC581FE7978883DBF5A227DC37DEEF13EF1A6B8D81C1BFCA9E2E29015D2CFDB82B2BDFB7B61B7D47DA9069ACCCBCC 883456D3E2EB7CC46173E9F91F5105638BBB5CDAFB99D84553CE44FDB21A8AF60D64157A03C7A89E845CF04A2506CE41C96DF8F371DF761AB56CDBE329E7EC2ECFCFCDAB78E7D6762716FF612AA08BDEBC35BF5527A9D7F25FC3C3C7BF71391B51CF24FC4F7C5B09483D8B6F7E1CA43B9FA2F1479BE877BA85030A2FD9621816C871108FFE10384A45E40FCAB247A65A7C8DCD02A062E256D9516A0CEA87EC6B4211A6E9ADBDAF70D9CAA8139C5DDDB2871216E0FE61843C7D80E2CFE4F5A1D9CA20285B1A8E21F7E4D02802B06512E3BEF5F291FA2007374B90ADF53232EBB015525A153AC5C9FF0BBC860897612AA077B7E69F417D6D382B38D11CD88A4ACA E817E8C62A8F825C71FFA63FD0681A275BA3E40A0DCD61DB80723A3BBEBF9D2F0B9DC277B3D067D59385D53948E96FA100EDC4F25A4010284B7B45EAD6B8A8C7AF77B8E1391EDE8EE9432D4A579AAF8751C037B775584A96E5C2385BE94D14A239624CD3DFC461572F046001B208A9F7D8731DD0F9C76D607880892666C0E3EA2141A141AC828185F86A044F34F230214DA10AD4DE2EF3E5A6F4AD78DB6EE55682E11D4A309255E6FB4CD2E5E3F4847B74464C8808CD1B8C1F3649C68B5CE14A433C853B1DCE7B108261C264671C2EA4F70452B1B5F1273512924C4D8574ED2878F2E350B796E05EB928A67B7A7183756BCC2BB3F0E20658A9DD21FA850A9329 0AC89D50A20719F7D455DE449841D64F40A1B1EB3AE925B3BD3E31610666A99DC557F474F3BB554076D9897EF6C5A0D955A1C5F399B79651ED145055B2198CFB13B1004ED3352FBC48C38814881539DE77579B3AF0F67EC2ACDD3BBC0801CCAAEED8C10F4F407B800DF08FBA4641EC23E8389D6C1FFB4492929CD209174AF6FF05005819297CCA6848F5A5FB827D479144FADB09735DC364E795703C9DAEACAFB825D4270A5569F54A6217B391551D19E1EEC6616D440A74078C890C95B207070DC2A74C31F702B5A660C71F6478BF8510ED922ABA4633B4E3F41C9D84CA4CABDE12CDA2775A25624C53006B72EFEAD0D46C0184E4AF7B5705D977EA9182F4A5 B21C2FD6944BDF9C1E27D73FCDD33F14E8799156EFE0CD483A23171A4E36CBB2082A31B450A343F9F4C74A5F1608BE29373B623E75CF270393106A2EEE2189009ED7742538F9A925880F6211B5BE51642F3F220730BC5736797EBCA60027B36C0DE043DD9DCEA79EA3726D075659D9E30E593D9FB6A1895EF3E12783C2C75F24CC86985F4AFD6303D95BC60D5B3BACCCB504EF693B46A48DA72A1533076DBA23E059B940CB2D5129114AA650F5B99F561C7828304E4373532794B6D17505A079A440F119C9EDF1A7CE36C15BA54E45BED933EF70C1CEEB7DD8157872D0E58CCA9FFCE05C85BBA9C834398717B84348B78C31AF3B1E552739CE08F0CE7892BBF0 A7EB2B53975DAF1CEFF62878B033DB06112E37074E694B29DAA159F38DF8F10851D01F9EC75E9CEC833C8C421423979F014BB4C23308EC6325E2D29E6DC638F17497DCA19E0D6B897C050EF2446A03311CCD417A3D12F38171B18B3F6974259BD930923802B9E4A06D2F5ED84F188C66B032675849A274A6BF89F5E78F9AB8AED5B27768509DC5D6B591BF08291C2EE8F6BF4C3D4D026C9FA8209B18B8FE47E3EC8FC9AE7D0946640366D30A4BC3039DBCEF328F77E757B815FD0F4B8F7C14AEA67AC227DCA4E3284376F5A6C8338517046C2BCD18ED5C45992D21A4612FF5E534D22213950A2B9C3717C09F7685E242A14A3BAD8A564AE8CE1FC12726938936 D8E2B4800349A4AAE901C12A08AFC9B0C78CB09563FB0F9886E2AEE2A098B9A09379801B8E41EDC5E58A4D94E70DE137C325EBD9F3F4EF1AE12E0CE8E60A6F31B335D931DF3DD46D8AD00559F889AAE99779D8C9573C698F7DF171B5BE6FBB0AE728484159015265D47DECD0A35531B591D8C90D908A9381F2CC1A904701A5877D069E31AA2FFAA94416C5E3393751C6E65D6100D107207263749394FE1BF218D180AADA2AC23B6735ED502B5450FC87FC150EEF8D7DEDA86E4F37819BC10640EFD7DC970C51B1031052F877987AFE5AF4CC9D70AF91C5DAA9C6945DF6F456999F9732900EBF3543E881E824B6078B6515279F42D8440DA1E8E10D5258728638 9F8C5A60E5497EA06CDDEBF6634A4CEF3C1A423330F39596A8821187DD5469E18010AB001204266772D498C964C248A1161F14806A42EE98F163EC28D911A06671B7A622C87C4A93A357F0A9C94EFA3E394B639516A77095B6829D28ADEF13208B84FBCB8DACD88580FCB29A715D3E6C8D4D7B78ACAEC3C8E834FB9ED5CF90BDAC8442D2DDFFCB714EC75B08DF90AD767900E8D71BE8C7EB111F958EC6C9498513BA244933557A4B48426C365E0EB2625AC42BAE97D44CBBDAE3C7869B33288DFA60FD52025716EC802A5BC3D91DEE39C039D7D66B88288D35BFF96597E549B1E841E2CD410EE85A7019DF00C356E856D02F09B085AD9571BC38D254EBC6EAD1 DD89D16A946E95E2D5E67D8A01252106E8739864437437F4FCC62230F2AC673F68AFF5CAC55EF305C88F06A02B47020D4C44060B4171F374B7B308D5304A555ACB01DE5369ED5782891C31C0C19C6C5D6559B6983FCF313761AA224DDE939F355AA23AC85B163B5554EC3438063FA0C2162B8223B5217D7B5FC125DBF63CC34D0CC01EB66C558AD86D399D9C843F24592BA343512FFA294D5FB1C35580BCEECE51BE206E7244617044CCCF09865A6F99BDBC1935432D85CF2502C49750713E7324740703CBA8B1DCCC70E5A63311A85CA88A87B51E4BBD5462DC9E3C5BC19F0AE7665BC4A09BC025F20C9808F2680691786AB9C6231329703D03DC63A4F96FA3 E3D880364EEEBA5E888B6851D6E99AFA117512BAA8FE1F39EAB21A8109F8903F2FFC2AC9DF233FD392E394E04EA56BA32B4710A1E4CF48F7FC0E9A67BD4C9153A842691930B848463EA7DAAF6BF7A6D9CE3E3BC6FE0BC98D7901F1BEF045CA3ABC9589F0339A336AD0FE2D50B93DF568A0988A809B1E0CB68918F23A83685FAB3C1342E811A42DDE2C1386503BB3FA193F93C4ECCF95ED9AA386E6F7688695F324EAE82AA8269169608BC5E3F97DC056F31C5AB6451C37B90CCEAF36207021DB35143F6AF1E04AB5E2009D72FB35973BDD712CBED7FC814E1AF3F5DB8DBC9BA82A80F4473ACDBB09E58C6076E5324197EE2AD5B927619BDA5D20A68967B273FC FA96E8DE324FD6B7987D7447C1CEEBE33E3C9090C072938A0E0ED2CF3D27DC9ED741740A147E5A50F9E1A5B2D4D3C7EA3624EF0ADC8CF49DC5B7E48320E0910284BFACCAC3A0C7D7C54A014A7B42E0DE1D35AB71748CE2D17A780422DC0657D8409CDE1C65FC2998093C947C32C623886D06B335C9866EEDFE0B5A5E3736131B04DC1B1FA46EA75C6886CC47D16B7C507E4B2EF1218E5A8DE282B70BA2E1BDF452FBF6639581629FD34228345588EB041D8C90C2938C9813BF986DEE0EEEB4613DF018E510907D229DA4C95AD07DADDD9A268F5DF3EB7A33B5B77ACD0A9BD0851A39D6611F406E38C41DDE529C75CAB8517002DFFD0BD9F64C534619687CBA1A DFE76A950CC6BA4C8B20CE58BDFB3B598635838A7B13C3979650245A189E8C11B63F7CF1EFCC3C91531E354724F7682676106A6149F94BC12B1CE57E56AAEA3BCA7A9CDA741A62C1B825E9130F6817B1C82DD08A5AA8D6FE7A11727A013B05A0F1C8E3DCC8C155EDA5B7A23D6C1277126547D4264790B50C31B21AF500F56CE2FDED4206FFDB54FBED828B8F7DFA0437E4A06139C25F1C899923EF133C5AC1C3868565B04B17C06F7CE0916B6C8F05303ADA6495F22E9D0B7540F4141CE8F2681D57575B00C1F771F5D420C8A44324D824BCEE59DAB2BCE107D45DB782BF3B21152C4F854C6F572AAF788E0AA9F3D00A5D08754E10495B6F44FBE99686C33446 8D77E676803E82C9ABF1A7B7AE56F0A60FE8E95FC6B156682771D8F016616ACA6F2182AC124D91490680B56156078CC55D0481E221AEAF99E389B54AFB6E58B96B9D2C0BE19459EA4C578EAEB3C73D2859C96EAC4CDDBD77BD043264F63513BBE232E2A4879F5AB7DD9EEF60DA1AAB60D952A3B38035E6F08E7D0D21D30F42BE3F557919E84093C0123D1BAF9AEC57EAFE10A45D2C537D98FC1E8A07AF120FFC96B774015C533AFA708621B2B1CF3C80595FCDFB8D7EE7B8044C3D4222E958AF11BD6622754EA5B99ADD02B5E0AA53BEAB502081CE41D6ACF13244ADF1A60171CDFCE7A92C5994151DFBCD65603472AC0372083DECB7AED5368E6983979876FF C722B5412623C07D70C2C3B01319AFFBC630E6933A3F4643BE300316DD603D70D884CA1808095A673AC4770231C54D7B7A61145C4BDE5F003257DA0A25F4DA884C406A17B1E1AF99DBD119B1251C9D9815FD2B8D09CD8DDE688D26EB5E333C142C9C4670EEE6B752FCA068DA0E42A65D65B6AEF85A537C174D89014BD106F60E69D3A4409C769BA463E5FD8BC4D09E39D80F80F8531F618607D1070CC2BABAC77966748508687BD58774C94F92200E09E824F123DAA9FA1451C167F146D5017D4231EADEDC1D6821C76ED75AF0BC69E4286B6A0CAA93B762793220611BD1C7D8B0D76842F7220AD7E4D96114D9242093AFBE7C8D1CB4727C3F1DAD22D64B5159 5AB8B7091545030BB4FFE3A5C7A5EDDFE88BB8724458C02A34944E7425B6E427C193668A008B7D676CCBCF3606BC1A02C55463E5B4F84289728CB2A11241FBEF357D42831E3FF53135C5EB8B291A7C5B00B897663AEF3278F61A0112EBBFB8A738C07A62385D1194F01AD050DFFB056824D7718198B5627307ECB3F83BA2685144365BEF168DA971ABBC75F3EEE782D0C98A08DC799CA8867912E57A5F53C2E5ADBA287331B0AB39DE01CA25CAB0213DCF5B037559D5355E526FE267F5E76800ABAFDB44EB74B5EE980772A273901B2E1F4CC4F353329FBFD52635DB390E862B9BE715FF7C7D03BDEC31C2644378DF9F5DBABD619B6B116460ED338DD28CD160 D1D0E3DD91619E59CB9FD6CA2259A0E25AA0F8B8117E85EE1BDA454ACBFC7665A54444635E0C075C8EB4FE7163D1B08832A74A910EBAF593859603D99116590BB8C66EDADC8759E5E5CD111B2B971BCDB116B18158D87ABC3D587C4CD2A01855240288F32441C95A20FBA5551841C8A69FC7B42FF109A6026F3DCBC0B1A39FA1C0D2E8C34BFB4C641EB7DDAB98B8F8B789AAB957383FD685B79D248E68A53665C3B0FD5865245642E16E7E405BF054C5FB48F9A9F0BEFA771917B857EE25C77A789AF443C8592AC6FCB290E24A7892857879AF59A4353CB5769241074B12C4FA9FBB37E9C9912123A42DC693F7E61869634D79F5AF41D1E758C1DCE3CD16C46A CEBAFE6BD39365FB6AE068F81D273B7489A25B3F88CE05FA85EBB4BB2DA2FD0EBC690AE8B954C1B453BFF48B4A4875433B72339005A75DE520688BFDE74B5A53C46116AFA9B1904FAF08ABF42420CE8D66410FCB85C656CF3AB28DD8535C90D73F85E7A61E0EAC1B17F3F82C8AAFFBE5F9DB4B74F493C69283B3D83DC4084584509732BB879F6AC21C8EFF268BC8125F7ECC261F6F1F8143AD4FEC7051F2D03AE05208A4843E24E667D40C281370F880DEC7BFA1D24DF1ECE5FAC96EF33B3FA51AB58591C6A024B53837860441D50C403D7D9758995CF37058908365D8D5F657044F2BAE5547E36C23CB9ACA120ABF7B055AC52C4FB6839E9E2F3EA0CF7AAC99 1332563A41DC72E7FA56CD5F3780EDB0FF5D9B0ED74DB615404B5AECB7A62110F721534218819BD8C7582AE26955E6C31A265DE8404CF186A11EE9F289FDFE29B1A7BCD5BDBBBF022AA92F12E7B0B4CB2ACB75CE05DEB49DE99AD69AB311F4FA3A47051EA9A9F255581493FC371BF32F4FAF244632931D371152DA7E6C38069EAE051AB7F7AD372FE0A37ABD9D5C1904CBAD83A09FF8E6F1EA22B7F030D57190697EDC58EDAD040815437697B9708B1C1B2D59B6D46F20996677AAC1B059F24B68F594817B21992B49FB277DBBB446231B5DBE0F4EC40C15A0EE9AF199C42472CF8BA000118F365A9CE2658BE5C9203734DF1D0AF6C1F44F2B6518D7EA560C87 A3F8BAD67A523EEB72EEC93828705738ACEDFF42234BFCC6BC0D0167D79930C8D033A4718A95562C2143F7AAC19EBEB3BC79C617FFE2B1ED3198432D00388AC83E9B8AE5FE50D34BBD8EA6A1B8EACC872EE45BB342163FFB79BB4EA179D708B512CCB377FBCA4514F3CAEFB48CC2CFAF6B41411558425D1EC7E5CC361602F8301EC4F11566128F0A3386C858759E2A263E9D67098DC249611C9A7C14F0A4A4660712EFD550276D5EFF98DDBEDC81E958DD1D4B10AE396721B93A4042E5DE939178FD4342956647B1370F8C7AA864EEF4A4DFAD02CB5E781047789E4B50CB3706D302AEA35EC0BE0CDEF30201C38F804D6F1C6B7AAF598E7336300FF59D87840B 7DA46728157A63E0B659C443D1E1A36010DAAE113917C90297210AB24E64990DCBDDCD1F5BB6F8152F39C6C9F04DAF18C316150FC23C2123AA0835D97E9685452AC34FDE9FB124B19C97E8D7EFC5F54E25EBC5E9C7528458491D472A244607A09CF3CBC761860D4D2E72AD915F3A1208F482440D23282C9A578D25845377D7FBF75ABEE9F2A550F693EA15A049E9B4F0DD29F6F45973A1B95F56B17D10FB0D9831DEDF964D6871E9792FEC41162B2E54F444E056DA1368A7E498E0304AC12BAFAF1D867EA4884AD213203A31FE2D35121F2542D96D698A8181ED022611226BECE45A5101EFB3BF8B8B06D6ED625AB9121247572CA290F2B123D8434C127786A2 202C46C2D519879C295817DC846439F088649278188AB7D6319EC687BA8C9C08728B02B33F79513FE34A6031D1EBB4920B17755735B57142C7C789AB732E911C9E7735FB22C34D7E357A99B29522031CBEB0D13158C54BB5028DA7CA667AC5D8F6F0FDD4FD1CD1264F34A7C85A2DA475D4030F00588567C18726944AFCEC68E92359044686BAF2D2C342DCF9483FBD03B77C59F5685948B883AFADE50A2A4DBCCB78B96E8F78E4BA0C071ABEB95F0EB9788C70D39B47C48D1C4C6F86D16699642F63DDCF7406B306F7EC544D734447DC6756AF8FACCCD2DC987BE78BA85CBDF7D564ADFD4C6752DE1DF8CF93E39F656CAFAC18FBDEDB5C3A52D415E896939DFC 9FDDC4C88A05B1C76BA15789740811917D91A2998FA45FBE5E6A64AEB280E9124937A8B17DCD39F75F0FEED08C82EEEBCE0ECBFC04847E1CD117ECBF36AB445E082216B70399821C45C8AE57CADB1D292FD4C2BC6DB54646877BE1C0473F8580B46281B93B1594BF43457545B3C0E5BA3498BFDA075C820B726AABD9DF4A93100E5DE89DFCD52D598432AFAF8B5972AE5641F5946C0E20FD1ECFB985158297E8B2B2025462C504B271C42227578E5C05C710BAF4085D53B7B81427EC4727ECB3D5CEDCD2BA093E38085277B7BD834B188699886CAFD30E01280787C729937BCE652C58BC44945A8BBF496794A33AE3E0C24DC0DC55F6261B4EBC30FF1723EDC1 C922F49B4B0A5090FC93EDF1B2CC85A012DD5FC7BB2141D559B8CDFEF943F716BFB2C7CEC09EBCFD1B3F8608298952F48869ABF98464E9DC664797B3D2C828A9A3A8851CDE19479B912CB132250BF1C82AE4CF352CBB3AC3572E4D80C6B8A8815BF81CB3F139FF936CDDAC285C5A463457B0511E7CC1B2DDD7F9FBCE9FB311E5B8928CC9D257F96A28F3EC970FBB50365A71C2BA379E45AB0831FE5BE2B7CFCBBDBC0BB19777F06D2EC4C0CF2C98BF03F7940D18A7A63F9262C3D5DEC7AB887C8F1ECA6C4A45C86C34412E221C4812AAFE568F786FB3F363AFD1C64704C3AB31E8CA1D4F2C9B50148E45216E1B3E489454A95F2A9AE1C7DD8AD0C9760F798DB2 58B5272F0C52DCCE6473677DE88602C2E3A19E92A25B8CB3AA953B7630A094676B17D920CF5591FD6C8369A734CC27D6B648EA01FC03C5A50E1055435791E2049C2AE67AFC137D05B95C77D9EA39DE5F4BA3021F01CB8CD714009D3E8980F215FC3995BFA7E765D8AF14C3168CE7F703670E195282FDEBCD045190E99B4C0F90B3C7C031C5C2B6654147188047138FB93BC73EE8F0348F59FAC86D83CCFA13755AA846EBD13B006764E191FDA06D3E6007CCCC75ADCF9C49B29A31EE37DC1EEC1FA0F680AADFA2F1F3753D0E733E0366CE28961141ABB2BB9A7D9E8995C343E52C6D6049C7DFB8ABD4E7D5197C9F308F9783ABAC764B5ABC8B654EBE84C151D8 A563C14B02C7F3CF6803ABCC635B4F49335737B878A5EC734660EDBB96C90DD441DEA72DE8F9AC4659A45DCCB7EC1E1DF245D2DE19B039F7DF10946634B148B37E8F0258E6E86528AA64A0CC4EF9726CB6CECA5E81C50E53F9AF51CBBFED9054A5A5F646A630E51732A563CC9CAFB760220382584FAB57905D42C2755E840FB6420DD11418A2AA188239E36A24E3037ABD5BA8FEFD2A2AE0619E9610A58D670000CCDA6A28FAB278D8B7D49A675449174A8A885D9B9875996E783814D22D5A6FBFCD79C332922D3801B08ACB558D4F813038ACAFD6ED16D1A221CD9AA208B78C461F972D7DD44FB4D62E249B75DC0CB9AFFDDE882E1967FB3E5DDE36B6066821 97F5796706FC6B6A8E015A6CAC9FA5ECFF3E625364D9D61749DEAF60709FC0E18FBDDF89A21A6D8205DA8F5CDCE852B557D1FD1763FD4F8A72C04D145724E77B82877B3FB630ED81005B55CD4DE3F748288D4346FE803B1CCB69B6B0EDBD4751E48B898F1D04D336D7FDDCECDBD41ACAD7302873E30F5C05ADEBA95328FAC10EFCC03411C82F5B1557B2AC1539566BD7CAECA2C226E6C1B723324AF5C1B0823783534EBDB8AD93B1900CC1D8DDA5BE3D6F97C6311B3ED3442C6D475FECEBEF7C114AA0122A6ACCA6A24CE1110A4968B5F069293A5C07C1FF8B3F4D5F896AF37E67E035A2F33F297EE30A6A4BC88010D43000387B0C8C748C42D08527BB55598A DCE1FF5A6CA0A13717074EF172BDE64905DAE4C5B4FFB7501FE30E2E06AAA703B047BB7B72C02A5AC9085CB64B8860F6D7014CB26E3C1FF32911071F558FD7C496F81532C3832A567AB04C5A78D3FEB50F33C1FD0FA2F2AADDE04E93CB9B4BC18C7BE6A538616DD8747D2CFFEEDE3DEB4F59292C22217E5C9BABFF8F2AB75755ABB78B2E23BE588702BA910B71F93FCDAE4C1B47FC6BED2BB1A903107A92A3EDFF2615EE27079F8A2CB1DC1E59C348F90A59D20289C23FBAF055759668F64662789511B6D08B5D53104A01D1290A95EAD3BC3D8D9442C93C667B2203C570A0F9FAE189CACB2482F6853E881BA285665AE59F991A770265BA735D3D32D52EDF06 B23EF66F2821115CB868686C4B180422C509F691F5624F205A2338DA088F78C9A1AB9E6075D3FDF7BBDEE5AE36755277EAFA94B438393D467B0030E410DA4412DC944F700060708D15188AED5634B455FCB3E0AEAD9E0EF4B5B2DC3219D1DA28B1A3EB2E53D2DF9BEA0229DEE2BE213B4B547BAE83D933EFA12DFA1A117A994C553943055484E9C84B7ACE662AB07BF10821CAC341D8F8A007A1F650E34ED482A0DD1FE3380F9102540C136E39DBAA468B131D35B862684C1348C898E15BC234A9E9A8A1A40B98EC872E2F10FCE24346A398F87AF8ABEDB6BBD3CE7E9C3FA2E0833AB95A0E2483D70969891D82632D0924A9A10CB7E6EE1FBFC1D5B96E3437CC A370070D2F81730400A110F43D36A2E2260FC748C00858D3DD18F523CF87E550926FFCDECDF93303D33929410087E84424C231450810E608E841B99F60FB58DE590192586B9D3FEAB7D74B371696ED7BC3CE2791F59531ABA2A136E9BE052683E7EAFC0D7991529C2EFB4B7B470438F2ECBF73CC8DBAC4D498C4607A08A7ED7BA850F4C33988681116B199F64E6CCB6AAB512D3BA25B060596A7FA88B90537C8B5177190F14CAA83D7A4C800B0463C43F62EED73B40EBB4B0BF7069E94A05E174DB0B70054850649021620FDE17384F8F2CA63B283DDB944C54A247B45C4DE76E300CDBAA05A13B609E85E6B449FD5510ABCFC7B07748B1417E1B583A860AF6F 48FA8CDC5926674FF80E1E954C699F89CD47731F1A6F0DC4AE95C389519DE81AD1C53CE2132A4EE051AC11A955A8C34F54401D1CD834DFE60B2D0462088F6BCB6AD6A8A5F0679B0C59480C2C5581C4A6E8BAD90CBCADB03FC1AED9914828470F764AFB1355072ACBA58B40D81E12D0D841BB22D14B008D14A0815CC7DC10DFDC3755A8A2F3D17775FB0FBF0996EFBAEC1DB851CB879B63D63E6183B7B4FD2D5D4720C4FF6E3ECC237C8F2B676F1042456E1F9CFC3DEE30199346E864A6174CC60AD34A7C0D8650200BA4BA820A0B4C9223D58071F146C80EFAA86234A62002D955DA91B1669B8F5FD6AFD4B34B5519C92FFB4E583D8AF2FF278888AC9644CB3C A91BAA811BDBAC157E00871CF61466481D987ECF05415CD705CF6A5B75EE27F5752590F064473A3559C2496CE58346CDBB69E998693D03B7DE39D3989D9D3E6410D5DBF449462E010B5BC54E35BF5C0866CE05C3CFE21C20D198E489B02968336FDC1E0181A1259ABAD0FDDE9D478C95EBB5A53D998B0A822C83B60DB427C2ED153EEDAE6ABDB3BB92D59A65E4A57B1FEE066D8C51CD44F596AA17BEFDBAF247F24FED846362BE01EBBB9E443B638210EB271591EFC4961BEA5E52B839A26704D9AFBF23929FF1BF329A41AB5199E5A32A1F31B4408387144C93D42986383ED25D800B80B72836C148A7ED8FEFB0509FEAC4579AA9F590FE1998274609099DAA 3C2817C4E437EE86870D42A54211326AC40FB8DAE1F7754E57A6D9E505A8FB102E1CA825E69875BEE5F0055D17C57E5134C2B3DA491F274DBE0B45ED9AA5C2607D936A0EBDB02B5BCEC043C7899AE049E5C883EC50114DE5526F0D37055BDBBA7DCE0AB6B4A4029D2AC82C900C8C8440C55BCAB2AF9617466C2144B9A381CF51246CC4D760B907CAA35EB3CC808286882E95FF93468A3C81584E411DAF3CF33C783536D4723DEFB176A0737467A6C4B3CF6B3257553C141BFE2B59D2A23025DA5775FC8DAD7004E95103BB962E4A8BD674C750C5FB4F77E8C3578274604FC2DE1484F3E08A6B08727B2ACD543BA9D3BC25369AF56D51ECD343806F4C296FAB6E 40E66601467D08F750B05CAC2D4E8E8BB79D19FA5F6D58387B59844DF8D091290B3FB653317D08EBB0E7B39C57A5591A72476FD1982CADFEC02E7C1FCEDD0B8F4BD396CBA32284DF5F013593C8B9DA26A3C58E5C44B92D7AEDBA440844438CD852055A08183BA86992D20F0A7C9F0FC683CBDA1E8CDCFAFE971CC76D089912EC1E28CF4450A6FD74B572B4D3D5E58C2BB342A70AD7675C4F4663EA124D6E6B5CE6818114D0B2BDE688F88B95E9DAD2DC84EFBE5A1BEB2DCF10C2FC89640F47D90D76EA51D307CAFCDD511F251B1E8B70E22F4AC3F3CC7291E00BC72AD2213A5B811FE7423C57149B1FCC8E6C5BB84131BD8AEA4FD74075B0BD16C46F7D827602 8CEBC909E6079C0D5A957D5BB6C1E18452C5C1EEAEA286D00B82CA33DBE53759A3C9CBD4E332B3CB25271E3EB41F540D6257A3C6D60FFFAC46CD6FE2A525E4C6AB86C649578503EBE72BADE9C09F6A0F6CF7DCC2379DDE0991CF0EC11F89AFD7FFC1CBCB923D196869D2384A60CD90EE6AB6463BE6F78626D02E03CE3E5F7DBAB113B870F5C5FE61092BEED0C6D06E4DD387D35F2D594EEC0186C2983BA398D814EEB9EF8ABA0F44AECEAD9AD72BA541B8B1385D3A806875E17C56A0A2A30B5B1F38C73E6BBF1E19ECC61C78EA69CC29E55451173ABCFCC5DCB82C71B429F5FE7ED2913F2709A6AF12DF49861F36BF6A43459FE882FFC7047E3CEB1FCDA473A5 CC43BB2F474FD5BDCADA37F366B1B22FB004CB7C391428A046D9E048212D6D8A857B7947B3A577F68D47F219998ED4F6596883DF46E55371A4C74992195D874315BC423AE52C701C4D6527EA87CDEE202FFF56A5CA16ED4538B533D97C79B8F02A796E0B3BF5659F99921C42DA0F9396B59CB11928107ADD3A0535C92AF07BBEA2271F7048AEA40108181FDFE36D9331BA7B4827AF864EFBB01F256DD56F067CCF51594A2D9908B0358023195C612097570ACB3B97F563CB50A979AD25D0B10C5FD6F1AE3D2C46EAA3F565D74BD4A19FEC01ECCA6C25503712B59E907DF5DF204436898E92941F991A3D3B9E105EC99341E0A4C86C1B4AD7F3DD7561D8727820 2CA35C155061C6703C00716976E1F3FEEAAC38B05E5CFA26A1F60E6A1D453B5D41EE43C3717685F82105C7EF5F2A067B289E281D87B4262CFE7BEF998B53690E11D49930417D5A6F7D92CBFBDFBD57FB06478CA45BE3F1BDAB6F8EC11D90B4C14E638029B203349CB37DEA431925899C42D37E88441E4CAF8958723B57522121E7949DB946F883341B49B00C739AFA1A57EB90B9B638C3AF267C86B0FDE5F32006DECF7AF6EA4F97629F410894C0BB40184A68FE766D312C12081806BBE191FB07583EFFEE7874B83F4609B21167AE7BD7A0181F5237B5166D631DF48787F47EE428C9BF8B2B88B177DD3C536E32CD3C39CCAA0BB25DEAFB774B3787D1D0D0A1 D4EA081720E143A64D6BD0008054FDE9944AD5BCFE31CF38077E7144FB59868CDE7309C2C07E639F356A8EBD61A2601BA2DBF82495AA746C2312591B9DD7C6967BB5D8F28F487253540E2293BD7C0B0D9C9D1B07F0D9BAD782D96703FDC9819BC1DEACD51044A4451A973A320341679DC3B138A8CE134377BA6DA82D05DA75E48948177A86B5D4284C0358004C3BC4C642FA4D97756939EBC4DBE110A25036F4D258FF2B0CF8530FD630FCF5EE98DCF7C3049895DA2CA330264067AF64220AD7E432E5FDED9AFAF8DD70A256DE7C188B2080E90BD2CC79976758803687D876DFC2F52927CCBEF117FBAD1C77661AB9054BCBC1B5930B03F2F9EA9AA8C1DF8B7C 9EC6E526D536046D3D875B3E09F4BE086AB186F300C7E86B8510430F8C6ADF85BF33E4D370FB2A758BC4F4A4E0841CB994573036DBD88F393A86D445A289EFB5AC8135EAE50E681025E6DA4BB0885DC4902105981ECFF3E4B2ACD1964315F6C8362BDA35E296C17CED6D7CF15B5D72F841C9F0B1913D3629985EAD0701675A9F99EB740921FA58B062A810AE03AA74B18AAE6C60CFA77E00BFE9C7E909EFDB6E0D16CD2F2BBC3898E34A37EFB34C955F7825F39D7CE68AF946EA61DC058EF9F75E1EE09E2315019B143FCFF059DBD97524127A493715C997C2927118A6C8226D1C8A5BBB5D2C5AEF1F22A72C4C31AAE3A937F9D9A099F5F9399F1554AE0381BD 74C75380D0156EE7D61589CC5B566DA5926AE43D46735AAA6EDF1DC893512994598BFB8FA4AFFCF6B07AF1891CFE3FB0F70278E3C1DC646611EAD4B304742774302BB322C9C50A1FA0EBF878C094F62975E0D1D4C8191EAB5CFEA58685A18A1AD8F56E32AE248D4F12EDEBE4F665F3FE1A3EE142BA8BCAB38DF166CEF9373C4D6FC51C07AD40BE7A5A07D8DFDB60771B43668748257918CA3A0AC178F0693EDAE06C4B4474036450A92871AE6FE37C535F5D2945FCB6DE0C51C0879BB9600ED99658E7EAF5582C22E3B9549F0F2A38740AB7C50268312012FF1AD59EF7ECD715C34B7CBF94CAB2616A9329EA9E8BDB6056A79105678571B888AB27F8A6657EC6 77680EEB8A424AD0904AFA9AA88F0AFD5EA8DE6A0A676749F369B729F36BF9F19B1C4B926C5B9C9475B1C981DE7611DD2410FC3AD233D564F50650E211A6E5BAEF930CF9BE59B3A7084DA5C954A8D07531C5009FB7891109AF6B6DBC276BDB444B8D6DFE35EA1BF8BA9FA56E9062D39AEEACEE061900F7BFA1CE18C037948B9B84A616005BCF24CEC1742D0F29D2D99AF18BD04218D79597294A27DC0B5AE4A7AD5F504D1D990E0B88EEDF05670541C81DEB86CB890659B934E05A05BE5A0026A5AB457AAA139AA7961387E1D26616FD53020C0B5C083A73F4B87C05EF92557D4270649D1EC29EA22F98839148C8A09BA3503E1F91FCEBBF3CF006C40F714586 D39F699A66D07C38C4BF3D2A1003D5866851130EB7608DF8BFA5ACB38D4D7B718792899625901581E6D1EEBA42C8D3DD6C75AE6BECB48B160399250FE05C5014005265BC749486EFC874424FF32146B6B17086CC9F4F711E7C396B80BB838C94AEC0E8336C9692080AC98C0357B2ADBF18498C2B5764BF1E8497E2F6C4AF0314C9BA577195FE50CB4C5264F086668D263EB1C8EC5EAE064559C66EC9F310DC56ABE1F984F56E31F6799A211DB6EBD9ABBAAA049A282EF8A08006902F09F7566A0C391309F8E57188A3A727276031D987AE148EF40A0A1432170F5CE3F6D86C31D11971ECCEEB2EE1B36D9405D6818968C1E5E803E9229D2B6B950B04F02035F3 50742573D929771B5645EDCCF6A212FE459DB7B12FF5904CA0C9603E5D674619F7E576B27C1D3FD04F2840C7953C4936057AC9B09C7AFB42718ABCAAF6474FCC4C4A5DD7F5A51F3A4ED0DE84B392E17AB2167C4000BB2991A2443D60F06606CCAD6BDE47A345B3A1D0D12E59BAF480B671466B24C366AB813E963C1A2F143E346BC07E069542E3D6EFE2D9146731E3A5669148E14CFEA75CCF5F5698BB3BEAC20DD043F0F6786626F2613140135D9233C08379491282552FB233620EF70129B47038959C04BD5B2F2727A54F5F1EA5FB2D1213C0220A6EAFEBC421D8CB1F2451A58EF4E2274BE8FF8676891EE6B7D86DFBB6C1C96A16AEF7864E65CB990C2EBC 1BE2F4FFB4ACF72C816EC137431503A43C455679B1DC9D6978FC6435E9B15DDB61586A68A6F263CA2477B6ED9A880F2F0C88CB64A3230CCCD8EFF037764FCDAF0B65CC0B12E58646EB31E4324FF628F714817294AA9C700D12A95D5E6171A0A9EC323DAC6F96EF8EE6E15D98239AFACB9A823E8334DC935E52FB70F9E3F32A4497971A57C880F83B49D941848CDA24DE5C6D1036EC7394B61F4BE9EE5C79B55073F1E2A23BDE5BD202F8B7EA2ED07AF58F59C4D50A38C2685A5CD35EF4F222AC64099A8B9121B1B6CF65CE79AC97E02D9E6C8254800BB20AB7B65902DB1305E6D35E95A75D857E1B45C1F6EE57F09CC056157195928FB5E6BF8829DE3479CE98 CD853F18E9EBD1490D126A0B31694901572D9031375838232BABFEA998C158E1CFC986F7963953989F513BC61354B4966B00C02F6A495754DE3D88A7BA5D39A1ACACA10768CFD376F9D0E1B7C4AD997931972397231CEE1FB37ECBAA0506F5D35922EEF1342645B413FFFF0EA42D652F2B0C50E02D14BD263BC23CEF527B681615F72DDB6B332B59E4FA2607AB660EE3B172786D55DDB9F716687164EC89BE32F73907A2DAB18D5B697400FD1E16A202B3E2E32FA2F3A8521EDE98A5DDE3FC11B23DF8DDA938EDBE65A090496905C9A8667077DF66670E5DCFEFDA42A52139D1B44C8FF1C9DFD8F6618CA2C31588C1D34BA622F6EF015C36639BA04D999ED7CE B81F757AA3C3079FE2E6271591C99245EE1FE3B2648327C3FCB8BE8D8007C887F3A4C3AB224FF89F320C166D072B417456208660684FDAAECE9B67AB320A9924B176EEC46B22140B37429192C270E0C91E6A24CBE5CD86E35BABB81446B847BDFE256642C3C57108B607F08A5CA0B6A4E22A389AF47C37C15D934C54E6DBB7027B5EE83CD22D8FA3AC0512B4A5A3A73C07194AF23B28085DAA82F9884A1622980E7A9CF0934AC6FCEB92A30CC5B290609CD9B260A17A68154FD26FC4D3117E4C01F58DD37EBBE9F822C2B94A2BD484E13DBCB5185364B50CF6CB79A4431582D5E740D9DB631F1A365A0EB4DAF05E4FB967F22C8ACA2E77C125DD4D0CF944BC2E 92F13DFDEA455ECE288653A68F34C0D09A795C1C2982DFF3177B4CD55648182C8E241A1428447B427A4B8C7421880949E05E19AFD24FC2F63F35E5E464B288ADF8A1390ABD1D95D1AFA3EB47DDA00C6AA4253102E9967D0DDF477871074411B815542F17979C358F63D506AE3B6C821249B24BFD98DE526869EDD85EA476A3D8067D2A12B05037938B9D5B84B919BCFCF94B0EBF929256994DCD69510EBBCF67CCD3C5E9A3A567B85095B63EAB17DEEB0312911423B88030E256634DF2D6F11DD6F05936A22AFEBA3049D51AF93B2078C69D67F48AAB5F7A0A0ED5B4DBB38ED96ABB0B0AF017E8D7943951CC2965511F65C28DB9F5F4EF8AA3C0607A75216826 FA9A4EA168B647D69966FC14736D96E857228AB3BEC4F30A5B4A2F4B875ECCC94DD77264B278AA1F77332360C830CBDEDC2A61F9A6B77BB0015A941DC9C9F35F6046FF2DFDBF00F410C4BF47DA88ED92D74CD9CE4C622A46BA8BBA36981882B70460585910924E66E64D7D5A01F66944FDA867117C3FCDA533C118C6185E048DE6FEDEE59356EB6F5BA0F815138B242F964F4DFCE4B8628E39FF2AB2F1A9B43B1C96AAF961C68327B6A36FA61C0B842A1277ACE4BA752C882A73B019B46B48FEED661FE66F10F54F59E9AD251B0770B2E63339248D1775965983B0A49F0BAAC6AA476DFAA25974EC5E82CE83342680C9B256CCE7429C6D57C1977B40B400CCCF 8F72745137A63B8135EF05CF33D0F0617C125D9E43D19CDD9D75FECCB44778E39002E6E4F563B73CFC555422ED81741E588977A20748AA29D0A3E56E629B6D8B88946AD9F3BCC295D3C27B0501B5E17B3A96FFA369C2DA73D54F8D95CF42E4505CBA206EDA6503F6F21C57D0358E9F81618062A9C7ED5B808558015A2BCF1C3466EC14A156D9A1C5E3D188467E3875F1F096FAF11F07A9EBEFDDBC05F692DBAE1B1B36815F74219A5EFB63AD267B2CBD19BD6CF70394FEAF802A451E76AA77FE8A929C8E1CCF5D9F20E5BD51C2245A6B5A385FAEC6705C4A59D55250F8EC03D2652FDBF1AA97C284CBA98259265B3276ADEF61C6F6FCF6E53C048C5AEAD62F14 2D83B0C770360EBB4329F1B99EF6BD6F9A458AF57CE7D51C4C5FA8FF45C6B63CD548348E898E52C533DF0B32B8361DA55E0014F2E2C0AED220EACB96CA42F028573954F452857B2AEDE4677E20B22E0A8F78F1BF5D8F7B0ED1E5D1678187253EB4C8F636BFC6E6E895D4F9756656A7E12A3160BEB2A6AE0B798CD65E50A4F37C35DBD6A979C223F87091404769875050A3DA6451629AC8F94F6D630ED1C872EC3AED666B0432360235C7E609C8D8AF74156C48784B725E6624CF070BA6728DD595AF5EBAA372F3F87AC0A6A682664ADCB902832B2DC78ACA9B8AA5FA09FBB0093D75D35EB87D170DCA3DA566E91E4CD930A16156612987669ABE203F643E46E4 55F840C117AFAE4F5CC7A2238B3F2A89DED17C0846991360B6024AD63822A8958AE0BF5B65886FD608F2824F9D2349A560903484BC7B4CC8BB8353692E1338201F33FFBB46DEB79D6708B67ACE75710347034327C9506C9F1CEF08E09B6702309D1BD454F88E19EE5D52593AB62F600F108CFD4F4968578B533838C73D050FA5F93E3963CB3A839F519B136AAE28ECC593DA885DB30C3958827047DC2B655C30848D0EF774B5F5DA2511B2796AA5B958D32CB17C95162F69DB545AB286F0CFC8EAE444C6E4578662AF0B82FFEAF05DD7ADE085AEEA9D786A24BF655E6F87A06D5D00424A6499C0966C654A86CFFFEED401CE49E84F034F1125E3E27D581A357A 361AF776C1DB7351FD7AD7269AFE8CD44C7DF48EC38E65096129F91D9149CD3A342A7603EDFC47EFD08530B1F03D22BACB4E34E157133E599352100CA11C9D732A49B77E278935707D4380572D561B5D315E5AF8ADD9D3AE62D18D78BA77D15298E8A25C7639D771BCEA3BA34B63F9F1EE099917C1B23B45FF4F6CBAC03255F1381D07DA891494974B03A333F2125034524FB09207D96F8D2D1D5857B133FF8352675710384B2D7052086A8C3B5C97ECD903DA39EADEC2F93084A10725DAC7D8D3CEF2DAE5E23396F1150908FAD8414BE16EB28039AEB8162F66AEBDBF8FEA598BA0D88134A495C78C60F4355781B5D03B05DB6F27D15D84DC0CE4421F588E84 EFEEEBC173CAFEAAF915E2AF8CE72798F57DA2EEBF48CA0FFBAB59614E8F60D748E8895DDABF1C94AEAE963A671F5B453894093F8ED92DC857BEC356EB3883A28309A8E292C4BD68E12A51709ADF7C0733DD3B94D44F1F9614FF5B43069E5355CC57F3A89C41FCA26702E7803F264AAA0EDB87E1BF1248C2F7B1CFCCF28C69A323CA907EBDE09BA9F4E1B028241FB7317CFE7BEF6206E15597D32E136B3368FD0B9DF76904733FF9CB289C055055776F71243B8BF2609824A8F4E15EFA9964CD70FADF7CB63F5E426A15F7626D5F4532AAACFC46D8DB4A1F6BE1795D6A3D1E1BF1E4B910E5C89312048FDE7C5395CCD3D577C4A808A98D05D127D4C5D39A7180 10F61CD9C14FAB73332F6C40BFF04F7DE216048D6BA3FF14FC16E94AAFBF1D9860BE5A05A2B28D3F527CB94786EF491A51AB3ABA1C63F7AE22AFE698B6ECCE250F06DB4A849CDC6B7B39D072C24B20D6D21C5EB5CECBB5E589805A3E8FCE23F29A28F34DF727228B22524BC8BBF51885FF35E67D277274C62D7211A34427A4CDF478291D686EEAA059C9D7825740256DC1251ABCD1052CCCB0B6382C6C4D3A11338A43F18652C86B3B741A8B22432F1E9B534168A73ED27689A990A0EBEC928C0E7D55D8E44B6D0BC30DE83020F934268B71B983967874E2C3D222FDE135DB92893AD9C9927D8C182C6E967592F45E5043AF9FD194E0DF6A869DFE9B08D73276 EFABAFC6617DFD7A433EAAC402757D54BF028259603B778CD04B9693E815EB741E70D7D3A8BBCAD727C72CEA5C836BDD4D9FDEAFC4C3F69EA1FFABCB539A600B49DE1D22917B2240DACB809500256B979AD272375F104B513BA9A813340448AEBA95B5BBA3E3CC04890F386F782F2576BAFFF49FA6908D1F966529BB6125DA4454E13D09A76ABB36420C975EB91275B287FA5225A609CCFAF8FE593C2613D7B113739D35FDB04287C6A01292F71C1D63C16D1C2C19B8BA74D0FA40667BCB273DC5FDFAF1ADD15806540CEF18C374D0FA9AE62A07169B0BCD33224830C17296B0350E0F1D3BE8CAADBDA08AA7AC5EA27E6A012544EA9C496A94AC1985961F3029 93D2432A722334378A148835991BA0086D7610E42DE82E50F7DD938E5FCD457429CA98EA7EBCD4BAB6065119F756C952B1622EB862AADC9C821CA89079EB2C6B0C59025D43C0B40732F19E3C0F9A3E27E509188352A595CDE39311D4B5C9E99F5C43A742B60870FE9746D03E3BFCB2776A536E9CE0D94A26C9566469B8386DA6FA421E6E2E5479AC4DB9572952C02E4DA816483D43C571BF07281B8273B26D149EC77249CFB392224FBF3F0C8C67B62641A0B193ADFC94939714FD5D514F0DF5A8FEB9E5F4DB7AD3A49BEBB2F28043A2806F41D075D4A5AD49C69D15BC3D8E8E604C610E05A569EA0A1759BCD460880787DB732D6BA3CE00CA28AD96AF1C2A2D B82F81224ABB65F7C3D7C99CA41733C3D5E40BBB184464D8D345F5E1C504F982C5CFED5A2516F5C23A83F4CF9850779F5475830F329F2BDCA3F066309B471616BC1F87B7D5C98C4A9AE392492DBC1FA97D654BFFCF63D46550D21145815BBA3663ECE5139DE0E7E6D1E9893D29DB2CC8E2ABCF2346B35B2451C967F1B4B44180AFD0322592A55DC4038A5EEA799483FD0113E0498D356DDFC695D451315B6A5F9DF508F37772432025AECB92B9E64C173B23E45AB89BB165E19A1B2614D6F0A436597CAA8AAF7B2589ACDC1B0C798CE37D6390E46C4A1F2218E392F59C3F6AD4A23DD9D71CEB4EA3B0806A57AD6B1E008B1B80EDB88AFC1010B3AA35AFCEE3F0 67E8C996B699C6B3D5C02011EECED3D2EA92A2B000E76E430091653EC26F5FB5EC50A7D809753DE7234B630D0670C43FF31385EF51B2E44FB1A6073B548CA02DF0A4E93C68F84F75C92169811B7D1BED092829287CA80125C7DD6DD8310E9AAD80ECD61981D4E86BCD439B6D56C47405C38F0B03647DE7B23558EC7E2D1810092109D03A92CA2AA63A0BC61F3CF8ACFE446818A719A2266328B74405A699CF844828ED5926400E628AF90F20F9E6E88FF9F5D7D8A42B13378B91DD1D12170D6EC6C3FA3F5E245A6E7B4448C1A907E9751BC8ED4191309DD04084E0A58B2B3FC530F9AB8D382B6A74764479B9FB3CF335163BED3A540AA2A7EE3DCD0F90E54B06 8FA7C107E25B61378A2DB85BEDBB31DF7E8861922FB3963A4F1B17E215BDD05AB0B64AA01E1EB30CFE0EFBD1B0A557816C5470DBEC1611144C52CD8BBF85C00A48C546EE167B3E92D4879CF157D9EEEF9CC24924707E752D8C586146E4C26757D52C61B1EAA275B5950EB3D0CF8C75707DEF19F5E98D3BFEED747A1C6CA8977720FA374B3E978176486B90EA414FDDD3CEB5A7093E90991DA6A1A50448857ADB55FD2746848CC5809583D8DC782EC354E849919179BD4EAC135105AC3D6746FDF15902ED9BB7D61BF51624D2BBA3E63E4E368D0E0CBBA734DC4CA3B1D64D702B4DDD3E4FD8250145DDCDAD399265DE325D022EE00DA66341102664489B2B3069 3363AF1E69B57D2BC7371E4D7CF1851F9DC785B4C5B521BE7014D7A9AF19B74E597BFFCF8568C07BAC6570D70D784E8CD804789A034F842DEB9C9B2F342A63637EA8DAD369E091552BDE588515C5061D5D9E9C04C703CD10A86E2035B49028DB5644FFCDB9613F141186C25F23CC48AA5F507591469267D1C20ACC3D909EE6E324B82B7EE09808505B89065F49703C9B6662701AB9C641A8E004DA3AEC7810024F831C60D04FE8BCBF48C57DE8FE90C1295041B765CA8ECCCBED7A66CEE97D175384CECDCC939039BF9D3B136396A0B759BFBE627AFC3FB6C1A0AB3F0E63C93E7358E4DF22E3C9642B894A815BAD092938FA19ED0851651A1E8F031C3D02DEA9 EF2464AF4E791F0F7E345E5CB55F9DE56E5B0CBD82BE821D193A2D791D05F464288037831C3F7AEA11BB8E0718E3B42F9BCD5A77814DF28A195FBDD4DAD29E15C836A303FB14FEE7DD4DAFA69A513CA301F47BE361EF81EE02E204052B4417FC9DF67C73A56D9281ED9464AB6CFD04CB84DFB79528F770B218081EAB79C924A29A093623118F45E612FC1D63CAAAF31EA25B0022ED62D1E25C76CD668BE82A7B023C931798A920E08D1A65C83C4F05A52B23698C79FCBDDB2A14A15DA35C6F48C732827563EC1DD46B74DF65188C65136F92276AD766B3C7917EB9545996A37A01C227B8F1124DAA1B118CCC10CC7696662B7A408721C5EB12260970E098EE35 A4DD819304CDD5ADA77D816B32A5912982A1CD2E777E62B88D41D775BCEA80F6CD891B3BE0DA4190AF9E54377A9D582D5469CB18018A4187E031D7BCB9D354ACAFD5A273D85E83D3AF54A83D3E481651B667EF3F273A8AB2B65A29CF5B980FB0B0CEC7A1C0FFF02E5A4930BBF3F6661C1EC6588AF001EEC310E6A1482F3E38D71388FE075565931A64E36C7014C125FB4FB8EECC2DF1A9033C27D5C571494609F1D0CE33B2B23F648E2124DD0A59376C8C5ED07A82DD6E5A1302ED8D326A04A66DBFA72C16AB66529F0058ED94E470FCCA260DB137222E95DF268F1C4391FD6A1B2A45483053793A807BECE90009138C214736EB5F72C5E8235048EF87AFBAB1 2B40CD7AEA0FF0F7F0FF4370C235D1CF655CA11658FE0FEBB9400FFEDD5B91E1E023CAC8F7C394DCBE476DDB7121DEBE274FDE1D339E1EC17752ADC057157DCDF7427B298D882BDC677B3D92DC9317F650F4D27504E43E608F0CBC71E6EC638FE1CF7166088A6D43BDB87E0733D56FBD3026930E61C09F58D0F56099C99527B97CE45D87F15E9AAD2EACC82BA9D216FAF980ED49C8A61CD80F4ECA93D9803A5EF3E7BF4604E1007EAEA07D7ED12E7097D8804F8A151835779727237E0264931001C3961CCA6A38238407B6C72148693E76FC5B6E36CDDCE759C3C058F3712CE58D0DC0D48B27BBBF017B6C1366A68893E01CD243F8676575789450FEDECEAFC4 6C07C5F3D068E726F75728F067034C57E10D17F879C3D86C35A65D0E7375D6FEDE9E4CFA8161163D3B43204A83E0BDE1A5C9FF71514A54E2591303692813236ABCD5062A8901F8B228FB12BE6779B3B88D4C52A04B96A23A3159FC5ECFF0152F711CFD61CE4D794A5823CBE2B95CEE1D3D84E95AF3D5254E4A8A9686E793787E2EF3E9E6098D83DC57797A113982C256AD78BBE67446DBCE9D50A7ED5C29A9178E48C200E06A4BBAA4F5D6EF4BC76E7120025915606C774E8FED406DBBEDD492E508DE449E83ED0CDD13E8B3BC58464AE802D78847CF3F934A99B1FFF087EDA4CBDE6B41C869D9C5885AC9AC75189DB5042DEB6099B78C32D1F32CD90A7B18EE F6E4F0FAE4CFDE0A5F31BF498063E2066DD5B8EE4ECBE1DC7D29C92F737A2803D878355778EB551AF6276EF68E2B833A3602D224B17DB9AB4FEFF95FAA6BF351CB208FE94FBBFEB361345DFC5458499EB811C1BD9B005C6897C82BAE627052BF7AE619046A3AA1F39D7857986679A94A7B6C0D720077EF511999BE7A23F2A1784099318C80B2BB249677D6A893368A669BA9FBC9BC1CB2FE59E93072D2AC2F68FB21AE0FCF28EF426C47C5F65B3FA29D4BD38AAEB8940695103A02ACCACA2153E01D2C6C313E2B06D4BDF9D97AAEC3F6B58876301FABCA79FC9189DE59B264125A1E6E25135824A18532936631459EFFF161881532F6063D9D66950033D5B668 3A55C259B3DD9E36DDA417984761B4401E3E4C5051DE75CD2BAB79206113C6A63A086278BFCC1E1302BA4EFCC1F12F71B916CBD14380B310CF643BF270C47DC46BE2295376E2E9B9A8318FBCBAAE85B689488BD80E7CBCE40A3A7E90F9A346897E00607D49C48E9D95D485DC21AE262E1E88A946243BF0E764E2D0C4AE50487A8E47ACC5CF29F4941A19D16B9FF524AE0E6CC5632764A66F7B602FD8942970169E6A36B5037EB5CFCA7E4648766DB687D8EE6EAA0880D57E7005B70C9C5982F5BFFEEFC8C3AED30B4B1E1FC114E198A68E73682B9ECAE6D1D495D66425B12DAF167CF986AEC3B697D9B75C254DADADCF997B856FD18C3C040223821152204884 FDE0CAAF73FEEC4E6647C46E27FA36392EF983D1E58AF2934AB2C07581770C011A0DFC24EAE6375C995D83C5690FE9459E1B66AEF9171499B5B2178F40C82DDFE3D621806E4908E9696A72FFA65B2B2300113BA00F4BC5F8F4E0BF3624C3B26C831F1B7BD248572692B4CD7766E23C86D6C6220059AFC82D311328EC24872E757E0D882687C60CBF7D9233BBFFB849A4C879163E3652AB8631FF8CA0275CFE47A5D121513DE6035F8A00906DD97648F271953020360DA6D3EA96EEB2320B5E35FC978C1E03DE5042EC740C08390D307BFF0CA727A7D1CEB0C8C587719E5AA90CF30E33ED2A46E8B2AA61BAE21BB201FB857AFB62D84D921347C1FCC2461DCAB6 6D123C5D5B4ACFED84793EE753C50C802DC94ECA673A8C71F26B0BD7BC65D638443321AA439E415A2DDA2D3A738EA2C4D4ECFF1D4CA85ECFB67E34D6CED0E3AAC0C598A0459A1AF01D005005CDD516ACA457DF2B6FC86B4170D2DFEB1834D490B0D08ED3AAD10D06A9BFBF2C5AA47DABC141E62A73AEA947543C7EB95D16429CF0A1BF7E4619149B2B46A49A193DE5DE0704F830C045AE8F3880019F25F3DC2DBF29B15CBB01890A51FFD36D998F7AA425CE39734BFC5B9058F83147B4C633770C2A22583716C3B994147E6171E8B4945E6A31AA456ABA07F42ED291036EF9BCFEC9D51363B13814D9448B9D8CAD2A7E1CA9CDAB837C71B56A7997ABD1E5F8FC C2C3369B5ACBDA93967DC3B34FA6EC8E038B9D07F29F677D22FD0EF7CA90FF0EA0479F4A9DACC971E247FAB377311972BAD3DB9989FEC147F8EB2A0C2AE987BFCC1C55DB4D6FDB1612F2D33A99C69FC863EE5B5368CD721BD5C41CEFB9E9A28239EA746DA26CA860D68AC49086E0CD8CCC94FA3C6075320577ABA51F7E1F49DD4CB8D44A2F30DF171A545D53B0E86DBB2B997B94A370A43FC323DCC1841F8C8AEF86C9E0129E2F11C77E8A8F313F17E4CA936A37A6C5AD58F5800948974191D4C45E5B49B3EE1209EE33A8554CAB10FEB12C65F22058ED399B6CAF2AE4224CAE3E80E341F0C514F443B836C9886DABC7F37BF5B8B85E18C9A6678782D1764C3B 1C11E989A9C10FFAF08EFEA16F7BA6E7D0E63D3C2922AD33E430CFCA11FC94E5D96868946AACB06DBAAB92F32FE027CA64D0DC25461814557D16FF4B36BD557D12BFA7D53113A93433BBF17DD53F25344D8FBA70E0FB840DBF43850451EDA98A1D534911BE4E81CBB8D75A1AD1064439E8F48B6F32A0C64434815C436E0D6F755A1B05E90DF776A5C11EAAF3982D1090F0F39F24CCB8AA39FDFFD3973AA15D72D2B5F58775742F70FDFF9369F452BEF8D18B81895BD4DDF5B25B9FF3A433E571D2E9249D17C3DBAD45635FB2BE0EE5D2AA276F8ACAEA9EB9C0B7EC2490B0FAA37B151D3E69FA17A32D6410B10EC82E7D3C18C94EC73FB3DE8736E66139205E69 E7C072F8839C25CCC21B347A55DB9584F47AF0182D046084ECE4192982AFF3071713BD9FB6C23BA2D69479AE802DB2AF2CFE2B56DC2066733F7EB1A5BCD7D4383019ACBC76F0313B48F9C47CE928473178B42FEBDB4AAF68C93E857A6327BF0EEF759ACB013369921045992218740576AF76A81B39BD4F88F333D91870DBC4C42249A0D06501EAA68F5B2C5063C73A4764821F6C9F115F4606D820D4449906DE150230D8CE1C41D2CF8D90BD9E3ED77EDEA3F54D477EBA5CA77565CFD16640AFAE8B73ADC32772A48F1E80168CCEB9F29EE99B834AAFFD0AB46D3F38D435C72AA5E3AC55C94446C01D7A4AEF8495CB5A515EB60AC6512CB62398B06B0FB6C485 9EEC5ABDDBE6F708C3A3783236F1DD15CF9D70001FBAB99323959B9C2C3447D767CB37E887BA251A68480AA2C904FE20FCEF44800574DA805CD8BB668C1C238C06FD6B466FA3B8D350738BF4C43BEC958DD6BB0B506EB4EB61E28DC3E2F0CDF10405DF6EAF5A01188CF294AAF26013D7FFF12E7CDDC9498BAC6E13582DB3781E574E5604B5B6B08F42E3B6B197E4CEEE0835CF55532C397EBB69E6F39B7519B2D00F16075224C3456F433ED9FD552499FEE29FCB4FA4864B1D6C87DDE3DFE40A8B68AD1B45F90E659EB667242BEF10A8E8A259CE2C2AE743488D1F4882E3108E1927F9D08AD841108DB737F358A1785C339ECA140DCAEACD0F966F4AC89FAF6D 47D963F896C656DF3BE02E48C007B5E229262179A272961A02A31AD45A52EAF95CB671FA7DD9BC01FB0C1453790E5B465C0EC7B50AC382FE4397BD2FCF5562D3F390F987270549AA6C98BE6612222B68B50D3749EF882C30E08C4A53910F4D111CD1108B1E324566A9C913D47275E70C1436C6212B5B002974AE547C1B983C2913A203D0D75D2F3ABF2C2FB401A239931F3822B24C4EBFCA51F7D70D10A3622E8C3ED300AB740F1DC7A82E0073780D6FFC2C51EC15EC3A082A446BDA53677BAF6E1454B90B3D132DDAA9EECD561D1677416F5F8A18C4A5A3DCB960BA7BC1D0DF1338F130B60CEB71C2942262F5CA6F9180FC8F3FAC2FD04B9C01110DB4219A8F C76AC95D0E6CEE2852841FDD53579872AAE32D532F1ED8D32DFD86C71E46B7D660F4B60CFA1E9CD11C59AFCB6EA869155E57B4218671E0E28FF0D83161D8B31BBC72389FBCA8BBB55E4409F91CADE79F8F37F3B3F5BF4F0D9A06A6DFB9700D1481D3D680682CB6FC556ED7829B8D13F81A855467FEC31B45B3CC3BB237BE98B298089D12BC4CA0B816C854E84055600550272D549560D037D0B87BE3D02AB07D30D182229265A5F56782CC5BF2BB592EA1B93CE05DEE5AA3CBF4D7AA12E104C34D3E6FFAC482D4FEE7B8547AFA62732B0297676DDA4315AB6AE8739034858E6626CE940F45AF1348AD3C96AEBFDE8C6F808DDBD12517E43AD29A60F84C4BA1BF 62DB95D44F9EEE116F5851CCE478289C70BE41EA8F574E39F69611EFE0E24636BB9FFE45CC0D5A6C9E6C08933AF8F4F8039CB9F596EA9C9184F619A3339A0754C70DFCE58E260CB929B940EF10F1F165074243C53558A988E8DBD6874BBD8BB9D5D2481C2A12C2582688563BB33CFD07D6BB53F006F6E8A999828AFB28B65C46B7D851F61F61CD9AF3275C0310D1E84508A17B92FF75BCA9A38D3B8E8709E238A93B4DC96505DF64D931F72D07B2AFE33E387CBC15981824471DE605699284439ECD176065612CEE2226FECF87AA70E0A9FDAE0883B0B7104815F0D56A903E3CD5E5D8E656A23FD97571B42A9DFC2F2356ECB8E0FA50E465136B3A6A9C535D28 875A95AD9D65A864C7ADFAEDB4894CF36FF5BCA6BA976CACD1DB270FCFF214C6252EA4C55CB163FAB672C2B18B658A8AE4B81F6B6C0F48B841D8272C523182B0871F2038E77E4558577B621C99C6E4B34C0B44ABDAB30B27E72711FC0B2A10862E2FB49186D2753FA45075F58CD17046E79F7CE7D999BA93289B4F83AC6679D80A149E80BB8A14F5CEFC2BE361802D9C8AEE81223346FD0E48C489EDFA2D8565CA5CE835C7B020F8032150A2E6977B88735731958651FF24E71F3B5AD90F9A9352DF05A6F971414189FFA89EC8FCD1E707BAE1881DF6480A13EF83A0AFE1DECF1F25669F9B9E088A1E77F21FDBA9292D9928A49D07546B22A284D2A2362E9FF2 DD798FE2DD6F7ED896EF444C3572EF7771BD2DB1B916491C431BD7A6C207E283DF5677A3DA385C702E5889D485EC0AEA8F353478580F98B92620BAD6C4588C18133F481531268E4D2163905039A764E0206F8280707ED6A808E2437182368AC03A6BFDFA77DDCE39D57D4AA8643AD4DC1F9FAA434862E1438D9CFE4CDD7883F52A822764F8C7CE66EB6D9E373D1832DC5993BAF454B7308BDA721D1A4B484C9CB6F505193B85E0CF0068FB91D5A7F9A26A6F4C3EEBDD2EDBF8F0F98A74E80A3B86DB0D3CDCE72D1C3877F4D04A5581E1A897BA4B2BF355B3573A6D014A9A2C266AF62C669CF5B68B757C0F2376B57281BBE29EBB7C4B99B7944BF32FE361A1B9 3A99988E37C0CF9C52F2D02EF12A711148E2FD4A155C8EF2A78CBE36CE07392DF38006A7319A17CD926B8E31113A23F77A878ACE2561AB392FE9B53A3516B0C46E4C718D90A08FB459D30226D0FFC7950F8FD81339E2232782FD75015B6550E76F36122727FCCF18D6110897E968010BEACEE6FD07437A6D67AE00D68F2D3B35D0E8C54548AFB3A18D06B6D58C957AA063B074B2AA8D7918A5EC195BA8220B9247DF95DDA23B3B6511AF9B89773C4895BFEB9696014A1F93A62F97210C069012D4A24473FBD66489C156D5262890C8D66921FD98B8D816110E0B23D0349BDAFAC645FDEC5CD9445068EE0F0A375AE2F17EF5E084CAACD57057AA62AC10A76CFB 70E80A4A0CA59296AFA78703CF3C8CB792A295A2B5988E24EB4D7404C7E05D37EB419649CFA3A1F5E371F60C64694F491AB48B757040F84943ED6B9C686EBD19781984D5B5A0879AE5E2409E750575F137A9AC33D92B9C958D8230884C8CBC236E718441C9A95E0A87E263065D4DFDA4ED51D78A582C6244C19C73D3224345B346F7101604755BD8D74828D0C99588C88A98CD8F193290F1D69EFD27E76DC9F1B345C0EC00486910CD8535ABBEF376D405AFABC6794A9E303DA32863FED8B157F703F2FD304FE08BD85048F9D1F74C60EEA6F46DC0EFF28DC76F70A7CDEFCAC9EA5DD1518266759020492AE03284D40B6AED51614C13E9056B104A76E199CEF4 514E9487B0289A5EC131FF8FC828258D494AAD4EB0E17081F6833E5507CEA18845C56FC522AD88777EAA43B931E1364EC5C3AA02A0D9A3DAAA94F7594AFEBA27608274FD940DF996077AEF36C8811319378EEFF851E23E6532A7506711A959A5989CCCF03750C10A0A99377B81BF72DAB55102AFE1AC7A8F107C879DDC348EBA31D31D5F1C87C50F5E2544A5069D32EA5EF0FD401BC5915B02E8853A76D6B260F95FF20DB779B1C8535905C3DCA7BE444CA7EDC3F143A7F9629FE805E3CDEF361D4D21F5FF4B8918DB5CCAA2E3F77549002438103E22E9376DDC1B33BA36B0C6E4EEFE2F40FD59D0B5D6F3B58C22CA7C91AC0A2DC30A88B13FD979A417A1C128 AD3982B20DD5C70BB97656C893D9B3450EB6F2A3EB04DD1455091BA4A9CAE9EADFB9A7CAE5A84FA831DC4F8FF5AF7BB6AE47D5FBAD99F79B3D59F2B396D93D9B5AB2828EE920A2D489CB53E6256CA3F09D05F5147DB772156B22095756103A2F71835C234079AEA99CF272C0BBA88A34CA99847D1CF7458ACD92180E0E02F1E428414162AC905008C3D0087A023CB0BD0A47610A04E305B30420F53C991ED73972AFC80AF7A9E9A2B6E808B1CED99E7C52F531F177222DDA423BA424C8EA12C3DD549F921D6A5CD6EB3D324A9C27CE8D0D40BA6119F574CB592E6FAE179B36ED7D378CF833ECF39EB4B36F5A19B744D0310F1AC25968D35B343830C9DD214147 5D6D5C01DEFC647EAD028A76753C2DE8C069959275C19DC8C661313C2E40C5BDB7DC2984663D2F37F996ED2C8FEB204D36AEC2C9B0009C8E86AC0575F749BEA3D6EF95A0FB7B32988F3569E8B26B4FABA0C79304EC9705BC768D6C22A73A223E5F143833BF4759879738E85CBE983677682F47518354902CDC85F48E6852093BD64A847986C148ADF74D0457D3557BC3DFD415218ED9051921BFF4C3B1DFD62083084B7D31CC9DA6C838AFC186564A3B67211397F74C8365CE7C0766F327A62B8C2CF3FF565DA1A0F6A40E4FB179B5DCF315726539FABB252B92671C81771D6E9D3CAAF557C97BAA9B3D483A15C06B11417E5EFE103FC28AFE857356BCC52260 8BF78E1B63D00267E3AC4B62176A5A58084C808E1CC75AC83F43B5116BC3DCE78E7BAEB600AAF558003BE84DB3BAC44F5699214DA1D5C015A40D924103B8C5F5E32439F92305C5E5CE264D531505C679B4A89A370882DE0ABD6F3B4A700E192C157CA9EBE1450E9F12C454B89AEC8C6337D2A31A9B59D2629A760DCDB920495DB12D3A446E3AFE0A4B63B55D4930400A79C4BB5F261C339C937BC11F42DC85C6D9DC690DC1B38C4709C5B1C7036F9EB2BD0A7D04C545D7C0D1FA723908564BD2818F7CEAB2611DE032145D9211E62C90D353C6EB191ED1B41D86FA2BB9A4FE410B22BF3ED68FAE3A842C48F29928C3CFAE8D184B27D0904D0D863E04876D260C 5E2CE141DF95B500A8CDD3F2BF763043FCF437C2D406E2DC129955B48AF18F016D89507A96EF14316349F7C3D8256265C70B76504019FCFF552C8F3F422B79FFB8FD7D858993818A1EAC351A0E609B6EC67BF7DBEAD50C870F37E81461994C3B83E80CD033AC79566197BC8E9B17DF6F09B3C01B7101637AFC335446754D6E557974539E1F1EA6BC45995E78EB312A505CD13F897ECA387EEACA64BF5456EE5A762BD3D0FC9EF83C9308503E68E341C5890DAB4511ACDFB125C7318A5C5C8B6A28EC529E9A995504006FE08D5DF14FF7F3D957A92AB31FE1CD23777655987282CF35E172064782BFA3720B192DB108781389A773385CC1ADB8B76276FDE0C8AD 7D8C88AC338056662AE6FB435972FE74EB932E442784534B302E6D03C8899E453AC2C40339FE2054357C7922F8707BC6AE73E7977B45C9B07B2C5A503509DFA367F5ED87CADB9E31892F88176735F1C03D59DBA41D8A74DF6260A3DDF0F48759A60CCDB3DB08CA5D88C8B0F7F32B5C68214BB73F14F000253E7D70546BDE248DF6AF0B0998CFE1D49D63550537B45BAACBE87449E3B655DA69BABA6DBD596115BBB1C403367BF986ECDE6E3CED9BC3A7E4CFA8D628610DA7DA2949CA2F8FF05C0558EE5A4E9C931E3205B669B746C7F16B035C50AC60A8D4B16396EFC0C94DFD344795E51D7750B65B420DBC170C5E225C3F94B74CAB7D6AB3A96BFEB0A88264 520EC9C4E7C9321EAFBB5F71CC23204732B12DD055E36C3011C64DA9C909BD899087633C76C0A7EE87E0BF48F8DFE579C02CFAD69A8351058663F9C370FB9DC0B30627B12CC9B9E5DF185D1A371D6C2A3E28DB62E509CDF082A1648ED605F1ED85D0AC37F0C3A3A337354C4E5F6E3CC736C093B99B0153C797BFD19A5B1ACC4D33BC59CFED72109708A694933C21C7E9C9D9564EC369E501E8AA807250319ECD0512FB4BA165C28B427BEEFE8CA0229F328ABDE981453CEEEA2BC7DA217A3EF1D666DE3A48CC67C1619FBED66A9D83B9594994A74785E98584B49FAD5E3A6FDFF830C6299CF0EBDE656E554D99C5EC61464B28945E989EC4975721CB596AB5CE F3DBBC8DCEA9B2FBB9C7D03FBED5E8A15B8ABDEB6B8A0EFF9AA8BEDCC70D2FD50B411F20C40A6CCB4F54EAD6729FCDB61C74EF83BCD81488EF2B25F23E8F53DE13860FF2CE2A742B0A76902B927192BF38270C2CC16FB39AE20FEE1A23C907EABE5B9436FBD93DAAB61BD45F73EECE007189B4B3D22245269F2BA825CB1877E266249560ED9DFD26DDE23EE9AE17503F6F3548C23D21D10C051E455569E346AC25D612E9CC3A1951E6C93697B722425E65201D0955A2A65DF820C1E6515A9BF975395A4BEB683910CC10516213F8054F44519118D9E35137450082AF600082076E70278A9F28C241AF9908666817AC35A53793DD7506AA201B1FEB59AE944B1D 4B498B3EE383FE029FF6B641C1592C017DD0A4A110F041A625D4CF3CC5C5F9A8E2020C4FD6566AC69B4C6B9A652371F3C5AC19A8044F0B53EEBD16C499FAB593583C2EA9BF860825D5739774CDE7C2B23000CB1B2B9A41AD4702EC32F399A6579C0B9002C323ACBF6885BDB3F35A2C04700F01D25F8297B988700D7335BEF4EA94A353AB794C7DEB8C4B9DB09236B02EC53E408A355D26889A74899E59F7B231D462663F6E5917EEC3C284373D3F69B4F9D361CFE2086E4FB4B9C3D3E1D4A55BEDEC0C74E57199FFE72A46F69C6E64AC42D169A17458DE6E9E1E9BD2C66CC5BCFFA3BCD10E63BED9E96636BE153EFA80D4C7C67D053A35FBA5233D187472C387 4DC5A4BCAB66C12764CA4E481450AE7EE0621A3B3B25A4E711BFF46B15BB8B6DBF8109A8BCD6A3712B8541FA2984694144FC9D129C69E25682129CBD8BB84444DA8B69ADFE3537BC3CD7F3DBC377F1DC2B93D5522B8B9C05FD69473944B94D33E93B45D0AA3434BEAD2A442B7DCE82C0AEABA0FBDBECAD59B038D9F1F453EBE7F1EB3FFF5E9D25432928B14886B244EC31E38D35A714C2FAEEE4CFF235E934C77B47C53254F125EF88C5AC1E847603FB1BDD32D34D36E40E1CB1601C1F85C14075D6464B5FD9F04C671D8531123DE91A516175B53CC3788791EF1B2012A42BA3B68CB155DC03BC0427A4FD78DF6548124219C5926D1B6D089FFE46273F208FC7 73B81CC5D2978401FEED10C5C2EFAF8B5A5C3EBB04C91D8825B5A9DAF66ECA24F1D8FCC1C3195D16F2B2075CF2772C9A1E51EAF16FA4161436C2F11C8339B1F966DD39D21D80AAEE5DAA4DBA3CA3FED1CDD764334C071B0CE1355E60A6D7A2A0D1009C97E667B003CB88A5BE2E3666F13AFBDF641A9832CFBB69A5BDC17254DEE1B5BF764D7915B533F2CBF93128DF85F62FA852B13EEB8EEE1965A4B9AC695DB56B939EA7A144A81C0049AC7ABA63B756CB4CB22083E430E3A79815CFF586E4CA4E79596F3FC200AA169E64BE7D6EB22C61A206809633B822AC72E14EEF041FA9559B251A11D02C44FD849AD75F2C74A631186F31BE6D51A9E142E2DFC0328F 7EEB3881F28A6E9BD68EE78A876FBEAB46E26272B55CACA032DC89918033A4E7A8736F33AF1C8B000B120021DB6506029736BABDCA84159419FA0C1E0A23A5A2A1213CA24DFA201EB76251D0D1C2F2EFE344E534E372563C321CFE69105A9223F0A17252D296F6F2F3D3409C42A5A7AAF4BEB7EC5516D65908B1D0E5CE50B5A8193E4F1B40F2B7BBA414EC0EAFA3F37183DB327EE8C50B7EB2EE8373FEF7E6F1ABE3F695BC28146E0A689D6046ED866439DC658BFFB911852CDFC17B9ED7BB398CA351DC6FB2DF8A40AE7ECDCF8DA99D980384A59DD85CE7A6292C1B3F8891B6B1A433D0C0D2887BF5FAF7BD2E3E9118091D4FC9AA36153043E6F86A249524D1 18E1CF34A54FF281BB3231962E56130096E71E4B95A3B01F5405EB4703CE3252A02049E1203398A694828B5AF01BA85CA4F33DDE3F32702D16FAFCE162EABCCD23D83F138E31F6517C3D4A501935AF7D13217DEDD11FE331086304298D2AE16BFE692B87FAC1783646A00B69FE25F1749221F51DE9191A2FDE3828EFC527D1B98A7B06E11B5982FD58429185217047C28707973738212D358351679CA113509E92788A48237E7DBD38BCFE3EDC4CFD9319AFEBBA356AD40633B477F8CF016524A32D21310CA2D46029E3872CA53F459CB7D286EC2FE619DBD1921080D5286CF8A83581A38E53E74EB345CF3F66610846125275451E4934639012451CB8E4287E 5FBFEB1CD65C8ABF6D655EF09F6BA52864CE3EBB83C72EA2D66058C549F2108DF38886C36AB882DBC530D10E620D49819315C4D02D8C3FE017894ABE0847FB5F75E0164EB62DAB28A34A46C894AC959D1D36063A8BE9CF067DBEDA475E33032391F7A71F871ACA0DF8F31AC239D08BD1726451B384C8A9E20FB9E546F7075547108ED8D5101F4CBA34A2404306A516B90DE196C068A9DFE4F59454ACBA7D22B079EE87BE8B135062FE97711344D4ABC12495B4ECBB9873B4F34E10CA1B45F7A9015208AB46173DA219FABCB0BEB671C079D1BCD7E66291D178BA65B74CDA674E0E53F5CFE6057C8F8EC8C0CBFAD3CF5C7957F9E98A87A7F0B56D284CE5A88C2E 6FFE9A43742DBC3C05C3C6C44F84CE20BB2A23D2793944140356852E2F58B8FB142856C699AF2B61CAC5B817B5B079215FC67D8D221CEC839C9E6853DF3FEBBADFFA2C822C8DDA5C00133473164CAFA67AC8FD698D8F7DB075A1E3EB23C02618AA3C5A110A3CBFDCF8F4D73A6FE81F426F13805A503A49F147CB28FA2AC0349CBC94AF1D0F8A88B40797D9EBC42909540268E76906F9307A93FDAAC0C3C38B5EB26E55F61454682D773E464173460C885DF7FB4BD9C9D43A9E1009A04127C7DB347D362927075A5DBD8D9AEAA32101FE7EE2183350AFCC1466160E21FB23D6DA2F66A7B70BB184F6A9D23701FB4E4B03ED1CF26FFAB8D738E3DBFE13B1ED162F 521494E781689EC0C3A0C7C2764D1E26EEF25AD83E22C2EA6EC26E1DB93E392E21FFB24E8A89AA47387948AEF3B0A3AFD663529F1EACB0D87BF8E1B4A34EE4FEDE90259DC6794F488C93905A100D344AE943804275ED3BEFB9AC54628E032D7E7D69A69DE055221F8EC5C20A43EBA779C7705FE43ED74C9A04D8649311304673D057B1BAC5070F2D0A44FFBC99AD2B3F85F71860671E05A96C9E956171121E03A1288664A04D66D949A4C6AF8626C1528D48C0EC1F85737440A263EE0A53C8AD5E53FBFB0346144FCD3E29A07E37EDDB6B29AC9955C9A497FA9A59074E8377523E49A1B009F53A915B4137ED2BE0A3D2D13DA5F83CFFBD4FD67EAFD4AC2266E5 