CE12448EAD6226011B750ADE6EC4250D3E5A3DA51352AC23E7AE06F3A1CC26E3BFC5D6D3240FBD519BA0AA099518ABD39C7D13C20B3434B828A8B8297E2B8ADDE5D71E3A31128B040DC82F3E08CA2A9E84FBFFE6D8468B3F293B5F98819316CE5FC85F9093F1EC29620BF98A1E8D843AE3227C63253A177ABE5EB82D7CAB1122118869330B53E8CF4BFE126970D7BC7E950D9DC71D178CA2F846F753E19B7BD230031652804B264BA6FF68E13F8620E13AD3154C7165CBAF43FD29EF406B93C9CBD77A3C225901E1264A0880C0D2E0CDE560B3D7B5E88F86FC85922FA577DFB846A1B1EC86B977012785EBE75011131B87E825380CAAE75370F818D45C3F85F6