 6FBEEF8652B046DB2010B4ACBF6136D441FCFC695DE3A5D211F32B1B684620B1415F7C5C159CA4B3C16C68A81CCDAFD5C23ADABA0DA5855F9C336578004878B25A47EAA8A9ED71EBA7B2D84F92129EAA4266429695FB6BE0B900814951D1910E23ED04383E9FC75D9E5815BED2BDDAC5C6B407D6D4D159BA93E61A1B6F3A25471D12D63703FFF4AA217819695CF34C77FF44D1D6AC2D0ABDD92626D0E617E09CCD1D72A0F1AB7EE85CC4327EC71FA90BD8BB53813AEF5112CFC2E875AB6052D880A665BDF2D6CBC81A905A12B8FD883432213BCBEC149A4BEFA386EB4EB91F325EAC6835590DE8F04DAD8BE56F4BB1D60EAC7D99CF0286DCFBCFD81CBC48A7E0